<unk>	0
<s>	0
</s>	0
.	-3.04133
▁the	-3.0818
,	-3.23649
▁of	-3.69943
▁	-3.7206
▁and	-3.87839
▁in	-3.92851
▁to	-4.0813
▁a	-4.11961
▁is	-4.40072
0	-4.41309
s	-4.41453
1	-4.42986
▁The	-4.6886
2	-4.76065
▁was	-4.85006
▁for	-5.07439
9	-5.12751
-	-5.20195
▁on	-5.25747
▁with	-5.25894
'	-5.26321
▁by	-5.26539
▁as	-5.34123
▁are	-5.34728
▁that	-5.39786
ing	-5.46949
▁from	-5.54896
ed	-5.63329
5	-5.66325
8	-5.74289
▁at	-5.75608
3	-5.77519
▁or	-5.81878
7	-5.83046
4	-5.84279
▁In	-5.84507
6	-5.85542
▁be	-5.86508
▁his	-5.86709
▁It	-5.87249
▁you	-5.89765
▁it	-5.90564
▁an	-5.91304
▁has	-5.98855
▁also	-6.01188
▁have	-6.01527
▁were	-6.11255
▁He	-6.13701
▁which	-6.21907
▁(	-6.236
▁India	-6.25499
▁not	-6.2623
▁can	-6.26605
▁he	-6.26791
▁I	-6.2685
▁this	-6.3282
▁A	-6.39063
▁their	-6.411
▁one	-6.48952
▁first	-6.5119
▁had	-6.52985
▁your	-6.53089
▁been	-6.5738
▁"	-6.58148
▁who	-6.59242
▁people	-6.64703
d	-6.65694
)	-6.66456
▁but	-6.66609
▁This	-6.67817
▁other	-6.69125
▁they	-6.70478
ly	-6.7431
▁film	-6.79652
▁after	-6.7981
▁state	-6.80284
▁her	-6.80638
▁its	-6.81003
▁when	-6.81606
y	-6.82475
▁two	-6.83046
▁more	-6.85295
▁Indian	-6.86348
▁time	-6.86717
▁will	-6.88444
▁into	-6.88573
▁about	-6.89769
▁may	-6.9125
t	-6.92368
▁all	-6.94438
▁most	-6.94969
e	-6.9544
"	-6.96582
▁over	-6.96591
▁used	-6.98925
th	-7.00033
▁many	-7.02622
▁up	-7.04662
▁out	-7.08616
▁during	-7.09631
▁some	-7.10068
▁such	-7.13768
▁made	-7.1523
:	-7.15335
▁him	-7.16565
▁than	-7.18783
▁only	-7.1959
▁known	-7.20577
a	-7.21791
▁there	-7.23945
al	-7.25092
▁city	-7.25307
▁them	-7.26316
▁They	-7.27317
▁called	-7.29267
▁There	-7.30642
▁She	-7.30721
▁team	-7.3121
▁United	-7.32268
▁years	-7.32588
▁between	-7.32993
n	-7.34209
m	-7.3725
▁where	-7.38305
▁day	-7.39391
▁she	-7.39758
▁played	-7.40968
▁like	-7.42394
▁if	-7.43078
▁part	-7.43324
▁through	-7.44459
▁these	-7.44492
▁year	-7.45572
▁so	-7.46185
▁If	-7.46356
▁three	-7.46515
▁include	-7.47489
▁game	-7.4773
▁under	-7.48565
▁States	-7.49761
▁new	-7.49967
▁became	-7.50187
▁would	-7.52346
▁make	-7.52957
▁use	-7.5352
▁then	-7.54107
▁before	-7.57601
i	-7.57647
▁being	-7.58328
▁well	-7.59624
▁However	-7.59823
▁died	-7.60893
▁while	-7.61083
▁area	-7.6111
▁any	-7.62384
▁get	-7.63259
▁each	-7.6362
▁my	-7.64192
▁After	-7.64241
▁no	-7.64991
▁around	-7.66028
▁won	-7.66073
▁both	-7.67016
▁very	-7.68038
▁On	-7.68106
▁number	-7.68183
▁often	-7.68352
;	-7.68489
▁found	-7.69417
▁century	-7.69674
▁against	-7.69932
▁world	-7.70317
▁different	-7.7038
▁As	-7.70683
▁later	-7.71482
▁district	-7.7183
’	-7.71851
▁because	-7.72156
▁British	-7.73025
▁S	-7.73346
▁take	-7.73742
▁until	-7.74113
▁second	-7.74148
▁near	-7.74351
▁water	-7.75231
▁do	-7.75623
▁several	-7.75827
▁money	-7.77363
▁World	-7.78087
▁including	-7.80005
▁river	-7.8027
▁name	-7.8058
▁last	-7.82236
–	-7.83334
▁music	-7.83746
▁place	-7.83897
▁company	-7.84071
▁major	-7.84512
▁released	-7.84619
▁These	-7.85224
▁family	-7.85536
▁work	-7.86735
▁since	-7.87126
▁region	-7.87197
▁back	-7.8733
▁said	-7.87431
▁play	-7.87656
▁same	-7.87667
▁government	-7.89202
▁You	-7.89862
▁National	-7.89867
▁form	-7.8987
).	-7.904
▁Tamil	-7.90463
▁For	-7.90716
▁B	-7.90742
▁did	-7.91686
%	-7.91938
▁temple	-7.91983
▁Some	-7.92209
▁home	-7.92358
▁much	-7.92457
▁four	-7.92908
▁early	-7.92949
▁usually	-7.93353
▁Delhi	-7.94158
▁New	-7.94265
▁high	-7.94275
▁could	-7.94693
▁age	-7.94984
▁important	-7.95139
▁along	-7.95236
▁million	-7.95456
▁located	-7.96993
▁system	-7.97959
▁help	-7.98051
re	-7.98066
▁long	-7.98095
▁popular	-7.98367
▁large	-7.98848
▁what	-7.98889
▁started	-7.98951
▁period	-7.99142
▁Hindu	-7.9937
▁down	-8.00478
▁held	-8.00901
▁national	-8.01333
▁now	-8.01954
▁sport	-8.02026
▁town	-8.03296
▁When	-8.03342
o	-8.03643
▁how	-8.0389
▁small	-8.04092
▁life	-8.04174
▁due	-8.04505
▁common	-8.05104
▁players	-8.05371
▁me	-8.05372
▁set	-8.05951
▁days	-8.06172
▁women	-8.07014
▁should	-8.07307
".	-8.08299
▁way	-8.08308
▁country	-8.08414
▁At	-8.08458
ic	-8.08789
▁end	-8.09054
),	-8.09819
▁His	-8.099
▁death	-8.10071
▁C	-8.1076
▁person	-8.10934
er	-8.1129
▁every	-8.11844
▁main	-8.12313
▁South	-8.13057
▁five	-8.13814
▁festival	-8.14197
▁ball	-8.1429
▁Pradesh	-8.14937
▁left	-8.15417
ve	-8.16272
▁another	-8.16296
▁son	-8.16749
▁population	-8.16793
▁need	-8.16939
▁go	-8.16952
▁born	-8.17314
ok	-8.17324
able	-8.17341
r	-8.17874
!	-8.17905
▁based	-8.18368
▁countries	-8.18446
▁those	-8.19076
▁began	-8.19711
▁Dur	-8.19752
▁good	-8.19819
▁see	-8.20367
▁few	-8.20619
▁among	-8.20647
▁games	-8.21211
▁River	-8.21557
▁even	-8.21737
▁find	-8.21937
▁season	-8.2203
▁power	-8.22505
▁village	-8.22544
▁children	-8.22909
▁named	-8.23173
▁built	-8.23443
st	-8.23605
▁movie	-8.24008
▁body	-8.25372
▁According	-8.25529
▁best	-8.25756
▁still	-8.26205
▁areas	-8.2629
▁without	-8.26321
▁disease	-8.26353
▁just	-8.26503
▁January	-8.2657
▁km	-8.26761
▁own	-8.26926
▁American	-8.27317
▁March	-8.27453
▁player	-8.27514
▁off	-8.27621
▁per	-8.28427
▁become	-8.28769
on	-8.28848
▁Singh	-8.29074
▁local	-8.29252
▁role	-8.29289
▁group	-8.29302
▁within	-8.30105
▁largest	-8.30399
▁total	-8.30417
▁Many	-8.30768
▁T	-8.31144
▁next	-8.31545
▁North	-8.31615
▁Bengal	-8.31827
▁example	-8.32136
▁language	-8.32241
▁Jain	-8.32725
▁court	-8.32907
▁men	-8.32934
▁goal	-8.3303
▁want	-8.33587
▁event	-8.3363
▁May	-8.34518
▁great	-8.34519
▁states	-8.34675
▁E	-8.35174
an	-8.35574
▁came	-8.36132
▁parts	-8.36488
▁went	-8.36558
▁One	-8.36894
?	-8.37087
▁might	-8.37272
▁father	-8.37806
▁times	-8.37892
▁capital	-8.38285
▁un	-8.38437
▁Most	-8.38591
▁result	-8.38702
▁Khan	-8.39368
▁using	-8.39421
▁received	-8.39544
▁considered	-8.39774
▁December	-8.39907
▁M	-8.39937
▁public	-8.40295
▁football	-8.40296
▁match	-8.41496
▁food	-8.41815
▁November	-8.41842
▁University	-8.42192
es	-8.42846
ll	-8.4336
▁Kerala	-8.43816
▁April	-8.4386
▁films	-8.4391
▁Mughal	-8.43999
▁'	-8.44126
▁given	-8.44446
▁cases	-8.44545
in	-8.44568
▁again	-8.44967
▁various	-8.44986
▁give	-8.45124
▁making	-8.45178
▁September	-8.45247
/	-8.45253
▁line	-8.45398
▁does	-8.45783
▁created	-8.46332
▁head	-8.464
▁An	-8.46505
▁October	-8.46695
▁June	-8.46697
▁business	-8.46796
▁side	-8.46962
▁D	-8.4723
▁International	-8.47361
▁month	-8.47758
▁cause	-8.47826
▁international	-8.47959
l	-8.4807
▁put	-8.4825
▁away	-8.48363
▁house	-8.49503
▁fort	-8.49577
▁order	-8.49634
▁P	-8.49785
▁married	-8.49977
est	-8.50014
▁means	-8.50084
▁service	-8.50113
▁series	-8.50198
▁West	-8.50232
▁third	-8.50625
▁top	-8.50852
▁established	-8.51218
▁control	-8.51378
▁$	-8.51865
▁English	-8.51949
▁reported	-8.52045
▁highest	-8.52277
▁led	-8.52362
▁Shah	-8.52566
▁police	-8.52769
▁south	-8.53171
▁school	-8.53205
▁August	-8.53577
▁lead	-8.53603
▁caused	-8.54056
▁less	-8.54247
▁Nadu	-8.54325
▁dance	-8.54475
▁following	-8.5451
▁rules	-8.55177
▁teams	-8.55288
▁similar	-8.55344
▁six	-8.5543
▁East	-8.55475
▁must	-8.55677
▁show	-8.56103
▁members	-8.56155
▁am	-8.56425
▁Hindi	-8.56643
▁don	-8.5666
▁League	-8.56685
▁scored	-8.56687
▁killed	-8.56729
▁lost	-8.57277
▁February	-8.5732
▁written	-8.57348
▁level	-8.5745
▁history	-8.5773
gave	-8.57814
▁County	-8.57956
▁present	-8.58057
▁across	-8.58221
▁north	-8.58395
▁car	-8.5856
▁start	-8.59008
▁Games	-8.5914
▁member	-8.59422
▁R	-8.5951
▁support	-8.59708
▁low	-8.6046
▁able	-8.60948
▁right	-8.6107
▁England	-8.6148
▁information	-8.61954
▁July	-8.61988
▁Empire	-8.62431
▁pay	-8.62458
▁late	-8.62537
▁half	-8.62722
▁events	-8.62819
▁others	-8.62902
▁U	-8.63254
▁non	-8.63451
▁king	-8.63488
▁old	-8.63672
▁traditional	-8.64081
▁list	-8.64188
▁All	-8.64302
▁war	-8.64382
▁Sweden	-8.64626
▁store	-8.64812
▁case	-8.64962
▁ancient	-8.65379
▁modern	-8.65399
▁celebrated	-8.6542
▁rule	-8.65589
▁sports	-8.65612
▁Other	-8.66972
having	-8.67031
▁blood	-8.67399
▁point	-8.68054
▁army	-8.68435
▁term	-8.68504
▁seen	-8.68505
▁full	-8.68608
▁community	-8.68652
▁however	-8.68666
▁famous	-8.68972
▁especially	-8.69002
▁real	-8.69005
▁special	-8.69139
▁playing	-8.69173
▁months	-8.69614
▁II	-8.69789
▁By	-8.69928
▁available	-8.69961
▁War	-8.70825
▁State	-8.70895
▁treatment	-8.71425
▁consist	-8.71526
▁club	-8.71977
▁amount	-8.72291
▁With	-8.72336
▁run	-8.72445
▁temples	-8.72575
▁minutes	-8.72755
▁short	-8.72765
▁taken	-8.72794
▁Kumar	-8.72956
▁Whil	-8.73155
▁risk	-8.73206
▁de	-8.73967
▁free	-8.7399
▁financial	-8.74096
▁know	-8.7414
▁come	-8.74472
▁type	-8.74999
▁People	-8.75036
▁re	-8.75077
▁But	-8.75422
▁Western	-8.75585
▁general	-8.75738
▁land	-8.75774
▁Punjab	-8.76334
▁Cup	-8.76609
en	-8.76827
▁story	-8.76949
▁rate	-8.77276
▁song	-8.7742
▁performance	-8.77459
▁dynasty	-8.77505
▁office	-8.77518
▁together	-8.77523
▁account	-8.77573
▁items	-8.77583
▁too	-8.77692
▁Chinese	-8.77825
▁founded	-8.78003
▁Temple	-8.78008
▁rock	-8.78218
▁To	-8.78542
▁Australia	-8.78577
▁F	-8.78706
▁developed	-8.78869
▁site	-8.78927
▁living	-8.78956
▁associated	-8.78974
▁former	-8.79073
▁field	-8.79114
▁included	-8.7921
▁open	-8.79243
▁interest	-8.7932
▁forms	-8.7958
▁political	-8.80002
▁night	-8.80109
▁career	-8.80617
▁Asia	-8.80726
▁southern	-8.80937
▁man	-8.81051
▁release	-8.81397
▁rivers	-8.81576
▁moved	-8.81898
▁things	-8.82099
▁official	-8.821
▁seven	-8.82147
▁directed	-8.82276
▁young	-8.82456
▁social	-8.82474
▁either	-8.82576
▁thought	-8.82674
▁our	-8.82793
▁human	-8.82804
h	-8.82815
▁b	-8.83064
▁online	-8.83189
▁mother	-8.83298
Since	-8.83658
▁Olympic	-8.83882
▁US	-8.83929
▁change	-8.84082
▁cities	-8.84175
▁Pakistan	-8.84222
▁we	-8.84353
▁London	-8.84474
▁further	-8.84604
▁followed	-8.84665
▁bank	-8.84737
▁Award	-8.85055
▁K	-8.851
▁Muslim	-8.85237
▁live	-8.85255
▁sure	-8.85263
▁going	-8.85366
▁record	-8.85543
▁done	-8.85557
▁final	-8.85594
▁least	-8.85685
▁military	-8.85758
▁development	-8.85773
▁performed	-8.85856
▁symptoms	-8.86117
▁Fort	-8.86135
▁China	-8.86361
▁keep	-8.86471
▁style	-8.86535
▁hit	-8.86643
▁formed	-8.86664
▁President	-8.86671
u	-8.86979
▁got	-8.87075
▁possible	-8.87241
▁produced	-8.87451
▁wife	-8.8754
▁makes	-8.87759
▁King	-8.87789
▁addition	-8.88114
▁northern	-8.88154
▁week	-8.88823
▁-	-8.8888
▁believed	-8.88909
▁today	-8.89066
▁species	-8.89103
or	-8.89228
▁score	-8.893
▁Gujarat	-8.89342
▁announced	-8.89423
▁religious	-8.8952
▁shot	-8.8955
▁CE	-8.89582
▁certain	-8.89622
▁City	-8.89779
most	-8.89891
▁love	-8.90156
▁Japan	-8.90357
▁sent	-8.90412
▁V	-8.90446
▁cancer	-8.90774
▁sometimes	-8.9079
▁defeated	-8.908
▁art	-8.9098
▁hand	-8.91015
▁Minister	-8.91083
▁Maharashtra	-8.91356
▁songs	-8.91957
▁problems	-8.9197
▁shopping	-8.91986
▁served	-8.92039
▁never	-8.92292
▁hours	-8.92513
▁station	-8.92745
S	-8.92991
▁child	-8.93026
▁range	-8.93373
▁Congress	-8.93598
▁Canada	-8.93646
C	-8.93658
▁lake	-8.93759
▁once	-8.9376
▁wear	-8.93874
▁average	-8.93926
▁throughout	-8.94286
▁higher	-8.94341
▁close	-8.94386
▁better	-8.94934
▁trade	-8.94944
▁services	-8.95124
ar	-8.95285
typically	-8.95345
▁Mumbai	-8.95359
▁health	-8.9543
▁mostly	-8.9544
▁though	-8.95518
▁G	-8.95717
▁always	-8.96014
▁feel	-8.96027
us	-8.96271
▁provide	-8.96289
▁introduced	-8.96334
▁central	-8.96433
▁computer	-8.96447
▁lower	-8.96697
▁generally	-8.96764
▁composed	-8.96972
▁Gandhi	-8.97268
▁look	-8.9745
▁Asian	-8.97578
▁single	-8.97812
▁Iowa	-8.97979
▁title	-8.9802
▁director	-8.98096
▁professional	-8.98172
▁companies	-8.98323
▁likely	-8.98522
▁goals	-8.98542
▁places	-8.9861
▁Europe	-8.98643
▁television	-8.98674
▁daughter	-8.98865
▁debut	-8.98922
▁N	-8.99165
▁win	-8.99701
▁towards	-8.99994
▁types	-9.00194
▁tradition	-9.00213
▁lot	-9.00253
▁competition	-9.0028
▁offer	-9.00367
▁income	-9.0037
▁himself	-9.00418
day	-9.00477
▁skin	-9.00845
▁Ali	-9.00845
▁specific	-9.0091
▁road	-9.01163
▁groups	-9.01437
▁hard	-9.01486
▁saw	-9.01547
▁continued	-9.01579
▁tournament	-9.01716
▁stars	-9.01716
▁Fro	-9.01957
▁appeared	-9.02034
▁party	-9.0205
▁believe	-9.02264
▁arts	-9.02489
▁municipality	-9.02557
▁gold	-9.02561
▁Germany	-9.02632
▁Association	-9.02796
▁tell	-9.02865
▁western	-9.0308
▁schools	-9.03109
▁District	-9.03155
▁Film	-9.03178
▁significant	-9.03529
▁item	-9.03596
▁above	-9.03675
."	-9.03713
▁culture	-9.03951
▁although	-9.0404
ir	-9.04247
▁stores	-9.04325
▁center	-9.04339
▁mainly	-9.04345
▁European	-9.04412
▁H	-9.04527
▁date	-9.04921
▁features	-9.04988
▁forces	-9.05006
▁French	-9.05157
▁current	-9.05305
▁York	-9.05446
▁past	-9.05562
▁receive	-9.05703
▁spread	-9.05715
▁ask	-9.05724
▁works	-9.05753
▁instead	-9.05882
the	-9.0591
▁virus	-9.05921
▁east	-9.06017
▁empire	-9.06143
▁Championship	-9.06153
▁according	-9.06166
▁Government	-9.06232
▁version	-9.06587
ach	-9.06707
▁idea	-9.0674
▁successful	-9.06878
▁Day	-9.06889
▁worked	-9.06982
▁outside	-9.07019
▁contact	-9.07165
ers	-9.07497
▁return	-9.07642
▁word	-9.07712
▁eye	-9.07716
▁box	-9.07773
▁kingdom	-9.08061
ary	-9.08073
▁position	-9.08085
▁here	-9.08137
▁comes	-9.08264
▁products	-9.08269
▁original	-9.08299
▁joined	-9.08432
▁little	-9.08495
▁taking	-9.08537
▁leading	-9.08573
year	-9.08749
▁process	-9.08809
▁attack	-9.08821
▁actor	-9.08953
▁particularly	-9.08969
▁France	-9.09164
▁working	-9.09209
▁Krishna	-9.09337
▁languages	-9.09536
▁Olympics	-9.09644
▁industry	-9.09649
▁evidence	-9.09649
▁shows	-9.0975
▁eastern	-9.09887
▁Park	-9.09962
▁already	-9.10036
▁video	-9.10401
to	-9.10403
▁infection	-9.10448
▁feet	-9.10508
▁eight	-9.10753
▁Central	-9.10832
▁market	-9.11249
se	-9.11333
▁Best	-9.11389
▁points	-9.11475
▁brother	-9.11725
▁reign	-9.11971
▁project	-9.1198
▁reach	-9.12068
te	-9.12132
▁increased	-9.12554
▁runs	-9.12587
▁ten	-9.12597
▁front	-9.12865
rought	-9.12907
▁price	-9.1292
▁heart	-9.12921
▁Madhya	-9.13188
▁census	-9.13192
▁Later	-9.13202
▁province	-9.13216
▁education	-9.1354
▁sea	-9.13552
▁changes	-9.13602
▁hockey	-9.14133
▁Sri	-9.14204
▁inside	-9.14271
▁media	-9.14377
▁something	-9.14411
▁condition	-9.14444
▁territory	-9.14809
▁Odisha	-9.14814
▁fever	-9.14815
▁matches	-9.14859
▁stage	-9.15079
▁card	-9.15138
▁wide	-9.15225
▁locality	-9.15231
▁cost	-9.15351
▁face	-9.15525
▁Municipality	-9.15628
▁chess	-9.1564
▁post	-9.15762
▁Shiva	-9.15859
▁allowed	-9.15924
▁affected	-9.15971
▁think	-9.16043
▁light	-9.16054
▁friends	-9.16079
▁source	-9.1618
ther	-9.16312
c	-9.16371
▁goes	-9.16518
▁pre	-9.16529
▁data	-9.16541
▁far	-9.16559
▁plan	-9.16914
▁occur	-9.16917
▁female	-9.16966
▁sold	-9.17044
man	-9.17202
▁situated	-9.17283
▁elected	-9.17405
▁big	-9.17617
▁fire	-9.17695
▁woman	-9.17801
▁character	-9.17805
▁regions	-9.17898
▁president	-9.18016
▁website	-9.1819
▁medal	-9.18217
▁smaller	-9.1823
▁aged	-9.18281
▁reached	-9.18485
▁That	-9.18573
▁natural	-9.18772
▁Kingdom	-9.18973
▁–	-9.19113
▁budget	-9.19143
▁plays	-9.19147
▁classical	-9.19178
▁training	-9.19254
▁causes	-9.19272
▁Rajasthan	-9.19347
▁Kashmir	-9.1939
▁movement	-9.19483
▁asked	-9.19786
▁enough	-9.19837
▁America	-9.19854
▁getting	-9.19874
side	-9.19926
▁prevent	-9.19929
▁described	-9.19973
▁yoga	-9.20007
▁Maratha	-9.20089
▁ruled	-9.20099
▁Uttar	-9.20246
▁Buddhist	-9.20408
▁strong	-9.20603
▁Another	-9.2068
▁production	-9.20818
▁experience	-9.21093
▁Vishnu	-9.2112
▁try	-9.21132
▁west	-9.21136
▁weeks	-9.21461
▁move	-9.21565
▁themselves	-9.21986
▁earlier	-9.22001
▁wrote	-9.22023
▁say	-9.22213
▁fall	-9.22328
▁variety	-9.22423
▁Although	-9.22423
▁historical	-9.2247
▁martial	-9.22517
▁Ram	-9.22519
▁decided	-9.22573
▁park	-9.22617
▁John	-9.22738
▁someone	-9.22895
▁building	-9.22954
▁Federation	-9.22968
▁annual	-9.22969
▁extend	-9.23364
▁law	-9.23467
▁Great	-9.235
▁stroke	-9.23559
▁centre	-9.23667
▁increase	-9.23764
▁cannot	-9.23769
▁affect	-9.23848
▁al	-9.2387
▁holiday	-9.23891
▁O	-9.2428
▁levels	-9.24289
▁tax	-9.24629
▁California	-9.24646
▁Before	-9.24697
▁ice	-9.24731
▁m	-9.24744
▁rest	-9.24781
▁Kho	-9.24893
▁falls	-9.2497
▁success	-9.25039
▁medical	-9.2566
▁race	-9.2574
▁force	-9.25871
▁entire	-9.25885
▁probabl	-9.25958
▁join	-9.26017
▁album	-9.26176
▁cut	-9.26213
▁mi	-9.26265
▁visit	-9.26314
▁stay	-9.26323
▁potential	-9.2646
▁couple	-9.26477
▁recorded	-9.26522
▁care	-9.26571
▁buy	-9.26632
▁cells	-9.26664
▁separate	-9.26688
▁shown	-9.27053
▁leave	-9.27135
▁W	-9.27251
▁lived	-9.27302
▁behind	-9.27379
▁heavy	-9.27398
▁loss	-9.27421
▁refer	-9.27434
▁code	-9.27495
▁currently	-9.27522
▁bring	-9.27922
▁centuries	-9.27941
▁air	-9.27983
▁Then	-9.28013
▁severe	-9.28066
▁ground	-9.28181
k	-9.28219
▁Her	-9.28318
▁published	-9.28357
▁call	-9.28509
▁border	-9.28587
▁lack	-9.28851
▁p	-9.28873
▁told	-9.28895
ya	-9.29024
▁returned	-9.2921
▁districts	-9.29336
▁create	-9.29386
▁feature	-9.29388
▁commonly	-9.2964
▁Prague	-9.29723
▁Court	-9.29744
▁value	-9.29846
▁marriage	-9.29983
▁deal	-9.30035
▁track	-9.30152
▁forest	-9.30175
▁multiple	-9.30185
▁act	-9.30188
▁Union	-9.30202
▁soon	-9.30322
▁majority	-9.30364
▁expenses	-9.30446
am	-9.30629
▁No	-9.30755
▁summer	-9.30911
▁regular	-9.3106
▁cricket	-9.31103
▁Telugu	-9.31175
ies	-9.31183
▁model	-9.31195
▁damage	-9.31254
▁required	-9.31272
▁allow	-9.31303
▁personal	-9.31446
▁particular	-9.31513
▁victory	-9.31633
▁below	-9.31645
▁spend	-9.31692
▁expected	-9.3182
▁Lake	-9.31838
▁Chola	-9.31851
▁Karnataka	-9.32602
▁Party	-9.32616
▁Sultan	-9.32734
▁program	-9.32734
▁School	-9.32847
▁job	-9.3286
▁Anand	-9.33014
▁Dev	-9.33219
▁urban	-9.33368
▁winter	-9.33394
▁election	-9.33427
▁meet	-9.33509
▁action	-9.33541
▁Akbar	-9.33572
▁rich	-9.3364
▁wanted	-9.33656
▁longer	-9.33686
▁parents	-9.33819
▁Australian	-9.33964
°	-9.34096
▁practice	-9.34226
▁product	-9.34348
▁college	-9.34365
▁complete	-9.34425
▁provided	-9.34471
ation	-9.34494
▁records	-9.3452
▁Awards	-9.34639
▁kilometres	-9.34652
▁birth	-9.34831
▁turn	-9.34982
▁related	-9.35008
▁Africa	-9.35033
▁Also	-9.35059
▁rice	-9.35115
▁study	-9.35155
▁research	-9.3523
▁future	-9.35558
▁length	-9.3568
▁yellow	-9.35723
▁railway	-9.35837
▁declared	-9.36119
▁appointed	-9.36148
▁independence	-9.36254
$	-9.36368
▁book	-9.36472
▁occurs	-9.36498
▁Ladakh	-9.36504
▁says	-9.36563
▁software	-9.36565
▁size	-9.36591
▁brain	-9.36595
▁caves	-9.36693
▁opened	-9.3672
▁Ray	-9.36764
▁mid	-9.36766
▁German	-9.36803
▁hill	-9.36861
▁private	-9.37029
referred	-9.37072
▁board	-9.37079
▁Company	-9.37117
▁red	-9.37167
▁fast	-9.37211
▁helped	-9.37424
▁added	-9.37465
▁Its	-9.37513
▁Illinois	-9.37582
▁ceremony	-9.37582
▁primary	-9.37627
▁check	-9.37694
▁students	-9.37698
▁results	-9.37715
▁changed	-9.37824
▁economic	-9.38023
▁Chennai	-9.38115
▁names	-9.38206
▁additional	-9.38599
▁depend	-9.38675
▁looking	-9.38829
▁governor	-9.38931
▁terms	-9.38941
▁course	-9.38982
▁High	-9.39078
▁worldwide	-9.39134
▁College	-9.39136
▁search	-9.3914
▁shooting	-9.39411
▁upon	-9.39458
▁investment	-9.39509
▁architecture	-9.3965
▁battle	-9.39756
▁individual	-9.39909
▁Hindus	-9.39925
▁Both	-9.39998
▁fighting	-9.40308
▁divided	-9.40444
▁storm	-9.406
▁fourth	-9.40657
▁conditions	-9.40687
▁room	-9.40708
▁white	-9.40749
na	-9.40826
▁larger	-9.40838
▁widely	-9.40854
▁poor	-9.4111
▁cave	-9.41135
▁positive	-9.41196
▁literature	-9.41228
▁Bangladesh	-9.41262
▁Be	-9.41282
▁phone	-9.41644
▁hands	-9.41702
▁finished	-9.41996
▁league	-9.42178
▁Lord	-9.42179
▁Kapoor	-9.42295
▁Rao	-9.42313
ite	-9.42317
▁bad	-9.42331
▁Windows	-9.42364
▁involved	-9.42454
▁Muslims	-9.42468
▁systems	-9.42511
ta	-9.42745
▁island	-9.42785
▁credit	-9.4288
old	-9.42896
▁felt	-9.42921
▁pass	-9.4294
▁follow	-9.43032
▁active	-9.43175
▁consider	-9.43196
▁involve	-9.43228
time	-9.43317
▁origin	-9.43323
▁musical	-9.43343
▁page	-9.43436
▁movies	-9.4353
▁St	-9.4353
▁animals	-9.43713
▁Airport	-9.43743
▁mentioned	-9.4377
▁reduce	-9.4387
▁whe	-9.44253
▁syndrome	-9.44304
▁physical	-9.4436
▁extra	-9.44387
▁rights	-9.4447
▁replaced	-9.44507
▁oldest	-9.4457
▁protect	-9.44591
▁lies	-9.44856
▁cultural	-9.44956
▁Prime	-9.4503
▁access	-9.45045
▁test	-9.45147
▁L	-9.45267
▁difficult	-9.45449
▁beginning	-9.45574
▁Army	-9.45582
▁islands	-9.45846
▁Al	-9.45892
▁issues	-9.45982
▁Sen	-9.46007
▁We	-9.46014
▁appears	-9.46055
▁penalty	-9.46121
▁self	-9.46124
▁sub	-9.46134
▁quickly	-9.46163
▁band	-9.46168
▁news	-9.46248
like	-9.46305
▁ended	-9.46357
▁Ashoka	-9.46358
▁championship	-9.46604
▁flows	-9.46674
▁stop	-9.46754
▁Test	-9.46793
▁forests	-9.46989
▁shop	-9.47085
▁construction	-9.47145
▁location	-9.47206
▁manager	-9.47226
▁ruler	-9.47238
▁independent	-9.47272
▁placed	-9.47464
based	-9.47664
tic	-9.47883
▁network	-9.47886
▁era	-9.48096
▁friend	-9.48274
▁yourself	-9.48426
▁Hills	-9.48476
▁report	-9.48663
▁awarded	-9.48692
ive	-9.48795
▁uses	-9.48815
▁morning	-9.48865
▁sources	-9.48884
▁BCE	-9.48948
▁thus	-9.48952
▁Assam	-9.48969
▁activities	-9.4897
▁category	-9.48971
▁text	-9.4903
▁signed	-9.49169
▁develop	-9.49218
▁begins	-9.49361
▁hospital	-9.49457
▁cash	-9.49578
▁walk	-9.49691
▁J	-9.49722
▁books	-9.49762
▁clear	-9.49771
▁meaning	-9.49889
ial	-9.49916
▁save	-9.4992
▁commercial	-9.49955
▁characters	-9.5001
▁Council	-9.50028
▁administration	-9.50099
▁unique	-9.50108
▁injury	-9.50194
▁whole	-9.50214
▁winning	-9.50353
▁avoid	-9.50403
▁remains	-9.50447
▁quality	-9.50577
▁coast	-9.50583
▁etc	-9.50611
▁Manipur	-9.50659
▁Two	-9.50681
▁drug	-9.50816
▁paid	-9.50877
▁needed	-9.50893
▁completed	-9.50928
▁limited	-9.50982
▁pain	-9.5106
▁roles	-9.51194
▁minister	-9.51233
▁situation	-9.51235
▁valley	-9.51237
▁black	-9.51264
▁growth	-9.51335
▁Raj	-9.51361
▁co	-9.51368
▁launched	-9.51372
rd	-9.51455
▁closed	-9.5152
▁enter	-9.51626
▁basic	-9.518
▁kind	-9.51843
▁effect	-9.51853
▁studies	-9.51853
▁Texas	-9.51853
▁rulers	-9.5193
▁confirmed	-9.51951
▁monsoon	-9.52043
▁break	-9.52097
▁met	-9.5229
▁let	-9.52416
▁problem	-9.52438
▁Japanese	-9.52457
▁decide	-9.52488
▁running	-9.52542
la	-9.52552
▁sites	-9.5257
▁giving	-9.5261
▁produce	-9.52892
up	-9.52905
▁lives	-9.53003
▁male	-9.53126
▁status	-9.53161
▁feeling	-9.5322
▁dry	-9.53255
▁kill	-9.53445
▁needs	-9.53504
▁purchase	-9.53506
▁recent	-9.53533
▁Summer	-9.53639
▁airport	-9.5364
▁Friday	-9.53663
▁estimated	-9.53678
▁starts	-9.53708
▁effects	-9.53721
▁accounts	-9.53788
▁attempt	-9.53906
▁mention	-9.5391
▁via	-9.53973
▁God	-9.54148
▁meeting	-9.54156
▁charge	-9.54157
▁foreign	-9.54229
▁itself	-9.54244
▁officials	-9.54282
▁insurance	-9.54298
less	-9.54348
▁Bihar	-9.54626
▁influence	-9.54688
▁ever	-9.54717
▁yet	-9.54851
▁villages	-9.55066
▁soldiers	-9.55133
▁designed	-9.55227
▁complex	-9.55426
▁debt	-9.55463
▁vary	-9.55463
▁attention	-9.55475
▁polo	-9.55494
▁Today	-9.5554
▁exist	-9.55584
▁arrested	-9.55632
▁managed	-9.55653
▁coach	-9.55654
▁remained	-9.55746
▁TV	-9.55753
▁focus	-9.55845
▁add	-9.55926
ka	-9.55959
▁responsible	-9.56071
▁numerous	-9.56071
▁rather	-9.56071
▁Sanskrit	-9.56091
▁inscription	-9.56106
▁Ka	-9.56123
▁plant	-9.56137
▁flow	-9.56197
▁stick	-9.56266
▁bandy	-9.56351
▁claimed	-9.56411
▁covered	-9.56468
is	-9.56606
▁sense	-9.56683
▁Sikkim	-9.56688
▁earliest	-9.56688
▁opposite	-9.56691
▁Greek	-9.56725
nd	-9.57051
ne	-9.572
▁share	-9.57265
▁lines	-9.57285
▁acting	-9.57294
▁Britain	-9.57309
▁rainfall	-9.5731
▁stopped	-9.57314
▁Women	-9.57318
▁approximately	-9.57322
▁reason	-9.57387
▁climbing	-9.57418
▁So	-9.57568
as	-9.57589
▁legal	-9.57657
▁space	-9.57687
▁passed	-9.57705
▁perform	-9.57757
▁offered	-9.57916
▁My	-9.57917
▁husband	-9.57966
▁Andhra	-9.57967
▁ways	-9.5805
▁send	-9.58151
▁sales	-9.58162
▁connect	-9.58195
▁hold	-9.58311
▁prominent	-9.58446
▁award	-9.58464
▁Microsoft	-9.58563
▁response	-9.58607
▁vitamin	-9.5862
▁decision	-9.58625
▁directly	-9.58674
▁scoring	-9.58706
▁raised	-9.58719
▁organized	-9.58751
▁fight	-9.58841
▁basin	-9.58899
A	-9.59056
▁Google	-9.59196
▁royal	-9.59206
▁Chess	-9.59206
▁humans	-9.59221
▁singer	-9.59353
▁traditions	-9.59499
▁speed	-9.59573
▁round	-9.59654
▁appear	-9.59791
▁trying	-9.59807
ion	-9.59911
▁observed	-9.59922
▁actress	-9.59928
▁sister	-9.59958
▁Eastern	-9.59959
▁words	-9.59966
▁cross	-9.60149
▁represent	-9.60207
▁customer	-9.606
▁Police	-9.60641
▁hills	-9.607
▁rain	-9.60733
▁treated	-9.60762
▁provides	-9.60826
▁script	-9.6086
▁rare	-9.60977
▁Act	-9.61141
▁middle	-9.61174
▁letter	-9.61342
▁notes	-9.61376
▁opening	-9.61478
▁sell	-9.61485
ness	-9.61549
▁stated	-9.61571
▁tour	-9.61617
▁savings	-9.61641
forced	-9.61733
▁Republic	-9.61743
▁Bollywood	-9.61769
▁Deccan	-9.61778
▁relationship	-9.61882
▁structure	-9.61884
▁girl	-9.61886
▁pressure	-9.61892
ra	-9.61929
▁completely	-9.61936
▁quit	-9.6203
▁worth	-9.62179
▁starting	-9.62284
▁families	-9.62479
▁performances	-9.6259
▁leader	-9.6265
▁god	-9.62657
▁distance	-9.6266
ous	-9.62661
▁compar	-9.62728
▁San	-9.63048
▁continue	-9.63076
▁subcontinent	-9.63089
▁why	-9.63095
▁popularity	-9.63111
▁oil	-9.63203
▁Division	-9.63229
▁finally	-9.63329
▁stone	-9.63419
▁Indo	-9.63575
ni	-9.63698
▁eventually	-9.63752
▁standard	-9.63765
▁constructed	-9.63793
▁net	-9.63793
▁fact	-9.63793
▁doing	-9.63876
▁injuries	-9.63896
▁chief	-9.64129
▁direct	-9.64212
▁styles	-9.64347
▁Red	-9.64401
▁Aurangzeb	-9.64409
▁Kannada	-9.64418
▁troops	-9.64437
▁captured	-9.64471
▁extreme	-9.64509
▁coming	-9.64553
▁House	-9.64566
▁numbers	-9.64886
▁becomes	-9.65022
▁°	-9.65037
▁Buddhism	-9.6508
▁Alauddin	-9.6508
▁minor	-9.65119
▁nine	-9.65248
g	-9.65314
▁read	-9.65349
▁temperatures	-9.65412
▁Even	-9.65578
▁mind	-9.65599
▁Raja	-9.65642
▁plans	-9.65669
▁Assembly	-9.65755
▁stories	-9.65757
▁Carnatic	-9.65782
▁Nehru	-9.65798
▁security	-9.65849
▁loan	-9.65925
▁supported	-9.66107
▁campaign	-9.66148
▁design	-9.66219
▁houses	-9.66291
▁kings	-9.66363
▁territories	-9.66436
▁kept	-9.66436
▁celebrate	-9.66461
▁Once	-9.66466
▁issue	-9.6648
▁bus	-9.66512
▁alone	-9.6654
▁dedicat	-9.66586
▁ends	-9.66749
▁contains	-9.66789
▁Bhima	-9.66827
▁coins	-9.66847
▁marked	-9.66871
▁banks	-9.67093
▁fell	-9.67122
▁artists	-9.67124
▁occurred	-9.67125
I	-9.67169
▁Goa	-9.67289
▁individuals	-9.67314
▁writing	-9.67406
▁elections	-9.6742
▁square	-9.67429
▁leaves	-9.67528
▁officers	-9.67541
▁drama	-9.67567
▁key	-9.67652
▁costs	-9.67753
▁festivals	-9.67806
▁studied	-9.67837
▁Malayalam	-9.67855
▁tried	-9.67865
▁recently	-9.67942
▁General	-9.67998
▁begin	-9.68011
▁convert	-9.68017
century	-9.68159
▁birds	-9.68343
▁previous	-9.6839
▁stock	-9.68448
▁Filmfare	-9.68505
▁communities	-9.68505
▁First	-9.68533
▁Holi	-9.68567
▁rural	-9.68583
▁Sea	-9.68597
▁Festival	-9.68632
▁Championships	-9.68641
▁Governor	-9.68649
▁department	-9.6869
▁partner	-9.68719
▁deaths	-9.68735
▁mountain	-9.6874
▁Ma	-9.68876
▁gift	-9.68977
▁highly	-9.69169
▁percent	-9.6921
▁Devi	-9.69224
▁Group	-9.69286
▁simple	-9.69316
▁build	-9.69447
▁transport	-9.69655
▁ordered	-9.69685
▁Bank	-9.69734
▁claim	-9.69775
▁Bengali	-9.69812
▁effective	-9.69859
▁texts	-9.69966
▁calendar	-9.70024
▁train	-9.70076
▁programs	-9.70228
▁listed	-9.70407
▁incident	-9.70457
ity	-9.70556
▁allows	-9.70994
nt	-9.71066
▁customers	-9.71232
▁plants	-9.71292
▁Academy	-9.71332
▁Football	-9.71332
▁Un	-9.7138
▁biggest	-9.71395
▁reports	-9.71395
▁eyes	-9.71437
▁religion	-9.71581
▁us	-9.71593
▁degree	-9.71668
▁tree	-9.71692
▁fish	-9.71799
▁ago	-9.7181
turned	-9.71883
▁Bay	-9.71917
▁normal	-9.71988
▁Hockey	-9.72051
▁emergency	-9.72071
▁nearby	-9.72081
▁Dutch	-9.72084
▁hair	-9.72097
▁powerful	-9.72127
▁younger	-9.72133
▁sexual	-9.72137
▁positions	-9.72147
▁competitions	-9.72332
▁Chand	-9.72352
▁payment	-9.72415
round	-9.72559
▁almo	-9.72559
▁dead	-9.72559
▁hour	-9.72644
▁simply	-9.72779
▁Muhammad	-9.72804
▁Sever	-9.72858
▁discovered	-9.72959
▁gross	-9.72985
▁section	-9.73093
▁table	-9.73164
▁represented	-9.73192
▁minute	-9.73287
▁travel	-9.73327
▁Sports	-9.73399
▁towns	-9.73444
▁noted	-9.73512
▁protection	-9.73542
▁carried	-9.73548
▁weight	-9.73615
▁class	-9.73623
▁negative	-9.73625
▁previously	-9.73626
▁rates	-9.73708
▁worship	-9.73727
▁animal	-9.73805
line	-9.74024
▁Indus	-9.74199
▁Zealand	-9.74208
ry	-9.74232
▁economy	-9.74241
▁Bombay	-9.74242
▁primari	-9.74242
▁huge	-9.74244
▁equipment	-9.74251
▁silver	-9.74269
▁Hyderabad	-9.74271
▁activity	-9.74281
▁comedy	-9.7429
▁Northern	-9.74297
▁Sometimes	-9.74354
▁base	-9.74416
▁choose	-9.74509
▁screen	-9.74514
▁write	-9.74517
▁tournaments	-9.74521
▁star	-9.74855
▁saying	-9.74945
▁Haryana	-9.74983
▁older	-9.75073
▁upper	-9.75159
▁beat	-9.75162
▁Vedic	-9.75234
▁remain	-9.75266
▁cover	-9.75339
▁officer	-9.75383
and	-9.75431
▁techniques	-9.75473
ji	-9.75477
▁Persian	-9.7549
▁learn	-9.75627
▁Tripura	-9.75733
▁Meghalaya	-9.75739
▁supply	-9.7574
le	-9.75958
▁ability	-9.7598
ecause	-9.76019
▁opponent	-9.76033
▁celebration	-9.76034
▁regional	-9.76086
▁figure	-9.76137
▁cast	-9.76249
▁civil	-9.76474
▁Jammu	-9.7648
▁bought	-9.76481
▁drugs	-9.76514
▁More	-9.76523
▁initially	-9.76588
▁Do	-9.76594
▁Islamic	-9.76632
▁require	-9.76668
▁Over	-9.76714
▁cinema	-9.76782
▁Island	-9.76783
▁mouth	-9.76853
▁domestic	-9.76985
▁gas	-9.77029
▁Hall	-9.7711
▁Up	-9.7725
▁management	-9.77252
▁presence	-9.77267
▁billion	-9.77273
▁patients	-9.77292
▁fought	-9.77361
▁selected	-9.77411
▁influenced	-9.77449
▁headquarters	-9.77464
▁snow	-9.77491
▁happened	-9.77494
▁accepted	-9.77517
▁Desp	-9.7756
▁hot	-9.77646
▁Don	-9.77786
▁Times	-9.77819
▁thousands	-9.77851
▁leaving	-9.78001
▁easily	-9.78012
▁multi	-9.78046
▁metres	-9.78214
▁Shri	-9.78443
▁monthly	-9.7847
▁Sun	-9.78526
▁Make	-9.78558
▁visited	-9.78575
▁Russia	-9.78702
▁buying	-9.7871
▁Vijay	-9.78736
▁Oklahoma	-9.7877
▁brothers	-9.78836
▁lacrosse	-9.78838
▁kilometers	-9.7884
▁Sunday	-9.79068
▁view	-9.79127
F	-9.79138
▁deep	-9.7921
▁eat	-9.79261
▁method	-9.79441
ally	-9.795
▁spent	-9.79546
▁refused	-9.79557
▁surgery	-9.79634
▁delta	-9.79802
▁Road	-9.79875
▁contain	-9.79897
▁nerve	-9.79901
▁races	-9.80037
▁honour	-9.80088
▁seek	-9.80186
▁spending	-9.80223
▁throne	-9.80327
▁Internet	-9.80327
▁bacteria	-9.80329
▁baby	-9.80337
▁Look	-9.80348
▁nature	-9.80355
▁Hinduism	-9.80357
▁immediately	-9.80397
▁attend	-9.80565
▁Guru	-9.80595
▁climate	-9.80661
▁connected	-9.80831
▁resulted	-9.80951
▁Church	-9.81071
▁Brazil	-9.81102
▁prices	-9.81104
▁operating	-9.81184
▁ft	-9.81189
▁rank	-9.81204
▁failed	-9.81217
▁watch	-9.81229
▁roads	-9.81285
▁winds	-9.81295
▁green	-9.8131
pur	-9.81313
▁Valley	-9.81409
▁native	-9.81466
▁Highway	-9.8149
▁subject	-9.815
▁paper	-9.81538
▁union	-9.81577
▁orders	-9.81652
▁wood	-9.81775
▁speak	-9.81802
▁serious	-9.81823
▁Islam	-9.81874
▁Battle	-9.81908
▁causing	-9.81927
▁route	-9.82099
▁initial	-9.8219
▁reviews	-9.82202
▁association	-9.82304
▁temperature	-9.82343
▁finish	-9.82352
▁computers	-9.82354
▁forward	-9.82362
▁maintain	-9.82397
▁Re	-9.82412
▁despi	-9.82635
▁brand	-9.82656
▁factors	-9.8268
out	-9.82682
▁Among	-9.82708
▁driving	-9.82719
▁mean	-9.82747
▁energy	-9.82779
▁becoming	-9.82822
▁efforts	-9.82833
▁serve	-9.8295
▁exchange	-9.82953
▁increasing	-9.82972
▁file	-9.83029
▁content	-9.83122
▁audience	-9.83133
▁tourist	-9.83181
▁Iran	-9.8335
▁purpose	-9.83395
▁Paris	-9.83409
▁semi	-9.83505
▁property	-9.83516
▁About	-9.83607
▁staff	-9.83625
▁combined	-9.83634
▁miles	-9.83696
▁wall	-9.83812
▁manage	-9.83919
▁Russian	-9.83998
▁division	-9.84033
▁true	-9.84327
▁happy	-9.84339
▁Chandigarh	-9.84339
▁awards	-9.84381
▁cold	-9.844
▁sung	-9.84414
▁weather	-9.8442
▁removed	-9.8444
ever	-9.84797
▁entered	-9.84802
▁shift	-9.84821
▁sound	-9.85079
▁alcohol	-9.85111
▁cell	-9.85111
▁Sabha	-9.85155
▁anything	-9.85156
▁Three	-9.85159
▁mixed	-9.85303
▁gained	-9.85452
▁AD	-9.85582
▁champion	-9.8567
▁La	-9.85748
▁Uttarakhand	-9.85781
▁Mughals	-9.85939
▁grew	-9.85974
▁Mexico	-9.85985
▁Shivaji	-9.85996
▁daily	-9.86002
▁destroyed	-9.86067
▁attacks	-9.86096
▁tests	-9.86103
▁lose	-9.86281
▁Committee	-9.86294
▁Not	-9.8639
▁Institute	-9.86405
▁emperor	-9.86409
▁Emperor	-9.86412
▁advantage	-9.86423
▁failure	-9.86442
▁ritual	-9.86444
▁doctor	-9.86466
▁Marathas	-9.86628
▁ran	-9.86638
▁users	-9.86671
The	-9.86788
▁society	-9.8681
▁Department	-9.86818
▁Telangana	-9.86818
▁bride	-9.8684
▁easy	-9.8686
▁step	-9.86889
▁stand	-9.86899
▁Go	-9.86958
▁BC	-9.87311
▁organization	-9.87327
▁Parliament	-9.87647
▁irrigation	-9.87647
▁Wikipedia	-9.87647
▁Hyder	-9.87648
▁clothes	-9.87669
▁delivery	-9.87709
▁expect	-9.87714
▁Due	-9.87785
▁vision	-9.87827
▁therapy	-9.87905
▁De	-9.88006
▁contract	-9.88118
▁address	-9.8812
▁height	-9.88131
▁Under	-9.88309
▁Korea	-9.88426
▁Afghanistan	-9.88494
▁twice	-9.88494
▁bodies	-9.88496
▁Apple	-9.88496
▁subsequent	-9.88524
▁folk	-9.88526
▁Pulakeshin	-9.88527
▁except	-9.8854
▁taxes	-9.88541
D	-9.88552
▁peace	-9.88567
▁Black	-9.88571
▁USA	-9.88747
▁issued	-9.88805
▁hosted	-9.88883
▁Corporation	-9.88893
▁dam	-9.8891
▁paying	-9.89148
▁piece	-9.89263
▁Children	-9.89349
▁Switzerland	-9.89349
▁respectively	-9.89386
▁frequently	-9.89455
▁clothing	-9.89521
▁infected	-9.89629
▁Your	-9.89661
▁Board	-9.89725
▁appeal	-9.89752
▁starr	-9.89781
ism	-9.89907
▁trees	-9.8992
▁weapons	-9.8996
it	-9.90024
▁Dr	-9.90031
▁talk	-9.90039
▁owned	-9.90121
▁Cricket	-9.90165
▁distinct	-9.90199
▁necessary	-9.90211
▁Ganges	-9.90218
▁fine	-9.90248
eval	-9.9026
▁safety	-9.9029
▁identified	-9.90344
▁suffered	-9.90389
▁suggested	-9.9052
▁host	-9.90628
▁Italian	-9.90706
▁crops	-9.9095
▁cards	-9.91033
▁Follow	-9.91093
▁review	-9.91103
▁Portuguese	-9.91114
▁county	-9.91136
▁lyrics	-9.91201
▁recommended	-9.91206
▁dates	-9.91316
▁tropical	-9.91345
▁Sir	-9.91423
▁improve	-9.91461
▁And	-9.91472
▁reduced	-9.91479
▁chance	-9.91506
▁carry	-9.91561
▁Club	-9.91567
▁driver	-9.91754
▁movements	-9.91781
▁typical	-9.91797
▁govern	-9.9186
▁inscriptions	-9.91906
▁Chief	-9.91992
▁Major	-9.91993
▁Easter	-9.92008
▁Bandy	-9.92014
▁Grand	-9.92043
▁actually	-9.92048
▁deficiency	-9.92077
▁adopted	-9.92081
▁derived	-9.92104
▁scheduled	-9.92134
▁residents	-9.92166
▁marks	-9.92221
▁images	-9.92266
▁officially	-9.92302
▁scholars	-9.92337
TM	-9.92433
▁image	-9.92527
▁Canadian	-9.92544
▁sides	-9.92696
▁Le	-9.92696
▁leaders	-9.92763
▁scale	-9.92776
▁Idaho	-9.92843
▁Stadium	-9.92843
▁importance	-9.92843
▁authorities	-9.92844
▁else	-9.92854
▁Mizoram	-9.92856
▁Yakshagana	-9.92877
▁Rama	-9.92973
▁color	-9.92984
▁organised	-9.93026
▁impact	-9.93057
▁successfully	-9.93115
▁singing	-9.9314
ia	-9.93151
▁inter	-9.93188
▁honor	-9.9342
▁muscle	-9.93431
▁direction	-9.93483
▁bit	-9.93498
▁foot	-9.93529
▁defeat	-9.93538
▁sale	-9.93625
▁attacked	-9.93641
▁girls	-9.93664
▁tend	-9.93682
▁sons	-9.93722
▁basketball	-9.93736
▁spoken	-9.93844
▁grown	-9.93851
▁seat	-9.93884
▁Jahan	-9.93908
▁conducted	-9.93977
▁gain	-9.94102
▁sex	-9.94189
▁Man	-9.94191
▁Center	-9.94278
▁growing	-9.94325
▁spring	-9.94335
▁appearance	-9.94351
▁formation	-9.94405
▁material	-9.94611
▁Meanwhile	-9.94637
▁Florida	-9.94637
▁agriculture	-9.94637
▁UK	-9.94645
▁nominated	-9.94673
▁George	-9.9471
▁abuse	-9.94721
▁moving	-9.94725
▁violence	-9.94784
▁useful	-9.94808
▁Los	-9.94868
▁originally	-9.94956
▁helps	-9.94975
▁surface	-9.95126
▁didn	-9.95144
▁remaining	-9.95144
▁Islands	-9.95163
▁Christian	-9.95199
▁wealth	-9.95228
▁developing	-9.95308
▁sign	-9.95319
▁colour	-9.95432
▁reasons	-9.9547
▁Nepal	-9.95504
▁policy	-9.95545
▁Marathi	-9.95547
▁northeast	-9.95547
▁retirement	-9.95581
▁Middle	-9.95599
▁founder	-9.95632
▁sacred	-9.95649
▁mobile	-9.9565
▁versions	-9.95715
▁seasons	-9.9591
▁walls	-9.96012
▁article	-9.96198
▁buildings	-9.96201
▁palace	-9.96207
x	-9.96209
▁rise	-9.96288
▁c	-9.96334
▁Narayan	-9.96352
▁whom	-9.96369
▁Roman	-9.96431
▁branch	-9.96439
▁laws	-9.9645
▁facilities	-9.96463
▁journey	-9.96476
▁Buddha	-9.96491
▁Washington	-9.96498
▁Ghats	-9.96681
▁touch	-9.96705
um	-9.96756
ri	-9.96758
language	-9.96806
▁radio	-9.96831
▁Only	-9.9686
▁critics	-9.96885
▁protected	-9.97053
▁raga	-9.97058
▁scene	-9.97123
▁hotel	-9.97146
▁continues	-9.97218
▁global	-9.97284
▁homes	-9.97312
▁Sikh	-9.97335
▁principal	-9.97382
▁note	-9.97442
ur	-9.975
el	-9.9756
▁What	-9.97567
▁meters	-9.97674
▁finds	-9.97758
ment	-9.97898
▁explain	-9.97992
▁cycle	-9.9801
▁vaccine	-9.98033
▁spot	-9.98085
▁unit	-9.98092
▁determine	-9.98229
▁Netherlands	-9.98324
▁administrative	-9.98337
▁Italy	-9.98347
▁Research	-9.98358
▁injured	-9.98397
▁option	-9.98458
▁seem	-9.98515
▁enjoy	-9.9879
▁vote	-9.98859
▁elements	-9.9899
▁Gupta	-9.98994
▁African	-9.99023
▁double	-9.99029
▁Caves	-9.99076
▁zone	-9.99079
▁mass	-9.99103
▁combat	-9.99213
▁Rani	-9.99244
▁till	-9.99272
▁arrived	-9.99419
▁Mr	-9.99475
▁tribes	-9.99512
▁drinking	-9.99545
ized	-9.99629
▁wins	-9.9966
▁pieces	-9.99678
▁Railway	-9.99966
▁channel	-10.0001
▁Chhattisgarh	-10.0016
US	-10.0022
▁Kabaddi	-10.0026
▁racing	-10.0026
▁James	-10.0045
▁port	-10.0048
▁options	-10.0048
▁fifth	-10.0054
▁limit	-10.0059
▁compete	-10.0066
▁ahead	-10.008
▁establish	-10.0083
▁skills	-10.0087
▁sets	-10.0093
da	-10.0093
▁bill	-10.0101
▁wedding	-10.0101
▁Humayun	-10.0118
▁Turner	-10.0118
▁Gavaskar	-10.0122
▁categories	-10.0122
▁function	-10.0126
▁Air	-10.0126
▁Lok	-10.0126
▁wrestling	-10.0127
▁mark	-10.0128
▁recognized	-10.0128
▁annually	-10.0159
▁clubs	-10.0166
▁offers	-10.017
▁command	-10.0173
▁covers	-10.0177
▁Super	-10.0177
▁payments	-10.0181
ma	-10.0188
▁legend	-10.0192
▁crew	-10.0197
▁student	-10.0197
▁Of	-10.0205
▁trial	-10.0206
z	-10.0213
▁maximum	-10.0215
▁Nagaland	-10.0216
▁Chandragupta	-10.0217
▁Sringeri	-10.0217
▁Tipu	-10.0217
▁digital	-10.0219
▁Falls	-10.0227
▁planned	-10.0229
▁Himalayas	-10.023
▁earned	-10.0248
▁wind	-10.0252
▁peak	-10.0258
▁display	-10.0258
▁traditionally	-10.0263
▁gifts	-10.0286
▁Music	-10.0291
▁disorder	-10.0292
▁pair	-10.0302
▁soil	-10.0303
▁clean	-10.0305
▁broke	-10.0306
▁pull	-10.0307
cut	-10.0311
▁expensive	-10.0313
▁Periyar	-10.0313
▁Haasan	-10.0313
▁Monday	-10.0314
▁sentence	-10.039
▁conflict	-10.0391
▁pilgrimage	-10.0394
▁decline	-10.0398
▁largely	-10.0402
▁producer	-10.0407
▁goddess	-10.041
▁holds	-10.0411
▁Spain	-10.0412
▁everything	-10.0412
▁relatively	-10.0419
▁diseases	-10.042
▁actors	-10.0424
▁ideas	-10.0431
▁grow	-10.0435
▁agricultural	-10.044
▁collected	-10.0442
▁leads	-10.0452
▁suggest	-10.0457
▁learning	-10.0468
▁strength	-10.0485
▁plains	-10.0487
▁Sultanate	-10.0489
▁traffic	-10.0501
▁winner	-10.0504
▁Pandya	-10.0504
▁Punjabi	-10.0508
ie	-10.0509
ch	-10.0511
▁Saturday	-10.0512
▁politics	-10.0512
▁everyone	-10.0515
▁featur	-10.0516
▁classified	-10.0522
N	-10.0533
▁Himalaya	-10.0541
▁medi	-10.0544
▁Mysore	-10.0565
b	-10.0569
▁march	-10.0574
▁soundtrack	-10.0579
▁background	-10.059
▁captain	-10.0592
▁stadium	-10.0596
▁difference	-10.0599
▁ensure	-10.0604
▁shares	-10.0605
▁treat	-10.0605
▁Lanka	-10.0607
▁Bachchan	-10.0613
▁therefore	-10.0613
▁Winter	-10.0613
▁Hill	-10.0614
▁Ambedkar	-10.0615
▁southwest	-10.0618
▁happen	-10.062
▁agreed	-10.0621
▁parties	-10.0626
▁participated	-10.0626
▁indicate	-10.0629
▁leagues	-10.0637
▁meets	-10.0658
▁tourists	-10.0663
▁schedule	-10.0666
▁stations	-10.068
▁Rajput	-10.0697
▁kite	-10.0705
▁hundreds	-10.0711
▁caught	-10.0715
▁planning	-10.0715
▁Angeles	-10.0716
▁Polo	-10.0723
▁greater	-10.0732
▁apply	-10.0735
▁pages	-10.0737
▁Ki	-10.0753
minute	-10.0781
ha	-10.0796
▁split	-10.0796
▁application	-10.0802
▁portion	-10.0802
▁collection	-10.0802
▁effort	-10.0803
▁setting	-10.0804
▁blue	-10.081
▁teacher	-10.081
▁Singapore	-10.0818
▁beyond	-10.0818
▁leadership	-10.0819
▁prime	-10.0819
▁milk	-10.082
▁overall	-10.0821
▁anti	-10.0821
▁Good	-10.0822
▁knowledge	-10.0825
▁Pune	-10.0825
▁kingdoms	-10.0833
▁Padma	-10.0835
▁writer	-10.0839
▁protest	-10.0863
▁faced	-10.0863
▁calls	-10.0876
▁understand	-10.0879
▁Though	-10.0889
▁voice	-10.0892
▁sector	-10.0899
▁employees	-10.0906
▁safe	-10.0909
▁holy	-10.0927
▁emerged	-10.0933
▁earn	-10.0934
▁businesses	-10.0935
▁heard	-10.0937
▁revealed	-10.0948
▁expanded	-10.0951
▁pitch	-10.0957
▁workers	-10.0962
km	-10.0963
▁sixth	-10.0972
▁press	-10.1013
▁newspaper	-10.1014
▁fresh	-10.1016
▁widespread	-10.1028
▁Chicago	-10.1028
▁identify	-10.1028
▁Royal	-10.1028
▁retired	-10.103
▁boy	-10.1031
▁unknown	-10.1031
▁latter	-10.1034
▁Naga	-10.1036
▁originated	-10.1043
▁shape	-10.1046
▁Star	-10.1053
▁promoted	-10.1057
▁commission	-10.1064
▁doesn	-10.1069
▁controlled	-10.1072
▁X	-10.1073
▁instruments	-10.1079
▁looks	-10.108
▁evening	-10.1093
▁web	-10.1095
▁ranges	-10.1097
▁drive	-10.1111
▁composition	-10.1121
▁surrounding	-10.1123
▁Malaysia	-10.1129
▁t	-10.1129
▁capacity	-10.1134
▁commune	-10.1134
▁diagnosis	-10.1136
▁infections	-10.1141
▁kick	-10.1143
land	-10.1146
▁Spanish	-10.1146
▁coastal	-10.1148
▁regarded	-10.1149
age	-10.1151
▁anyone	-10.1157
▁Second	-10.1191
off	-10.1192
▁floor	-10.1192
▁brief	-10.1196
▁boat	-10.1203
▁balance	-10.1209
▁supporting	-10.1218
▁accident	-10.122
▁prison	-10.1222
▁agreement	-10.1227
▁ship	-10.123
▁Like	-10.1239
▁illness	-10.124
▁Heritage	-10.1242
▁Development	-10.1242
▁Patel	-10.1242
▁twenty	-10.1243
▁Chopra	-10.1243
▁flat	-10.1251
▁joint	-10.1256
▁nation	-10.1256
ti	-10.1259
▁units	-10.1272
▁colours	-10.1282
▁holding	-10.129
▁filled	-10.1292
▁Mela	-10.1297
▁mountains	-10.1314
▁aspects	-10.1323
▁Just	-10.1326
▁flag	-10.1326
of	-10.1333
▁females	-10.1337
▁restaurant	-10.1339
▁client	-10.134
▁adults	-10.1342
▁author	-10.1344
▁rope	-10.1347
▁describes	-10.1347
▁tributary	-10.135
▁wrong	-10.135
▁technology	-10.1351
▁Narmada	-10.1352
▁Premier	-10.1352
▁conquered	-10.1361
▁exercise	-10.1368
▁missing	-10.1368
▁pick	-10.1368
▁origins	-10.1374
▁heat	-10.1374
▁resources	-10.1382
▁fixed	-10.1382
▁respect	-10.139
▁showed	-10.1406
▁essential	-10.1434
▁participate	-10.1446
▁trip	-10.1449
▁tissue	-10.1454
▁aim	-10.1455
▁combination	-10.1456
▁bid	-10.1457
▁Bangalore	-10.146
▁industries	-10.146
▁Tokyo	-10.146
▁taught	-10.146
▁Jainism	-10.1463
▁mental	-10.1465
▁acquired	-10.1469
▁Instacart	-10.147
▁colonial	-10.1472
by	-10.1474
▁Na	-10.1477
▁normally	-10.1478
▁Mir	-10.1488
▁operate	-10.149
▁periods	-10.1492
▁prince	-10.1509
ng	-10.1521
▁Dam	-10.1525
▁Republican	-10.1558
▁revenue	-10.1559
▁household	-10.1559
▁actual	-10.156
▁exact	-10.156
ce	-10.1561
▁spiritual	-10.1563
▁Game	-10.1569
▁charges	-10.1569
▁bronze	-10.1571
▁proposed	-10.1573
▁Kolkata	-10.1573
▁patient	-10.1576
▁Christmas	-10.1578
▁shipping	-10.1579
▁cars	-10.1586
▁articles	-10.1605
▁victims	-10.1616
▁Z	-10.1618
▁accept	-10.1637
▁request	-10.1642
▁figures	-10.1642
▁killing	-10.1643
▁decades	-10.1647
▁details	-10.1653
▁medals	-10.1665
▁wild	-10.1668
▁compare	-10.1671
▁matter	-10.1676
▁flight	-10.1681
▁theatre	-10.1683
▁internet	-10.1684
▁Open	-10.1684
▁syphilis	-10.1689
▁Co	-10.1698
▁losing	-10.1702
▁kites	-10.1703
▁generation	-10.1706
▁assist	-10.1711
▁southeast	-10.1716
▁damaged	-10.1723
▁Series	-10.1731
▁chronic	-10.174
▁creat	-10.1744
▁finding	-10.1747
▁corner	-10.1751
▁celebrations	-10.1751
▁eating	-10.1761
▁claims	-10.1763
▁equal	-10.177
▁passing	-10.1772
▁youth	-10.1777
▁suicide	-10.1792
▁Dutt	-10.1792
▁Paul	-10.1794
▁invasion	-10.1794
▁fear	-10.1797
▁Every	-10.1798
▁projects	-10.1801
▁Service	-10.1804
▁Sanjay	-10.1806
notable	-10.1811
▁meant	-10.1814
▁granted	-10.1816
▁innings	-10.1816
▁owner	-10.1821
▁inspired	-10.1824
▁charged	-10.1829
▁linked	-10.1837
▁titles	-10.1851
▁provid	-10.1864
▁theory	-10.188
▁Czech	-10.1884
▁Belgian	-10.1884
▁advance	-10.189
▁fees	-10.1901
▁seconds	-10.1902
▁goalkeeper	-10.1905
▁easier	-10.1913
▁Pa	-10.1922
▁entry	-10.1923
▁diagnosed	-10.1931
▁seems	-10.1944
▁Players	-10.1945
▁materials	-10.1951
no	-10.1964
▁collect	-10.1974
▁murder	-10.1983
▁questions	-10.2015
▁extensive	-10.2017
▁instance	-10.2022
▁Ireland	-10.2029
▁Virginia	-10.2029
▁basis	-10.2029
▁funds	-10.2029
▁trace	-10.2029
▁tries	-10.203
▁Instead	-10.203
▁looked	-10.203
▁Commonwealth	-10.203
▁White	-10.2032
▁pool	-10.2033
▁chain	-10.204
▁Manipuri	-10.2042
▁Sharma	-10.2058
▁asking	-10.2063
▁hearing	-10.2067
▁prepared	-10.2068
▁Su	-10.2069
▁dated	-10.2074
▁organizations	-10.2078
▁experienced	-10.208
▁fund	-10.2091
▁wants	-10.2097
▁Ravi	-10.2099
ian	-10.2107
▁shots	-10.212
garh	-10.2122
▁escape	-10.2128
▁senior	-10.2137
")	-10.2138
▁illegal	-10.2139
▁Now	-10.214
▁object	-10.2143
▁Such	-10.2145
▁rating	-10.2145
▁waterfall	-10.2145
▁Sanctuary	-10.2146
▁overseas	-10.2146
▁phase	-10.2146
▁dangerous	-10.2147
▁Ganga	-10.2147
▁university	-10.2148
▁nations	-10.2159
▁Jesus	-10.216
▁Office	-10.2162
▁championships	-10.2163
▁suggests	-10.217
▁thing	-10.2171
cumbe	-10.2172
▁artist	-10.2238
▁Georgia	-10.2254
▁dancers	-10.2257
▁William	-10.2263
▁critical	-10.2264
governing	-10.2265
▁policies	-10.2265
▁weekend	-10.227
led	-10.2299
one	-10.2301
▁bills	-10.2305
▁Old	-10.2313
▁practices	-10.2316
▁presented	-10.2323
▁camera	-10.2324
▁serves	-10.2324
▁belong	-10.2327
▁goods	-10.2332
▁requires	-10.2336
▁documents	-10.2341
ul	-10.2349
▁Pala	-10.2367
▁rains	-10.2371
▁Catholic	-10.2385
▁neighbour	-10.2386
▁exposure	-10.2386
▁minimum	-10.2386
▁Province	-10.2386
▁council	-10.2387
▁receiving	-10.2387
▁deity	-10.2389
▁crore	-10.2389
▁Early	-10.239
▁science	-10.2399
▁liver	-10.24
▁praised	-10.2401
▁button	-10.2405
▁Thus	-10.2405
▁slow	-10.241
▁fields	-10.241
▁follows	-10.2412
▁shared	-10.2415
▁farmers	-10.2423
▁flooding	-10.2426
f	-10.2433
hi	-10.2434
▁demand	-10.2434
▁Men	-10.2447
▁choice	-10.2449
▁flowers	-10.2457
▁opponents	-10.2458
▁tea	-10.2458
▁screens	-10.2461
▁target	-10.2473
▁fun	-10.2475
▁Jai	-10.2482
acted	-10.2486
▁elephants	-10.2486
▁defensive	-10.2494
▁beautiful	-10.2495
▁firm	-10.2498
▁occasion	-10.2503
▁Lacrosse	-10.2508
▁Ontario	-10.2508
▁Werkudara	-10.2508
▁memory	-10.2508
▁opportunity	-10.2508
▁Tuesday	-10.2508
▁sought	-10.2508
p	-10.2509
▁promote	-10.2509
▁tributaries	-10.2509
▁chosen	-10.2513
▁Soviet	-10.2514
▁Chalukya	-10.2518
▁Victoria	-10.2519
▁succeeded	-10.2525
▁secondary	-10.2529
▁bridge	-10.2536
▁Queen	-10.2539
▁fair	-10.2549
▁institutions	-10.2558
▁FC	-10.2558
▁rituals	-10.2561
▁actions	-10.2565
▁measures	-10.2591
▁sweet	-10.2605
▁describe	-10.2624
▁Mirza	-10.2631
▁advice	-10.2631
▁lagoon	-10.2631
▁pregnancy	-10.2631
▁twelve	-10.2631
▁Sambhaji	-10.2631
▁Alexander	-10.2631
▁sugar	-10.2633
▁Takraw	-10.2633
▁machine	-10.2634
▁factor	-10.2636
▁device	-10.2636
▁hundred	-10.2636
▁tuberculosis	-10.2636
▁referee	-10.2637
▁Area	-10.2638
▁locations	-10.2647
di	-10.2647
▁achieved	-10.2653
▁historic	-10.2655
▁metal	-10.2669
▁seventh	-10.267
▁Christians	-10.268
▁athletes	-10.268
▁flood	-10.2684
▁methods	-10.27
▁harvest	-10.2706
▁courts	-10.2711
▁List	-10.2715
▁attract	-10.272
▁testing	-10.2727
▁onto	-10.2735
▁fully	-10.2736
▁cent	-10.2738
▁clinical	-10.2753
▁Si	-10.2755
▁reflect	-10.2756
▁Senate	-10.2757
▁Jahangir	-10.2758
▁Mount	-10.2758
▁appropriate	-10.276
▁medicine	-10.2761
▁contemporar	-10.2762
▁outbreak	-10.2762
▁concert	-10.2764
▁acid	-10.2768
▁arm	-10.2769
▁advanced	-10.2773
▁participants	-10.2777
▁sun	-10.2778
▁ethnic	-10.2788
▁signs	-10.2796
▁block	-10.2828
known	-10.2832
▁examples	-10.2843
▁expand	-10.2848
▁Son	-10.2869
▁conduct	-10.287
▁Srinivas	-10.2872
▁devices	-10.2878
▁David	-10.2882
▁DS	-10.2883
Supreme	-10.2883
▁FIFA	-10.2883
▁Nawab	-10.2883
▁technical	-10.2883
▁applied	-10.2884
▁poet	-10.2885
▁kinds	-10.2885
▁hurricane	-10.2887
▁rebellion	-10.2887
ton	-10.2889
▁photo	-10.2891
▁message	-10.2891
▁tourism	-10.2892
▁thriller	-10.2892
▁Port	-10.2892
▁III	-10.2896
▁followers	-10.2897
▁die	-10.2897
▁occupie	-10.2901
▁competed	-10.2901
▁statement	-10.2905
▁happens	-10.2906
▁ready	-10.2911
▁indigenous	-10.2917
▁Health	-10.2919
▁hosts	-10.2936
▁newly	-10.2941
▁musicians	-10.2959
▁starring	-10.2967
putting	-10.2977
▁transfer	-10.2986
M	-10.2988
▁hero	-10.2996
▁Prithviraj	-10.3003
▁aid	-10.3011
▁Tendulkar	-10.3011
▁Usually	-10.3011
▁Thailand	-10.3011
▁attempts	-10.3013
▁distribution	-10.3013
▁administer	-10.3016
▁distributed	-10.3016
▁adult	-10.3017
▁installed	-10.3024
▁street	-10.3025
▁attached	-10.3028
▁Sepak	-10.3039
▁disorders	-10.3039
▁Sher	-10.3044
ical	-10.3045
▁industrial	-10.3045
▁seats	-10.306
▁fighters	-10.3062
men	-10.3063
▁longest	-10.3065
▁sing	-10.3067
▁monuments	-10.3073
ro	-10.3085
son	-10.309
ud	-10.3093
▁reading	-10.3093
▁progress	-10.3101
▁door	-10.3113
▁hear	-10.3124
▁dog	-10.3133
▁Indonesia	-10.3134
▁permanent	-10.3137
▁Dynasty	-10.3141
▁Public	-10.3141
▁coffee	-10.3141
▁federal	-10.3141
▁Argentina	-10.3141
▁Charles	-10.3145
▁Mahabharata	-10.3145
▁Try	-10.3145
▁advisor	-10.3151
▁Prince	-10.3159
▁chairman	-10.3169
▁originates	-10.317
▁wait	-10.3176
▁significantly	-10.3182
▁Pakistani	-10.3199
▁borders	-10.3214
▁handle	-10.3249
▁websites	-10.3251
ised	-10.3252
▁Green	-10.3261
▁Vikram	-10.3263
▁Thai	-10.3263
▁floods	-10.3267
▁Michigan	-10.3272
▁cotton	-10.3272
▁Madras	-10.3272
▁entertainment	-10.3273
▁males	-10.3273
▁Michael	-10.3274
▁prepare	-10.3274
▁cord	-10.3275
▁link	-10.3277
▁Team	-10.3278
▁Interstate	-10.3278
▁Rafi	-10.3281
▁genetic	-10.3283
ting	-10.3283
▁counter	-10.3283
▁destination	-10.3284
▁contribute	-10.3287
▁package	-10.3289
related	-10.3293
▁horror	-10.3294
▁balls	-10.3294
dominated	-10.3297
▁Durga	-10.3297
▁News	-10.3299
▁Brahmaputra	-10.3307
▁flying	-10.3332
▁defeating	-10.3334
▁TB	-10.3364
▁fee	-10.3367
ty	-10.337
▁Mark	-10.337
▁auto	-10.3405
▁Fame	-10.3406
▁Jaipur	-10.3406
▁Lahore	-10.3408
▁Range	-10.3408
▁creation	-10.3409
▁Lakshadweep	-10.3411
▁Alam	-10.3414
▁membership	-10.3414
▁moon	-10.3415
▁flora	-10.342
▁vehicle	-10.342
▁connection	-10.3421
▁statue	-10.3421
▁communication	-10.3422
▁broken	-10.3423
▁passes	-10.3427
▁pigs	-10.3433
▁Da	-10.3436
▁saved	-10.3438
ance	-10.3456
▁determined	-10.3468
▁purposes	-10.3471
▁question	-10.3476
▁watching	-10.3479
▁maintained	-10.3485
▁concerns	-10.3489
▁Kumbh	-10.3496
▁Sa	-10.3499
▁moves	-10.3507
▁shoot	-10.3509
▁label	-10.3521
▁contest	-10.3522
▁crowd	-10.3528
▁selling	-10.3528
▁frequent	-10.3529
▁achieve	-10.353
▁Ra	-10.3537
▁church	-10.3538
▁Secretary	-10.3541
▁Express	-10.3541
▁heavily	-10.3542
▁speech	-10.3543
▁afraid	-10.3543
▁copper	-10.3543
▁alleged	-10.3544
▁leg	-10.3546
▁Calcutta	-10.3546
▁begun	-10.3547
▁worn	-10.3547
▁assembly	-10.355
▁bottom	-10.3553
▁lawyer	-10.3554
▁Arabian	-10.3555
▁drop	-10.3557
▁Director	-10.3561
▁protein	-10.3562
at	-10.3563
▁spirit	-10.3566
▁finger	-10.3566
▁operation	-10.3568
▁Sikhs	-10.3581
▁muscles	-10.3587
▁Jan	-10.3598
▁Free	-10.3609
li	-10.363
▁religions	-10.3632
▁credited	-10.3633
▁environment	-10.3643
▁walking	-10.3652
▁warm	-10.3659
▁camp	-10.3664
▁possibl	-10.367
▁Archaeological	-10.3678
▁Netball	-10.3678
▁extent	-10.3678
▁Zika	-10.3678
▁bigger	-10.3678
▁infrastructure	-10.3679
▁Latin	-10.3681
▁Hindustani	-10.3683
▁transmission	-10.3683
▁Karan	-10.3683
▁electricity	-10.3683
▁vast	-10.3684
▁merged	-10.3684
▁hurt	-10.3686
▁dark	-10.3688
▁Satavahana	-10.369
▁quarter	-10.3691
▁faster	-10.3691
▁boxing	-10.3692
▁candidate	-10.3694
▁tribal	-10.3697
▁legends	-10.371
▁ragas	-10.3718
ball	-10.3734
▁offering	-10.3737
▁deals	-10.3751
▁covering	-10.3755
▁suit	-10.3757
▁rescue	-10.376
▁reserve	-10.3762
▁variations	-10.3766
▁narrow	-10.3767
▁Mu	-10.3774
▁reveal	-10.3782
▁locally	-10.3789
▁format	-10.3792
▁operations	-10.38
▁legs	-10.38
▁stream	-10.3804
▁crop	-10.3806
▁visiting	-10.3807
▁usual	-10.3814
▁Entertainment	-10.3817
▁Massachusetts	-10.3817
▁Often	-10.3817
▁annuity	-10.3817
▁jail	-10.3817
ala	-10.3822
▁Adi	-10.3826
▁investigation	-10.3831
▁standing	-10.3833
▁compositions	-10.3834
▁crime	-10.3836
ana	-10.3841
▁tall	-10.3842
▁salt	-10.3846
▁offices	-10.3854
▁hire	-10.3854
▁rail	-10.3857
▁entirely	-10.3857
▁Bill	-10.387
▁stands	-10.3877
▁lung	-10.3878
▁diet	-10.388
▁amounts	-10.3885
▁models	-10.389
▁sleep	-10.3905
ist	-10.3911
term	-10.3923
▁Ga	-10.3924
▁Brahmin	-10.3926
▁remember	-10.3926
▁renam	-10.3933
▁tribe	-10.3943
▁mild	-10.3957
▁Toronto	-10.3958
▁radiation	-10.3958
▁CEO	-10.3958
▁Peter	-10.3958
▁colitis	-10.396
▁specifically	-10.3961
▁banned	-10.3963
▁airline	-10.397
▁drawn	-10.3973
▁boys	-10.3977
▁possession	-10.3977
▁formal	-10.3979
▁ending	-10.3979
▁employee	-10.398
▁sand	-10.3983
▁serving	-10.3985
▁freedom	-10.3986
lal	-10.4
▁oppos	-10.4001
▁Chera	-10.4011
▁approach	-10.4021
▁drink	-10.4022
▁learned	-10.4023
▁Ku	-10.4031
▁fishing	-10.4041
▁jump	-10.4045
▁Bahadur	-10.4046
▁Southeast	-10.4051
▁Peshwa	-10.4051
ley	-10.407
▁interview	-10.4081
▁gods	-10.4082
▁represents	-10.4083
▁fruit	-10.4098
etween	-10.4099
▁Egypt	-10.41
▁diverse	-10.4101
▁Vijayanagara	-10.4101
▁supposed	-10.4102
▁Pandavas	-10.4103
▁trading	-10.4106
▁committed	-10.4109
▁opposition	-10.411
▁Coast	-10.411
▁Along	-10.4113
▁encouraged	-10.4117
▁Andaman	-10.4119
▁strike	-10.4122
▁engine	-10.4124
▁benefit	-10.4125
▁Actor	-10.4125
▁expressed	-10.4125
▁discuss	-10.4126
▁fewer	-10.4127
▁server	-10.4129
▁container	-10.4129
▁registered	-10.413
▁Yoga	-10.4136
▁channels	-10.4137
▁sculptures	-10.414
▁Amar	-10.4142
▁defined	-10.4149
▁practiced	-10.4149
▁foundation	-10.415
▁Ke	-10.416
either	-10.4173
▁deliver	-10.4199
▁centres	-10.4201
▁depict	-10.4208
▁Th	-10.421
▁vehicles	-10.423
▁broad	-10.4239
▁Kathak	-10.4242
▁switch	-10.4243
G	-10.4244
▁provinces	-10.4245
▁contrast	-10.4245
▁dropped	-10.4246
▁dating	-10.4246
▁Christianity	-10.4246
▁Pongal	-10.4247
▁Shankar	-10.4248
▁rent	-10.4249
▁sustain	-10.425
▁storage	-10.4251
▁surrounded	-10.4251
▁Rajendra	-10.4253
▁worshipped	-10.4253
▁Soon	-10.4253
▁Nizam	-10.4253
▁reaches	-10.4254
▁alive	-10.4257
▁birthday	-10.4259
▁assistance	-10.4259
▁bleeding	-10.426
▁app	-10.426
▁protests	-10.4267
▁returns	-10.4268
▁window	-10.427
▁executive	-10.4271
▁tiger	-10.4273
com	-10.4276
▁spinal	-10.4277
ki	-10.4278
▁delivered	-10.428
▁carv	-10.4284
▁medications	-10.4301
▁Metro	-10.431
▁dollars	-10.4312
▁steps	-10.4315
▁keeping	-10.4322
▁attempted	-10.4333
j	-10.4334
▁horses	-10.435
▁showing	-10.4371
▁rapid	-10.4381
▁Bavaria	-10.4385
▁Arkansas	-10.4392
▁Finland	-10.4392
▁yesterday	-10.4393
▁Indira	-10.4395
▁Puri	-10.4395
▁Malik	-10.4397
▁Human	-10.4397
▁responsibility	-10.4398
▁northwest	-10.4399
▁Why	-10.4406
▁nothing	-10.4408
▁settled	-10.4409
▁struck	-10.4409
▁apart	-10.4416
un	-10.4424
▁thousand	-10.4427
▁regularly	-10.4428
▁internal	-10.4429
▁saving	-10.4434
▁Pallava	-10.4435
▁dances	-10.4451
▁dancer	-10.4454
▁defense	-10.4456
▁jobs	-10.446
▁immune	-10.4465
▁battles	-10.4467
T	-10.4474
▁symbol	-10.4478
▁existed	-10.4481
▁copy	-10.4503
eastern	-10.451
▁quick	-10.452
over	-10.4531
▁Ba	-10.4538
▁arrest	-10.4539
▁Alabama	-10.4542
▁Census	-10.4542
▁Thursday	-10.4542
▁Museum	-10.4542
▁herself	-10.4542
▁Palace	-10.4542
▁Apart	-10.4543
▁foods	-10.4544
▁Keep	-10.4544
▁Democratic	-10.4544
▁sticks	-10.4546
▁classes	-10.4547
▁evolved	-10.4547
▁attributed	-10.4548
▁raid	-10.4548
▁invited	-10.4549
▁expansion	-10.455
▁remove	-10.456
▁Cave	-10.4561
▁bow	-10.4561
▁newspapers	-10.4562
▁assistant	-10.4563
▁concerned	-10.4568
▁Kamal	-10.4574
▁highway	-10.4575
rao	-10.458
▁acute	-10.458
▁iron	-10.4587
▁layer	-10.459
▁citizens	-10.459
▁closely	-10.4594
▁turns	-10.4595
▁powers	-10.4595
▁fashion	-10.4601
▁waiting	-10.4601
▁bar	-10.4624
▁user	-10.4633
▁Further	-10.4643
▁select	-10.466
▁Sam	-10.4661
▁benefits	-10.4668
▁Commission	-10.4684
▁Miss	-10.4684
▁immediate	-10.4688
▁Agra	-10.4689
▁beauty	-10.4693
▁remake	-10.4693
▁programming	-10.4693
▁Foundation	-10.4693
▁resistance	-10.4693
▁strict	-10.4693
▁Wales	-10.4694
▁authority	-10.4694
▁armies	-10.4694
▁romantic	-10.4695
▁slightly	-10.4696
▁earth	-10.4696
▁childhood	-10.4699
▁guide	-10.4703
▁roller	-10.4704
▁Golden	-10.4705
▁comprise	-10.4705
▁medium	-10.4705
▁changing	-10.471
▁Americans	-10.4716
▁delayed	-10.4721
ak	-10.4722
▁concept	-10.4724
▁representative	-10.4726
▁picture	-10.4726
▁Year	-10.4727
▁elephant	-10.4729
▁trouble	-10.473
▁platform	-10.4732
▁flu	-10.4736
▁agent	-10.4737
▁relations	-10.4739
▁depends	-10.474
▁separated	-10.4749
▁fans	-10.4767
▁Israel	-10.4779
go	-10.479
il	-10.4793
id	-10.4835
▁proper	-10.4835
▁constitute	-10.4843
▁FIDE	-10.4847
▁Puducherry	-10.4847
▁controversial	-10.4847
▁comfortable	-10.4848
▁Kochi	-10.4849
▁Scotland	-10.4849
▁wildlife	-10.4849
▁enters	-10.4853
▁kickboxing	-10.4853
▁flights	-10.4857
▁Kishore	-10.4857
▁Smith	-10.4858
▁visible	-10.4861
▁executed	-10.4862
▁Tulasi	-10.4863
▁ring	-10.4863
▁dancing	-10.4865
▁bare	-10.4867
▁shops	-10.4867
▁Gold	-10.4869
▁regarding	-10.4871
▁protective	-10.4871
▁Rock	-10.4877
▁novel	-10.4879
▁priest	-10.4884
▁interested	-10.4892
▁enjoyed	-10.4903
style	-10.4911
▁bird	-10.4921
▁ticket	-10.4927
▁unusual	-10.4927
sh	-10.4932
▁passengers	-10.495
▁stayed	-10.4964
ate	-10.4964
▁canoe	-10.4966
▁indoor	-10.4971
▁draft	-10.4983
▁Indians	-10.4986
▁streets	-10.4992
▁pro	-10.4994
ble	-10.4994
▁Louis	-10.4997
▁Goddess	-10.5001
▁sick	-10.5001
▁sword	-10.5002
▁Anglo	-10.5003
▁Therefore	-10.5003
▁influenza	-10.5003
▁strategy	-10.5003
▁Additional	-10.5004
▁deities	-10.5005
▁arrange	-10.5005
▁Chalukyas	-10.5006
▁Education	-10.5006
▁gradually	-10.5007
▁otherwise	-10.5007
▁Martin	-10.5008
▁Line	-10.5009
▁typhoid	-10.5009
▁Malabar	-10.5009
▁existence	-10.5009
▁declined	-10.5026
▁differences	-10.5032
▁tribute	-10.5033
▁Purana	-10.5036
▁Kalinga	-10.5039
▁substance	-10.504
▁meat	-10.5043
▁cultures	-10.5047
▁variant	-10.5058
▁Time	-10.5072
▁trains	-10.5113
▁Nur	-10.5114
▁draw	-10.5114
▁prayers	-10.5115
▁retain	-10.5128
▁Here	-10.5131
▁structures	-10.5136
▁Dal	-10.5137
▁prior	-10.5145
▁consecutive	-10.5147
▁Ganesh	-10.5154
▁competing	-10.5162
▁nervous	-10.5162
▁BBC	-10.5163
▁Limited	-10.5163
▁Survey	-10.5164
▁graduated	-10.5164
▁ultimately	-10.5165
▁Thomas	-10.5168
▁Prize	-10.5168
▁identity	-10.5168
▁Reserve	-10.517
▁Airlines	-10.5171
▁marketing	-10.5172
▁derby	-10.5172
▁Puja	-10.5172
que	-10.5172
▁abandoned	-10.5175
▁namely	-10.5177
▁Revolution	-10.5179
▁missed	-10.5183
▁inches	-10.519
back	-10.519
▁Leh	-10.5197
▁teachers	-10.5199
▁moment	-10.5201
▁belief	-10.5202
▁genre	-10.5204
▁aspect	-10.5208
▁Lal	-10.521
▁Korean	-10.5214
▁reference	-10.5221
▁Li	-10.5224
▁Chandra	-10.5229
▁titled	-10.523
▁guard	-10.5234
▁Cholas	-10.5239
▁Check	-10.5243
▁routes	-10.5243
▁focused	-10.5269
▁contribut	-10.5272
▁groom	-10.5272
▁performing	-10.5272
▁experiences	-10.5285
▁pictures	-10.5288
▁fit	-10.5298
▁Ocean	-10.53
▁perfect	-10.5311
ncient	-10.5313
▁hope	-10.5314
▁Jack	-10.532
▁ratio	-10.5322
▁Lee	-10.5322
▁Detroit	-10.5323
▁Gwalior	-10.5323
▁Kentucky	-10.5323
▁absence	-10.5323
▁Swedish	-10.5323
▁tennis	-10.5323
▁classification	-10.5324
▁Carolina	-10.5324
▁floorball	-10.5324
▁favorite	-10.5324
▁glass	-10.5324
▁dish	-10.5325
▁transportation	-10.5325
▁dishes	-10.5326
▁Earth	-10.533
▁yaws	-10.533
▁NFL	-10.5334
hose	-10.5338
▁catch	-10.5341
▁tie	-10.5342
▁plain	-10.5352
▁pure	-10.5352
▁Di	-10.5354
▁Arab	-10.5357
▁studio	-10.5362
▁approached	-10.5363
▁gone	-10.5363
▁magazine	-10.5365
▁edition	-10.5366
▁opposed	-10.5366
▁successor	-10.5371
▁environmental	-10.5374
▁scenes	-10.5374
war	-10.5378
▁commander	-10.538
%.	-10.5382
▁settlement	-10.5389
▁doctors	-10.5395
▁Hi	-10.5414
▁Arts	-10.5418
▁cows	-10.5424
▁path	-10.5426
▁divisions	-10.544
▁imperial	-10.544
▁correct	-10.544
▁campaigns	-10.5448
ted	-10.5449
▁Amit	-10.5455
▁fasting	-10.5458
everal	-10.5461
▁tools	-10.5462
▁Hospital	-10.5487
▁Jharkhand	-10.5487
▁Manekshaw	-10.5487
▁Pennsylvania	-10.5487
▁UNESCO	-10.5487
▁heritage	-10.5487
▁universities	-10.5487
▁Nicobar	-10.5487
▁scientific	-10.5488
▁Balaji	-10.549
▁fauna	-10.5491
v	-10.5493
▁Urdu	-10.5494
▁divorced	-10.5494
▁mph	-10.5495
▁raise	-10.5496
▁detail	-10.5499
iya	-10.551
▁Pictures	-10.5513
▁gathered	-10.5517
▁disaster	-10.5521
▁core	-10.5522
▁threat	-10.5528
▁purchased	-10.5528
▁cuisine	-10.553
▁rose	-10.5545
▁Maurya	-10.5547
▁cleaning	-10.5558
▁assume	-10.5569
▁suffer	-10.5573
▁invest	-10.5586
▁oral	-10.5597
▁relatives	-10.5598
▁dis	-10.5599
▁motor	-10.5601
▁cool	-10.5604
▁obtain	-10.5622
▁solid	-10.564
▁falling	-10.5646
▁arms	-10.5647
▁Four	-10.5648
▁chose	-10.5648
▁count	-10.5649
▁Trophy	-10.5654
▁literacy	-10.5654
▁Sankranti	-10.5654
▁Plateau	-10.5654
▁Support	-10.5654
▁Ohio	-10.5654
facial	-10.5654
▁emotional	-10.5655
▁guilty	-10.5656
▁empty	-10.5656
▁Water	-10.5659
gross	-10.566
▁aircraft	-10.5661
▁survived	-10.5663
▁invaded	-10.5664
▁Jewish	-10.5665
▁Local	-10.5665
▁Computer	-10.5668
▁inflammation	-10.5668
▁recognised	-10.567
▁Life	-10.5673
▁clients	-10.5677
▁visitors	-10.5686
outhern	-10.5688
▁recipient	-10.5696
▁angry	-10.5698
▁soul	-10.5701
▁element	-10.5703
▁reservoir	-10.5708
▁bone	-10.5714
▁nor	-10.5715
▁horse	-10.5717
▁sang	-10.5725
▁champions	-10.573
▁Legislati	-10.5734
▁painting	-10.5736
▁Mahal	-10.5739
ory	-10.5762
general	-10.5773
▁marry	-10.5783
▁inform	-10.5784
▁wish	-10.579
▁ill	-10.5807
▁eleven	-10.5814
▁portray	-10.5818
▁bamboo	-10.5823
▁Jersey	-10.5823
▁duration	-10.5824
▁Madrid	-10.5824
▁mail	-10.5826
▁HIV	-10.583
▁Srinagar	-10.583
▁accused	-10.5835
▁endemic	-10.5839
▁tied	-10.584
▁treaty	-10.5842
▁Tibetan	-10.585
▁Nations	-10.5862
▁complications	-10.5864
▁crown	-10.5865
▁requested	-10.5876
▁weapon	-10.5878
▁appearances	-10.588
▁prayer	-10.588
▁belonging	-10.5886
lying	-10.589
▁wave	-10.5894
ant	-10.59
▁ban	-10.5916
▁Forest	-10.5918
▁fill	-10.5919
▁sending	-10.5938
▁trained	-10.5944
▁Nagar	-10.5947
▁How	-10.5948
▁Nanda	-10.595
▁cough	-10.5956
▁scores	-10.5959
▁Hav	-10.5972
way	-10.5993
▁differ	-10.5994
▁codes	-10.5995
▁Tughlaq	-10.5996
▁elsewhere	-10.5996
▁patronage	-10.5996
▁swine	-10.5996
▁poetry	-10.5997
▁Brazilian	-10.5999
▁Lakshmi	-10.6002
▁Kansas	-10.6002
▁decorated	-10.6002
▁Badami	-10.6003
▁markets	-10.6004
▁Professional	-10.6007
▁notably	-10.6008
▁grass	-10.6008
▁evil	-10.6011
▁regain	-10.6012
▁slowly	-10.6012
▁suspected	-10.6014
▁Representatives	-10.6031
▁cm	-10.6032
▁Radio	-10.6045
▁vaccines	-10.6045
▁kitchen	-10.6046
▁spots	-10.6047
▁investments	-10.6048
▁relief	-10.605
▁museum	-10.605
▁devotees	-10.6051
▁civilian	-10.6052
▁composer	-10.6053
▁idol	-10.6055
▁Force	-10.6067
▁colleges	-10.607
▁edge	-10.6075
▁files	-10.6081
▁treatments	-10.6088
▁greatly	-10.6106
▁increases	-10.6116
▁seeing	-10.6121
▁Inc	-10.6127
▁Hanuman	-10.6132
▁compound	-10.6145
▁sq	-10.6146
▁capture	-10.6158
▁replace	-10.6158
▁constant	-10.6162
▁debts	-10.6164
▁occasions	-10.6168
▁excess	-10.6171
▁Wednesday	-10.6171
▁siege	-10.6171
▁Sydney	-10.6171
▁supplies	-10.6171
▁literary	-10.6171
▁Norway	-10.6171
▁copies	-10.6172
▁tank	-10.6173
▁preferred	-10.6176
▁Lucknow	-10.6178
▁Pacific	-10.6178
▁mining	-10.6178
▁Project	-10.6179
▁analysis	-10.6179
▁competitive	-10.6179
▁Post	-10.618
▁Iranian	-10.6181
▁offensive	-10.6182
▁qualified	-10.6183
▁Ko	-10.6186
▁cooking	-10.6187
▁devotion	-10.6188
▁shorter	-10.6191
stra	-10.6191
▁skill	-10.6196
▁manner	-10.6204
▁throwing	-10.6208
▁governments	-10.6208
▁clearly	-10.6209
▁Records	-10.6211
▁favor	-10.6212
▁functions	-10.6214
▁Hurricane	-10.6219
▁farm	-10.6219
▁attracted	-10.6224
▁truck	-10.6226
▁criminal	-10.6227
▁estate	-10.6233
▁Mauryan	-10.6235
▁episode	-10.6236
▁fired	-10.6236
▁decade	-10.6236
▁visual	-10.6242
▁circle	-10.6244
▁understanding	-10.6245
▁costumes	-10.6248
▁seasonal	-10.6249
▁Ho	-10.6255
▁plateau	-10.6256
▁historians	-10.627
tan	-10.6291
▁solo	-10.6306
▁earning	-10.6308
B	-10.6325
▁Anna	-10.6327
▁bull	-10.6328
▁hits	-10.6331
▁remote	-10.6336
▁realize	-10.635
▁Pittsburgh	-10.635
▁Android	-10.635
▁vegetation	-10.635
▁depression	-10.635
▁Poland	-10.635
▁Rahman	-10.635
▁massive	-10.6351
▁upset	-10.6352
▁Amritsar	-10.6352
▁Ronnie	-10.6353
▁thinking	-10.6353
▁Medical	-10.6353
▁reality	-10.6354
▁translated	-10.6356
▁Facebook	-10.6357
▁eighth	-10.6359
▁revolt	-10.6361
▁viruses	-10.6364
▁attacking	-10.6366
▁plastic	-10.6371
▁currency	-10.6379
▁themes	-10.6382
▁Rome	-10.6384
et	-10.6384
▁master	-10.6385
ization	-10.6393
▁Maharaja	-10.6394
▁instructions	-10.6395
▁ports	-10.6396
▁measure	-10.6397
▁eggs	-10.6397
▁relative	-10.6402
▁dream	-10.6402
▁neck	-10.6406
▁picked	-10.6409
▁Vani	-10.641
▁vaccination	-10.641
▁Films	-10.6411
▁technique	-10.6411
▁fluid	-10.6412
▁attraction	-10.6414
▁Blue	-10.6419
berg	-10.6419
▁passenger	-10.6422
▁amateur	-10.6437
▁g	-10.6449
▁plane	-10.6453
X	-10.6458
▁pocket	-10.6463
▁ones	-10.6467
▁degrees	-10.6471
▁Us	-10.6479
formally	-10.6482
esh	-10.6482
▁Par	-10.6486
law	-10.6508
▁afford	-10.6514
▁Gautam	-10.6526
▁sit	-10.6526
▁controversy	-10.6532
▁worried	-10.6532
▁Allahabad	-10.6532
▁diversity	-10.6532
▁volleyball	-10.6532
▁unsuccessful	-10.6532
▁execution	-10.6532
▁varies	-10.6532
▁royalty	-10.6533
▁northeastern	-10.6534
▁Currently	-10.6535
▁discontinued	-10.6536
▁feelings	-10.6536
▁Roy	-10.6537
▁khyal	-10.6539
▁poverty	-10.6539
▁Penguins	-10.6542
▁worst	-10.6543
▁Parvati	-10.6544
▁Salim	-10.6546
▁proved	-10.6548
▁boundary	-10.6549
▁geographical	-10.6552
▁Purnima	-10.6553
▁tool	-10.6559
▁discount	-10.656
▁effectively	-10.6562
ish	-10.6564
▁Vi	-10.6574
▁secret	-10.6578
▁arrive	-10.6584
▁notice	-10.6586
▁agree	-10.6588
▁Robert	-10.6589
▁literally	-10.6592
▁committee	-10.6593
▁alliance	-10.6594
▁boats	-10.6597
ster	-10.66
▁breast	-10.6602
ham	-10.6617
▁squash	-10.6617
▁Rai	-10.6621
▁Eid	-10.6621
▁dress	-10.6635
containing	-10.6635
born	-10.6644
▁yards	-10.6645
▁arrives	-10.6653
class	-10.666
▁Tour	-10.6661
▁caste	-10.6673
▁accompani	-10.6688
▁letters	-10.669
▁lungs	-10.669
▁Das	-10.6692
▁wars	-10.6693
▁reduc	-10.6694
▁pace	-10.6695
▁lands	-10.6699
▁substantial	-10.6706
▁exists	-10.671
▁observe	-10.6715
▁Belgium	-10.6717
▁Korfball	-10.6717
▁penalties	-10.6717
▁Madurai	-10.6717
▁temporary	-10.6717
▁Justice	-10.6717
▁Treatment	-10.6717
▁Amazon	-10.6717
▁Berlin	-10.6719
▁facing	-10.6719
▁Caribbean	-10.672
▁buried	-10.672
▁fertile	-10.672
▁Columbia	-10.672
▁breaks	-10.6722
▁buses	-10.6724
▁architectural	-10.6725
▁Khanna	-10.6728
▁restored	-10.6729
▁rapidly	-10.6731
▁approved	-10.6732
▁exercises	-10.6735
▁broadcast	-10.6735
▁electrical	-10.6737
▁Rudra	-10.6744
▁mm	-10.6744
▁nose	-10.6745
▁busy	-10.6746
▁presents	-10.6748
▁Pandyas	-10.6754
os	-10.6762
▁rarely	-10.6767
▁epic	-10.677
▁Afghan	-10.6778
▁row	-10.6781
▁email	-10.6782
▁Town	-10.6782
▁alternative	-10.6782
▁venue	-10.6783
▁launch	-10.6783
▁variation	-10.6785
▁electronic	-10.6787
▁expression	-10.6792
▁Hai	-10.6801
▁chemical	-10.6805
▁frame	-10.681
▁intended	-10.6817
▁Surya	-10.6821
▁drain	-10.6828
▁carrying	-10.6828
▁Constitution	-10.6828
▁Pro	-10.6843
▁Dharma	-10.6847
largest	-10.6852
armed	-10.6852
▁teach	-10.6858
▁Use	-10.6859
▁waters	-10.6861
▁Big	-10.6866
free	-10.6887
▁dogs	-10.6892
▁bringing	-10.6894
hand	-10.6895
▁Inter	-10.6896
wa	-10.6898
▁Bhopal	-10.69
▁Sahib	-10.69
▁Tibet	-10.6903
▁Raya	-10.6903
▁straight	-10.6904
▁Bhansali	-10.6906
▁Navaratri	-10.6906
▁Territory	-10.6906
▁artificial	-10.6906
▁knew	-10.6906
▁retinol	-10.6906
▁percentage	-10.6907
▁transmitted	-10.6907
▁Odissi	-10.6908
▁fellow	-10.6908
▁Manchester	-10.6908
▁succession	-10.6908
▁inhabitants	-10.6909
▁agencies	-10.691
▁branches	-10.6911
▁varied	-10.6912
▁philosophy	-10.6913
▁netball	-10.6914
▁ordinary	-10.6914
▁duty	-10.6918
▁Radha	-10.692
▁mosquito	-10.692
▁hectares	-10.6921
▁frequency	-10.6922
ram	-10.6923
▁recovered	-10.6926
▁latest	-10.6928
▁Oh	-10.6929
▁employed	-10.6938
▁document	-10.694
▁difficulty	-10.6943
▁arrival	-10.6954
▁farming	-10.6958
▁bag	-10.6969
▁partition	-10.6973
▁mud	-10.6973
ca	-10.6974
▁k	-10.6975
▁trigger	-10.6975
▁examination	-10.6977
▁pattern	-10.6977
▁Or	-10.6977
▁saint	-10.6978
▁establishment	-10.6979
▁prize	-10.6981
w	-10.6981
▁submitt	-10.699
▁twin	-10.6995
▁mission	-10.6997
volving	-10.6998
▁subjects	-10.7004
▁organisation	-10.7004
▁tracks	-10.7006
▁pot	-10.7009
▁dependent	-10.7015
▁crash	-10.7016
▁suffering	-10.7016
▁ex	-10.7025
▁patterns	-10.7026
▁gather	-10.7029
▁toward	-10.7032
▁Ha	-10.7033
K	-10.704
▁loans	-10.7053
▁stress	-10.7062
▁strikes	-10.7078
▁singers	-10.7078
▁concern	-10.7095
▁silk	-10.7097
▁Snooker	-10.7098
▁Twitter	-10.7098
▁cycling	-10.7098
▁influential	-10.7098
▁possibility	-10.7098
▁snooker	-10.7098
▁stood	-10.7098
▁surname	-10.7098
▁cattle	-10.7098
▁Begum	-10.7098
▁purchases	-10.7098
▁Boston	-10.7098
▁sitting	-10.7099
▁Native	-10.7099
▁checking	-10.7099
▁Initially	-10.71
▁pregnant	-10.7101
▁objects	-10.7101
▁Bijapur	-10.7101
▁permitted	-10.7101
▁recovery	-10.7104
▁universal	-10.7105
▁tetanus	-10.7105
▁hop	-10.7106
▁dominant	-10.7107
▁transferred	-10.711
▁legendary	-10.7112
▁waste	-10.7114
E	-10.7115
▁Muvattupuzha	-10.712
rs	-10.712
▁laid	-10.7121
▁cutting	-10.7122
▁seriously	-10.7126
▁Mary	-10.7129
▁filed	-10.7133
▁Gujarati	-10.7137
▁ships	-10.7138
▁map	-10.7148
▁pilgrims	-10.7154
▁praise	-10.7154
▁favourite	-10.7164
▁Richard	-10.7164
▁sequel	-10.7165
▁Kong	-10.7168
▁shrine	-10.7172
▁passage	-10.7173
▁watched	-10.719
ville	-10.7197
▁tasks	-10.7206
long	-10.7207
mi	-10.7215
▁Leela	-10.7217
▁Jo	-10.7219
▁tip	-10.7224
▁fix	-10.7233
▁beside	-10.7237
▁stocks	-10.724
▁Maha	-10.724
▁coal	-10.7243
board	-10.7248
▁proceed	-10.7253
▁prove	-10.7256
▁surrender	-10.7259
▁ulcerati	-10.7263
▁mix	-10.7268
▁lights	-10.7276
▁calling	-10.7276
▁stages	-10.7281
▁foul	-10.7282
▁worse	-10.7283
▁rhythmic	-10.7287
ability	-10.7292
▁crores	-10.7292
▁ceremonies	-10.7294
▁varieties	-10.7294
▁recognition	-10.7294
▁precipitation	-10.7294
▁Henry	-10.7294
▁Street	-10.7294
▁Much	-10.7296
▁blind	-10.7296
▁Centre	-10.7297
▁villagers	-10.7297
▁advised	-10.7298
▁wheat	-10.7298
▁predominantly	-10.7301
▁Third	-10.7302
▁NHL	-10.7307
▁fiction	-10.7309
▁Home	-10.731
▁witnessed	-10.7317
▁improved	-10.7326
▁IOC	-10.7332
▁IV	-10.7332
▁coin	-10.7335
▁wound	-10.7336
▁Bar	-10.7339
▁Studios	-10.7341
▁cooked	-10.7346
▁trust	-10.7346
▁designat	-10.7347
▁rocks	-10.7347
▁selection	-10.7349
▁healthy	-10.7358
▁assault	-10.7363
▁behavior	-10.7366
▁queen	-10.7366
ai	-10.7368
▁residence	-10.7369
▁Samaj	-10.737
▁Tiger	-10.7373
▁doubles	-10.7375
▁string	-10.7386
▁talking	-10.739
adi	-10.7395
lu	-10.74
▁filming	-10.7407
▁lie	-10.7412
▁venture	-10.7413
▁stretch	-10.7413
▁grand	-10.7421
▁Austria	-10.7421
▁Euro	-10.7426
ern	-10.7429
▁Christ	-10.7438
▁parks	-10.7445
▁micro	-10.7449
▁pray	-10.7454
▁dro	-10.7459
▁decisions	-10.7474
▁parliament	-10.7478
▁faces	-10.7479
coming	-10.748
sisted	-10.7484
▁spoke	-10.749
▁demands	-10.7491
▁attorney	-10.7494
▁Melbourne	-10.7494
▁Gayatri	-10.7494
▁Gulf	-10.7494
▁Swiss	-10.7494
▁Wildlife	-10.7494
▁Stanley	-10.7494
▁baseball	-10.7495
▁promise	-10.7495
▁stable	-10.7496
▁trauma	-10.7496
▁drainage	-10.7497
▁practised	-10.7498
▁impressed	-10.7499
▁anniversary	-10.7499
▁isolated	-10.75
▁roughly	-10.7501
▁significance	-10.7502
▁suddenly	-10.7502
ba	-10.7502
▁Sholay	-10.7504
▁rejected	-10.7505
▁Special	-10.7507
▁ruling	-10.7507
▁Saraswati	-10.7507
▁properly	-10.7509
▁Little	-10.7512
▁returning	-10.7515
▁owners	-10.7518
▁decreased	-10.7519
▁exposed	-10.7521
▁rising	-10.7527
▁ideal	-10.753
▁obtained	-10.7536
▁detailed	-10.7536
▁antibiotics	-10.7537
▁vegetables	-10.7545
▁components	-10.7545
▁knee	-10.7552
▁persons	-10.7553
▁centers	-10.7557
▁vessels	-10.7557
▁taste	-10.7559
▁Democrat	-10.757
▁cow	-10.7574
▁session	-10.7577
▁treating	-10.7578
▁See	-10.7579
▁belt	-10.7584
kar	-10.7586
▁acts	-10.7588
▁procession	-10.759
per	-10.7592
▁Bowl	-10.7594
▁gear	-10.7598
▁finals	-10.7601
ore	-10.7605
▁shut	-10.7607
▁harm	-10.7611
▁Sindh	-10.7616
▁respond	-10.762
▁vir	-10.7631
▁holidays	-10.7634
▁strokes	-10.7636
▁lay	-10.7638
▁settlements	-10.7644
▁references	-10.7646
▁dedicate	-10.7651
▁Bharat	-10.7657
▁symbols	-10.7658
▁designs	-10.7659
▁relationships	-10.7665
▁joy	-10.7673
▁prefer	-10.7673
▁meal	-10.768
▁continuous	-10.7687
▁Iraq	-10.7693
▁Costco	-10.7698
▁truly	-10.7698
▁Khurram	-10.7698
▁cavalry	-10.7698
▁modified	-10.7699
▁Roller	-10.7699
▁Hong	-10.7699
▁oxygen	-10.7701
▁consumption	-10.7701
▁Business	-10.7701
▁repeated	-10.7701
▁criticized	-10.7701
▁flowing	-10.7704
▁circumstances	-10.7704
▁fruits	-10.7705
▁invented	-10.7705
▁Independence	-10.7706
▁manufacturing	-10.7706
▁personality	-10.7709
▁resigned	-10.771
▁agency	-10.771
▁soft	-10.771
▁Kutch	-10.7711
▁Philippines	-10.7714
▁Depend	-10.7717
▁pleased	-10.7718
▁Five	-10.7718
▁autism	-10.7725
▁cat	-10.7731
▁applications	-10.7731
▁sailing	-10.7733
▁Bai	-10.7736
▁defending	-10.7737
▁clock	-10.7742
▁Are	-10.7742
▁hunting	-10.7743
▁spices	-10.7744
▁ranking	-10.7746
▁writers	-10.775
▁Deva	-10.7751
▁("	-10.7754
he	-10.7756
▁helping	-10.7758
▁lesions	-10.776
▁challenge	-10.777
▁Meitei	-10.7775
▁motion	-10.7776
▁ocean	-10.7776
eliance	-10.7777
▁Santa	-10.7777
▁recruit	-10.7777
▁junior	-10.7781
▁print	-10.7784
ja	-10.7787
▁pet	-10.7791
▁guests	-10.7796
▁cup	-10.7797
hitting	-10.7797
▁musician	-10.7801
▁equivalent	-10.7808
uddin	-10.7811
▁views	-10.7812
▁cloth	-10.7817
▁guns	-10.7817
▁mount	-10.7834
▁beach	-10.7836
▁Kali	-10.7839
▁Art	-10.7839
creasingly	-10.7854
▁celebrates	-10.7856
▁lun	-10.7857
(	-10.7857
▁metro	-10.7872
▁streams	-10.7877
▁communicate	-10.7878
▁Ne	-10.7885
▁poets	-10.7895
▁concerts	-10.7897
▁influences	-10.7902
▁Se	-10.7906
▁Kozhikode	-10.7906
▁Vajpayee	-10.7906
▁archaeological	-10.7906
▁opportunities	-10.7906
▁Turkey	-10.7906
▁Lohri	-10.7906
▁Organization	-10.7906
▁Queensland	-10.7907
▁attain	-10.7907
▁steal	-10.7907
den	-10.7908
▁Vietnam	-10.7909
▁hives	-10.791
▁Society	-10.791
▁trailer	-10.791
▁Power	-10.7912
▁bond	-10.7914
▁losses	-10.7918
▁helpful	-10.7923
▁nuclear	-10.7925
▁operates	-10.7928
▁restricted	-10.793
▁cap	-10.7936
ler	-10.7938
if	-10.7943
▁educational	-10.7946
▁monks	-10.7951
▁trials	-10.7956
▁gun	-10.7959
ine	-10.796
▁Kar	-10.7962
▁shocked	-10.7963
▁belonged	-10.7967
ities	-10.7972
▁sw	-10.7975
▁Bridge	-10.7975
▁arena	-10.7978
▁Sangam	-10.7978
▁occupation	-10.7989
▁experiment	-10.7989
▁mistake	-10.7991
▁smell	-10.7992
▁procedure	-10.7997
▁reaction	-10.8
▁complaint	-10.8001
▁warning	-10.8008
▁climbers	-10.8012
▁Babur	-10.802
▁outdoor	-10.8025
▁substitute	-10.8028
▁flower	-10.8031
▁chest	-10.8034
▁lakes	-10.804
▁filmed	-10.8043
▁listen	-10.8047
▁programme	-10.805
▁promot	-10.805
▁Ask	-10.8051
▁Prem	-10.8056
▁assum	-10.8059
▁populations	-10.8069
▁intra	-10.8076
▁Ek	-10.8079
▁suburb	-10.8081
▁Top	-10.8083
▁stones	-10.8091
ini	-10.8097
▁Alex	-10.8105
▁dies	-10.8111
▁sight	-10.8113
▁please	-10.8115
▁municipal	-10.8118
▁Deput	-10.8118
▁Barcelona	-10.8119
▁Bhubaneswar	-10.8119
▁Ministry	-10.8119
▁Missouri	-10.8119
▁iPhone	-10.8119
▁Dhoni	-10.8119
▁Jalaluddin	-10.8119
▁infectious	-10.8119
▁unlike	-10.8119
▁Actress	-10.8119
▁anywhere	-10.812
▁Besides	-10.8121
▁n	-10.8121
▁housing	-10.8122
▁churches	-10.8123
▁Kartik	-10.8124
▁encourage	-10.8125
▁talam	-10.8126
▁Professor	-10.8127
▁synthesis	-10.8127
▁enemy	-10.8128
▁refund	-10.8128
▁meditation	-10.8128
▁Traditionally	-10.8129
▁rental	-10.8129
▁forts	-10.813
▁Commissioner	-10.8132
▁Har	-10.8133
▁WHO	-10.8133
▁auspicious	-10.8133
▁steel	-10.8133
▁sepoys	-10.8134
▁recreational	-10.8135
▁threatened	-10.8139
▁demon	-10.8144
▁gender	-10.8144
▁exactly	-10.8144
▁engineering	-10.8146
▁canton	-10.815
▁pushed	-10.8153
▁legislati	-10.8155
do	-10.8156
▁bed	-10.8162
▁throw	-10.8162
▁violent	-10.8168
▁tenth	-10.8169
▁reform	-10.8173
▁grant	-10.8181
▁Out	-10.819
P	-10.8192
▁professor	-10.8192
▁colors	-10.8195
▁franchise	-10.8195
▁pack	-10.8196
▁Khalji	-10.8199
▁struggle	-10.82
▁license	-10.82
▁weekly	-10.8201
▁rebels	-10.8203
▁elder	-10.8203
▁Saint	-10.8214
▁historian	-10.8216
▁task	-10.8216
▁rival	-10.8216
raj	-10.822
▁toys	-10.8227
▁politicians	-10.8228
▁express	-10.8231
▁strain	-10.8235
▁exile	-10.8235
▁feels	-10.8237
▁Mizo	-10.8241
har	-10.8262
uz	-10.8267
va	-10.8271
▁Box	-10.8274
R	-10.8282
▁Ta	-10.83
▁encounter	-10.8301
▁drinks	-10.8302
▁tested	-10.8304
▁aren	-10.8315
▁restore	-10.8324
▁proteins	-10.8325
▁blocks	-10.8326
▁fifteen	-10.8327
▁Young	-10.8328
▁recognize	-10.8331
▁Social	-10.8333
▁parallel	-10.8336
▁Minnesota	-10.8337
▁Tennessee	-10.8337
▁crisis	-10.8337
▁Ahmad	-10.8337
▁Philadelphia	-10.8337
▁artillery	-10.8337
▁cultivation	-10.8337
▁treadmill	-10.8337
▁Sameer	-10.8337
▁Malwa	-10.8337
▁coverage	-10.8338
▁minority	-10.8338
▁Turkish	-10.834
▁parish	-10.834
▁ownership	-10.834
▁SCI	-10.834
▁Beach	-10.8341
▁Bose	-10.8342
▁occasionally	-10.8344
▁Hollywood	-10.8345
▁melody	-10.8346
▁valleys	-10.8347
▁thrown	-10.8357
▁extensively	-10.8358
ah	-10.836
▁gloves	-10.8362
▁onset	-10.8372
▁Karam	-10.838
▁retained	-10.8384
▁Champions	-10.8386
▁Nord	-10.8388
▁characteriz	-10.8389
▁contested	-10.8395
▁investing	-10.8402
▁investors	-10.8403
▁repair	-10.8403
▁scientists	-10.8405
▁storms	-10.8406
inflammatory	-10.841
▁alternate	-10.8412
▁behaviour	-10.8413
▁faith	-10.8426
ese	-10.843
▁replacement	-10.843
nath	-10.8433
▁offense	-10.8433
▁daughters	-10.8435
▁Edward	-10.8437
▁preparation	-10.8438
▁expense	-10.8439
▁dust	-10.844
▁Rana	-10.8444
▁defender	-10.8445
▁Ro	-10.8449
▁Shopper	-10.8452
▁Sub	-10.8455
▁crossed	-10.8456
▁internationally	-10.8458
▁judge	-10.8465
cious	-10.8469
▁Age	-10.8471
▁Law	-10.8472
▁writes	-10.8475
▁loved	-10.8476
▁waves	-10.8494
▁paintings	-10.8494
▁drawing	-10.8499
▁IT	-10.8501
▁standards	-10.8514
▁recording	-10.8521
▁desert	-10.8522
▁employ	-10.8523
made	-10.8523
▁Me	-10.8525
▁Ni	-10.8526
▁engage	-10.8547
▁provinc	-10.855
▁fled	-10.855
▁bright	-10.8553
▁Through	-10.8553
▁upload	-10.8554
▁Civil	-10.8556
▁grocer	-10.8558
▁retail	-10.8558
▁Oxford	-10.8559
▁Conference	-10.8559
▁Kargil	-10.8559
▁Kuchipudi	-10.8559
▁Speedway	-10.8559
▁Formula	-10.8559
▁external	-10.8559
▁Wow	-10.8559
▁Anita	-10.856
▁Different	-10.856
▁Johnson	-10.8561
▁purchasing	-10.8562
▁maintenance	-10.8562
▁corruption	-10.8562
▁hence	-10.8562
▁blow	-10.8569
▁Cross	-10.8569
▁elderly	-10.8571
▁scared	-10.8574
▁arrang	-10.8577
▁Six	-10.8581
▁deer	-10.8584
wan	-10.8592
▁Van	-10.8595
▁prisoners	-10.8606
ey	-10.8607
ina	-10.8612
▁Va	-10.8618
cy	-10.8625
ful	-10.863
▁assets	-10.8632
bsolutely	-10.8635
▁explained	-10.865
▁Pri	-10.8651
▁decrease	-10.8653
tha	-10.8653
▁bike	-10.8655
▁shortly	-10.8656
body	-10.8657
▁willing	-10.8658
▁custom	-10.866
▁toilet	-10.8663
▁sequence	-10.8664
▁apartment	-10.8666
▁warrior	-10.8668
▁none	-10.8669
▁sacrifice	-10.867
▁finances	-10.8672
▁mood	-10.8679
▁couldn	-10.8682
▁sole	-10.8689
▁nobles	-10.8696
▁forming	-10.8699
▁defend	-10.8701
▁organisations	-10.8701
▁Kings	-10.8714
▁adj	-10.8719
▁prepar	-10.8723
▁altitude	-10.8726
▁detect	-10.8748
▁fly	-10.8764
third	-10.8773
ship	-10.8781
field	-10.8782
▁Find	-10.8784
acent	-10.8785
▁Bharatanatyam	-10.8786
▁festivities	-10.8786
▁wives	-10.8786
▁diabetes	-10.8786
▁mortality	-10.8786
▁Network	-10.8786
▁Ramadan	-10.8786
▁Remember	-10.8786
▁Kathakali	-10.8786
▁cancelled	-10.8786
▁perhaps	-10.8786
▁Ratan	-10.8787
▁unclear	-10.8787
▁anxiety	-10.8788
▁Darjeeling	-10.8789
▁Beijing	-10.8789
▁feedback	-10.8789
▁waterfalls	-10.879
▁Jassi	-10.879
▁Atlantic	-10.879
▁admitted	-10.8791
▁Lower	-10.8791
▁Finally	-10.8792
▁USD	-10.8793
▁suspended	-10.8794
▁moderate	-10.8795
▁participation	-10.8795
▁Hari	-10.8798
▁Linux	-10.8801
▁restaurants	-10.8809
▁Rishi	-10.8812
▁refuses	-10.8813
▁networks	-10.8813
▁kicks	-10.8815
▁painted	-10.8816
run	-10.8817
▁deeply	-10.882
▁requirements	-10.8821
▁bomb	-10.8824
▁transform	-10.8825
▁sufficient	-10.883
▁retailers	-10.8831
ent	-10.8832
▁producing	-10.8835
▁printed	-10.8839
▁Mar	-10.8842
be	-10.8847
▁affairs	-10.8849
▁ancestors	-10.8852
▁Book	-10.8855
lowest	-10.8856
water	-10.8863
red	-10.8873
▁artistic	-10.8875
▁Tom	-10.8878
▁Common	-10.8885
▁rhythm	-10.8888
shaped	-10.8894
▁viewed	-10.8895
▁defence	-10.8899
▁mayor	-10.892
▁ride	-10.893
▁sponsor	-10.8933
▁sections	-10.8936
▁beats	-10.8938
▁clan	-10.8946
▁sort	-10.8946
▁golf	-10.8952
▁Brahma	-10.8961
▁Jean	-10.8962
▁Ban	-10.8967
▁Govinda	-10.897
▁raids	-10.8971
▁ascend	-10.8976
▁sisters	-10.899
▁Vice	-10.8997
▁gang	-10.9001
▁accurate	-10.9007
▁Burma	-10.9011
level	-10.9011
ol	-10.9011
▁Kaveri	-10.9019
▁destruction	-10.9019
▁swimming	-10.9019
▁festive	-10.9019
▁Disney	-10.9019
▁Portugal	-10.9019
▁valuable	-10.9019
▁Davis	-10.9019
▁Fox	-10.9019
▁Francisco	-10.9019
▁Hussain	-10.9019
▁mutual	-10.9019
▁DNA	-10.9019
▁Hindustan	-10.9019
▁audio	-10.9019
▁Daily	-10.902
▁Indies	-10.902
▁adjust	-10.9021
▁cheaper	-10.9021
▁super	-10.9022
▁relevant	-10.9022
▁YouTube	-10.9022
▁virtual	-10.9022
▁Munich	-10.9022
▁seized	-10.9024
▁Göt	-10.9025
▁Ganesha	-10.9025
▁flourished	-10.9027
▁incidence	-10.9028
▁kabaddi	-10.9028
▁Clive	-10.9028
▁Century	-10.9028
▁invasions	-10.9031
▁assigned	-10.9033
▁burning	-10.9039
▁Holy	-10.9039
▁Onam	-10.9043
▁Mayor	-10.9044
wood	-10.9045
▁Mother	-10.9046
▁escaped	-10.9047
▁retinal	-10.9048
▁mall	-10.9049
▁Rio	-10.905
▁kids	-10.9064
▁concentrate	-10.9066
▁veins	-10.9069
▁carbon	-10.9069
▁badly	-10.9069
▁Cha	-10.9091
ang	-10.9108
▁performers	-10.9111
▁promotion	-10.9112
▁merchants	-10.9113
▁residential	-10.9115
ft	-10.912
▁elaborate	-10.9121
▁climb	-10.9127
▁sounds	-10.9128
▁certificate	-10.9128
▁cousin	-10.9129
Greek	-10.9131
▁professionals	-10.9131
▁database	-10.9132
▁accountant	-10.9134
▁nomination	-10.9135
▁politician	-10.9136
▁banana	-10.9136
▁coconut	-10.9139
▁ranks	-10.9142
▁context	-10.915
▁Shiv	-10.9153
▁mistakes	-10.9153
▁orange	-10.9156
▁rankings	-10.9159
▁Start	-10.9159
giri	-10.9168
abh	-10.917
▁recommend	-10.9172
▁push	-10.9173
▁roots	-10.9181
▁hall	-10.9191
▁tanks	-10.9195
▁beliefs	-10.9197
▁incorporate	-10.9201
▁Ja	-10.9202
▁solution	-10.9213
▁qualify	-10.9214
▁breath	-10.9218
▁fights	-10.9232
▁favour	-10.9234
▁compris	-10.9238
▁surprise	-10.9242
▁penn	-10.9243
▁unexpected	-10.9248
▁thick	-10.9249
▁links	-10.9253
▁heir	-10.9255
▁Greece	-10.9257
▁Nintendo	-10.9257
▁Trump	-10.9257
▁Vancouver	-10.9257
▁replacing	-10.9257
▁rugby	-10.9257
▁Example	-10.9257
▁denied	-10.9257
▁Kohima	-10.9257
▁scabies	-10.9257
▁municipalities	-10.9257
▁Desai	-10.9257
▁automatically	-10.9257
▁cylinder	-10.9258
▁deem	-10.9258
▁Love	-10.926
▁Arunachal	-10.926
▁introduction	-10.926
▁Station	-10.9261
▁Mike	-10.9262
▁stating	-10.9262
▁mainland	-10.9263
▁eligible	-10.9266
▁Jews	-10.927
▁grandfather	-10.9272
▁Dance	-10.9272
nal	-10.9274
▁implemented	-10.9275
▁Sony	-10.9278
▁discovery	-10.9279
▁anemia	-10.928
▁instrumental	-10.9288
▁Yamuna	-10.9296
▁responded	-10.9297
▁Near	-10.9298
▁interests	-10.9302
L	-10.9304
▁Command	-10.9307
▁supporters	-10.932
▁demanded	-10.9325
▁theme	-10.9327
▁shelter	-10.9339
▁Ten	-10.934
▁lift	-10.9342
▁classic	-10.9353
▁register	-10.9358
▁grains	-10.9365
▁delay	-10.937
▁estimates	-10.9374
ay	-10.9376
▁dams	-10.9377
▁withdrawal	-10.9381
▁Kashmiri	-10.9382
▁Master	-10.9387
▁judges	-10.9389
▁aware	-10.9389
▁Nepali	-10.9389
▁millions	-10.9394
▁retreat	-10.9394
▁submit	-10.9398
▁carrier	-10.9402
▁Site	-10.9404
▁MP	-10.9404
▁arrow	-10.9408
▁Mani	-10.9421
▁inner	-10.943
▁integr	-10.9441
▁Part	-10.9444
▁fatal	-10.9445
▁highways	-10.9451
▁exception	-10.9457
▁apps	-10.9458
▁wine	-10.9463
▁reserves	-10.9469
▁secure	-10.948
▁Jana	-10.9486
▁discharge	-10.9488
▁Yadav	-10.9492
▁shoes	-10.9492
▁constitution	-10.9494
▁Jose	-10.9494
▁weak	-10.9495
▁Rajya	-10.9498
▁karate	-10.9499
▁Chittor	-10.95
▁Consider	-10.9501
▁Jönköping	-10.9501
▁Mexican	-10.9501
▁PlayStation	-10.9501
▁Travancore	-10.9501
▁prominence	-10.9501
▁Aihole	-10.9501
▁Himachal	-10.9501
▁leather	-10.9501
▁Dallas	-10.9501
▁furious	-10.9501
▁Kandahar	-10.9501
▁infantry	-10.9501
▁depressed	-10.9501
▁salary	-10.9501
▁jewellery	-10.9501
▁El	-10.9502
▁strategic	-10.9502
▁documentary	-10.9502
▁Press	-10.9502
▁involvement	-10.9503
▁Modern	-10.9504
▁Ahmedabad	-10.9504
▁warfare	-10.9505
▁annoyed	-10.9505
▁Irish	-10.9506
▁educated	-10.9507
▁Shillong	-10.951
▁Veda	-10.951
▁pollution	-10.951
▁Services	-10.9514
▁dozen	-10.9518
▁Max	-10.9521
▁eliminated	-10.9522
▁promised	-10.9522
▁tap	-10.9522
▁Pope	-10.9523
▁findings	-10.9524
▁Wings	-10.9524
▁essentially	-10.9526
▁Mohan	-10.9541
▁Please	-10.9543
ov	-10.9553
▁genes	-10.9565
▁Sha	-10.9565
▁ruins	-10.9566
▁finance	-10.9569
TMs	-10.957
▁personally	-10.9573
▁solar	-10.9574
de	-10.9577
▁rises	-10.9577
▁banner	-10.9579
▁succeed	-10.9588
▁talent	-10.9588
▁vocal	-10.9593
co	-10.9595
▁rites	-10.9596
▁instrument	-10.9596
▁sovereign	-10.9605
▁Kan	-10.9609
▁estimate	-10.9616
▁satellite	-10.9617
▁reduction	-10.9618
▁Hu	-10.9619
bo	-10.962
▁associations	-10.9626
▁monument	-10.9626
▁uniform	-10.9628
▁demonstration	-10.9629
▁survey	-10.963
ari	-10.9632
▁values	-10.9633
▁throws	-10.9639
▁woode	-10.9643
▁Play	-10.9655
▁Ashok	-10.9658
▁publicly	-10.9658
▁Sagar	-10.9679
▁Others	-10.9683
▁guards	-10.9689
▁fortress	-10.9696
▁Ri	-10.9699
▁Pallavas	-10.9703
▁diplomat	-10.9705
▁booking	-10.9708
west	-10.9709
▁engines	-10.9709
▁NH	-10.9713
istic	-10.9723
▁divide	-10.9724
▁posts	-10.973
▁Traditional	-10.9739
▁Sinha	-10.974
▁Mandir	-10.9743
ological	-10.9747
▁fictional	-10.9748
▁Transport	-10.975
chi	-10.975
▁Basketball	-10.9751
▁eldest	-10.9751
▁surviving	-10.9751
▁temporarily	-10.9751
▁Mukherjee	-10.9751
▁Squash	-10.9751
▁dynasties	-10.9751
▁stomach	-10.9751
▁Mukesh	-10.9751
▁airports	-10.9751
▁completion	-10.9751
▁tenure	-10.9751
▁criticised	-10.9752
▁interior	-10.9753
▁Imperial	-10.9754
▁afternoon	-10.9754
O	-10.9756
▁charity	-10.9757
▁migration	-10.9759
▁renowned	-10.976
▁Swami	-10.976
▁abdominal	-10.9761
▁Rs	-10.9761
▁Shia	-10.9762
▁owns	-10.9764
▁Motorsports	-10.9765
▁screening	-10.9766
▁Doctor	-10.9767
▁consolidated	-10.9767
▁sharing	-10.9767
▁tension	-10.9768
▁fan	-10.977
▁awareness	-10.977
▁engaged	-10.977
▁define	-10.977
▁NCAA	-10.9773
▁acres	-10.9774
▁secured	-10.9779
ā	-10.9782
▁drives	-10.9783
▁Generally	-10.9793
▁generated	-10.9793
▁slopes	-10.9795
▁Ve	-10.9796
▁Narasimha	-10.98
▁overtime	-10.9801
▁dressed	-10.9801
▁competitors	-10.9808
▁golden	-10.981
▁Last	-10.9812
▁Kites	-10.9818
▁Mal	-10.982
din	-10.9826
▁Paralympics	-10.9842
▁lots	-10.9852
▁Bell	-10.9853
▁Give	-10.9854
▁root	-10.9857
▁comments	-10.9864
▁Karwa	-10.9867
▁debate	-10.9867
▁Live	-10.9874
house	-10.9881
▁lineage	-10.9881
▁neighbor	-10.9882
▁dialect	-10.9885
▁objective	-10.9885
▁holes	-10.9886
▁extension	-10.9887
▁swaram	-10.9888
▁Scott	-10.9891
▁broker	-10.9893
▁creates	-10.9896
▁stored	-10.9897
▁parent	-10.9899
▁manag	-10.9899
▁dealer	-10.99
▁seller	-10.9902
▁visits	-10.991
▁fat	-10.9914
▁Kim	-10.9919
▁bat	-10.9924
aland	-10.994
▁petition	-10.9945
▁platforms	-10.9952
called	-10.9955
▁exceed	-10.9963
▁shoulder	-10.9963
▁lists	-10.9973
han	-10.9975
iate	-10.9982
▁Satavahanas	-10.9984
point	-10.999
▁Persia	-10.9992
▁statements	-10.9994
aka	-10.9997
▁Cuba	-11.0001
▁Duryodhana	-11.0007
▁Lieutenant	-11.0007
▁epidemic	-11.0007
▁furniture	-11.0007
▁intense	-11.0007
▁mythology	-11.0007
▁Avni	-11.0007
▁properties	-11.0007
▁Nokia	-11.0007
▁crucial	-11.0007
▁Jackson	-11.0007
▁frustrated	-11.0008
▁northwestern	-11.0008
▁Aditya	-11.0009
▁Arena	-11.0009
▁removal	-11.0009
▁Desert	-11.0011
▁atmosphere	-11.0011
▁Nagpur	-11.0012
▁Scientists	-11.0012
▁Mahi	-11.0013
▁bear	-11.0013
▁Per	-11.0014
▁argue	-11.0014
making	-11.0015
▁colony	-11.0015
▁surgical	-11.0017
▁Ekadashi	-11.0023
scale	-11.0025
▁MW	-11.0025
▁complicated	-11.0025
▁videos	-11.0027
▁lit	-11.0028
also	-11.003
▁hospitals	-11.003
▁argued	-11.003
▁critically	-11.0033
▁Java	-11.0033
▁mammals	-11.004
▁Physic	-11.0041
ntil	-11.0048
reby	-11.0048
▁breathing	-11.0053
▁withdrew	-11.0053
▁striker	-11.0061
▁producers	-11.0063
▁Chile	-11.0067
IKF	-11.0069
▁Any	-11.007
▁Set	-11.0072
me	-11.0075
▁fail	-11.0075
▁infants	-11.0077
om	-11.0081
▁convention	-11.0095
▁directions	-11.0097
▁false	-11.0103
▁Car	-11.0104
▁drivers	-11.0104
▁undergo	-11.0107
▁informed	-11.011
▁Rajesh	-11.0115
▁princess	-11.0119
▁tug	-11.0121
▁mode	-11.0122
yard	-11.0125
▁survive	-11.0128
em	-11.0129
pa	-11.0132
▁dispute	-11.0134
▁Field	-11.0134
ru	-11.0137
Indian	-11.0143
▁elevation	-11.0147
▁bicycle	-11.0148
▁guest	-11.0149
▁contribution	-11.0149
▁customs	-11.0149
▁Jaya	-11.0152
▁climber	-11.0152
▁puja	-11.0154
▁slave	-11.0155
▁Song	-11.0155
▁uncle	-11.0156
▁challenges	-11.0163
▁download	-11.0169
▁Jains	-11.0174
▁mon	-11.0181
▁cable	-11.0185
▁Non	-11.0186
▁distinguish	-11.0187
▁shock	-11.019
play	-11.0196
▁partners	-11.0196
▁dollar	-11.02
▁chase	-11.0208
▁Pali	-11.0223
▁miss	-11.023
▁Brahmins	-11.0232
▁confirm	-11.0235
▁realise	-11.026
▁aggressive	-11.0265
▁Kush	-11.0267
▁Idukki	-11.027
▁Quebec	-11.027
▁lieutenant	-11.027
▁somewhat	-11.027
capturing	-11.027
▁Montreal	-11.027
▁Saahil	-11.027
▁celebrating	-11.027
▁personnel	-11.027
▁pioneer	-11.027
▁terrain	-11.027
▁Orthodox	-11.027
▁Louisiana	-11.027
▁closing	-11.027
▁improvisation	-11.027
▁disappointed	-11.0273
▁archery	-11.0273
▁Shetty	-11.0273
▁Coimbatore	-11.0274
▁Varanasi	-11.0274
▁monasteries	-11.0274
▁UEFA	-11.0274
▁Abu	-11.0275
▁Typically	-11.0275
▁output	-11.0275
▁prohibited	-11.0278
▁enable	-11.0278
▁weakened	-11.028
▁endangered	-11.028
▁dense	-11.0283
▁concluded	-11.0283
▁trans	-11.0283
▁respective	-11.0284
▁Ju	-11.0286
▁click	-11.0287
▁grandson	-11.0288
▁Dean	-11.0289
▁saves	-11.0291
▁ingredients	-11.0291
▁doubt	-11.0293
▁skating	-11.0294
▁organize	-11.0295
▁equally	-11.0298
▁Arabic	-11.0299
▁bath	-11.0302
▁nights	-11.0305
game	-11.0307
cal	-11.0307
▁thyroid	-11.0307
▁breaking	-11.0317
▁factory	-11.0319
▁Taj	-11.0327
sa	-11.0329
▁f	-11.0329
▁integrate	-11.0338
▁blocked	-11.0343
for	-11.035
▁votes	-11.035
▁seeds	-11.0356
▁tears	-11.0358
▁invested	-11.0364
▁reward	-11.0375
▁banking	-11.0376
▁v	-11.0376
▁Las	-11.0381
▁comment	-11.0387
▁contained	-11.039
▁Pan	-11.0394
▁pandemic	-11.0399
▁associate	-11.0399
▁Bible	-11.04
shi	-11.0401
▁duo	-11.0404
ani	-11.0407
▁critic	-11.0409
▁conversation	-11.0412
▁barrier	-11.0414
▁gharana	-11.0416
▁lawsuit	-11.0416
▁discussion	-11.0418
▁reforms	-11.0419
▁presentation	-11.0425
▁grain	-11.0431
▁cake	-11.0434
▁lakh	-11.0437
▁Karna	-11.044
varman	-11.0444
▁tables	-11.0445
▁chiefs	-11.0447
▁fouls	-11.0451
▁plot	-11.0454
▁Pe	-11.046
▁Hum	-11.046
▁adopt	-11.0461
▁regard	-11.0467
▁craft	-11.0468
▁Ran	-11.047
▁wet	-11.0473
▁telling	-11.0474
▁Land	-11.0476
aj	-11.0481
▁di	-11.0485
▁prevented	-11.0487
▁bin	-11.0491
▁forget	-11.0496
▁strengthen	-11.0503
▁incorporat	-11.0503
▁scan	-11.0507
▁Small	-11.0511
▁cancel	-11.0512
▁drops	-11.0513
urthermore	-11.0514
▁Ar	-11.0516
▁Ken	-11.0517
ford	-11.0518
▁settle	-11.0527
▁collapse	-11.0528
▁feed	-11.0536
▁Sita	-11.0537
▁liked	-11.0538
▁Municipal	-11.054
▁Cambridge	-11.054
▁Eventually	-11.054
▁Executive	-11.054
▁Swaminathan	-11.054
▁library	-11.054
▁Jawahar	-11.054
▁Alaska	-11.054
▁Arthur	-11.054
versus	-11.054
▁Houston	-11.054
▁comparison	-11.054
▁stability	-11.0541
▁cavity	-11.0541
▁Karachi	-11.0541
▁birthplace	-11.0541
▁Pandey	-11.0541
▁instructor	-11.0541
▁Saudi	-11.0541
▁meetings	-11.0541
▁creative	-11.0542
▁approval	-11.0543
▁imprisoned	-11.0544
▁Captain	-11.0544
▁Moscow	-11.0544
▁confluence	-11.0544
▁difficulties	-11.0545
▁guidelines	-11.0546
▁reliable	-11.0546
▁exclusively	-11.0549
▁cure	-11.0549
▁Williams	-11.0549
▁preced	-11.055
▁qualification	-11.055
▁accessible	-11.0551
▁Bhutan	-11.0551
▁traders	-11.0554
▁situations	-11.0554
▁arose	-11.0556
▁humid	-11.0557
▁Modi	-11.0558
▁Myanmar	-11.0558
▁ninth	-11.0558
▁Prakash	-11.0558
▁requests	-11.056
▁Category	-11.0565
▁throat	-11.0565
▁Indore	-11.0566
▁Bush	-11.0566
isation	-11.0573
▁capita	-11.0577
▁bathing	-11.0584
▁collections	-11.059
▁backwaters	-11.0606
▁bands	-11.0608
▁indicated	-11.061
▁symbolic	-11.0614
ge	-11.0619
▁zones	-11.0619
king	-11.0649
▁canals	-11.0651
▁d	-11.0655
▁slaves	-11.0667
▁fails	-11.0668
▁Take	-11.0673
▁conversion	-11.0677
▁taluk	-11.0679
▁bananas	-11.068
▁nominations	-11.068
▁narrative	-11.0685
▁torn	-11.0687
▁Khasi	-11.069
▁elite	-11.0691
▁lifestyle	-11.0691
▁noise	-11.0692
▁neighborhood	-11.0693
▁conference	-11.0695
▁casting	-11.0695
▁activist	-11.0696
▁Economic	-11.0697
▁scholar	-11.0698
▁costume	-11.0698
▁shopper	-11.0709
▁urge	-11.0711
ists	-11.0713
ke	-11.0717
cited	-11.0727
▁shirt	-11.0728
▁regulation	-11.0734
▁ridge	-11.0737
owned	-11.0738
▁Gita	-11.0739
▁yield	-11.0747
ner	-11.0748
▁Ab	-11.0755
▁Maya	-11.0755
▁answer	-11.077
▁index	-11.0773
▁infect	-11.0782
▁offerings	-11.0786
▁statues	-11.079
▁shoots	-11.0791
▁sharp	-11.0806
▁Mahavir	-11.0811
▁Bhatt	-11.0812
▁electric	-11.0813
▁Makar	-11.0814
▁Raghu	-11.0816
▁Padukone	-11.0818
▁Thanjavur	-11.0818
▁dinner	-11.0818
▁Colorado	-11.0818
▁Mahatma	-11.0818
▁babies	-11.0818
▁reputation	-11.0818
▁jewelry	-11.0818
▁Authority	-11.0818
▁plague	-11.0818
▁prevalent	-11.0818
▁Yatra	-11.0818
▁Presidency	-11.0818
▁clay	-11.0819
▁Speaker	-11.0819
▁Pooja	-11.0819
▁Imphal	-11.0819
▁supervisor	-11.0819
▁Joshi	-11.082
▁robbery	-11.082
▁practical	-11.0821
▁Patna	-11.0821
▁mosquitoes	-11.0822
▁Agriculture	-11.0822
▁Jabalpur	-11.0822
▁populous	-11.0822
▁Ajay	-11.0822
▁Media	-11.0822
▁Originally	-11.0822
▁Mewar	-11.0823
▁Tony	-11.0823
▁parking	-11.0824
▁vice	-11.0824
▁Surat	-11.0824
▁updated	-11.0826
▁annexed	-11.0826
▁organ	-11.0826
▁rely	-11.0827
▁truth	-11.0829
▁BJP	-11.0829
▁brown	-11.083
imated	-11.0834
▁antibodies	-11.0834
▁corporate	-11.0836
▁theatres	-11.0837
▁calculated	-11.0837
▁secretary	-11.0838
▁closer	-11.0843
▁fuel	-11.0844
▁Y	-11.0847
▁researchers	-11.0847
▁divin	-11.0849
▁jury	-11.0851
ong	-11.0852
▁bowling	-11.0853
▁learnt	-11.0856
▁Joe	-11.086
▁defended	-11.0861
▁failing	-11.0864
▁autonomous	-11.0867
▁wounded	-11.0867
▁Rajputs	-11.0868
▁hanging	-11.0874
▁handled	-11.0877
▁pads	-11.0878
▁independently	-11.088
▁descend	-11.0881
▁displays	-11.0883
▁ma	-11.0883
▁defects	-11.0885
ara	-11.0891
▁descendants	-11.0893
▁da	-11.0896
▁poems	-11.0903
▁Boy	-11.0905
▁economics	-11.0915
▁acknowledg	-11.0919
▁funding	-11.0923
▁Sciences	-11.0924
W	-11.0924
▁Bi	-11.0926
▁designer	-11.0929
▁travell	-11.0931
▁united	-11.0932
▁gardens	-11.0938
ilitary	-11.0941
▁regulations	-11.0941
▁shoppers	-11.0941
▁deposit	-11.0945
▁buffalo	-11.0959
sha	-11.096
▁Brown	-11.0967
▁Symptom	-11.0972
▁batter	-11.0973
▁resolution	-11.0974
▁Ages	-11.0975
▁strains	-11.0976
▁expedition	-11.0977
▁neighbourhood	-11.0977
▁Order	-11.0979
?"	-11.0979
▁garden	-11.0979
▁System	-11.098
▁mechanism	-11.098
▁eyelid	-11.0982
▁bowler	-11.0983
▁helicopter	-11.0984
▁traveling	-11.0986
▁concentration	-11.0986
▁conquest	-11.0986
▁Bad	-11.0994
▁bearing	-11.0994
▁commit	-11.1
▁journalist	-11.1004
▁ragam	-11.1008
▁Ch	-11.1018
ad	-11.1025
▁Bhim	-11.1028
▁Sangeet	-11.103
▁Mac	-11.1033
▁tickets	-11.1038
▁priests	-11.1039
▁Puranas	-11.104
▁teaching	-11.1046
▁icon	-11.1046
▁searching	-11.1049
▁lying	-11.1052
▁knowing	-11.1055
▁specialize	-11.1067
▁rounds	-11.108
▁aside	-11.1087
▁popularly	-11.1088
▁psychological	-11.1095
▁commemorate	-11.1103
▁Real	-11.1103
▁shall	-11.1103
▁Affairs	-11.1104
▁Mississippi	-11.1104
▁Peninsula	-11.1104
▁Rugby	-11.1104
▁korfball	-11.1104
▁sanctuary	-11.1104
▁Financial	-11.1104
▁Oregon	-11.1104
▁Franklin	-11.1104
▁Jayanti	-11.1104
▁stopping	-11.1104
▁downstream	-11.1105
▁regardless	-11.1105
▁planner	-11.1105
▁excessive	-11.1105
▁steep	-11.1106
▁Ratha	-11.1107
▁Kanji	-11.1107
vital	-11.1108
▁piano	-11.1108
▁prevention	-11.1108
▁Dangal	-11.1108
▁Crown	-11.1108
▁Blood	-11.1109
▁Wali	-11.1109
▁prolonged	-11.1111
▁Natya	-11.1112
▁fame	-11.1112
▁demonstrated	-11.1112
Based	-11.1113
▁Dhrupad	-11.1115
▁combine	-11.1116
▁Chi	-11.1117
▁initiated	-11.1119
▁abroad	-11.1121
▁Joseph	-11.1122
▁Godavari	-11.1122
▁pleasure	-11.1123
▁hub	-11.1126
▁Our	-11.1131
▁realized	-11.114
▁Sethi	-11.1141
Customer	-11.1144
▁continental	-11.1148
speaking	-11.1149
▁rainy	-11.1157
▁melod	-11.116
▁hat	-11.1164
ver	-11.1168
▁carvings	-11.117
angetic	-11.1171
▁emotions	-11.1173
▁remembered	-11.1175
▁strongly	-11.1186
▁Main	-11.1188
▁Indiana	-11.1189
▁jumping	-11.119
▁murdered	-11.119
▁Gu	-11.1196
▁courses	-11.1197
allowing	-11.1199
du	-11.1202
▁formations	-11.1203
▁du	-11.1207
▁ear	-11.121
▁Tim	-11.1212
▁plus	-11.1224
▁happening	-11.1225
▁Jones	-11.1241
▁Kushan	-11.1241
headed	-11.1244
▁grade	-11.1254
▁clerk	-11.1261
▁cream	-11.1261
▁beta	-11.1262
▁Will	-11.1263
▁prevalence	-11.1264
▁engagement	-11.1265
▁exhibit	-11.1267
▁nephew	-11.1267
▁institution	-11.127
▁Vaishnava	-11.1271
▁Capital	-11.1272
▁description	-11.1275
▁editor	-11.1275
▁gene	-11.1276
▁creator	-11.1276
▁expert	-11.1276
▁entrance	-11.1277
▁emphasis	-11.1278
▁arrangement	-11.1279
cted	-11.1282
▁brick	-11.1283
▁appoint	-11.1293
▁receiver	-11.1294
▁cuts	-11.1297
▁episodes	-11.1303
▁Prab	-11.1305
▁Han	-11.1305
ulmon	-11.1314
ept	-11.1315
▁Male	-11.1324
▁hopes	-11.1326
▁aired	-11.1327
▁Down	-11.133
▁Chris	-11.1331
▁ID	-11.1335
▁representatives	-11.1335
ier	-11.1341
era	-11.1346
▁Pratap	-11.1349
▁bars	-11.1353
▁predict	-11.1353
▁Did	-11.136
▁witness	-11.1361
▁spirits	-11.1364
drew	-11.1364
▁Dil	-11.1365
▁destinations	-11.1371
▁Bag	-11.1374
▁Bus	-11.1378
▁cheap	-11.1382
eshwar	-11.1384
▁sixteen	-11.1388
▁sudden	-11.1391
▁Garhwal	-11.1393
▁Ahmed	-11.1398
▁Hendrick	-11.1398
▁Kasparov	-11.1398
▁Wisconsin	-11.1398
▁facility	-11.1398
▁halves	-11.1398
▁participating	-11.1398
▁uncommon	-11.1398
▁Atlanta	-11.1398
▁Bindusara	-11.1398
▁Chelsea	-11.1398
▁Community	-11.1398
▁medicinal	-11.1398
▁Castle	-11.1398
▁summit	-11.1398
▁descent	-11.1398
▁Miami	-11.1398
▁casualties	-11.1398
▁funeral	-11.1398
▁circulation	-11.1398
▁Padmini	-11.1398
▁Scottish	-11.1398
▁Convention	-11.1398
▁subtropical	-11.1398
▁Trust	-11.1398
▁bulk	-11.1398
▁Technology	-11.1398
▁teeth	-11.1398
▁Panchami	-11.1399
▁colonies	-11.1399
▁counties	-11.14
▁progressive	-11.14
▁Agency	-11.14
▁Kelly	-11.14
▁Ahom	-11.14
▁weekends	-11.14
▁accessories	-11.1401
▁widow	-11.1402
▁ischemic	-11.1402
▁Palakkad	-11.1402
▁nice	-11.1402
▁severity	-11.1402
▁Tulsi	-11.1403
Gregorian	-11.1403
▁Kabir	-11.1404
▁justice	-11.1405
▁relay	-11.1406
▁la	-11.1407
▁Ramayana	-11.1408
▁Similarly	-11.1409
▁vitiligo	-11.141
▁allergic	-11.141
▁monsoons	-11.141
▁Fire	-11.141
▁consumed	-11.1412
▁efficient	-11.1413
rat	-11.1415
▁castle	-11.1415
▁surprised	-11.1416
▁adapted	-11.1417
▁constantly	-11.1418
▁acclaimed	-11.1418
▁matters	-11.1419
▁SARS	-11.1427
▁Goan	-11.1451
▁UC	-11.1454
quality	-11.1455
▁Bharati	-11.1456
▁commercially	-11.1458
▁afterwards	-11.1458
▁Productions	-11.1462
▁conflicts	-11.1462
▁sa	-11.1464
end	-11.1467
▁tactics	-11.1469
▁Dara	-11.1477
▁discussed	-11.1477
▁hoped	-11.1478
owing	-11.1481
▁withdraw	-11.1486
▁victim	-11.1489
handed	-11.1492
▁Om	-11.1493
▁blocking	-11.1498
▁demanding	-11.1502
▁wickets	-11.1506
▁speaking	-11.1511
▁verses	-11.1514
▁talks	-11.1516
endra	-11.1523
▁organs	-11.1528
deep	-11.1532
▁fed	-11.1542
▁sky	-11.1545
▁Dhyan	-11.1546
▁friendly	-11.1546
▁Get	-11.1548
▁feast	-11.1553
▁borrower	-11.1558
▁Maria	-11.156
▁originat	-11.1562
▁ecosystem	-11.1568
▁cabinet	-11.1572
▁cyclone	-11.1578
▁destroy	-11.1579
▁error	-11.1579
▁athlete	-11.158
▁transition	-11.1581
▁amaz	-11.1582
▁Ex	-11.1584
▁chemicals	-11.1591
▁discipline	-11.1593
▁appearing	-11.1597
▁bags	-11.1607
▁bones	-11.1614
▁reservoirs	-11.1614
▁considering	-11.1621
▁heads	-11.1622
fairly	-11.1625
▁pop	-11.1627
▁agents	-11.1637
▁mess	-11.1638
▁indicat	-11.1644
▁turning	-11.1652
▁knock	-11.1669
▁Mah	-11.1672
▁Mo	-11.1681
▁photos	-11.1684
▁invite	-11.1688
▁prompt	-11.1689
▁predominant	-11.1694
▁teenage	-11.1698
▁lunch	-11.1699
▁Taiwan	-11.1701
▁Agartala	-11.1701
▁Derby	-11.1701
▁accommodate	-11.1701
▁bacterium	-11.1701
▁experiencing	-11.1701
▁Bhushan	-11.1701
▁Studies	-11.1701
▁improving	-11.1701
▁Janmashtami	-11.1701
▁Jodhpur	-11.1701
▁marble	-11.1701
▁tomorrow	-11.1701
▁hidden	-11.1701
▁Federal	-11.1701
▁tobacco	-11.1701
▁Chaturthi	-11.1701
▁Emergency	-11.1701
▁Sachin	-11.1701
▁Think	-11.1701
▁mainstream	-11.1702
▁humidity	-11.1702
▁screenplay	-11.1702
▁friendship	-11.1702
▁fitness	-11.1702
▁footage	-11.1702
▁stolen	-11.1703
▁confused	-11.1703
▁foothills	-11.1703
▁cubic	-11.1704
▁Warangal	-11.1705
▁duties	-11.1706
▁raw	-11.1707
▁loud	-11.1707
▁Simon	-11.1708
▁representation	-11.171
▁eaten	-11.1712
▁gate	-11.1713
▁Satakarni	-11.1713
▁Ujjain	-11.1713
▁Orissa	-11.1713
▁jammer	-11.1713
▁mixture	-11.1713
▁Prix	-11.1714
▁Market	-11.1714
▁attendance	-11.1715
▁honey	-11.1717
▁fastest	-11.1718
▁blessed	-11.1718
lam	-11.1718
▁burst	-11.1721
▁generations	-11.1722
▁noticed	-11.1726
▁measured	-11.1728
▁chanting	-11.1728
ao	-11.174
▁Control	-11.1742
▁Bo	-11.1743
▁smallest	-11.1752
▁Diwali	-11.1752
▁hole	-11.1753
▁athletics	-11.1756
▁coupons	-11.176
▁hilly	-11.1767
▁severely	-11.1778
▁Ben	-11.1779
▁listing	-11.1782
takes	-11.179
▁axon	-11.18
▁rooms	-11.18
▁driven	-11.1818
▁react	-11.1824
▁Note	-11.1839
▁rebel	-11.1841
▁winters	-11.1842
▁dialects	-11.1847
ney	-11.1848
▁Din	-11.1848
▁hang	-11.1849
▁Late	-11.185
▁risks	-11.1852
▁accounting	-11.1855
▁tract	-11.1867
▁laptop	-11.1869
▁exhibition	-11.1877
▁telephone	-11.1881
▁midfielder	-11.1884
▁meals	-11.1885
io	-11.1886
▁intake	-11.1886
▁domain	-11.1886
▁habitat	-11.1889
▁scheme	-11.1889
▁powder	-11.1889
▁Junior	-11.1891
▁corporation	-11.1892
▁correspond	-11.1892
▁famine	-11.1892
▁merchant	-11.1892
▁symptom	-11.1893
▁rite	-11.1894
▁Mua	-11.1894
▁medication	-11.1894
▁characteristic	-11.1894
▁soldier	-11.1894
▁sample	-11.1895
▁dialogue	-11.1896
▁exam	-11.1897
▁giant	-11.1898
▁Motor	-11.1902
▁Suri	-11.1904
▁discounts	-11.1905
▁helmet	-11.191
▁owe	-11.1911
▁idols	-11.1916
▁opera	-11.1918
▁emerge	-11.1925
▁roof	-11.1925
▁cue	-11.1934
▁tower	-11.1949
dium	-11.1949
▁draws	-11.195
▁Diagnosi	-11.1955
▁jar	-11.1957
vik	-11.1957
▁nett	-11.196
▁Uday	-11.1965
▁crimes	-11.197
▁Region	-11.1977
▁interact	-11.1981
▁fabric	-11.1983
▁Ph	-11.1986
▁Member	-11.1999
▁medicines	-11.2001
▁thirteen	-11.2004
▁Nigeria	-11.2006
▁Varun	-11.2006
▁Arabia	-11.2009
H	-11.2013
▁superior	-11.2013
▁Certain	-11.2014
▁immunity	-11.2014
▁revenge	-11.2014
▁spectrum	-11.2014
▁suspicion	-11.2014
▁territorial	-11.2014
▁Avinash	-11.2014
▁Nikhil	-11.2014
▁portfolio	-11.2014
▁Seattle	-11.2014
▁Vitamin	-11.2014
▁biodiversity	-11.2014
▁Menander	-11.2014
▁Earlier	-11.2014
▁Memorial	-11.2014
▁consciousness	-11.2014
▁congenital	-11.2014
▁Polish	-11.2014
▁impressive	-11.2014
▁Nobel	-11.2014
▁Light	-11.2014
▁sugarcane	-11.2014
▁sorry	-11.2014
▁Rajaraja	-11.2014
▁derive	-11.2014
▁painful	-11.2015
▁elevated	-11.2015
▁filing	-11.2016
aimed	-11.2016
▁rubber	-11.2016
▁tired	-11.2016
▁freestyle	-11.2017
▁Nashik	-11.2018
▁Shakti	-11.2018
▁Rahul	-11.2018
▁paycheck	-11.2018
▁sacked	-11.2019
▁populated	-11.2019
▁blindness	-11.2019
▁Assamese	-11.2019
▁accidentally	-11.2019
▁dismissed	-11.2021
▁thank	-11.2022
▁gymnastics	-11.2023
▁respirator	-11.2024
▁Ice	-11.2025
▁calm	-11.2025
▁recession	-11.2026
▁Family	-11.2026
▁soccer	-11.2026
▁NASCAR	-11.2026
▁Miller	-11.2027
▁Rice	-11.2028
▁ongoing	-11.2029
▁lifetime	-11.2033
▁Galing	-11.2034
▁remind	-11.2034
head	-11.2037
▁Mathura	-11.2038
!"	-11.2039
▁memorial	-11.2042
▁Floorball	-11.2042
▁occurring	-11.2043
▁premiered	-11.2044
▁Kal	-11.205
▁releases	-11.2052
▁Pal	-11.2073
▁familiar	-11.2074
▁strip	-11.2077
▁winners	-11.2078
▁sensitive	-11.2082
Din	-11.2084
Leela	-11.2086
▁Pat	-11.209
▁functional	-11.2093
▁mantras	-11.2097
▁Europeans	-11.2101
▁phones	-11.2109
▁Long	-11.2114
▁Ratna	-11.2122
▁displayed	-11.2126
▁bound	-11.2134
▁Members	-11.2134
▁characteristics	-11.2137
▁seated	-11.2139
ular	-11.2143
▁nationalist	-11.2149
▁enhance	-11.2152
▁fake	-11.2154
▁Jagannath	-11.216
▁tape	-11.2178
▁Wars	-11.2184
▁nerves	-11.2188
▁Nile	-11.219
▁Let	-11.2198
▁grounds	-11.22
▁routine	-11.2202
▁sessions	-11.2204
▁guitar	-11.2204
▁elders	-11.2205
▁trick	-11.2205
▁cleared	-11.2205
▁sect	-11.2206
▁sail	-11.2207
▁addiction	-11.2207
▁liquid	-11.2207
▁mangrove	-11.2211
▁panchayat	-11.2211
▁proposal	-11.2213
▁wonder	-11.2213
▁Gi	-11.2213
▁initiative	-11.2213
▁Science	-11.2215
▁Egyptian	-11.2215
▁intervention	-11.2215
▁Mountain	-11.2217
ons	-11.2218
▁bishop	-11.2222
oli	-11.2224
▁frog	-11.2224
▁con	-11.2228
▁rude	-11.223
ber	-11.223
▁sanction	-11.223
▁membrane	-11.2232
▁Subsequent	-11.2237
▁Plan	-11.2244
▁recover	-11.2246
▁parade	-11.227
▁thin	-11.2275
▁taxi	-11.2279
▁complet	-11.2285
▁containers	-11.2288
▁toll	-11.2297
gan	-11.2298
rom	-11.2302
▁valid	-11.2304
▁Jos	-11.2307
▁advisors	-11.2311
ck	-11.2318
▁merge	-11.2321
▁blame	-11.2322
▁cheer	-11.2323
star	-11.2323
▁Similar	-11.2325
mal	-11.2328
▁Global	-11.2328
cha	-11.233
▁labour	-11.2331
▁Write	-11.2333
▁ta	-11.2333
▁boss	-11.2335
▁trachoma	-11.2336
▁Amsterdam	-11.2336
▁Connecticut	-11.2336
▁Elizabeth	-11.2336
▁necessarily	-11.2336
▁prestigious	-11.2336
▁thirty	-11.2336
▁Wushu	-11.2336
▁auction	-11.2336
▁Yellow	-11.2336
▁victories	-11.2336
▁welfare	-11.2336
▁courier	-11.2336
▁Theatre	-11.2336
▁Murugan	-11.2336
▁erosion	-11.2336
▁Timur	-11.2336
▁Haveli	-11.2337
▁everywhere	-11.2337
▁Urban	-11.2337
▁Maryland	-11.2337
▁degeneration	-11.2337
▁Dubai	-11.2337
▁Milan	-11.2337
▁Tourism	-11.2337
▁Sunil	-11.2337
▁Bayern	-11.2338
▁dirty	-11.2338
▁Arya	-11.2339
▁irregular	-11.2341
▁pneumonia	-11.2341
▁Mediterranean	-11.2341
▁identification	-11.2341
▁treasure	-11.2341
▁Laxmi	-11.2341
▁excellent	-11.2341
▁democracy	-11.2341
▁pertussis	-11.2341
▁Fiji	-11.2341
▁delight	-11.2342
▁Odia	-11.2342
▁haven	-11.2345
▁erected	-11.2346
▁Below	-11.2349
▁Mohammed	-11.2349
▁pink	-11.2351
▁marine	-11.2353
▁collapsed	-11.2356
▁partially	-11.2357
▁mortgage	-11.2357
▁develops	-11.2367
▁editing	-11.2368
▁disappeared	-11.2368
▁riding	-11.237
▁appreciated	-11.2372
▁Bhave	-11.2374
ling	-11.2379
▁Kala	-11.2379
▁serum	-11.2382
▁stops	-11.2386
▁portions	-11.2391
▁principles	-11.2407
▁achievements	-11.2411
meter	-11.2416
month	-11.2418
▁canoeing	-11.2425
rew	-11.2425
bar	-11.243
▁receptors	-11.2435
ts	-11.2446
▁vows	-11.2447
▁Wood	-11.2453
nga	-11.2453
▁touched	-11.246
▁chances	-11.246
▁carrie	-11.2471
▁conquests	-11.2476
▁Know	-11.2476
▁crafts	-11.2482
being	-11.2492
▁Pra	-11.2492
▁Q	-11.2495
▁directors	-11.2496
▁audiences	-11.25
▁engineer	-11.2508
▁warriors	-11.2512
▁investigate	-11.2515
▁Band	-11.2518
▁viceroy	-11.2519
▁coloured	-11.2524
▁chicken	-11.2524
ors	-11.2525
▁fault	-11.2531
▁Andrew	-11.2535
▁announcement	-11.2537
▁octave	-11.2539
▁conclusion	-11.2539
▁Operation	-11.2545
▁albums	-11.2547
▁Paralympic	-11.2548
▁serial	-11.2549
▁disk	-11.2549
▁epics	-11.255
▁canal	-11.2557
▁comic	-11.2562
▁performer	-11.2565
▁volume	-11.2565
▁composers	-11.2566
▁Opera	-11.2571
▁Indra	-11.2575
▁hunt	-11.2587
▁vegetarian	-11.2591
▁Americas	-11.2605
ware	-11.2608
▁servers	-11.2616
▁rough	-11.2617
▁Cheras	-11.2618
▁Arm	-11.2619
▁guru	-11.2623
▁colon	-11.2632
▁connections	-11.2636
▁quarters	-11.264
ko	-11.2645
▁Stock	-11.2654
▁Konkan	-11.2655
▁inaugura	-11.2656
▁outbreaks	-11.2656
▁Br	-11.2657
▁theatrical	-11.2658
▁span	-11.2659
▁fourteen	-11.266
▁socio	-11.266
▁referees	-11.266
▁Pandit	-11.2661
▁Arjun	-11.2662
▁Steve	-11.2663
▁flash	-11.2664
▁Akshay	-11.2664
contact	-11.2667
▁eliminate	-11.2668
▁corrupt	-11.2669
▁interesting	-11.2669
▁Kickboxing	-11.2669
▁Lamborghini	-11.2669
▁Movement	-11.2669
▁Zamorin	-11.2669
▁debris	-11.2669
▁vulnerable	-11.2669
▁ceremonial	-11.2669
▁Denmark	-11.2669
▁Pataliputra	-11.2669
▁declining	-11.2669
▁fraud	-11.2669
▁monastery	-11.2669
▁Security	-11.267
▁unhappy	-11.267
▁rehabilitation	-11.267
▁Honor	-11.267
▁Holland	-11.267
▁Padmavati	-11.267
▁Sanjeev	-11.267
▁Reddy	-11.267
▁pottery	-11.267
▁Johnny	-11.267
▁Tug	-11.267
▁calculate	-11.2671
▁inspiration	-11.2671
▁somewhere	-11.2671
▁partnership	-11.2671
▁handling	-11.2671
▁wicket	-11.2672
▁Kaur	-11.2673
▁beaches	-11.2674
ook	-11.2674
▁width	-11.2674
▁Recently	-11.2674
▁Treat	-11.2674
▁photography	-11.2676
▁suspect	-11.2676
▁beaten	-11.2677
▁accomplished	-11.2678
▁aback	-11.2679
▁Sabres	-11.268
▁vomiting	-11.2682
▁Ajit	-11.2682
▁GDP	-11.2683
▁Jolly	-11.2683
▁Watch	-11.2685
▁businessman	-11.2687
▁ballet	-11.2689
▁reverse	-11.2691
▁Am	-11.2693
▁harder	-11.2698
▁Lankan	-11.2698
▁continuing	-11.2701
▁passion	-11.2702
▁pretend	-11.2707
▁happiness	-11.2708
▁asthma	-11.2711
▁shore	-11.2712
▁governance	-11.2718
▁speakers	-11.2719
▁lifted	-11.2722
▁crashed	-11.2731
▁trends	-11.2734
▁filmmaker	-11.2735
▁skilled	-11.2736
▁Vaishn	-11.2737
▁differently	-11.2737
▁Hal	-11.274
▁grows	-11.2741
▁poorly	-11.2749
▁batt	-11.2749
▁depicted	-11.2751
puri	-11.2752
vascular	-11.2758
▁Railways	-11.276
India	-11.276
▁thermal	-11.2762
der	-11.2766
kin	-11.2775
▁mosques	-11.278
▁sleeping	-11.2785
▁Sukh	-11.2795
national	-11.28
▁Mahabali	-11.28
▁Bur	-11.2805
▁bowl	-11.2806
▁Rose	-11.2808
▁activists	-11.2818
ative	-11.2825
some	-11.2826
tya	-11.2833
▁signing	-11.2833
▁Ti	-11.2836
tra	-11.2843
▁Commons	-11.2848
▁hyper	-11.2853
▁Sport	-11.2855
▁thalassemia	-11.2857
▁recordings	-11.2861
▁programmes	-11.2863
▁Amir	-11.2874
▁strings	-11.2878
▁Priya	-11.2879
▁circuit	-11.2884
▁jurisdiction	-11.2884
▁orchestra	-11.2884
▁Po	-11.2885
▁veteran	-11.2885
▁alert	-11.2885
▁mineral	-11.2886
▁shrines	-11.2886
▁rāgam	-11.2888
▁institute	-11.2888
▁thread	-11.2889
▁kidney	-11.2889
▁bottle	-11.2891
▁definition	-11.2892
▁consequence	-11.2892
▁ghost	-11.2892
▁resort	-11.2892
▁travels	-11.2894
▁mirror	-11.2894
▁Lion	-11.2897
▁elect	-11.2913
ab	-11.2923
▁Spirit	-11.2926
▁Mak	-11.2926
▁x	-11.2931
▁verse	-11.2935
▁tag	-11.2949
▁Garo	-11.2953
▁Baba	-11.2964
▁gathering	-11.2967
▁panic	-11.2979
▁patron	-11.2982
▁divorce	-11.2989
▁spaces	-11.299
▁Pre	-11.2993
▁possesse	-11.2993
▁messages	-11.2996
▁victorious	-11.2999
▁preserve	-11.3
▁plate	-11.3002
▁accord	-11.3003
▁Week	-11.3003
▁pursue	-11.3004
▁Prasad	-11.3004
▁Jamaica	-11.3005
▁Varma	-11.3006
▁affiliat	-11.3008
▁Qutb	-11.3013
▁Lewis	-11.3013
▁forty	-11.3014
▁Buffalo	-11.3014
▁Guwahati	-11.3014
▁Nevertheless	-11.3014
▁Tughluq	-11.3014
▁silicosis	-11.3014
▁susceptib	-11.3014
▁suzerainty	-11.3014
▁worry	-11.3014
▁Ayesha	-11.3014
▁Jafar	-11.3014
▁deciduous	-11.3014
▁flew	-11.3014
▁Mishra	-11.3014
▁urticaria	-11.3014
▁Baseball	-11.3014
▁Rajiv	-11.3014
▁Marshall	-11.3015
▁granite	-11.3015
▁Mahanadi	-11.3015
▁composite	-11.3015
▁Anderson	-11.3015
▁Bobby	-11.3015
▁Gothic	-11.3015
▁Kangra	-11.3015
▁Delta	-11.3015
▁concrete	-11.3015
▁Holkar	-11.3015
▁salesperson	-11.3015
▁Cannes	-11.3015
▁varnam	-11.3015
▁Yash	-11.3015
▁catchment	-11.3015
▁healthcare	-11.3016
▁pivotal	-11.3016
▁groceries	-11.3016
▁Durrani	-11.3016
▁lady	-11.3016
▁Sk	-11.3017
▁Lady	-11.3018
▁Diu	-11.3018
▁thereafter	-11.3018
▁protesters	-11.3018
▁gym	-11.3019
▁Iltutmish	-11.3019
▁diameter	-11.3019
▁limestone	-11.3019
▁Kabul	-11.3019
▁Costa	-11.302
▁SMI	-11.302
▁Airbus	-11.302
▁Salt	-11.302
▁bowel	-11.302
▁prone	-11.3021
▁Navy	-11.3022
▁recall	-11.3024
▁swelling	-11.3024
▁Lata	-11.3024
▁Albert	-11.3025
▁rink	-11.3025
▁expectations	-11.3025
▁carefully	-11.3026
▁translation	-11.3027
▁silent	-11.3028
▁Dimapur	-11.3028
▁Maine	-11.3028
▁Iron	-11.3029
▁cultivated	-11.3029
▁Hence	-11.3029
▁fate	-11.3029
▁butter	-11.3032
▁generate	-11.3032
▁ministers	-11.3034
▁Food	-11.3037
▁communal	-11.3041
▁Zee	-11.3042
▁Dravidian	-11.3042
▁i	-11.3043
▁smoking	-11.3047
▁Fair	-11.305
▁plantations	-11.3051
▁Jat	-11.3053
▁Shop	-11.3057
▁Dan	-11.3059
▁riots	-11.306
▁distinguished	-11.3061
▁Karak	-11.3061
▁mites	-11.3061
▁Bali	-11.3064
door	-11.3064
▁tough	-11.3069
nnual	-11.3072
▁Newcomb	-11.3075
▁runners	-11.3082
▁reasonable	-11.3085
▁Du	-11.3087
▁enact	-11.3093
▁para	-11.3099
▁separately	-11.3103
ious	-11.3108
▁UN	-11.311
▁yard	-11.3116
▁signal	-11.3141
▁oversee	-11.3147
▁sizes	-11.3149
▁designate	-11.3154
▁Madan	-11.3155
▁errors	-11.3155
▁laugh	-11.3157
▁experts	-11.3159
▁ties	-11.316
▁financially	-11.3165
▁loses	-11.3175
▁carriers	-11.319
▁thrill	-11.3196
▁Born	-11.3199
▁Frank	-11.3204
▁Mongol	-11.3207
▁sad	-11.3207
▁ODI	-11.3208
▁Seven	-11.3209
▁shoulders	-11.3211
mati	-11.3211
▁Pass	-11.3217
▁bonds	-11.3218
▁Lo	-11.322
work	-11.322
▁Exchange	-11.3221
sized	-11.3225
▁Plate	-11.3227
eri	-11.3228
▁legislature	-11.3234
▁Standard	-11.3243
▁bonfire	-11.3243
▁filter	-11.3243
▁conservative	-11.3243
▁Tournament	-11.3244
▁poll	-11.3244
▁danger	-11.3245
▁chariot	-11.3246
dding	-11.3246
▁earthquake	-11.3247
▁hide	-11.3248
▁administrator	-11.3249
▁hormone	-11.3249
▁attitude	-11.325
▁consumer	-11.325
▁vow	-11.3251
mu	-11.3258
ducted	-11.3266
▁Indonesian	-11.3267
▁counts	-11.327
▁depth	-11.3273
▁Ara	-11.3277
▁variants	-11.3287
▁Buddhists	-11.3297
ries	-11.3307
▁bite	-11.3311
▁camps	-11.3327
net	-11.3329
▁basins	-11.3339
▁Classic	-11.3339
▁negotiate	-11.3357
▁revolution	-11.336
▁careful	-11.3361
▁sweets	-11.3363
▁quiet	-11.3364
▁permissi	-11.337
▁Administration	-11.3371
▁Ambassador	-11.3371
▁Taliban	-11.3371
▁Ukraine	-11.3371
▁arrondissement	-11.3371
▁badminton	-11.3371
▁striking	-11.3371
▁struggling	-11.3371
▁Akaash	-11.3371
▁Hampshire	-11.3371
▁Mohammad	-11.3371
▁embark	-11.3371
▁universe	-11.3371
▁laboratory	-11.3371
▁navy	-11.3372
▁Channel	-11.3372
▁naval	-11.3372
▁copyright	-11.3372
▁Alliance	-11.3372
▁Kollam	-11.3372
▁midnight	-11.3372
▁folklore	-11.3372
▁myself	-11.3372
▁Chairman	-11.3372
▁Narendra	-11.3372
▁Shivaratri	-11.3372
▁advertising	-11.3372
▁Shuja	-11.3372
▁puck	-11.3372
▁revival	-11.3373
▁History	-11.3373
▁smile	-11.3373
▁usage	-11.3374
▁malaria	-11.3374
▁Goldman	-11.3374
▁heterochromia	-11.3374
▁Baji	-11.3374
▁Ryan	-11.3375
▁Chauth	-11.3375
▁avatar	-11.3377
▁peninsula	-11.3377
▁gilli	-11.3377
▁Chhatrapati	-11.3377
▁Tagore	-11.3377
▁Ranaut	-11.3377
▁Video	-11.3377
▁Deepti	-11.3377
▁Damodar	-11.3379
▁fires	-11.3379
▁Mahavira	-11.3381
▁dose	-11.3383
ali	-11.3383
▁chains	-11.3384
▁LDL	-11.3385
▁Chittagong	-11.3386
▁toxic	-11.3386
▁untreated	-11.3386
▁coaches	-11.3386
▁percussion	-11.3387
▁Bengaluru	-11.3387
▁Critics	-11.3388
▁Kenya	-11.3389
gar	-11.3392
▁Ship	-11.3394
▁Arjuna	-11.3394
▁Nee	-11.3394
▁Sheikh	-11.3395
▁Shahu	-11.3395
▁Malaysian	-11.3396
▁loyal	-11.3396
▁Dad	-11.3396
▁uncertain	-11.3399
▁Pay	-11.3404
▁Tai	-11.3408
▁absorbed	-11.3409
▁challenged	-11.341
▁zero	-11.3413
▁Communist	-11.3413
▁Shekhar	-11.3415
van	-11.3416
▁lessons	-11.3416
▁Sar	-11.3424
▁authors	-11.3425
ek	-11.3429
▁washing	-11.3431
ology	-11.3432
▁Cho	-11.3434
▁scriptures	-11.3436
rated	-11.3443
Person	-11.3445
▁Veera	-11.3448
▁resolve	-11.3448
▁phrases	-11.3454
▁conjunctiva	-11.3458
▁proportion	-11.3461
▁mis	-11.3466
▁limits	-11.3466
▁Next	-11.3476
▁ulcers	-11.3478
▁mines	-11.3479
▁Deep	-11.349
▁Thar	-11.3492
llied	-11.3496
▁roll	-11.3497
burn	-11.3498
▁Ross	-11.3499
mala	-11.3505
▁routines	-11.3509
▁Tata	-11.3512
▁samples	-11.3513
▁corporations	-11.3513
ata	-11.3517
convinced	-11.3526
▁knows	-11.3528
▁Popula	-11.3528
ga	-11.3536
▁Israeli	-11.3548
▁noble	-11.3549
▁coincide	-11.355
▁hosting	-11.355
▁bi	-11.3559
▁seal	-11.3561
▁Tri	-11.3565
▁brands	-11.3565
veer	-11.3567
▁controls	-11.3569
▁attending	-11.3572
▁defenders	-11.3574
▁flour	-11.3576
▁Bishop	-11.3578
▁swarams	-11.358
▁partly	-11.358
▁incomplete	-11.3581
ula	-11.3583
▁outer	-11.3584
▁tear	-11.3585
▁singles	-11.3585
down	-11.3591
▁interface	-11.3597
▁monarch	-11.36
▁Chamber	-11.3605
▁bases	-11.3606
▁shootout	-11.3606
▁animation	-11.3608
ika	-11.3609
▁surgeon	-11.361
▁intellectual	-11.3611
▁agrees	-11.3613
▁republic	-11.3613
▁receipt	-11.3618
▁calculation	-11.3619
▁mosque	-11.362
▁Bull	-11.3621
▁citizen	-11.3621
▁outcome	-11.3621
▁criticism	-11.3624
▁sum	-11.3625
▁criminals	-11.3627
▁junction	-11.3628
▁beds	-11.3629
▁Kama	-11.3629
▁Right	-11.3629
▁portrayal	-11.363
▁cardio	-11.3631
▁adventure	-11.3633
▁booked	-11.3637
ice	-11.3638
▁terminal	-11.3641
uri	-11.3644
▁spell	-11.3655
tland	-11.3656
▁Ye	-11.3657
▁profit	-11.3658
▁networking	-11.366
▁Sh	-11.3665
▁Cinema	-11.3667
▁Para	-11.3667
state	-11.367
rich	-11.3671
▁threaten	-11.3673
▁tigers	-11.3677
▁inland	-11.3681
▁studying	-11.3684
▁assess	-11.3689
kara	-11.3693
das	-11.3697
▁crowds	-11.3701
▁stead	-11.3701
▁handed	-11.3704
▁palm	-11.3712
▁developments	-11.3718
▁Tang	-11.3724
▁explore	-11.3724
▁refuge	-11.3729
▁Wikimedia	-11.373
stern	-11.3732
▁loose	-11.3733
▁glad	-11.3733
▁magic	-11.3733
▁decorate	-11.3733
▁solve	-11.3733
▁Awadh	-11.3736
▁peaceful	-11.3736
▁Abdul	-11.3738
▁Kunal	-11.3738
▁Gordon	-11.3742
▁Bundesliga	-11.3742
▁Emirates	-11.3742
▁Junction	-11.3742
▁Together	-11.3742
▁boundaries	-11.3742
▁Attorney	-11.3742
▁Azerbaijan	-11.3742
▁Roshni	-11.3742
▁Vindhya	-11.3742
▁scatter	-11.3742
▁bridegroom	-11.3742
▁sewage	-11.3742
▁conservation	-11.3742
▁imprisonment	-11.3742
▁Bruce	-11.3742
▁Bohemia	-11.3742
▁Peace	-11.3742
▁Jordan	-11.3742
▁Benjamin	-11.3742
▁Bureau	-11.3742
▁Gowda	-11.3742
▁Jaidev	-11.3742
▁Chambal	-11.3742
▁Hassan	-11.3742
▁Ashura	-11.3742
▁Multan	-11.3742
▁Nancy	-11.3742
▁navigation	-11.3742
▁impossible	-11.3742
▁dying	-11.3743
▁Ajmer	-11.3743
▁batsman	-11.3743
▁maternal	-11.3743
▁Satara	-11.3743
▁Nikki	-11.3743
▁patches	-11.3744
▁Rawal	-11.3744
▁syllables	-11.3744
▁Omar	-11.3745
▁simultaneously	-11.3745
▁Historically	-11.3746
▁Dortmund	-11.3747
▁intelligence	-11.3747
▁Meetei	-11.3747
▁Review	-11.3747
▁wishes	-11.3747
▁catches	-11.3748
▁wake	-11.3748
▁Bharti	-11.3748
▁alphabet	-11.3748
▁Where	-11.375
▁shell	-11.375
▁inherited	-11.375
▁floating	-11.3752
▁enroll	-11.3753
▁herbs	-11.3754
▁understood	-11.3756
▁jallikattu	-11.3756
▁divert	-11.3756
▁DVD	-11.3757
▁conductor	-11.3757
▁imported	-11.3759
▁Sunny	-11.3759
▁Still	-11.3761
▁repeatedly	-11.3763
▁bread	-11.3766
▁Sudan	-11.3767
▁stronger	-11.3768
▁burned	-11.3769
▁hail	-11.3772
▁masses	-11.3773
▁Rangers	-11.3773
▁Mon	-11.3774
▁healing	-11.3775
▁sparring	-11.3775
hour	-11.378
▁flown	-11.3783
▁arise	-11.3783
▁ruined	-11.3785
▁Kishan	-11.3786
▁resist	-11.3787
▁Swa	-11.3792
▁Jal	-11.3796
▁van	-11.3796
revived	-11.3801
▁Var	-11.3805
▁onwards	-11.3807
oji	-11.3809
▁resembles	-11.3809
▁pushing	-11.381
▁seed	-11.3811
pparently	-11.3816
▁cerebr	-11.3817
▁Palm	-11.3817
▁Rail	-11.3818
▁Syria	-11.3819
▁preserved	-11.382
▁commerce	-11.3824
▁Nag	-11.3825
▁Shahi	-11.3827
▁Politic	-11.3836
foot	-11.384
▁providers	-11.3848
▁Mor	-11.385
ston	-11.3851
ez	-11.3852
▁Mein	-11.3858
▁gains	-11.3859
▁palaces	-11.3862
▁mere	-11.3867
im	-11.3868
dietary	-11.3869
▁discover	-11.3889
iyar	-11.389
▁gates	-11.3893
au	-11.3894
ori	-11.3896
▁Bob	-11.3899
▁pen	-11.39
▁teachings	-11.3903
▁neurologic	-11.3906
▁generals	-11.3906
▁failures	-11.3913
mar	-11.3917
▁Vedas	-11.3928
▁Tropic	-11.393
▁load	-11.3931
▁Thank	-11.3939
▁summers	-11.3939
more	-11.3942
pura	-11.3947
▁Laws	-11.3947
▁preparations	-11.395
puzha	-11.3957
▁suburbs	-11.3958
▁Tap	-11.3962
▁convince	-11.3962
▁dump	-11.3965
▁Taluk	-11.3968
▁Front	-11.3969
▁Kam	-11.3972
%)	-11.3975
mann	-11.3979
▁ads	-11.3984
▁counterfeit	-11.3987
▁desire	-11.3989
hara	-11.3995
▁dreams	-11.3998
▁Satpura	-11.3999
▁mallet	-11.3999
▁skate	-11.4
▁shield	-11.4
▁chamber	-11.4003
▁operator	-11.4004
▁umpire	-11.4004
▁scientist	-11.4005
▁impose	-11.4005
▁drought	-11.4009
▁gland	-11.401
▁goalie	-11.4011
▁devotee	-11.4011
▁blast	-11.4018
▁terrorist	-11.4018
tu	-11.4019
▁chromosome	-11.4026
▁moments	-11.4031
▁improvement	-11.404
▁indoors	-11.4041
ran	-11.4042
▁spark	-11.4043
▁Youth	-11.4046
▁arrests	-11.4051
▁install	-11.4056
▁Char	-11.4058
nagar	-11.408
▁UP	-11.4082
▁fingers	-11.4083
▁Fe	-11.4093
▁diagnos	-11.4094
▁Ji	-11.4095
well	-11.4098
▁synthe	-11.41
▁Heavy	-11.4105
pati	-11.4108
▁consistent	-11.4118
▁structural	-11.4119
carotene	-11.4123
linking	-11.4124
▁vagina	-11.4124
▁lasting	-11.4124
▁Anthony	-11.4126
▁Chakraborty	-11.4126
▁Margaret	-11.4126
▁accompany	-11.4126
▁beneficial	-11.4126
▁ensemble	-11.4126
▁intricate	-11.4126
▁unnecessary	-11.4126
▁Adobe	-11.4126
▁Article	-11.4126
▁Labour	-11.4126
▁Zafar	-11.4126
▁cholesterol	-11.4126
▁confusion	-11.4126
▁entities	-11.4126
▁fifty	-11.4126
▁spouse	-11.4126
▁stunned	-11.4126
▁trophy	-11.4126
▁Thousand	-11.4126
▁enemies	-11.4126
▁Haridwar	-11.4126
▁Kanchipuram	-11.4126
▁Khusrau	-11.4127
▁prosperity	-11.4127
▁Arvari	-11.4127
▁Wilson	-11.4127
▁bathroom	-11.4127
▁squad	-11.4127
▁sanitation	-11.4127
▁stuck	-11.4127
▁ecological	-11.4127
supplied	-11.4127
▁excavated	-11.4127
▁Digital	-11.4127
▁strategies	-11.4127
▁Dharmapala	-11.4127
▁globe	-11.4127
▁dried	-11.4127
▁freshwater	-11.4127
▁employment	-11.4127
▁wore	-11.4127
▁Storm	-11.4127
▁Nagori	-11.4127
▁Salman	-11.4127
▁Kanpur	-11.4127
▁Nanak	-11.4127
▁rivalry	-11.4128
▁subsidiary	-11.4128
▁adverse	-11.4128
▁anxious	-11.4128
▁Harry	-11.4128
▁Nader	-11.4128
▁rebelled	-11.4129
▁Ayala	-11.4129
▁effectiveness	-11.413
▁Holika	-11.413
▁Rick	-11.4131
▁Hawaii	-11.4132
▁Large	-11.4132
▁Udaipur	-11.4132
▁McCartney	-11.4132
▁excuse	-11.4132
▁Danish	-11.4132
▁Very	-11.4133
▁relieved	-11.4133
▁mango	-11.4133
▁overnight	-11.4135
▁earthen	-11.4136
▁Iraqi	-11.4136
▁excited	-11.4137
▁Ford	-11.414
▁Raga	-11.4141
▁Who	-11.4141
▁Anupam	-11.4141
▁wushu	-11.4142
▁minimal	-11.4142
▁fusion	-11.4142
▁Honey	-11.4142
▁density	-11.4142
▁CBS	-11.4142
▁restrictions	-11.4143
▁Corps	-11.4145
▁fleet	-11.4148
▁successes	-11.4148
▁isolation	-11.4148
▁introduce	-11.4151
▁Online	-11.4151
▁Head	-11.4154
▁automatic	-11.4155
▁organizers	-11.4159
▁Shoot	-11.4159
▁trips	-11.4161
▁dawn	-11.4161
▁Principal	-11.4162
▁tissues	-11.4165
▁theories	-11.4165
itis	-11.4166
mon	-11.4167
▁spann	-11.4169
▁rape	-11.417
▁Rajasthani	-11.4174
▁Put	-11.4175
▁joints	-11.4176
▁volunteers	-11.4183
▁disputed	-11.4183
▁assert	-11.4184
▁landing	-11.4185
▁Tests	-11.4187
▁siblings	-11.4192
za	-11.4196
▁rang	-11.4197
▁rolling	-11.4205
▁Desi	-11.4207
▁rockets	-11.4207
▁RV	-11.4211
▁landslides	-11.4211
▁rowing	-11.4216
▁regret	-11.4225
▁variables	-11.4231
▁wrestlers	-11.4231
hat	-11.4252
▁camping	-11.4253
▁seals	-11.4256
▁doses	-11.4261
original	-11.4266
▁suspects	-11.4268
Austrian	-11.4269
▁Mahendra	-11.4271
place	-11.4275
government	-11.4281
▁Greeks	-11.4282
ties	-11.4282
▁dialogues	-11.4285
▁Verma	-11.4286
▁concentrations	-11.4294
▁ski	-11.4297
▁ignore	-11.4305
▁arrows	-11.4328
▁halls	-11.4328
▁cane	-11.4338
▁sacrifices	-11.4339
▁Sat	-11.4346
▁grants	-11.4349
▁complaints	-11.4353
▁Count	-11.4353
rland	-11.4355
▁Mi	-11.4357
▁rush	-11.4358
▁reactions	-11.4359
▁Rohi	-11.436
▁peripheral	-11.4363
▁avoided	-11.4363
▁nominee	-11.4364
▁Daniel	-11.4364
▁snowfall	-11.4364
▁paint	-11.4368
ola	-11.4372
▁beer	-11.4381
▁Chauhan	-11.4382
ash	-11.4384
▁Sunni	-11.4386
wala	-11.4391
▁Sufi	-11.4397
▁Rashtrakuta	-11.4397
▁Ottoman	-11.4398
▁farms	-11.4398
▁audition	-11.4398
▁racquet	-11.4399
▁Shopp	-11.44
▁LLC	-11.44
▁keyboard	-11.44
▁gangster	-11.4401
▁Bir	-11.4401
▁elbow	-11.4402
▁explosion	-11.4403
▁poem	-11.4405
▁lesion	-11.4405
▁headquarter	-11.4406
▁investor	-11.4409
▁Officer	-11.441
puram	-11.4412
izz	-11.4412
▁relation	-11.4414
▁tone	-11.4416
▁monkey	-11.442
yam	-11.4421
▁Jha	-11.4422
▁successors	-11.4423
ot	-11.4427
▁writings	-11.4427
wal	-11.4431
erial	-11.4431
▁substances	-11.4432
hu	-11.4437
▁asset	-11.4439
▁receptor	-11.444
port	-11.4442
▁genres	-11.4443
▁kiss	-11.4451
transl	-11.4452
▁alcoholic	-11.4453
▁keeper	-11.4463
▁insult	-11.4467
fighting	-11.4478
▁tala	-11.4479
▁Lu	-11.4479
▁Fa	-11.4481
▁tracking	-11.4481
▁crack	-11.4485
▁rais	-11.4487
▁Tell	-11.4493
▁choreograph	-11.4498
▁pile	-11.4502
ex	-11.4508
▁imagine	-11.4516
▁CD	-11.4526
▁Antwerp	-11.4526
▁Harvard	-11.4526
▁abundant	-11.4526
▁default	-11.4526
▁evident	-11.4526
▁fierce	-11.4526
▁flexibility	-11.4526
▁legacy	-11.4526
▁Orchestra	-11.4526
▁Vaishnavism	-11.4526
▁Palestine	-11.4526
▁disheartening	-11.4526
▁shuttlecock	-11.4526
▁polite	-11.4526
▁pleasant	-11.4526
▁Stockholm	-11.4527
▁Gabbar	-11.4527
▁Natural	-11.4527
▁spokesman	-11.4527
▁Monika	-11.4527
▁Twenty	-11.4527
▁Space	-11.4527
▁timing	-11.4527
▁steadily	-11.4527
▁submerged	-11.4527
▁framework	-11.4527
▁Kurien	-11.4527
▁Yuvaan	-11.4527
▁Mitra	-11.4527
▁Overall	-11.4527
▁supplementation	-11.4527
▁Hungary	-11.4527
▁remainder	-11.4527
▁Neha	-11.4527
▁convey	-11.4528
▁layout	-11.4528
▁judici	-11.4528
▁ferry	-11.4528
▁Mag	-11.4529
▁Moore	-11.4529
▁Electric	-11.4529
▁similarities	-11.453
▁Thereafter	-11.453
▁crushed	-11.4531
▁Vaikuntha	-11.4532
▁Vikramaditya	-11.4532
▁anymore	-11.4532
▁RNA	-11.4532
▁input	-11.4533
▁Suraj	-11.4533
▁Turkic	-11.4533
▁knockout	-11.4533
▁evacuated	-11.4534
▁Airway	-11.4535
▁Flyers	-11.4535
▁Boat	-11.4535
▁illnesses	-11.4536
▁goddesses	-11.4537
▁lighting	-11.4537
▁arthritis	-11.4537
▁constitutional	-11.4538
▁passive	-11.4538
▁blend	-11.4539
▁colourful	-11.4539
▁behalf	-11.4539
▁instant	-11.4539
▁experimental	-11.454
▁outstanding	-11.454
now	-11.4542
▁utilities	-11.4542
▁discrimination	-11.4542
▁Dum	-11.4542
▁rotation	-11.4543
▁campus	-11.4544
▁tight	-11.4548
▁leaf	-11.4549
▁Higher	-11.455
▁CT	-11.4551
▁imaging	-11.4553
politan	-11.4553
▁operational	-11.4553
▁Messi	-11.4554
▁adaptation	-11.4554
▁reside	-11.4554
▁revolve	-11.4554
▁Graves	-11.4556
▁Kher	-11.4557
▁Sutras	-11.4559
▁binding	-11.4564
▁narrate	-11.4566
ize	-11.4575
▁Nana	-11.4579
▁commented	-11.4579
▁advertisements	-11.4579
▁lesser	-11.4582
▁horns	-11.4584
▁Che	-11.4595
▁Krishnan	-11.4599
can	-11.4602
▁wing	-11.4605
ily	-11.4606
▁ascending	-11.4606
▁habits	-11.461
▁spectators	-11.461
▁developers	-11.4613
▁Aryan	-11.4613
▁troupes	-11.4615
▁chip	-11.4626
▁pillars	-11.463
▁questioned	-11.4632
ev	-11.4632
▁prey	-11.4634
▁naturally	-11.4639
▁symbolize	-11.4644
▁cart	-11.4644
▁publications	-11.4646
▁Yama	-11.4646
▁targeted	-11.4649
finals	-11.4649
rang	-11.4654
▁denote	-11.4654
▁respected	-11.4656
▁Matt	-11.4661
ung	-11.4661
▁governors	-11.4661
▁Bas	-11.4665
▁Mann	-11.4669
▁tens	-11.4675
oid	-11.4681
▁plates	-11.4686
▁Pi	-11.4686
▁socially	-11.4689
▁Screen	-11.4689
▁sal	-11.4693
gi	-11.4694
▁Jim	-11.4694
went	-11.4699
▁deposits	-11.4702
air	-11.4703
▁Adams	-11.4706
▁Anant	-11.4715
▁contributions	-11.4717
▁Raman	-11.4732
▁shelters	-11.4732
▁bombs	-11.4741
▁ulcer	-11.4746
▁chair	-11.4756
▁export	-11.4758
▁Bara	-11.4761
▁donate	-11.4772
▁processions	-11.4773
bhai	-11.4776
▁maps	-11.4778
▁lett	-11.4779
▁Shastra	-11.4781
▁passages	-11.4789
▁stem	-11.4793
▁venues	-11.4793
▁acknowledge	-11.4795
▁cats	-11.4796
▁sits	-11.4802
▁attractions	-11.4804
▁bass	-11.4805
▁bulls	-11.4806
▁castes	-11.4811
▁opinion	-11.4812
▁sultanate	-11.4813
▁diamond	-11.4814
▁stance	-11.4816
▁dolphin	-11.4816
▁headache	-11.4817
▁jungle	-11.4817
▁argument	-11.4818
▁incidents	-11.4818
▁tumor	-11.482
▁Senator	-11.4821
▁pilgrim	-11.4822
▁ancestor	-11.4822
▁resource	-11.4823
▁pipe	-11.4824
▁disciple	-11.4825
▁employer	-11.4825
▁advocate	-11.4826
▁Bird	-11.4832
▁PC	-11.4836
▁Jag	-11.4839
▁publication	-11.484
▁poster	-11.4844
descending	-11.4849
▁novels	-11.485
▁tons	-11.485
▁Vijaya	-11.4853
▁edit	-11.4863
▁organiz	-11.4865
▁angle	-11.4872
▁Village	-11.488
▁Bal	-11.4888
eshwara	-11.489
▁Palas	-11.489
▁rear	-11.4892
▁topic	-11.4895
▁mad	-11.4897
▁requir	-11.4897
▁Ge	-11.4899
scribed	-11.4899
▁borrow	-11.4904
▁Francis	-11.4904
▁scripts	-11.4906
anoj	-11.4911
▁abandon	-11.4915
▁honest	-11.4919
▁Mission	-11.4924
definitely	-11.4925
▁manufacture	-11.4926
▁RA	-11.4927
▁poly	-11.4929
▁manual	-11.4932
▁Karl	-11.4933
▁bore	-11.4933
ural	-11.4936
▁breathe	-11.4937
▁firms	-11.4939
▁Basin	-11.494
Friend	-11.494
▁Hot	-11.4941
▁drunk	-11.4941
▁disrupt	-11.4941
▁labor	-11.4942
iruvananthapuram	-11.4943
▁Arizona	-11.4943
▁Defense	-11.4943
▁Jhansi	-11.4943
▁Lawrence	-11.4943
▁Manhattan	-11.4943
▁Netflix	-11.4943
▁Sattriya	-11.4943
▁Sundarbans	-11.4943
▁excavation	-11.4943
▁potassium	-11.4943
▁proximity	-11.4943
▁survival	-11.4943
▁tehsil	-11.4943
▁Achievement	-11.4943
▁Temperature	-11.4943
▁Gobind	-11.4943
▁Kafur	-11.4943
▁Kennedy	-11.4943
▁WWE	-11.4943
▁genus	-11.4943
▁inquiry	-11.4943
▁coalition	-11.4943
▁utility	-11.4943
▁Mangalore	-11.4943
▁Satbir	-11.4943
▁tongue	-11.4943
▁Denver	-11.4943
▁Rathore	-11.4943
▁Rediff	-11.4943
▁Tarabai	-11.4943
▁spectacular	-11.4943
▁suspicious	-11.4943
▁Kanishka	-11.4943
▁waist	-11.4943
▁fossil	-11.4943
▁Sardar	-11.4943
▁distant	-11.4943
▁Ridge	-11.4943
▁Yaw	-11.4944
▁disability	-11.4944
▁Class	-11.4944
▁unveiled	-11.4944
▁Nick	-11.4944
▁indeed	-11.4945
▁Donald	-11.4945
▁lenses	-11.4945
▁Thakur	-11.4946
▁sari	-11.4946
▁Hamilton	-11.4946
▁Industries	-11.4946
▁Chase	-11.4947
▁USB	-11.4947
▁mountainous	-11.4947
▁undertaken	-11.4947
▁Khande	-11.4948
▁decisive	-11.4948
▁Web	-11.4948
▁Mariam	-11.4949
▁casual	-11.4949
▁grandmother	-11.4949
▁villain	-11.4949
▁froze	-11.495
▁Provinces	-11.495
▁affordable	-11.495
▁condemned	-11.495
▁scholarship	-11.495
▁underground	-11.495
▁Cao	-11.495
▁Parshvanatha	-11.495
evergreen	-11.4951
▁promising	-11.4951
▁burnt	-11.4952
▁informal	-11.4952
▁busi	-11.4953
▁Shortly	-11.4953
▁remarkable	-11.4953
▁latent	-11.4954
▁considerably	-11.4957
▁Viceroy	-11.4958
▁gaming	-11.4959
▁accuracy	-11.496
▁streak	-11.496
▁actresses	-11.496
▁availability	-11.496
▁Search	-11.496
▁negotiated	-11.4961
▁Dhaka	-11.4961
oram	-11.4962
▁Ghana	-11.4963
▁secular	-11.4964
▁alike	-11.4967
▁Devils	-11.4967
▁instituted	-11.4968
▁Sutlej	-11.497
▁thoughts	-11.4972
▁specified	-11.4973
▁Ru	-11.4974
▁households	-11.498
▁romance	-11.4981
▁negotiations	-11.4982
▁Brothers	-11.499
▁textiles	-11.4993
▁predicted	-11.4993
▁emphasize	-11.5001
gam	-11.5002
▁graphics	-11.5005
▁wetlands	-11.5009
sen	-11.5012
▁Vegas	-11.5015
▁insects	-11.5016
▁swords	-11.5016
▁doubled	-11.5017
▁spreading	-11.5017
▁neuro	-11.5021
▁Mata	-11.5022
vi	-11.5024
▁legally	-11.5031
▁Vishu	-11.5031
▁Kota	-11.5032
▁documented	-11.5037
malai	-11.5043
▁soils	-11.5043
▁proof	-11.5048
▁tapp	-11.505
▁optic	-11.5051
▁donations	-11.5052
dhar	-11.5063
▁mini	-11.5066
▁dip	-11.5067
screen	-11.5073
▁hotels	-11.5074
▁persist	-11.5077
ze	-11.5077
▁signals	-11.5092
▁resorts	-11.5093
▁ghosts	-11.5093
▁thanks	-11.5097
▁disks	-11.5099
▁rocky	-11.5108
organic	-11.5112
east	-11.5116
▁Com	-11.512
▁Kushans	-11.5122
wide	-11.5124
▁Kumari	-11.5125
▁Economics	-11.5131
Mysore	-11.5131
▁induced	-11.5133
ants	-11.5135
▁migrator	-11.5137
▁tri	-11.5137
▁Norr	-11.5137
▁rewards	-11.5138
▁paste	-11.5138
▁disputes	-11.5142
▁boards	-11.5142
▁recite	-11.5143
▁Qu	-11.5147
hit	-11.5149
town	-11.515
tal	-11.5153
pala	-11.5159
▁ears	-11.5161
▁Chu	-11.5164
▁Babu	-11.5165
▁smoke	-11.5172
▁meter	-11.5174
held	-11.5176
▁yearly	-11.5177
▁struggles	-11.5184
▁Sid	-11.5189
▁sequences	-11.519
top	-11.5198
▁knees	-11.5201
che	-11.5207
▁lid	-11.5214
▁bail	-11.5216
▁envelope	-11.5219
▁legislation	-11.522
▁expressions	-11.5222
▁Malaya	-11.5223
▁LG	-11.5224
▁spine	-11.5226
▁Gopi	-11.5231
▁ashram	-11.5234
▁exceptional	-11.5235
thi	-11.5236
▁antagonist	-11.5237
▁Con	-11.5239
▁Nar	-11.524
▁scandal	-11.5241
▁landscape	-11.5247
▁spear	-11.5248
▁punishment	-11.5249
▁Senior	-11.5251
▁barcode	-11.5251
▁pepper	-11.5252
▁academic	-11.5252
▁sage	-11.5253
▁Spring	-11.5254
▁cloud	-11.5254
▁blog	-11.5255
▁predecessor	-11.5255
▁affair	-11.5257
▁vessel	-11.5257
▁Tirthankara	-11.5257
▁sculpture	-11.5257
▁specialist	-11.5258
▁staple	-11.5259
▁touchdown	-11.5262
▁blade	-11.5263
▁Work	-11.5264
mm	-11.527
▁federation	-11.5272
▁hook	-11.5273
▁Bengalis	-11.5276
▁rings	-11.5276
▁tube	-11.528
▁forested	-11.5281
▁boxer	-11.5285
washed	-11.5297
▁dominate	-11.5297
▁filling	-11.5323
▁cult	-11.5325
▁silt	-11.5328
▁Gang	-11.5329
ny	-11.5329
▁weigh	-11.533
▁describ	-11.5331
gaon	-11.5332
▁evolution	-11.534
▁absorb	-11.5343
▁Adam	-11.5345
▁focuse	-11.5346
▁Ana	-11.5348
▁Hero	-11.5351
▁boost	-11.5358
drama	-11.5361
▁strange	-11.5361
▁smooth	-11.5363
▁compromise	-11.5363
▁machines	-11.5368
▁appreciate	-11.5368
▁regime	-11.5369
▁Colombia	-11.537
▁Show	-11.5371
▁transit	-11.5372
▁Direct	-11.5372
▁bridges	-11.5373
▁cornea	-11.5376
▁Foreign	-11.5376
▁embass	-11.5377
▁Trisha	-11.5377
eminent	-11.5378
▁Berkeley	-11.5378
▁COVID	-11.5378
▁Chanakya	-11.5378
▁Individual	-11.5378
▁Seleucus	-11.5378
▁Smriti	-11.5378
▁custody	-11.5378
▁dhrupad	-11.5378
▁diaspora	-11.5378
▁disguise	-11.5378
▁fishermen	-11.5378
▁frustrating	-11.5378
▁graduating	-11.5378
▁militia	-11.5378
▁silence	-11.5378
▁Challenge	-11.5378
▁Puerto	-11.5378
▁Wikinews	-11.5378
▁applicable	-11.5378
▁Software	-11.5378
▁iTunes	-11.5378
▁eBay	-11.5378
▁Mickey	-11.5378
▁Partition	-11.5378
▁Beckham	-11.5378
▁Infantry	-11.5378
▁Hitler	-11.5378
▁iOS	-11.5378
▁Frontier	-11.5378
▁foster	-11.5378
▁naked	-11.5378
▁laser	-11.5378
▁BSNL	-11.5378
▁Mauritius	-11.5378
▁Vishwaroopam	-11.5378
▁devastated	-11.5378
▁terrace	-11.5378
▁escort	-11.5378
▁nationwide	-11.5378
▁sandstone	-11.5378
responsibilities	-11.5378
▁mystery	-11.5378
▁Shukla	-11.5379
▁autonomy	-11.5379
▁Bhakti	-11.5379
▁Anshul	-11.5379
▁batteries	-11.5379
▁hunger	-11.5379
▁Everyone	-11.5379
▁Rajaram	-11.538
▁Bel	-11.538
▁Outside	-11.538
▁deputy	-11.538
▁Basu	-11.538
▁dissolved	-11.5381
▁reptiles	-11.5381
▁judo	-11.5381
▁factories	-11.5381
▁trekking	-11.5382
▁urine	-11.5382
▁bonus	-11.5382
▁autumn	-11.5382
Zamani	-11.5383
▁warned	-11.5384
▁identical	-11.5384
▁judgment	-11.5384
▁penance	-11.5385
▁Magadha	-11.5385
▁Blair	-11.5385
▁Jabing	-11.5387
▁heading	-11.5387
▁Argentine	-11.5388
▁merger	-11.5389
▁hiding	-11.539
▁occasional	-11.5392
▁ages	-11.5392
▁smart	-11.5393
▁manufactured	-11.5393
▁voting	-11.5393
▁postponed	-11.5394
▁armour	-11.5395
▁genuine	-11.5395
▁millennium	-11.5395
▁terrible	-11.5395
▁Schedule	-11.5395
▁Shaolin	-11.5395
▁wrapped	-11.5395
▁Kannur	-11.5395
▁facto	-11.5396
▁Carlo	-11.5397
▁luck	-11.5398
▁Cuttack	-11.54
▁quoted	-11.5401
▁nominal	-11.5402
▁secretly	-11.5406
▁Martial	-11.5407
▁cop	-11.5407
▁shake	-11.5408
▁ICC	-11.5408
▁Dutta	-11.5408
▁profile	-11.5414
▁pursued	-11.5414
▁suggestions	-11.5414
▁Cochin	-11.5418
metre	-11.5418
▁magnific	-11.5422
▁refugees	-11.5422
ping	-11.5423
▁migrate	-11.5423
▁flags	-11.5429
▁steroids	-11.543
ibn	-11.5432
▁Hind	-11.5432
person	-11.5433
▁accidents	-11.5433
▁travelled	-11.5434
▁colleagues	-11.5436
▁Siva	-11.5439
▁nuts	-11.544
▁tactic	-11.5441
▁en	-11.545
▁manuscripts	-11.5452
▁lighter	-11.5452
▁anger	-11.5454
▁settings	-11.5455
▁assassination	-11.5456
▁qualifying	-11.5457
▁infant	-11.5461
▁swaras	-11.5463
▁Far	-11.5465
jo	-11.5465
▁homeless	-11.5467
▁readers	-11.5471
oor	-11.5472
▁physically	-11.5473
gen	-11.5474
▁printing	-11.5476
ode	-11.5485
▁kg	-11.5488
▁Dadr	-11.5507
opher	-11.5517
▁Manu	-11.5518
▁flooded	-11.552
ter	-11.5524
key	-11.5524
▁consequences	-11.5535
▁migrat	-11.5545
ndi	-11.5545
▁Hy	-11.5546
exist	-11.5548
▁controller	-11.5552
▁resembl	-11.5552
▁impos	-11.5562
▁arrangements	-11.5563
standing	-11.5567
▁eyelids	-11.5568
four	-11.5577
with	-11.5582
people	-11.5584
square	-11.5586
’’	-11.5587
▁Have	-11.5588
highest	-11.5588
▁Cold	-11.5588
player	-11.5592
▁traveled	-11.5592
▁choices	-11.5594
lands	-11.5596
▁Sites	-11.5606
▁menu	-11.5612
▁Howe	-11.5613
▁Daman	-11.5614
tended	-11.5625
▁operat	-11.5626
▁Shoppers	-11.5626
tak	-11.5629
▁carve	-11.5639
uch	-11.5642
bai	-11.5644
fan	-11.5647
▁Call	-11.565
▁Kanha	-11.5652
▁Gharana	-11.567
▁rows	-11.5671
It	-11.5673
▁Matthew	-11.5676
▁bestow	-11.5677
▁Less	-11.568
dustrial	-11.5681
▁Kara	-11.5683
▁checked	-11.5684
▁r	-11.5685
▁Aravalli	-11.5688
▁ruin	-11.569
▁civilians	-11.5692
▁Digambara	-11.5694
▁sponsorship	-11.5696
▁implementation	-11.5696
▁tackle	-11.5699
▁drum	-11.5699
▁Hotel	-11.57
▁assessment	-11.5702
▁juice	-11.5702
▁nausea	-11.5703
▁appointment	-11.5704
▁Zone	-11.5705
tam	-11.5706
▁departments	-11.571
▁Ministers	-11.5711
▁descendant	-11.5711
▁wrestler	-11.5712
▁Philip	-11.5713
▁architect	-11.5714
▁Plain	-11.5715
▁Arabs	-11.5716
▁Final	-11.5716
▁circular	-11.5718
▁commanders	-11.572
▁pilot	-11.5724
▁egg	-11.5731
▁Kite	-11.5731
▁pockets	-11.5731
▁forever	-11.5732
▁concepts	-11.5737
▁pole	-11.5739
sex	-11.5739
▁crystal	-11.5739
▁Viz	-11.574
▁fighter	-11.574
▁variable	-11.574
▁dimension	-11.575
▁supermodel	-11.5752
▁oils	-11.5754
▁mantra	-11.5754
▁windows	-11.5754
▁implement	-11.5754
▁ease	-11.5759
▁provider	-11.5762
▁lion	-11.5764
plus	-11.5765
▁revive	-11.5765
nda	-11.5771
▁Cu	-11.578
▁Te	-11.578
▁sometime	-11.5784
▁achiev	-11.5786
▁speeds	-11.5786
▁thrift	-11.5794
abad	-11.5794
▁Nazi	-11.5797
▁restrict	-11.5797
▁plunder	-11.5797
▁amid	-11.5797
▁recreation	-11.5798
▁myelin	-11.5799
▁clip	-11.5809
▁Place	-11.581
▁Ranji	-11.5812
olithic	-11.5815
▁harsh	-11.5819
▁apologize	-11.5819
▁spontaneous	-11.582
pe	-11.5823
▁Former	-11.5824
▁Bagh	-11.5825
▁wage	-11.5827
jit	-11.5828
▁Romania	-11.5829
▁induce	-11.583
▁breach	-11.583
▁deploy	-11.5831
▁subdu	-11.5832
▁brutal	-11.5832
▁Approximately	-11.5832
▁Cardamom	-11.5832
▁Jakarta	-11.5832
▁Jallikattu	-11.5832
▁Kathmandu	-11.5832
▁Management	-11.5832
▁Prefecture	-11.5832
▁Qasim	-11.5832
▁Rebellion	-11.5832
▁Revenue	-11.5832
▁Siliguri	-11.5832
▁Upanayana	-11.5832
▁Visakhapatnam	-11.5832
▁Wrestling	-11.5832
▁adjoin	-11.5832
▁backdrop	-11.5832
▁constituency	-11.5832
▁embrace	-11.5832
▁nutrition	-11.5832
▁occurrence	-11.5832
▁unemployment	-11.5832
▁Adelaide	-11.5832
▁Campbell	-11.5832
▁Liverpool	-11.5832
▁opium	-11.5832
▁Rabindra	-11.5832
▁Akhtar	-11.5832
▁Dilip	-11.5832
▁Abbott	-11.5832
▁laghu	-11.5832
▁applies	-11.5832
▁privacy	-11.5832
▁Sardaar	-11.5833
▁Shunga	-11.5833
▁fridge	-11.5833
▁Lumpur	-11.5833
▁Nimmi	-11.5833
▁Kevin	-11.5833
▁Robinson	-11.5833
▁cysticercosis	-11.5833
▁quantities	-11.5833
▁Arsenal	-11.5833
▁Kannauj	-11.5833
▁jute	-11.5833
▁Dakota	-11.5833
▁sunset	-11.5833
▁pork	-11.5833
▁Monica	-11.5833
▁Maple	-11.5833
▁emergencies	-11.5833
▁Schwan	-11.5833
▁neighbours	-11.5833
▁missionaries	-11.5833
▁certified	-11.5833
▁eighteen	-11.5833
▁disgusting	-11.5834
▁artery	-11.5834
▁Ronaldo	-11.5834
▁battlefield	-11.5834
▁hardware	-11.5834
▁Banana	-11.5834
▁Multiple	-11.5834
▁Poor	-11.5834
▁Movie	-11.5835
▁ministry	-11.5835
▁choos	-11.5835
▁Sikhism	-11.5835
▁southwestern	-11.5835
▁tiny	-11.5835
▁wallet	-11.5836
▁Season	-11.5836
▁hospitalized	-11.5836
▁hometown	-11.5836
▁Hirani	-11.5836
▁Northwest	-11.5837
▁Cash	-11.5837
▁complexity	-11.5837
▁comeback	-11.5837
▁Liberal	-11.5837
▁disappointing	-11.5837
▁revered	-11.5838
▁Nair	-11.5839
▁incarnation	-11.5839
▁Ponnani	-11.5839
▁quantity	-11.584
▁Tripuri	-11.584
▁bitter	-11.584
▁approaches	-11.5841
▁Ranjit	-11.5841
▁FH	-11.5842
▁Era	-11.5843
▁slower	-11.5845
▁Allah	-11.5845
▁Can	-11.5846
▁realistic	-11.5846
▁candy	-11.5847
▁beef	-11.5847
▁halftime	-11.5848
▁interpreted	-11.585
▁somebody	-11.585
▁bats	-11.585
▁battery	-11.585
▁cognitive	-11.5851
▁Baltimore	-11.5851
▁Weather	-11.5851
▁Silver	-11.5851
▁thigh	-11.5851
▁Menon	-11.5852
▁investigated	-11.5852
▁haul	-11.5853
▁Athens	-11.5853
▁theft	-11.5855
▁Kapil	-11.5856
▁migrants	-11.5858
▁grammar	-11.5859
▁garage	-11.5862
▁sensitivity	-11.5862
▁fatigue	-11.5863
▁satisfied	-11.5864
▁crosses	-11.5864
▁colorful	-11.5864
▁remark	-11.5865
▁perfectly	-11.5866
▁Gill	-11.5869
▁protector	-11.5869
▁Bu	-11.5869
▁disturbances	-11.587
▁tender	-11.587
▁Bharata	-11.5871
all	-11.5872
▁freezing	-11.5875
▁assists	-11.5879
▁lovers	-11.5879
▁Classical	-11.588
▁Sal	-11.5881
topped	-11.5884
▁IFF	-11.5884
▁confidence	-11.5886
▁fractures	-11.5887
▁Mad	-11.5888
ile	-11.5891
▁Hans	-11.5894
▁Advance	-11.5904
them	-11.5904
▁Bri	-11.5904
▁Gopala	-11.5904
▁Stars	-11.5907
▁sectors	-11.5908
▁Marine	-11.591
▁Students	-11.591
▁bolts	-11.5911
▁outlets	-11.5914
▁surrendered	-11.5915
▁Citr	-11.592
Aryan	-11.5921
▁raider	-11.5923
▁masks	-11.5923
▁Plant	-11.5926
▁rid	-11.5926
▁opens	-11.5926
▁particles	-11.5928
▁Oceania	-11.5928
▁concerning	-11.5935
▁caps	-11.5935
▁Mat	-11.5936
▁empires	-11.5937
▁postures	-11.5939
▁spreads	-11.5942
▁Tha	-11.5943
▁peaks	-11.5944
▁ponds	-11.5945
▁lamps	-11.5951
tel	-11.5955
▁fu	-11.5957
▁blades	-11.5962
▁gay	-11.5965
▁Tara	-11.5968
▁approaching	-11.5972
▁monkeys	-11.5974
▁accompanie	-11.5978
▁umpires	-11.598
▁glands	-11.598
we	-11.5984
ju	-11.5986
▁Mongols	-11.5994
▁minerals	-11.5997
▁tail	-11.6001
▁Mari	-11.6006
pan	-11.6007
▁chat	-11.6008
▁bounds	-11.6012
▁Kay	-11.6018
incorporat	-11.6026
lon	-11.6032
▁sat	-11.6033
▁heights	-11.6035
▁Dhan	-11.6036
▁FM	-11.6043
▁Ea	-11.6046
▁bicycles	-11.605
put	-11.606
▁Palk	-11.6074
▁Tel	-11.608
▁papers	-11.6082
▁marriages	-11.6091
produced	-11.6091
▁Shi	-11.6102
▁outdoors	-11.6103
▁User	-11.6112
▁Ward	-11.6125
▁Locate	-11.6128
▁stays	-11.6133
▁Vira	-11.6144
▁pigment	-11.6151
▁sensation	-11.6156
▁array	-11.6164
▁civilization	-11.6166
▁princes	-11.6166
care	-11.6169
▁App	-11.6171
▁cruise	-11.6172
▁explanation	-11.6175
▁Bhonsle	-11.6175
▁threats	-11.6179
ility	-11.6183
▁Gor	-11.6183
▁Athletic	-11.6184
▁Carl	-11.6185
▁stupa	-11.6186
▁publisher	-11.6187
▁manufacturer	-11.6187
▁pillar	-11.6187
▁lamp	-11.6187
▁vegetable	-11.6188
▁instruction	-11.6188
▁physician	-11.6189
such	-11.619
▁keys	-11.6192
▁pawn	-11.6193
▁component	-11.6194
▁chart	-11.6203
▁cooperative	-11.6204
▁Upp	-11.6204
▁Veer	-11.6209
▁adhere	-11.6214
▁Sp	-11.6214
▁donation	-11.6215
▁cricketer	-11.6216
▁layers	-11.6218
▁admit	-11.6219
gaining	-11.6228
ona	-11.6232
▁Rich	-11.6233
▁introduc	-11.6233
▁cook	-11.6236
▁spa	-11.6237
▁Gopal	-11.6238
▁Yu	-11.6239
▁besieg	-11.6239
▁cha	-11.6247
▁Chal	-11.6247
▁modula	-11.6255
▁clinch	-11.6259
▁Sign	-11.6268
▁Administrative	-11.6268
▁suppress	-11.6269
▁conquer	-11.6271
▁repeat	-11.6275
▁Peri	-11.6292
▁demonstrate	-11.6294
▁Short	-11.6298
▁whil	-11.6299
▁Estonia	-11.6301
▁profession	-11.6301
▁Croatia	-11.6301
▁Kolhapur	-11.6302
▁Jung	-11.6303
▁Marwar	-11.6303
▁Kumaon	-11.6303
▁torture	-11.6305
▁Jami	-11.6308
▁extinct	-11.6308
▁Bharathappuzha	-11.6309
▁Douglas	-11.6309
▁Information	-11.6309
▁Kalugumalai	-11.6309
▁Peshawar	-11.6309
▁Shaivism	-11.6309
▁Subarnarekha	-11.6309
▁ammunition	-11.6309
▁exploration	-11.6309
▁gambling	-11.6309
▁sanctuaries	-11.6309
▁tsunami	-11.6309
▁Creek	-11.6309
▁Kazakhstan	-11.6309
▁Mangalesha	-11.6309
▁Norfolk	-11.6309
▁Orleans	-11.6309
▁Seoul	-11.6309
▁ultraviolet	-11.6309
▁palsy	-11.6309
▁Nirupama	-11.6309
▁thieves	-11.6309
▁vicinity	-11.6309
▁Throwball	-11.6309
▁Boeing	-11.6309
▁Finnish	-11.6309
▁scarring	-11.6309
▁spokesperson	-11.6309
▁Regiment	-11.6309
▁Udayagiri	-11.6309
▁Tennis	-11.6309
▁Baldev	-11.6309
▁Shinde	-11.6309
▁Mahesh	-11.6309
▁Vienna	-11.6309
▁grey	-11.6309
▁Energy	-11.6309
▁refusing	-11.6309
▁Howard	-11.6309
▁Carter	-11.6309
▁Ibrahim	-11.6309
▁pride	-11.6309
▁Bahl	-11.6309
▁gateway	-11.631
▁coinage	-11.631
▁preliminar	-11.631
▁weakness	-11.631
▁Veeru	-11.631
▁councils	-11.631
▁Motion	-11.631
▁buttons	-11.631
▁priority	-11.631
▁Khy	-11.6311
▁groundwater	-11.6311
▁transformation	-11.6311
▁Tarun	-11.6311
▁heartbroken	-11.6311
▁corneal	-11.6311
▁Vilas	-11.6312
▁Antonio	-11.6312
▁collective	-11.6313
▁staging	-11.6313
▁overcome	-11.6313
▁remade	-11.6313
▁shallow	-11.6313
▁aggression	-11.6313
▁cameras	-11.6314
▁Normal	-11.6314
▁mice	-11.6315
▁proclaimed	-11.6315
▁blockbuster	-11.6315
▁possibilities	-11.6316
▁Stephen	-11.6316
▁Uzbekistan	-11.6316
▁Kottayam	-11.6316
▁guidance	-11.6316
▁fertility	-11.6316
▁Croatian	-11.6316
▁superstar	-11.6316
▁Orange	-11.6317
▁Kalm	-11.6317
▁Catholics	-11.6317
▁successive	-11.6317
▁conclude	-11.6317
▁Rajkumar	-11.6318
jeev	-11.6318
▁Canal	-11.6318
▁displaced	-11.6319
▁Vino	-11.632
▁prescribed	-11.632
▁Haiti	-11.6321
▁touches	-11.6322
▁Bala	-11.6323
BT	-11.6323
▁mistaken	-11.6324
▁topical	-11.6324
▁agrarian	-11.6327
▁compiled	-11.6327
▁flexible	-11.6328
▁WNV	-11.6328
▁welcomed	-11.6328
▁crease	-11.6328
▁appendix	-11.6329
▁Karate	-11.633
▁blamed	-11.633
▁adorn	-11.6332
▁basically	-11.6334
blew	-11.6335
▁assembled	-11.6335
▁unlikely	-11.6335
▁lens	-11.6336
▁debated	-11.6337
▁signify	-11.6337
▁Help	-11.634
▁radical	-11.634
▁RAM	-11.6341
▁Agni	-11.6341
▁consulting	-11.6341
▁feudal	-11.6342
▁conferr	-11.6342
▁invaders	-11.6343
▁partial	-11.6345
▁regulated	-11.6345
yl	-11.6348
▁accepts	-11.6348
ski	-11.6348
▁everyday	-11.6351
▁dominance	-11.6352
▁von	-11.6353
▁enclaves	-11.6354
▁gestures	-11.6354
▁vaccinated	-11.6354
▁Basic	-11.6355
hal	-11.6355
nia	-11.6357
▁irrigated	-11.6357
▁Store	-11.6358
▁Beas	-11.6359
▁Kent	-11.6359
▁Fast	-11.6359
▁bowled	-11.6359
▁primates	-11.636
▁skiing	-11.6362
▁affiliate	-11.6364
▁Regional	-11.6365
▁Upanishads	-11.6366
▁Bhai	-11.6369
▁globally	-11.637
▁planet	-11.637
▁condoms	-11.6372
▁confin	-11.6376
▁blessings	-11.6378
▁Nagas	-11.6378
▁lotus	-11.6379
ery	-11.638
use	-11.639
▁earns	-11.6394
ff	-11.6396
▁riders	-11.6405
▁exchanged	-11.6405
▁allies	-11.6408
▁neutral	-11.6412
▁Satya	-11.6413
▁continents	-11.6415
lly	-11.6416
▁Nor	-11.6417
▁burn	-11.6419
▁marking	-11.6424
▁rackets	-11.6427
▁coughing	-11.6429
uki	-11.6432
▁burns	-11.6434
▁crowded	-11.6435
holm	-11.6437
▁tumors	-11.6451
▁Senators	-11.6451
▁Fran	-11.6454
▁questioning	-11.6463
human	-11.6468
▁Net	-11.6469
▁o	-11.6471
▁professionally	-11.6476
▁Sara	-11.6481
▁Ol	-11.6482
▁threatening	-11.6484
▁bits	-11.6486
seven	-11.6486
▁metre	-11.649
var	-11.6503
▁Aur	-11.6503
▁Val	-11.6506
▁Saka	-11.6518
mer	-11.6518
▁Sanga	-11.6522
▁patrons	-11.6525
▁Boys	-11.6527
▁Mand	-11.6536
but	-11.6537
▁elevations	-11.6537
▁functioning	-11.6545
▁bio	-11.6548
▁seating	-11.6548
▁expecting	-11.6557
▁sellers	-11.6559
guard	-11.6559
immune	-11.6562
League	-11.6563
▁similarly	-11.6565
five	-11.6568
▁shirts	-11.6569
asa	-11.657
▁overlook	-11.657
▁Form	-11.6571
▁Include	-11.6573
▁grip	-11.6573
We	-11.6574
▁Medal	-11.658
▁Sindhi	-11.6581
▁planted	-11.6592
▁procedures	-11.6592
▁notation	-11.6593
▁monitor	-11.6603
▁Fif	-11.6603
ring	-11.6604
▁controll	-11.6605
ray	-11.6605
▁spike	-11.6613
▁Kai	-11.6614
▁demons	-11.6621
▁saints	-11.6623
▁Pu	-11.6629
▁Maharan	-11.6631
▁heaven	-11.6634
▁fines	-11.6636
▁bargain	-11.6637
▁signifie	-11.6638
▁fluids	-11.6642
▁breed	-11.6642
▁masters	-11.6645
▁Kakatiya	-11.6646
▁digging	-11.6647
▁circles	-11.6649
▁massacre	-11.6649
▁coaching	-11.6653
tion	-11.666
▁Nath	-11.6664
▁evaluation	-11.6664
▁Female	-11.6664
▁mandate	-11.6665
▁Gaekwad	-11.6672
▁burden	-11.6672
▁desktop	-11.6672
▁VI	-11.6673
▁goaltender	-11.6676
▁pursuit	-11.6676
▁accommodation	-11.6676
ating	-11.6678
▁Northeast	-11.6678
▁magazines	-11.6679
▁Back	-11.6679
ci	-11.6679
▁emotion	-11.6679
▁Jaintia	-11.668
▁toxin	-11.668
▁cancers	-11.6682
▁preference	-11.6683
▁uprising	-11.6683
▁Garden	-11.6683
▁dominion	-11.6684
▁interaction	-11.6685
▁Roger	-11.6685
▁Animal	-11.6685
▁racket	-11.6686
▁prescription	-11.6687
▁Studio	-11.6688
▁complication	-11.6688
▁pond	-11.6688
▁collector	-11.6689
▁Ghat	-11.669
▁bout	-11.6695
▁Full	-11.6696
▁backwater	-11.6696
mitra	-11.6696
▁Ca	-11.6696
▁Race	-11.6696
▁farmer	-11.6698
▁pupil	-11.6704
▁rust	-11.6706
▁update	-11.6706
ians	-11.671
▁reporter	-11.6711
ns	-11.6712
▁insight	-11.6714
▁Player	-11.6715
▁odd	-11.6716
▁resident	-11.6721
▁mela	-11.6723
▁Fr	-11.6724
▁Ladakhi	-11.6727
▁trek	-11.673
pal	-11.6737
▁sells	-11.6741
▁defect	-11.6745
▁candidates	-11.6748
▁Nav	-11.6752
▁premier	-11.6754
cast	-11.6756
▁Koch	-11.6757
▁Sur	-11.6758
▁par	-11.6761
▁Camp	-11.6768
▁frown	-11.6773
▁acclaim	-11.6774
▁considerabl	-11.678
▁Gra	-11.6782
▁swor	-11.6789
▁lend	-11.6791
chal	-11.6792
▁abnormal	-11.6795
▁Bhadra	-11.6796
▁random	-11.6796
▁Madhav	-11.6797
▁Earl	-11.6798
▁Ed	-11.68
▁aids	-11.6805
▁Nandi	-11.6806
▁Guard	-11.6807
▁Lincoln	-11.6809
▁Kulothunga	-11.6809
▁Ayodhya	-11.6809
▁Calicut	-11.6809
▁Cemetery	-11.6809
▁Cyprus	-11.6809
▁Glasgow	-11.6809
▁Latvia	-11.6809
▁Luxembourg	-11.6809
▁Renaissance	-11.6809
▁Taylor	-11.6809
▁Venezuela	-11.6809
▁dysfunction	-11.6809
▁frustration	-11.6809
▁hierarchy	-11.6809
▁iPod	-11.6809
▁phenomenon	-11.6809
▁rectangular	-11.6809
▁remnant	-11.6809
▁silica	-11.6809
▁zenith	-11.6809
▁Dainik	-11.6809
▁Unicode	-11.6809
▁Utah	-11.6809
▁prostitution	-11.6809
▁Guinea	-11.6809
▁Nebraska	-11.6809
▁philosophic	-11.6809
▁Columbus	-11.6809
▁chemistry	-11.6809
▁fundamental	-11.6809
prakash	-11.6809
▁distress	-11.6809
▁puberty	-11.6809
▁Diego	-11.6809
▁Kshetra	-11.6809
▁ghee	-11.6809
▁registration	-11.6809
▁Bahrain	-11.6809
▁absent	-11.6809
▁Patiala	-11.6809
▁kidnapped	-11.6809
▁Janeiro	-11.6809
▁Teresa	-11.6809
▁Vedanta	-11.6809
▁Geneva	-11.6809
▁bladder	-11.6809
▁investigating	-11.6809
▁kayaking	-11.6809
▁sunrise	-11.6809
▁Shankaracharya	-11.6809
▁Masjid	-11.6809
▁sulfur	-11.6809
▁Route	-11.6809
▁girlfriend	-11.6809
▁Rhea	-11.6809
▁Bagmati	-11.6809
▁Bhagavathar	-11.6809
▁enforcement	-11.6809
▁precise	-11.6809
▁Graham	-11.6809
▁disappearance	-11.6809
▁sunlight	-11.6809
▁verify	-11.6809
▁attachment	-11.6809
▁entitled	-11.6809
tolerant	-11.6809
▁loyalty	-11.6809
▁reception	-11.6809
▁Timurid	-11.6809
▁sovereignty	-11.6809
▁Ganguly	-11.6809
▁hygiene	-11.6809
▁inaugurated	-11.6809
▁Subhash	-11.681
▁Princeton	-11.681
▁slavery	-11.681
▁marketplace	-11.681
▁motivation	-11.681
▁pronounced	-11.681
▁minorities	-11.681
▁Rajputana	-11.681
▁maiden	-11.681
▁Busch	-11.681
▁Bajrang	-11.6811
▁machinery	-11.6811
▁Planning	-11.6811
▁Nritya	-11.6812
▁Makara	-11.6812
▁Ltd	-11.6812
▁Preeti	-11.6812
▁Engineering	-11.6812
▁Asaf	-11.6812
▁artifacts	-11.6812
▁consensus	-11.6812
▁rode	-11.6812
▁Uruguay	-11.6813
▁downtown	-11.6813
▁Hellenist	-11.6813
▁underneath	-11.6813
dejected	-11.6814
ocular	-11.6814
▁premiere	-11.6814
▁assassinated	-11.6815
▁Feluda	-11.6816
▁Seenu	-11.6816
▁watershed	-11.6816
▁depiction	-11.6816
▁firing	-11.6817
▁Yuvi	-11.6817
▁tonnes	-11.6817
▁exploded	-11.6818
▁immigrants	-11.6818
▁Rather	-11.6818
▁Gaon	-11.6818
▁disabled	-11.6819
▁indicator	-11.6819
▁bench	-11.682
▁hillock	-11.682
burg	-11.6821
mpress	-11.6822
▁nest	-11.6822
▁subjugated	-11.6823
▁compress	-11.6823
▁bold	-11.6823
▁Annie	-11.6824
▁cysts	-11.6825
▁heroine	-11.6825
▁watches	-11.6825
▁gauge	-11.6828
▁desired	-11.6829
▁Maldives	-11.6829
▁Kunti	-11.683
▁worker	-11.6831
▁stranded	-11.6831
▁Harappan	-11.6833
pat	-11.6835
▁Wait	-11.6835
▁Kiran	-11.6836
▁Fear	-11.6836
▁Leafs	-11.6837
▁Stop	-11.6839
▁productivity	-11.6842
▁processes	-11.6842
▁limitations	-11.6844
▁magnet	-11.6846
▁Eight	-11.6848
▁Johar	-11.6851
▁Bheem	-11.6853
▁implementing	-11.6856
▁firmly	-11.6858
▁hate	-11.6862
▁processing	-11.6863
▁skeletons	-11.6864
▁pounds	-11.6865
▁Ever	-11.6867
▁vassals	-11.6869
▁hymns	-11.687
sky	-11.6871
▁climatic	-11.6874
ied	-11.6875
▁highlights	-11.6876
▁mechanical	-11.688
▁judged	-11.6881
▁UTC	-11.6882
▁traumatic	-11.6883
▁Khal	-11.6886
▁promotional	-11.6888
ST	-11.689
yar	-11.689
▁Sundara	-11.689
▁Boss	-11.6891
▁IF	-11.6897
▁lanes	-11.6901
▁Garh	-11.6903
▁pan	-11.6907
▁compounded	-11.691
only	-11.6916
▁teammates	-11.6918
▁licensed	-11.692
▁Jeff	-11.6922
▁Peru	-11.6926
▁Pil	-11.6927
▁bouts	-11.6933
▁updates	-11.6934
▁pawns	-11.6939
chand	-11.6944
▁patronis	-11.6947
▁predecessors	-11.6952
▁chips	-11.6958
Muslim	-11.6965
▁Programme	-11.6966
▁improvements	-11.6972
▁discovers	-11.6972
▁decid	-11.6975
▁droughts	-11.6979
▁kicked	-11.6984
▁Night	-11.6985
▁Milk	-11.6988
▁Multi	-11.6993
due	-11.6994
▁pit	-11.6995
ii	-11.6997
lock	-11.7002
▁Yuga	-11.7003
▁Mountains	-11.7004
▁panchayats	-11.7004
▁certainly	-11.7007
▁spit	-11.7007
▁Model	-11.7008
▁waited	-11.7011
▁tracts	-11.7011
gu	-11.7011
ped	-11.7013
▁Prayag	-11.7019
▁EU	-11.7021
▁Kol	-11.7021
▁Des	-11.7022
▁addressed	-11.7022
▁contracts	-11.7033
▁h	-11.7049
▁Khar	-11.7051
asaheb	-11.7058
ral	-11.7059
▁Chha	-11.7059
▁Chan	-11.7063
range	-11.7064
▁dealers	-11.7069
▁delays	-11.7069
▁Sanda	-11.7074
intestin	-11.7077
season	-11.7079
▁clans	-11.708
high	-11.7083
specific	-11.7087
while	-11.7088
court	-11.7089
established	-11.7089
divided	-11.7089
otten	-11.7091
shima	-11.7092
▁Vasant	-11.7094
▁repairs	-11.7095
▁licenses	-11.7102
breaking	-11.7107
V	-11.7107
▁IP	-11.711
▁Sino	-11.7118
▁characterize	-11.712
▁ho	-11.7124
bal	-11.7125
▁Bhat	-11.7127
▁wounds	-11.7128
▁numbered	-11.7132
▁belts	-11.7141
▁Kya	-11.7142
▁Dream	-11.7147
ky	-11.7149
so	-11.7151
▁Richards	-11.7153
borg	-11.7155
osis	-11.7162
▁margin	-11.7168
▁compensate	-11.7168
▁Bima	-11.7168
▁Record	-11.7169
ose	-11.7173
▁impression	-11.7175
▁Pur	-11.7177
▁Um	-11.7182
▁Protestant	-11.7186
▁bay	-11.7188
▁Appeal	-11.7191
▁softball	-11.7192
▁sperm	-11.7192
▁Mauryas	-11.7193
▁MRI	-11.7194
▁ambassador	-11.7198
▁CPU	-11.7198
▁powerboat	-11.7199
▁accompaniment	-11.7205
▁vector	-11.7206
tant	-11.7206
▁suspension	-11.7207
▁wash	-11.7208
▁grave	-11.7209
▁substitution	-11.7209
▁template	-11.7209
▁interpretation	-11.721
▁wrist	-11.721
▁impairment	-11.7211
▁mast	-11.7212
▁dai	-11.7213
▁Champion	-11.7214
▁competitor	-11.7214
▁achievement	-11.7215
▁Arun	-11.7219
▁Dun	-11.722
▁Dew	-11.7221
▁posture	-11.7221
▁ascetic	-11.7222
▁injection	-11.7225
▁trainer	-11.7227
▁continu	-11.7231
▁fortification	-11.7233
▁pm	-11.7233
▁Talk	-11.7236
▁absolute	-11.7238
▁assignment	-11.7239
een	-11.724
▁sphere	-11.7241
▁provision	-11.7245
▁phrase	-11.7247
▁execut	-11.7257
▁imp	-11.7263
▁Villa	-11.7265
anna	-11.7272
▁Labor	-11.7288
away	-11.7296
▁consort	-11.7298
▁adapt	-11.7299
▁pa	-11.7299
▁fulfill	-11.73
dev	-11.7302
▁Oman	-11.7308
▁mine	-11.7309
▁doors	-11.7312
▁Sound	-11.7314
▁fetus	-11.7315
▁sue	-11.7317
▁Fish	-11.7318
▁Hard	-11.732
▁patch	-11.732
▁Qatar	-11.7321
▁Basant	-11.7321
darsh	-11.7322
▁triple	-11.7323
▁decreas	-11.7324
▁gap	-11.7327
▁doll	-11.7328
▁dentin	-11.733
▁Ashwin	-11.733
▁Ghor	-11.7331
▁translate	-11.7331
▁coronavirus	-11.7332
▁cruel	-11.7335
▁Abhishek	-11.7335
▁Bulgaria	-11.7335
▁Companies	-11.7335
▁Defence	-11.7335
▁Draupadi	-11.7335
▁Gangtok	-11.7335
▁Ukrainian	-11.7335
▁Vembanad	-11.7335
▁Zanskar	-11.7335
▁caution	-11.7335
▁cemetery	-11.7335
▁challenging	-11.7335
▁necessities	-11.7335
▁philosopher	-11.7335
▁relapse	-11.7335
▁repulsive	-11.7335
▁solstice	-11.7335
▁ultrasound	-11.7335
▁Bruins	-11.7335
▁Confederation	-11.7335
▁meningitis	-11.7335
▁refusal	-11.7335
▁Language	-11.7335
▁Samsung	-11.7335
▁Universe	-11.7335
▁Xuanzang	-11.7335
▁histamine	-11.7335
▁liability	-11.7335
▁Legend	-11.7335
▁hyperthyroidism	-11.7335
▁Television	-11.7335
▁Racing	-11.7335
▁equation	-11.7335
▁vacation	-11.7335
Flanders	-11.7335
▁Index	-11.7335
▁Lebanon	-11.7335
▁Solomon	-11.7335
▁intact	-11.7335
▁leap	-11.7335
▁Double	-11.7335
▁insulin	-11.7335
▁rift	-11.7335
▁childbirth	-11.7335
▁Paksha	-11.7335
▁technologies	-11.7335
▁lime	-11.7335
▁Quran	-11.7335
▁replied	-11.7335
▁CNN	-11.7335
▁chaos	-11.7335
▁unaware	-11.7335
▁uneasy	-11.7335
▁Narada	-11.7335
▁categorized	-11.7335
▁Safari	-11.7335
▁denies	-11.7335
▁dread	-11.7335
▁Gumpha	-11.7335
▁NBC	-11.7335
▁Patrick	-11.7336
▁varicose	-11.7336
▁fortnight	-11.7336
▁resignation	-11.7336
▁lightning	-11.7336
▁Tosham	-11.7336
▁satyagraha	-11.7336
▁Bandhan	-11.7336
▁latitude	-11.7336
▁consume	-11.7336
▁Trinity	-11.7336
▁rebuilt	-11.7336
▁remission	-11.7337
▁Norman	-11.7337
▁penis	-11.7337
▁Syed	-11.7337
▁Deputies	-11.7337
▁Romance	-11.7337
▁Northwestern	-11.7338
▁Serbia	-11.7338
▁sciences	-11.7338
▁Hundred	-11.7338
▁renovated	-11.7338
▁Hebrew	-11.7338
▁guilds	-11.7339
▁cannabis	-11.7339
▁appalled	-11.734
▁dug	-11.734
▁carving	-11.7341
▁plent	-11.7342
▁ghats	-11.7342
▁democratic	-11.7342
▁Action	-11.7343
▁WFTDA	-11.7343
▁occupy	-11.7343
▁Khyal	-11.7343
▁cervical	-11.7343
▁hemorrhagic	-11.7343
▁liberation	-11.7343
▁footwork	-11.7343
▁weaving	-11.7344
▁equipp	-11.7344
▁warranty	-11.7344
▁Robo	-11.7345
▁Ground	-11.7345
▁dispatched	-11.7345
▁ethics	-11.7345
▁sling	-11.7346
▁Amber	-11.7346
▁directorial	-11.7346
▁teak	-11.7348
▁outlined	-11.7348
hroughout	-11.7349
▁Billu	-11.7349
▁manually	-11.735
▁Paulo	-11.7351
▁escapes	-11.7352
▁genome	-11.7353
▁Afterwards	-11.7355
▁Inspector	-11.7356
▁ornaments	-11.7356
▁tremendous	-11.7356
▁alpha	-11.7356
▁abilities	-11.7356
▁Death	-11.7356
▁forgiveness	-11.7356
▁Money	-11.7357
▁deliberate	-11.7358
▁altered	-11.7359
▁searches	-11.7361
▁witnesses	-11.7361
▁Fourth	-11.7365
▁Anil	-11.7365
▁advances	-11.7365
▁continuously	-11.7366
▁Husayn	-11.737
▁fond	-11.7371
▁rally	-11.7371
▁resolved	-11.7371
▁Angel	-11.7371
▁shrubs	-11.7372
ora	-11.7377
▁STIs	-11.7379
dust	-11.738
▁playoffs	-11.738
▁suppressed	-11.7382
▁highlands	-11.7383
▁Trade	-11.7383
▁narrated	-11.7384
▁edited	-11.7386
▁Jagat	-11.7387
▁Whe	-11.7388
▁Chin	-11.7389
▁combinations	-11.7391
▁spice	-11.7391
ac	-11.7395
▁safely	-11.7396
▁Libya	-11.7396
▁rage	-11.7397
▁constituted	-11.7406
▁travelers	-11.7407
▁mile	-11.7408
▁loop	-11.7411
▁imagination	-11.7412
▁Siraj	-11.7412
▁artisans	-11.7415
▁blockers	-11.7425
▁WPBSA	-11.7425
dental	-11.743
▁relate	-11.743
▁confesse	-11.7431
▁Oscars	-11.7432
▁columns	-11.7433
▁nam	-11.7433
▁anchors	-11.7433
light	-11.7436
▁transferr	-11.7437
▁glaciers	-11.7439
▁attackers	-11.7441
▁spur	-11.7441
▁listening	-11.7444
stein	-11.7445
▁rupees	-11.7446
lo	-11.745
▁stretching	-11.7451
▁regiments	-11.7453
▁draining	-11.7458
rvi	-11.7459
▁cater	-11.7464
▁Temples	-11.7473
▁stupas	-11.7473
▁drums	-11.748
▁mutations	-11.7481
▁Penn	-11.7481
bn	-11.7482
▁cricketers	-11.7486
▁bind	-11.7487
▁rap	-11.7488
attu	-11.7488
▁relie	-11.7488
▁Mass	-11.7491
member	-11.7495
▁Meena	-11.75
▁Sky	-11.7508
▁Romans	-11.7512
▁Rights	-11.7514
American	-11.7515
▁surfaces	-11.752
▁calculations	-11.7522
▁Well	-11.7525
▁makers	-11.7527
▁twentie	-11.7529
▁extract	-11.7537
▁surpass	-11.7539
▁assisting	-11.7552
▁disciplines	-11.7556
ua	-11.7558
▁exhibits	-11.7562
▁Mili	-11.7563
western	-11.7569
▁acquire	-11.757
▁fur	-11.7578
▁accumulate	-11.758
▁advantages	-11.7586
ota	-11.7591
▁shorts	-11.7595
▁Heart	-11.7597
▁Schools	-11.7598
▁uniforms	-11.7603
▁NA	-11.7605
▁stepp	-11.7609
bbed	-11.7612
▁promotions	-11.7618
▁malls	-11.7619
▁Gram	-11.762
▁duet	-11.7621
grade	-11.7625
▁bikes	-11.7631
iest	-11.7632
▁decreases	-11.7633
bearing	-11.7641
General	-11.7644
white	-11.7644
winning	-11.7644
classical	-11.7645
▁Chen	-11.7647
▁rides	-11.7647
yoga	-11.7651
released	-11.7654
mission	-11.7657
nce	-11.7673
▁Tan	-11.7674
ho	-11.7677
▁prizes	-11.7684
▁triggers	-11.7685
▁frames	-11.7692
▁Marc	-11.7695
▁alliances	-11.7699
▁Raju	-11.7701
▁ki	-11.771
▁compounds	-11.7716
dia	-11.7723
▁Ghurid	-11.7729
▁convenience	-11.7729
▁supermarket	-11.7737
▁Priyan	-11.774
▁Chronicle	-11.7747
▁formula	-11.7747
▁Vaishnavite	-11.7747
▁Rickettsia	-11.7752
▁Diamond	-11.7753
▁stool	-11.7753
▁collaboration	-11.7754
▁abortion	-11.7758
▁Inside	-11.7759
▁Norwegian	-11.776
▁calculator	-11.776
▁trail	-11.7761
▁scanner	-11.7762
▁consideration	-11.7762
▁gymnast	-11.7762
▁algorithm	-11.7763
▁tunnel	-11.7763
▁Tower	-11.7763
▁fiber	-11.7766
▁virtue	-11.7767
▁northward	-11.7768
▁tale	-11.7768
▁troupe	-11.7768
▁landslide	-11.7768
▁principle	-11.7769
▁dividend	-11.7769
▁Production	-11.7769
▁antibiotic	-11.7769
▁vein	-11.7771
▁observation	-11.7772
▁shooter	-11.7774
▁Kadamba	-11.7775
▁Stone	-11.7775
▁shortage	-11.7775
▁regiment	-11.7776
▁originate	-11.7777
▁restart	-11.7779
▁monk	-11.7779
▁Gul	-11.7782
▁characteris	-11.7787
▁Mala	-11.7788
ated	-11.7789
▁eu	-11.779
▁hir	-11.7791
▁Code	-11.7794
▁faction	-11.7795
cell	-11.7796
▁DH	-11.7799
▁complain	-11.7799
▁Qa	-11.7799
▁lord	-11.7802
▁Kuki	-11.7802
▁distances	-11.7805
▁navigate	-11.7807
▁Tax	-11.781
▁stunt	-11.7812
▁emphasiz	-11.7813
▁Giri	-11.7815
▁bedroom	-11.7819
▁ab	-11.7819
▁formats	-11.782
▁chant	-11.782
tical	-11.7823
from	-11.7825
▁contests	-11.7833
▁Sati	-11.7836
▁Buy	-11.7842
▁supporter	-11.7842
TB	-11.7844
▁counsel	-11.7844
▁Mini	-11.7844
▁apparent	-11.7845
▁heal	-11.7849
▁Chat	-11.785
▁construct	-11.7851
▁cheat	-11.7853
▁confront	-11.7854
▁authentic	-11.7857
ington	-11.7858
TO	-11.786
ut	-11.7861
▁positioned	-11.7863
▁Hope	-11.7864
ita	-11.7866
oka	-11.7868
▁continent	-11.787
amous	-11.7871
ell	-11.7871
▁Trans	-11.7874
▁obvious	-11.7876
▁minimize	-11.7876
▁retire	-11.7876
▁distribute	-11.7876
▁scorer	-11.7876
▁cultivate	-11.7877
▁wheel	-11.7877
▁gradual	-11.7879
▁Pool	-11.7881
▁slight	-11.7882
▁seas	-11.7882
▁Present	-11.7885
▁fence	-11.7885
dham	-11.7887
▁jam	-11.7888
hanam	-11.7888
▁Match	-11.7889
▁batch	-11.7889
▁consolidate	-11.789
elfare	-11.789
▁Aurangabad	-11.789
▁Bangkok	-11.789
▁Barbados	-11.789
▁Brussels	-11.789
▁Guatemala	-11.789
▁Hegde	-11.789
▁Junagadh	-11.789
▁Marriage	-11.789
▁Namgyal	-11.789
▁Salzburg	-11.789
▁Thrissur	-11.789
▁Udupi	-11.789
▁Wyoming	-11.789
▁antiquity	-11.789
▁curriculum	-11.789
▁efficacy	-11.789
▁emblem	-11.789
▁grief	-11.789
▁immense	-11.789
▁luxury	-11.789
▁repertoire	-11.789
▁sophisticated	-11.789
▁trunk	-11.789
▁verdict	-11.789
▁Karpov	-11.789
▁Naushad	-11.789
▁charging	-11.789
▁paralysis	-11.789
▁Topalov	-11.789
▁garbage	-11.789
▁hypertension	-11.789
▁summary	-11.789
▁vibrant	-11.789
▁Commod	-11.7891
▁Ilaiah	-11.7891
▁dividing	-11.7891
▁tertiary	-11.7891
▁Mecca	-11.7891
▁anthology	-11.7891
▁excitement	-11.7891
▁Cardinal	-11.7891
presumed	-11.7891
▁Delaware	-11.7891
▁Karishma	-11.7891
▁Murder	-11.7891
▁Period	-11.7891
▁intercourse	-11.7891
▁evacuation	-11.7891
▁regent	-11.7891
▁Amaravati	-11.7891
▁posterior	-11.7891
▁Chhota	-11.7891
▁Celtic	-11.7891
▁Forbes	-11.7891
▁immigration	-11.7891
▁Square	-11.7891
▁expelled	-11.7891
▁Aamir	-11.7891
▁Mosque	-11.7891
▁disregard	-11.7891
▁supervision	-11.7891
▁copied	-11.7891
▁Flood	-11.7891
▁Fairfield	-11.7891
▁Previously	-11.7891
▁annexation	-11.7891
▁uterus	-11.7891
▁schizophrenia	-11.7891
▁Lotus	-11.7891
▁Mobile	-11.7891
▁Shahaji	-11.7891
▁unofficial	-11.7891
▁volcano	-11.7892
▁Taran	-11.7892
▁urgent	-11.7892
▁Batman	-11.7892
▁drummer	-11.7892
▁Elliott	-11.7892
▁societies	-11.7892
▁judiciary	-11.7892
▁palate	-11.7892
▁breakdown	-11.7892
▁Abraham	-11.7892
▁momentum	-11.7892
▁expressive	-11.7893
▁exhausted	-11.7894
▁Raas	-11.7894
▁dependence	-11.7894
▁Geeta	-11.7894
▁Vicky	-11.7895
▁mentor	-11.7895
▁correction	-11.7895
▁Bhavani	-11.7896
▁Antony	-11.7896
▁doctorate	-11.7897
▁Meeta	-11.7897
▁paddy	-11.7897
▁shed	-11.7897
▁dresses	-11.7898
▁placing	-11.7899
▁Drama	-11.7899
▁Walmart	-11.7899
▁Nuakhai	-11.7899
▁prosperous	-11.7899
▁Nikita	-11.7899
▁sink	-11.7899
▁moist	-11.7899
▁Angad	-11.7899
▁Tapti	-11.7899
▁lifelong	-11.79
▁happily	-11.79
my	-11.7903
▁commence	-11.7903
▁Cro	-11.7903
▁poured	-11.7904
▁spy	-11.7904
▁HA	-11.7904
▁diary	-11.7904
▁releas	-11.7905
▁coldest	-11.7905
▁influx	-11.7907
▁safer	-11.7907
▁monarchy	-11.7907
▁sixty	-11.7907
▁Kauravas	-11.7908
▁counterparts	-11.7908
▁resumed	-11.7909
▁miners	-11.7909
▁generat	-11.7909
▁Simmba	-11.7913
▁sanctum	-11.7913
▁Manjunath	-11.7913
▁perennial	-11.7913
▁Cape	-11.7913
▁Divya	-11.7913
▁logo	-11.7913
▁Amer	-11.7913
▁Rajpal	-11.7914
▁AFC	-11.7914
▁crust	-11.7914
▁Satraps	-11.7915
▁consistently	-11.7916
▁dot	-11.7919
▁Jr	-11.792
▁impaired	-11.792
▁adequate	-11.7921
▁diverge	-11.7921
ganj	-11.7922
▁allegations	-11.7922
▁abdomen	-11.7925
▁Dakshina	-11.7925
▁purple	-11.7927
▁marathon	-11.7927
stad	-11.793
▁Karthik	-11.7931
Greeks	-11.7932
▁counseling	-11.7934
▁parliamentar	-11.7935
▁Culture	-11.7938
▁Tak	-11.7938
▁skull	-11.7941
▁dual	-11.7942
▁Manager	-11.7943
▁premises	-11.7944
▁Girls	-11.7945
▁viewers	-11.7945
▁retino	-11.7946
▁Katha	-11.7947
▁Mall	-11.7948
▁dramatic	-11.7949
▁cosmetics	-11.7951
▁Rob	-11.7952
▁amazing	-11.7954
▁Bat	-11.7956
▁sympathetic	-11.7957
▁Kir	-11.7959
▁innovations	-11.7965
lang	-11.7965
etary	-11.7971
tty	-11.7972
▁retreated	-11.7973
az	-11.7973
▁bumps	-11.7973
▁Ann	-11.7977
▁detected	-11.7978
maybe	-11.7978
▁encountered	-11.7982
▁Rush	-11.7983
▁Berg	-11.7984
▁Brad	-11.7985
▁borough	-11.7986
▁Points	-11.7987
▁Bil	-11.7993
▁limbs	-11.7994
▁drained	-11.7997
▁discounted	-11.8
sagar	-11.8002
▁Boxing	-11.8003
▁Gaya	-11.8005
▁mint	-11.8007
▁traits	-11.8008
▁Justin	-11.801
▁Roop	-11.8017
▁individually	-11.8019
ura	-11.802
▁broadcasting	-11.8022
▁privately	-11.8023
▁Anne	-11.8024
are	-11.8024
▁proven	-11.8025
▁le	-11.8026
▁cameo	-11.8028
▁capitals	-11.803
▁wraps	-11.8032
▁crews	-11.8036
▁charts	-11.8037
▁Mera	-11.8041
▁unarm	-11.8042
▁Event	-11.805
▁Whit	-11.8061
▁Moon	-11.8073
▁desires	-11.8073
ban	-11.8073
▁Meh	-11.8081
▁wanting	-11.8082
dubb	-11.8087
▁administrators	-11.8087
▁Cor	-11.8087
▁Medi	-11.8092
▁Por	-11.8093
oo	-11.8093
▁Plus	-11.8096
ker	-11.8103
▁Gr	-11.8104
▁Canadians	-11.8107
▁initiatives	-11.8109
▁Jane	-11.8114
kal	-11.8118
▁j	-11.8121
▁fi	-11.8122
▁warming	-11.8122
ila	-11.8123
Fitr	-11.8124
akshi	-11.813
▁merchandise	-11.8134
▁DC	-11.8135
▁pulling	-11.8141
▁freely	-11.8141
▁Gada	-11.8141
▁journalists	-11.8146
▁AK	-11.8149
ius	-11.8149
▁feeds	-11.815
dale	-11.8162
pad	-11.8165
▁Row	-11.8168
▁maid	-11.8168
▁Sena	-11.8172
▁Mandal	-11.8174
dha	-11.8175
Y	-11.819
▁persisten	-11.8192
aki	-11.8193
▁Mun	-11.8196
book	-11.8197
▁persuade	-11.82
kov	-11.8202
ification	-11.8203
oriented	-11.8208
▁viewing	-11.821
ee	-11.8212
▁Irr	-11.8213
▁accumulat	-11.8216
▁Jimm	-11.8218
▁warnings	-11.8225
▁experiments	-11.8225
office	-11.823
▁vi	-11.823
Maratha	-11.8232
Great	-11.8233
April	-11.8233
dar	-11.8233
▁wears	-11.8255
ois	-11.8256
▁twins	-11.8262
▁directing	-11.8262
▁disappear	-11.8264
▁checks	-11.8273
▁resign	-11.8282
▁mat	-11.8285
ectomy	-11.8286
ova	-11.8296
inhabited	-11.8299
▁Forces	-11.8299
▁Cook	-11.8301
▁journal	-11.8302
fending	-11.8305
▁garrison	-11.8309
gricultural	-11.8315
▁Colonel	-11.8317
▁Leader	-11.8318
mateur	-11.8324
▁flee	-11.8329
ena	-11.8334
▁congregation	-11.8335
▁photograph	-11.8341
▁orbit	-11.8341
▁flank	-11.8341
▁forehead	-11.8342
▁landmark	-11.8343
▁abode	-11.8343
▁Perumal	-11.8344
▁ankle	-11.8345
▁Elephant	-11.8346
ela	-11.8348
▁corpse	-11.8349
▁automobile	-11.835
see	-11.835
ress	-11.8352
▁console	-11.8352
▁habit	-11.8353
▁Ant	-11.8353
▁smartphone	-11.8353
▁trait	-11.8354
▁garland	-11.8354
▁entrepreneur	-11.8354
▁mutation	-11.8356
▁recommendation	-11.8356
▁Representative	-11.8358
▁automat	-11.8358
▁pig	-11.8358
▁teammate	-11.836
▁portrait	-11.836
▁garment	-11.8362
▁rocket	-11.8363
ida	-11.8363
▁Monument	-11.8363
▁reporting	-11.8364
▁particle	-11.8365
▁Gurjara	-11.8366
ions	-11.8367
sport	-11.8367
▁audit	-11.8369
ium	-11.8369
▁processor	-11.8371
▁dramas	-11.8374
▁prisoner	-11.8374
▁devot	-11.8378
▁rupee	-11.8379
▁pathogen	-11.838
▁spectator	-11.838
▁footballer	-11.8382
▁boarding	-11.8384
▁overs	-11.8386
▁emerg	-11.8386
fall	-11.8394
bir	-11.8395
▁intention	-11.8401
▁separat	-11.8409
vid	-11.841
gue	-11.8411
▁Wall	-11.8412
▁Customer	-11.8413
gun	-11.8423
▁communications	-11.8424
▁lacking	-11.8424
▁labels	-11.8425
▁swing	-11.8425
▁astonish	-11.8429
▁greet	-11.8432
▁rupture	-11.8432
▁UV	-11.8432
▁Rajas	-11.8441
▁Read	-11.8442
▁prais	-11.8445
active	-11.8452
▁gastro	-11.8457
▁pin	-11.8457
▁Add	-11.8461
▁compose	-11.8462
sk	-11.8463
▁reunite	-11.8464
uberculosis	-11.8465
▁bombing	-11.8467
▁brilliant	-11.8467
▁Steel	-11.8469
▁Digambar	-11.8471
▁electro	-11.8471
▁Ghosh	-11.8471
▁proto	-11.8472
▁Bhavan	-11.8472
aternal	-11.8472
▁Gha	-11.8475
▁surplus	-11.8476
▁potato	-11.8476
▁clash	-11.8477
▁gentle	-11.8477
clusion	-11.8478
▁Virgin	-11.8478
▁advent	-11.8479
▁Budapest	-11.8479
▁Buxar	-11.8479
▁Charlotte	-11.8479
▁Chevrolet	-11.8479
▁Fischer	-11.8479
▁Golconda	-11.8479
▁Important	-11.8479
▁Iqbal	-11.8479
▁Jaisalmer	-11.8479
▁Jerusalem	-11.8479
▁Khajuraho	-11.8479
▁Lloyd	-11.8479
▁Malhotra	-11.8479
▁Mangeshkar	-11.8479
▁Mesopotamia	-11.8479
▁Pathanamthitta	-11.8479
▁Shroff	-11.8479
▁Sreedharan	-11.8479
▁Yesterday	-11.8479
▁appendicitis	-11.8479
▁benign	-11.8479
▁dementia	-11.8479
▁desperate	-11.8479
▁jazz	-11.8479
▁lavish	-11.8479
▁scurvy	-11.8479
▁supreme	-11.8479
▁timber	-11.8479
▁trousers	-11.8479
CoV	-11.8479
▁Devgn	-11.8479
▁ecoregion	-11.8479
▁leisure	-11.8479
▁hereditary	-11.8479
▁shaking	-11.8479
▁supplier	-11.8479
▁Advani	-11.8479
▁Globe	-11.8479
▁Nashville	-11.8479
▁Uppsala	-11.8479
▁aviation	-11.8479
▁retinopathy	-11.8479
▁Ajanta	-11.8479
▁Patanjali	-11.8479
▁Vellore	-11.8479
▁Vayu	-11.8479
▁saliva	-11.8479
▁Sikri	-11.8479
▁perspective	-11.8479
▁Dalarna	-11.8479
▁prosecution	-11.8479
▁lockdown	-11.8479
▁sermon	-11.8479
▁Petersburg	-11.8479
▁expertise	-11.8479
▁hiking	-11.8479
Qaeda	-11.8479
▁altogether	-11.8479
▁augment	-11.8479
▁Arora	-11.8479
▁Vikramjeet	-11.8479
▁pastime	-11.8479
▁Bhojpuri	-11.8479
▁anesthesia	-11.8479
▁cheque	-11.8479
▁Pierre	-11.8479
▁Sahni	-11.8479
▁wireless	-11.8479
▁Tiwari	-11.8479
▁okay	-11.8479
▁Haider	-11.8479
▁Liga	-11.8479
▁Airtel	-11.8479
▁vandalism	-11.8479
▁delicacies	-11.8479
▁submission	-11.8479
▁Grammy	-11.848
▁Sarika	-11.848
▁fantasy	-11.848
▁toxicity	-11.848
▁rectum	-11.848
▁unbeat	-11.848
alaxy	-11.848
▁Batra	-11.848
▁motorway	-11.848
▁Oberoi	-11.848
▁rash	-11.848
▁Wendy	-11.848
▁detection	-11.8481
▁nobility	-11.8481
▁Charter	-11.8481
▁Vista	-11.8481
▁commemoration	-11.8481
▁Gund	-11.8481
▁Walk	-11.8481
▁Insurance	-11.8482
▁pyre	-11.8482
▁stature	-11.8482
▁Bhitar	-11.8482
▁underworld	-11.8482
▁Price	-11.8482
▁spotted	-11.8482
▁clearance	-11.8482
▁Low	-11.8482
▁welcome	-11.8482
▁sheep	-11.8482
▁frontier	-11.8483
▁Warner	-11.8483
▁attendees	-11.8483
▁adoption	-11.8483
▁decorati	-11.8484
▁ceased	-11.8484
▁Wii	-11.8485
▁Oil	-11.8485
▁anime	-11.8485
▁Anandpur	-11.8486
▁Data	-11.8486
▁Fund	-11.8487
▁compensation	-11.8487
▁advising	-11.8487
▁Contemporar	-11.8487
▁decimal	-11.8487
▁supernatural	-11.8487
▁Saajan	-11.8487
▁Zindagi	-11.8487
▁Hungama	-11.8487
▁compulsory	-11.8487
▁pricing	-11.8487
▁transgender	-11.8488
▁degradation	-11.8488
▁Chaitra	-11.8488
▁Minor	-11.8488
▁funny	-11.8488
▁Socialist	-11.8488
▁Yale	-11.8488
▁quarterback	-11.8489
▁Chowk	-11.8489
▁Shivani	-11.8489
▁spare	-11.8489
▁Flash	-11.8489
▁abstract	-11.849
▁NS	-11.8491
▁Risk	-11.8492
▁Baby	-11.8494
▁provoked	-11.8494
▁Luis	-11.8495
▁Yet	-11.8496
▁finishes	-11.8498
▁ordering	-11.8498
▁mourning	-11.8498
▁initiate	-11.85
▁Algeria	-11.8501
▁terror	-11.8501
▁ca	-11.8503
▁Roth	-11.8503
▁Vishal	-11.8503
▁quadrant	-11.8503
▁contaminated	-11.8504
▁Tawa	-11.8504
▁intestine	-11.8505
▁Sanchi	-11.8505
▁Fisher	-11.8505
▁nutrients	-11.8505
▁renewed	-11.8505
▁photographer	-11.8505
▁abolished	-11.8505
▁essen	-11.8506
▁Gar	-11.8506
▁cooler	-11.851
▁Gary	-11.8514
▁alluvial	-11.8515
▁trapped	-11.8515
▁complained	-11.8516
▁mythical	-11.8518
▁Rang	-11.8519
neath	-11.8521
▁emotionally	-11.8522
▁imply	-11.8523
▁plundered	-11.8525
▁curl	-11.8525
▁Wilkins	-11.8526
▁Allen	-11.8527
▁Total	-11.8528
ward	-11.8528
▁Wa	-11.8528
▁borrowed	-11.8529
▁rushed	-11.8532
pani	-11.8533
▁permanently	-11.8533
iosphere	-11.8534
▁sued	-11.8537
▁interrupted	-11.8538
▁breeding	-11.8539
▁cargo	-11.8541
▁Jon	-11.8542
▁Officials	-11.8543
▁Fred	-11.8543
▁periodic	-11.8547
▁Phone	-11.8547
▁scare	-11.855
▁absorption	-11.8551
▁Theseus	-11.8554
▁Tomar	-11.8557
▁molecules	-11.8559
▁Judi	-11.856
▁Khel	-11.8561
▁Tal	-11.8561
▁ap	-11.8562
▁Azad	-11.8562
gate	-11.8564
▁rumours	-11.8566
TV	-11.857
▁explored	-11.8572
▁chapters	-11.8573
▁insufficient	-11.8576
▁panels	-11.858
▁militants	-11.8581
▁Gora	-11.8581
▁voices	-11.8582
▁XI	-11.8586
▁boast	-11.8587
narayan	-11.8589
▁overflow	-11.8591
▁prominently	-11.8592
▁MG	-11.8595
▁intervals	-11.8596
▁intensity	-11.8596
▁subdivisions	-11.8597
▁feeding	-11.8599
tier	-11.86
▁Select	-11.8602
▁Sanju	-11.8602
▁bombings	-11.8604
▁dividends	-11.8611
▁Hain	-11.8612
▁Shan	-11.8613
kulam	-11.8617
▁assignments	-11.8619
▁Dha	-11.8621
diac	-11.8629
▁ch	-11.8636
bank	-11.8636
▁Lach	-11.864
▁Liber	-11.8641
▁Naja	-11.8643
▁utilize	-11.8644
▁Roshan	-11.8647
▁federations	-11.8649
link	-11.8653
uta	-11.8654
hood	-11.8665
▁Rivers	-11.8665
▁skates	-11.8672
▁committ	-11.8673
▁Notabl	-11.8673
hail	-11.8687
▁bottles	-11.8695
heim	-11.8696
▁Gates	-11.8698
yo	-11.8702
▁serials	-11.8703
▁heated	-11.8706
▁AIDS	-11.8707
▁Pamba	-11.871
▁proposals	-11.8711
▁FA	-11.8711
▁productive	-11.8713
▁picking	-11.8718
▁showcase	-11.8718
noid	-11.8727
bro	-11.873
worth	-11.873
ID	-11.8732
▁editors	-11.8734
final	-11.8736
▁answers	-11.8741
▁ragams	-11.8742
yan	-11.8742
vadi	-11.8743
▁Madhur	-11.8744
▁batters	-11.8744
▁des	-11.8745
▁conferences	-11.8749
▁Reed	-11.8749
paired	-11.876
rani	-11.8766
datory	-11.8766
fully	-11.8771
▁Jah	-11.8771
▁maker	-11.8772
▁objectives	-11.8773
▁manipulate	-11.8774
▁Mau	-11.8775
fold	-11.8779
wari	-11.8787
▁coincid	-11.8796
▁Tea	-11.8798
▁MV	-11.8803
▁Kri	-11.8807
hua	-11.8812
lash	-11.8812
match	-11.8813
▁Vir	-11.8815
rey	-11.8815
▁En	-11.8817
▁faiths	-11.8819
▁Kang	-11.8824
onsequently	-11.8825
▁rivals	-11.8827
▁Saints	-11.8827
hiring	-11.8828
▁presid	-11.8834
▁substitutes	-11.8838
polar	-11.8841
▁discusse	-11.8845
lit	-11.8845
▁fo	-11.8847
pitch	-11.8855
written	-11.8856
independence	-11.8857
box	-11.8857
March	-11.8858
ista	-11.8864
J	-11.8865
▁Horn	-11.8872
▁Kun	-11.888
▁electronics	-11.8881
life	-11.8885
▁mask	-11.8887
three	-11.8896
hari	-11.8898
▁SD	-11.89
sjö	-11.8905
▁civi	-11.8908
ise	-11.891
▁researched	-11.8912
▁ka	-11.8914
ith	-11.8917
band	-11.8919
wang	-11.892
▁na	-11.8922
▁Cooper	-11.8924
▁Lai	-11.8929
▁Bin	-11.8935
upaka	-11.8937
▁clearing	-11.8937
▁acquisition	-11.8943
▁Craig	-11.8943
▁iPad	-11.8943
▁oar	-11.8944
▁Os	-11.8947
▁macula	-11.8947
▁Vyasa	-11.8949
▁snap	-11.895
▁lip	-11.8952
playing	-11.8956
▁planes	-11.8958
▁Mas	-11.896
▁fibre	-11.8961
▁texture	-11.8961
▁cache	-11.8965
▁cancellation	-11.8967
▁wheelchair	-11.8967
▁recitation	-11.8967
▁hemorrhage	-11.8968
▁Mei	-11.8971
▁motive	-11.8971
▁Kshatriya	-11.8973
▁commitment	-11.8974
▁violation	-11.8975
▁Hand	-11.8976
▁Examination	-11.8976
▁dynamic	-11.8976
▁prospect	-11.8978
▁Ball	-11.8979
▁Knight	-11.8979
▁Yang	-11.898
▁signature	-11.898
▁subdivision	-11.8981
▁interval	-11.8981
▁glacier	-11.8981
▁trend	-11.8983
▁coupon	-11.8984
▁saddle	-11.8985
▁painter	-11.8986
▁manifestation	-11.8986
▁enzyme	-11.8986
▁basket	-11.8987
▁printer	-11.8988
citing	-11.8989
▁courtyard	-11.8991
▁retailer	-11.8991
▁Vel	-11.8991
▁Nation	-11.8993
▁afterward	-11.8994
▁bullet	-11.8995
▁duel	-11.8995
tified	-11.9
▁visitor	-11.9003
Muslims	-11.9007
▁closure	-11.9008
▁reader	-11.901
▁possessions	-11.9015
▁developer	-11.9015
▁airlines	-11.9016
▁boot	-11.9017
▁ensu	-11.9018
▁kid	-11.9028
▁steam	-11.9028
▁swara	-11.9032
▁Pun	-11.9035
▁Directors	-11.9038
▁Maa	-11.9039
lternately	-11.9042
▁Bhairav	-11.9046
▁intend	-11.9051
▁packages	-11.9054
rez	-11.9055
▁Suresh	-11.9056
▁forecast	-11.9058
▁br	-11.9061
▁consult	-11.9063
▁neglect	-11.9068
▁sp	-11.9069
▁damag	-11.9074
▁hydroelectric	-11.9074
▁barber	-11.9075
▁Gers	-11.9075
▁reject	-11.9078
▁render	-11.9078
▁retrieve	-11.9079
▁illustrate	-11.9081
▁Mehra	-11.9081
▁Wi	-11.9086
▁whistle	-11.9089
▁regulate	-11.909
▁biological	-11.909
▁marsh	-11.9091
▁practic	-11.9091
▁ultimate	-11.9092
▁Typical	-11.9092
▁dye	-11.9093
▁Kashyap	-11.9094
▁warrant	-11.9095
▁Visit	-11.9095
▁Maharaj	-11.9096
▁Cambodia	-11.9096
▁conjuncti	-11.9097
▁Areas	-11.9097
▁betray	-11.9097
▁Cultur	-11.9097
▁Sambalpur	-11.9098
▁awake	-11.9099
▁confident	-11.9099
▁comfort	-11.9101
▁Pain	-11.9101
▁exclusive	-11.9102
erhaps	-11.9103
▁manifest	-11.9103
je	-11.9103
▁Arrondissement	-11.9104
▁Badminton	-11.9104
▁Canberra	-11.9104
▁Elsewhere	-11.9104
▁Ernakulam	-11.9104
▁Infosys	-11.9104
▁Instagram	-11.9104
▁Kanyakumari	-11.9104
▁Lepcha	-11.9104
▁Library	-11.9104
▁Lithuania	-11.9104
▁Manitoba	-11.9104
▁Minicoy	-11.9104
▁Mountbatten	-11.9104
▁Mumtaz	-11.9104
▁Napoleon	-11.9104
▁Reagan	-11.9104
▁Shraddha	-11.9104
▁Thaipusam	-11.9104
▁Writing	-11.9104
▁Yudhishthira	-11.9104
▁cardamom	-11.9104
▁cinematography	-11.9104
▁cleanliness	-11.9104
▁inconsistent	-11.9104
▁leprosy	-11.9104
▁liquor	-11.9104
▁marijuana	-11.9104
▁mathematics	-11.9104
▁mutineers	-11.9104
▁niece	-11.9104
▁surveillance	-11.9104
▁terminology	-11.9104
▁Brooklyn	-11.9104
▁Cathedral	-11.9104
▁Kramnik	-11.9104
▁convenient	-11.9104
▁excellence	-11.9104
▁incision	-11.9104
▁Depression	-11.9104
▁harmony	-11.9104
▁hemoglobin	-11.9104
▁questionnaire	-11.9104
▁recurrence	-11.9104
▁NDTV	-11.9104
▁livelihood	-11.9104
▁maximize	-11.9104
▁referendum	-11.9104
▁Ahilya	-11.9104
▁Stupa	-11.9104
▁Domestic	-11.9104
▁Srivijaya	-11.9104
▁Lyric	-11.9104
▁Vengi	-11.9104
▁Watson	-11.9104
▁equity	-11.9104
▁Industry	-11.9104
▁Zurich	-11.9104
▁coordination	-11.9104
▁Radhika	-11.9104
▁targets	-11.9104
▁Morocco	-11.9104
▁boycott	-11.9104
▁penicillin	-11.9104
▁repetitive	-11.9104
▁breakthrough	-11.9104
▁oath	-11.9104
▁Carlsen	-11.9104
▁correspondence	-11.9104
▁Laxman	-11.9104
▁Penang	-11.9104
▁Bosnia	-11.9104
▁Lunch	-11.9104
yogic	-11.9104
▁Westminster	-11.9104
▁Larry	-11.9104
▁disagreement	-11.9104
▁Shimla	-11.9104
▁presidency	-11.9104
▁Beyon	-11.9104
▁celebrities	-11.9104
▁Honda	-11.9104
enormous	-11.9104
▁Ambani	-11.9104
▁Deepika	-11.9104
▁Suddenly	-11.9104
▁breakfast	-11.9104
▁plumber	-11.9104
▁aftermath	-11.9104
▁Samrat	-11.9104
▁scrub	-11.9104
▁Flag	-11.9104
▁groin	-11.9104
▁debit	-11.9104
▁Wright	-11.9105
▁Vikas	-11.9105
▁Wonder	-11.9105
▁Zoya	-11.9105
hypersensitivity	-11.9105
▁Dilli	-11.9105
▁Tehran	-11.9105
▁cabin	-11.9105
▁interim	-11.9105
▁Samoa	-11.9105
▁Yorkshire	-11.9105
▁Birla	-11.9105
▁barley	-11.9105
▁breastfeeding	-11.9106
eligious	-11.9106
▁despair	-11.9106
▁Bazar	-11.9106
▁Portland	-11.9106
▁Terry	-11.9106
▁Duniya	-11.9106
▁Polynesia	-11.9106
▁dismissal	-11.9106
▁bandish	-11.9106
▁brass	-11.9107
▁MS	-11.9107
▁strive	-11.9107
▁kilometre	-11.9107
▁Golf	-11.9108
▁equality	-11.9108
▁Salem	-11.9108
▁recaptured	-11.9108
▁artefacts	-11.9108
ional	-11.9109
▁Acharya	-11.9109
▁hoist	-11.9109
▁Wide	-11.9109
▁log	-11.911
▁workplace	-11.911
▁Kut	-11.9111
▁Gandhara	-11.9112
▁Yugoslavia	-11.9112
▁convicted	-11.9112
▁Bhagavata	-11.9112
▁Side	-11.9113
▁unsure	-11.9113
▁Cleveland	-11.9113
▁Unfortunately	-11.9113
▁engaging	-11.9113
▁physics	-11.9113
▁Khandwa	-11.9113
▁Sylhet	-11.9113
▁trochlea	-11.9113
▁Prevention	-11.9113
▁Qila	-11.9113
▁anterior	-11.9114
▁Hamid	-11.9115
▁Ragam	-11.9115
▁Homer	-11.9115
▁Nani	-11.9116
▁Pirates	-11.9116
▁shortened	-11.9116
▁Papanasa	-11.9116
▁Building	-11.9116
▁deliberately	-11.9118
▁realm	-11.9119
▁Kanchi	-11.9119
▁pitches	-11.9119
vara	-11.9121
▁acceptance	-11.9121
▁improvised	-11.9121
▁decisively	-11.9122
▁Alpha	-11.9124
▁Holiday	-11.9125
▁ratings	-11.9125
▁Perth	-11.9126
▁Hunter	-11.9127
▁deceased	-11.9129
▁Reservoir	-11.9129
▁coronation	-11.913
▁commenced	-11.913
hatha	-11.913
▁poisoning	-11.9131
▁symptomatic	-11.9132
▁authoriz	-11.9133
▁parasites	-11.9133
▁indirect	-11.9133
▁folded	-11.9135
▁relaxed	-11.9135
▁policeman	-11.9135
▁Wu	-11.9136
▁Eve	-11.9136
▁forgotten	-11.9138
▁ATP	-11.914
▁conditioning	-11.9145
▁Dehradun	-11.9145
▁Vivek	-11.9146
▁alpine	-11.9146
▁warmer	-11.9146
▁visually	-11.9146
▁Seth	-11.9146
▁struggled	-11.9147
▁Den	-11.9148
▁Nus	-11.9149
▁Brahman	-11.9149
▁Candidates	-11.9149
▁abduct	-11.915
▁moral	-11.9151
▁risen	-11.9152
▁Chandi	-11.9153
▁Dayanand	-11.9154
▁sandy	-11.9154
▁Parker	-11.9154
▁overthrow	-11.9155
▁Susan	-11.9157
▁Julian	-11.9158
ans	-11.9159
▁ignor	-11.9159
▁cleaner	-11.9162
▁Puran	-11.9162
▁Tanam	-11.9162
▁cooperation	-11.9162
▁recipes	-11.9164
▁killings	-11.9166
▁Bart	-11.9168
fors	-11.917
▁expenditures	-11.9172
▁locked	-11.9172
usually	-11.9177
▁knocked	-11.9178
▁seizures	-11.918
▁relics	-11.918
▁INC	-11.9181
▁bells	-11.9184
▁Rann	-11.9186
yama	-11.9189
▁Melas	-11.9193
▁Rules	-11.9194
ched	-11.9195
▁Jay	-11.9195
▁Kund	-11.9196
▁sealed	-11.9197
▁grasslands	-11.9197
▁Walt	-11.9199
▁disturbed	-11.9199
▁sins	-11.92
skar	-11.92
▁Sai	-11.92
▁Riya	-11.9202
▁essays	-11.9204
▁teenagers	-11.9205
▁im	-11.9207
▁Jazeera	-11.9212
▁servants	-11.9213
uk	-11.9216
non	-11.9217
▁jet	-11.9218
▁Dhar	-11.9219
ette	-11.922
eal	-11.9221
▁stressed	-11.9222
funded	-11.9225
op	-11.9227
▁Jam	-11.9237
isha	-11.9238
▁responding	-11.924
▁Days	-11.9241
▁cheese	-11.9242
▁Case	-11.9245
ick	-11.9249
▁Ya	-11.925
▁tales	-11.9254
▁Gan	-11.9258
inch	-11.9258
▁breeds	-11.9262
▁bra	-11.9264
▁Alia	-11.9269
rushes	-11.9269
▁marrying	-11.9277
▁dimensions	-11.9278
▁ascetics	-11.9279
▁Col	-11.928
▁organisms	-11.9281
▁wages	-11.9282
rin	-11.9284
▁Ayan	-11.929
▁saris	-11.9292
▁topics	-11.9294
▁Anu	-11.9296
dam	-11.93
▁Kei	-11.9301
FC	-11.9306
▁terrorists	-11.9311
ichi	-11.9313
wing	-11.9315
▁outcomes	-11.9319
▁poles	-11.932
▁employers	-11.9323
▁gatherings	-11.9335
▁institutes	-11.9336
▁Dick	-11.9341
▁Vari	-11.9356
▁Motors	-11.936
▁exams	-11.936
rule	-11.9363
▁cyclones	-11.9368
▁talked	-11.9369
gal	-11.9383
▁Fi	-11.9384
▁mechanisms	-11.9384
umerous	-11.9385
ik	-11.9387
▁consequent	-11.9391
▁Mere	-11.9395
▁Siddha	-11.9395
row	-11.9408
▁worshiped	-11.9418
ten	-11.9427
▁Chor	-11.9429
▁Too	-11.9436
▁contents	-11.9441
sara	-11.9444
▁math	-11.9447
▁der	-11.9456
kai	-11.9457
▁toilets	-11.9459
▁unions	-11.9461
▁Child	-11.9462
▁honours	-11.9469
▁freed	-11.947
pro	-11.9473
▁tires	-11.9479
▁Fu	-11.9484
enberg	-11.9484
▁pledge	-11.9485
▁Journal	-11.9496
week	-11.9504
graduate	-11.9504
pade	-11.9506
AIDS	-11.9517
profile	-11.9519
Pakistan	-11.9519
wicket	-11.952
professional	-11.9521
productive	-11.9521
built	-11.9522
Series	-11.9523
who	-11.9523
monsoon	-11.9524
economic	-11.9524
which	-11.9524
October	-11.9524
June	-11.9525
including	-11.9525
nar	-11.9526
religious	-11.9527
especially	-11.9535
▁mock	-11.9536
▁comparabl	-11.9536
set	-11.954
ible	-11.9547
▁immers	-11.9547
▁Nayak	-11.9548
▁Puli	-11.9554
▁trucks	-11.9559
▁museums	-11.9567
▁Kashi	-11.9569
▁Sch	-11.9573
gh	-11.9575
IP	-11.9589
▁anchor	-11.9593
▁Smart	-11.9595
af	-11.96
▁fits	-11.9601
▁Manish	-11.9605
▁Mars	-11.9607
ub	-11.9607
▁Mith	-11.9608
▁Sayyid	-11.9609
▁drift	-11.961
▁Chet	-11.9613
▁Fan	-11.9615
▁affection	-11.9617
▁therapist	-11.9625
six	-11.9626
▁violin	-11.9626
▁Gandharva	-11.9626
▁bungalow	-11.9627
▁Walter	-11.9627
▁Kor	-11.9628
▁surge	-11.9632
▁Armenian	-11.9633
▁Simha	-11.9633
▁Years	-11.9634
▁hip	-11.9635
▁harbour	-11.9637
▁peso	-11.9637
▁communist	-11.9638
▁Kung	-11.9638
▁antique	-11.9639
▁milestone	-11.964
▁locals	-11.9641
▁captive	-11.9643
▁swimmer	-11.9643
▁vendor	-11.9644
▁protocol	-11.9644
▁treatise	-11.9644
▁designation	-11.9644
▁cluster	-11.9644
▁Siri	-11.9646
▁Waterfall	-11.9646
▁hostage	-11.9648
▁column	-11.9648
▁athletic	-11.9648
▁scripture	-11.9649
▁Geographic	-11.9654
▁fa	-11.9654
▁traveller	-11.9655
▁modification	-11.9655
▁facts	-11.9657
▁prophet	-11.9657
▁Oscar	-11.9657
▁Dham	-11.9658
▁limb	-11.9658
▁taluka	-11.9659
▁Steven	-11.9659
col	-11.9661
nad	-11.9665
▁observ	-11.9667
ites	-11.9667
▁foundations	-11.9668
tri	-11.9679
bu	-11.9683
tus	-11.9686
▁Gil	-11.9686
ens	-11.9689
▁Matha	-11.969
▁Lang	-11.9691
▁loot	-11.9691
ternal	-11.9694
▁baker	-11.9695
rama	-11.9702
ade	-11.9704
▁mari	-11.971
▁schooling	-11.9721
lived	-11.9722
▁responses	-11.9723
▁stack	-11.9724
▁determin	-11.9728
PA	-11.973
Pa	-11.9732
▁preach	-11.9733
▁Nayaka	-11.9734
▁sicken	-11.9734
▁token	-11.9737
▁Environment	-11.974
▁ensur	-11.9741
▁mob	-11.9742
▁twist	-11.9749
▁advise	-11.9753
▁indication	-11.9753
▁barr	-11.9754
▁Kh	-11.9754
▁evolve	-11.9756
qui	-11.9757
▁Baraba	-11.9757
▁Sangh	-11.9758
chandra	-11.9759
▁inventor	-11.976
▁tomb	-11.976
▁Jalandhar	-11.9761
▁anticipate	-11.9762
▁invitation	-11.9763
▁heroin	-11.9763
rebro	-11.9765
▁Shore	-11.9765
▁ancestr	-11.9765
gram	-11.9766
▁volcan	-11.9766
▁tornado	-11.9768
▁fears	-11.9768
▁courage	-11.977
▁homosexual	-11.977
▁psychiatr	-11.977
▁kidnap	-11.977
▁Samuel	-11.977
▁bliss	-11.977
▁mimic	-11.977
▁Aizawl	-11.977
▁Bhardwaj	-11.977
▁Broadcasting	-11.977
▁Ceylon	-11.977
▁ESPN	-11.977
▁Istanbul	-11.977
▁Kumbakonam	-11.977
▁Millennium	-11.977
▁Montgomery	-11.977
▁Plymouth	-11.977
▁Seringapatam	-11.977
▁Syphili	-11.977
▁Taipei	-11.977
▁Tanjore	-11.977
▁Universal	-11.977
▁Yuezhi	-11.977
▁academy	-11.977
▁controversies	-11.977
▁convincing	-11.977
▁criteria	-11.977
▁currencies	-11.977
▁disobedience	-11.977
▁likelihood	-11.977
▁luggage	-11.977
▁memories	-11.977
▁ordinance	-11.977
▁pooja	-11.977
▁retiring	-11.977
▁saffron	-11.977
▁shadow	-11.977
▁smiling	-11.977
▁typhus	-11.977
▁vacuum	-11.977
▁Aibak	-11.977
▁Jasper	-11.977
▁Phelps	-11.977
▁Pondicherry	-11.977
▁cyber	-11.977
▁undefeated	-11.977
▁Bronze	-11.977
▁Eurasia	-11.977
▁Prakrit	-11.977
▁Shaikh	-11.977
▁comprehensive	-11.977
▁gravity	-11.977
▁Volleyball	-11.977
▁dengue	-11.977
▁disabilities	-11.977
▁exquisite	-11.977
▁Darwin	-11.977
▁Competition	-11.977
▁Khamba	-11.977
▁definitive	-11.977
▁disqualified	-11.977
▁Frankfurt	-11.977
▁torrent	-11.977
▁ADHD	-11.977
▁Authorities	-11.977
▁Ottawa	-11.977
▁retaliation	-11.977
▁Oslo	-11.977
▁GNU	-11.9771
▁Lightning	-11.9771
▁Michel	-11.9771
▁eager	-11.9771
▁gunshot	-11.9771
▁Baghdad	-11.9771
▁Kumaar	-11.9771
▁consent	-11.9771
▁Greco	-11.9771
▁creativity	-11.9771
▁Montana	-11.9771
▁Dennis	-11.9771
▁LLB	-11.9771
▁therapies	-11.9771
▁Turco	-11.9771
▁specify	-11.9771
▁hydrogen	-11.9771
▁curious	-11.9771
▁scarce	-11.9771
▁Basadi	-11.9771
▁wonderful	-11.9771
▁Vamana	-11.9771
▁Construction	-11.9771
▁mature	-11.9771
▁epithelium	-11.9771
▁Rico	-11.9771
▁barrage	-11.9771
▁enlarged	-11.9771
▁Shastri	-11.9771
▁petrol	-11.9771
▁harmful	-11.9771
▁authenticity	-11.9771
▁Ultimate	-11.9771
▁Sansar	-11.9771
▁Personal	-11.9771
▁keen	-11.9771
▁Nigam	-11.9771
▁extinction	-11.9771
▁mason	-11.9771
▁fatalities	-11.9771
▁throwball	-11.9771
▁Malayali	-11.9771
▁extraction	-11.9771
▁Greenville	-11.9772
NGC	-11.9772
▁Agatti	-11.9772
▁captaincy	-11.9772
▁disgusted	-11.9772
▁Directorate	-11.9772
▁Rohan	-11.9772
▁Hughes	-11.9772
▁recharge	-11.9772
▁integrity	-11.9772
▁larvae	-11.9772
▁oneself	-11.9772
▁Advaita	-11.9772
▁landfall	-11.9772
▁Daud	-11.9772
▁heavier	-11.9772
▁Sector	-11.9772
▁compassion	-11.9773
▁exercising	-11.9773
▁Micro	-11.9773
▁personalities	-11.9774
▁Safety	-11.9774
▁Ayush	-11.9774
▁retina	-11.9775
▁explicitly	-11.9775
▁Friends	-11.9775
▁arch	-11.9775
ardent	-11.9775
▁Nargis	-11.9775
▁mudslides	-11.9775
▁practitioners	-11.9775
▁profitable	-11.9775
▁Badshah	-11.9776
▁fitting	-11.9776
▁progression	-11.9776
▁astronomical	-11.9776
▁dedication	-11.9776
▁Bhagavad	-11.9777
▁appreciation	-11.9777
▁speculated	-11.9777
▁crude	-11.9777
▁Palak	-11.9777
▁coastline	-11.9777
▁thoroughly	-11.9778
▁goons	-11.9778
▁seventy	-11.9778
▁enraged	-11.9779
▁distracted	-11.9779
▁deadline	-11.9779
▁teaches	-11.978
▁possess	-11.978
▁Vrinda	-11.978
▁wield	-11.978
▁Wayanad	-11.978
▁certification	-11.978
▁Madhubala	-11.978
▁bhakti	-11.978
▁Hola	-11.978
▁reverence	-11.978
▁BBB	-11.978
▁CNS	-11.9781
▁hungry	-11.9781
▁FDA	-11.9781
▁ancestry	-11.9781
▁stabb	-11.9782
▁Left	-11.9782
▁saline	-11.9782
▁et	-11.9783
▁Siege	-11.9783
▁Harsha	-11.9783
▁statehood	-11.9783
aw	-11.9784
▁overspend	-11.9785
▁Tirumala	-11.9785
▁hepatitis	-11.9785
▁neuron	-11.9785
▁storyline	-11.9785
▁upgraded	-11.9785
▁darker	-11.9786
▁Baer	-11.9786
▁tiles	-11.9786
▁Karla	-11.9786
▁diving	-11.9787
▁spill	-11.9788
▁rook	-11.9788
▁slam	-11.9788
▁baked	-11.9788
▁Aires	-11.9789
▁enclosed	-11.9789
▁pleaded	-11.979
▁decent	-11.9791
▁addresses	-11.9791
▁til	-11.9791
▁antihistamines	-11.9792
▁spasms	-11.9792
▁lane	-11.9794
▁Cycle	-11.9794
terstate	-11.9794
▁halted	-11.9796
▁Anurag	-11.9798
▁tragedy	-11.9798
▁Delivery	-11.9798
▁Hungarian	-11.9798
▁Electora	-11.9798
▁Glacier	-11.9798
▁terrorism	-11.9798
▁encyclopedia	-11.98
▁mothers	-11.98
▁simpler	-11.98
▁accolades	-11.9801
▁anticipated	-11.9801
▁Bavarian	-11.9805
▁innocent	-11.9806
▁murders	-11.9806
▁pale	-11.9806
▁glasses	-11.9808
▁Sukhi	-11.9809
▁firearms	-11.9809
▁Romeo	-11.9811
▁houseboats	-11.9811
▁Brand	-11.9812
▁Linda	-11.9813
▁confronted	-11.9813
▁spin	-11.9813
▁conjunctivitis	-11.9814
▁Gods	-11.9816
▁splitting	-11.9818
▁Single	-11.9819
▁correctly	-11.982
▁Tapi	-11.982
▁angered	-11.9825
▁deck	-11.9825
▁Baa	-11.9827
▁generic	-11.983
▁Narayana	-11.9831
▁Jalal	-11.9833
▁jaggery	-11.9833
▁Pitru	-11.9833
▁makeup	-11.9835
▁axe	-11.9839
▁commercials	-11.9842
▁Turks	-11.9843
val	-11.9844
▁proceedings	-11.9844
▁subtypes	-11.9844
▁Inner	-11.9845
▁adolescents	-11.9845
▁hanged	-11.9848
▁thy	-11.9851
▁cannons	-11.9852
▁Track	-11.9853
▁deposited	-11.9856
▁faithful	-11.9857
▁Bros	-11.9857
▁canceled	-11.986
revolutionary	-11.986
▁presenter	-11.9861
▁floors	-11.9867
▁commissions	-11.9867
OT	-11.9868
▁boyfriend	-11.9869
▁GSDP	-11.9869
▁bribes	-11.9869
▁decorations	-11.987
▁reclaim	-11.9871
finity	-11.9873
▁sorted	-11.9876
▁Chang	-11.9876
▁kho	-11.9876
ane	-11.9877
▁Nisha	-11.9878
▁talented	-11.9878
vati	-11.9878
▁supplements	-11.9878
▁permits	-11.988
mran	-11.9882
ase	-11.9882
po	-11.9883
▁Save	-11.9883
▁guided	-11.9885
▁Pr	-11.9886
▁mace	-11.9886
▁Behar	-11.9887
▁chieftains	-11.9887
▁unity	-11.9888
▁Table	-11.9889
▁Lund	-11.989
▁Braj	-11.989
▁electora	-11.9897
ger	-11.9898
▁Dar	-11.9901
▁ensured	-11.9905
tten	-11.9909
▁Boo	-11.9909
mela	-11.9911
▁Monuments	-11.9913
▁photographs	-11.9914
▁treats	-11.9914
▁stadiums	-11.9915
▁Brett	-11.9917
▁Gauhar	-11.9921
▁contributor	-11.9921
▁virtues	-11.9922
▁shortages	-11.9922
▁sentences	-11.9929
▁impairments	-11.9931
▁Virat	-11.9934
kali	-11.9937
▁Parish	-11.9939
▁interviewed	-11.9941
▁worshipp	-11.9949
▁commemorat	-11.9953
mus	-11.9954
▁Thu	-11.9954
ada	-11.9959
▁publishe	-11.9962
PS	-11.9964
▁colleg	-11.9965
▁Springs	-11.9969
▁Sham	-11.9982
▁explosions	-11.9983
▁streaming	-11.9985
▁Ap	-11.9992
▁operators	-11.9992
▁clouds	-11.9993
▁penetrat	-11.9995
raja	-11.9998
▁Lag	-11.9999
yr	-11.9999
▁Works	-12
▁prints	-12
▁receipts	-12.0001
▁slope	-12.0002
after	-12.0006
lai	-12.0006
▁resistant	-12.0014
▁chin	-12.002
▁Ros	-12.0022
deo	-12.0025
▁adventures	-12.0028
▁Kanh	-12.003
▁impacts	-12.0031
▁metric	-12.0037
▁Yo	-12.0039
▁beings	-12.0041
▁aunt	-12.0043
▁helmets	-12.0045
▁Dominica	-12.0049
▁Yes	-12.005
▁Jet	-12.0053
▁descriptions	-12.0062
ren	-12.0063
▁closes	-12.0073
▁bowlers	-12.0074
▁resemble	-12.0074
▁robo	-12.0075
second	-12.0077
▁Zo	-12.0079
▁discussions	-12.0089
▁patroniz	-12.0093
brother	-12.0097
▁cables	-12.0098
▁Gir	-12.0098
glia	-12.01
▁admir	-12.0103
sta	-12.0103
▁Had	-12.0104
▁extensions	-12.0107
▁dispos	-12.0107
▁Jud	-12.0116
▁AM	-12.0116
▁nuclei	-12.0117
flowing	-12.0119
▁forc	-12.012
▁Russians	-12.0125
▁Cham	-12.0129
▁gur	-12.013
▁Vega	-12.013
▁Jacob	-12.0133
▁Create	-12.0139
▁sponsors	-12.0142
▁Madho	-12.0145
▁gram	-12.0151
▁apartments	-12.0151
iness	-12.0168
ipah	-12.0171
▁repelle	-12.0172
▁Govind	-12.0184
▁codifi	-12.0186
MD	-12.0187
nic	-12.0191
▁publish	-12.0193
▁Ber	-12.0198
▁slide	-12.02
▁inhal	-12.0202
▁redirect	-12.0202
▁cinemas	-12.0203
specially	-12.0207
ionizing	-12.0215
ix	-12.0216
▁Was	-12.0221
face	-12.0222
▁Chak	-12.0223
resistant	-12.023
▁Banda	-12.023
▁emails	-12.0231
▁couples	-12.0232
Mongol	-12.0234
controlled	-12.0235
▁tips	-12.0235
paid	-12.0235
solution	-12.0237
pressure	-12.0238
purpose	-12.0238
Vedic	-12.0238
yellow	-12.0238
East	-12.0239
great	-12.0239
first	-12.0239
fifth	-12.024
▁committees	-12.024
about	-12.0242
Pakistani	-12.0243
Day	-12.0243
▁NT	-12.0244
No	-12.0245
West	-12.0248
▁Hare	-12.0249
▁Bada	-12.0254
hockey	-12.0254
▁tense	-12.0256
▁estates	-12.0258
▁Chap	-12.0264
▁leak	-12.0267
voluntary	-12.0267
ified	-12.027
▁Gate	-12.027
▁Sala	-12.0276
▁planting	-12.0279
MA	-12.0281
▁Jin	-12.03
▁Design	-12.0302
▁Nara	-12.0307
▁Santos	-12.0314
fort	-12.0316
around	-12.0317
utonomous	-12.0318
▁Shar	-12.0321
▁prevail	-12.0321
▁Tun	-12.0324
▁Snow	-12.0324
▁Nan	-12.0329
▁Ring	-12.0331
▁observance	-12.0335
▁upgrade	-12.0338
▁transplant	-12.034
▁palanquin	-12.0341
mile	-12.0341
▁Future	-12.0341
▁Dagar	-12.0342
name	-12.0344
▁Za	-12.0345
▁grab	-12.0345
▁Lyon	-12.0346
▁collision	-12.0348
▁statu	-12.0349
▁miscarriage	-12.0352
▁Rapid	-12.0354
▁Eye	-12.0355
▁cafe	-12.0355
▁renovation	-12.0356
▁chocolate	-12.0357
▁vocalist	-12.0358
▁Spin	-12.0359
▁coordinate	-12.036
▁Sting	-12.036
▁chieftain	-12.0361
▁pathway	-12.0361
▁militant	-12.0361
ipped	-12.0361
▁dragon	-12.0361
▁manuscript	-12.0362
▁sibling	-12.0362
▁participant	-12.0364
▁ceiling	-12.0365
▁servant	-12.0365
▁transmit	-12.0365
▁outlet	-12.0369
▁tours	-12.0371
▁Sada	-12.0375
▁encourag	-12.0382
▁needle	-12.0384
▁jumps	-12.039
▁Travel	-12.039
▁Point	-12.0391
ret	-12.0396
▁panel	-12.0396
ify	-12.0399
▁relax	-12.0402
▁tab	-12.0403
arach	-12.0404
▁scen	-12.0411
▁lipid	-12.0412
▁lawyers	-12.0412
hr	-12.0413
▁Except	-12.0415
▁processed	-12.042
▁Baro	-12.0422
▁Isle	-12.0423
phony	-12.0423
▁remov	-12.0423
▁cel	-12.0425
▁holder	-12.0428
▁referr	-12.0429
▁arriv	-12.0432
▁Marie	-12.0436
enburg	-12.0437
▁swamp	-12.0438
ide	-12.0441
▁scratch	-12.0445
▁hinder	-12.045
▁Pack	-12.0456
▁inject	-12.0459
vle	-12.0465
▁neur	-12.0466
utham	-12.0471
▁vertical	-12.0472
▁intermittent	-12.0472
▁Ramesh	-12.0472
▁resume	-12.0473
▁Sons	-12.0474
anmohan	-12.0474
▁literal	-12.0474
▁eventual	-12.0475
▁nineteen	-12.0475
▁kit	-12.0476
▁Siddharth	-12.0477
ups	-12.0478
▁Armenia	-12.0478
▁Devas	-12.0478
▁Buen	-12.0479
▁intercept	-12.0481
▁Iceland	-12.0482
▁mysterious	-12.0482
▁Sym	-12.0483
▁cosm	-12.0484
▁persecut	-12.0484
▁Pink	-12.0484
▁epitheli	-12.0484
vidence	-12.0484
▁harass	-12.0484
▁Catalonia	-12.0484
evotees	-12.0485
Ehsaan	-12.0485
▁Ajatashatru	-12.0485
▁Auckland	-12.0485
▁Bikaner	-12.0485
▁Chatterjee	-12.0485
▁Chawla	-12.0485
▁Commerce	-12.0485
▁Dussehra	-12.0485
▁Efforts	-12.0485
▁Kharavela	-12.0485
▁Muazzam	-12.0485
▁Parshwanath	-12.0485
▁Seleucid	-12.0485
▁Shanghai	-12.0485
▁Swimming	-12.0485
▁Tiruchirappalli	-12.0485
▁Trinidad	-12.0485
▁aegypti	-12.0485
▁asbestos	-12.0485
▁ascension	-12.0485
▁bachelor	-12.0485
▁billiards	-12.0485
▁conspiracy	-12.0485
▁constituencies	-12.0485
▁cremation	-12.0485
▁endurance	-12.0485
▁enthusiasm	-12.0485
▁glaucoma	-12.0485
▁inexpensive	-12.0485
▁legitimate	-12.0485
▁mafia	-12.0485
▁sculptural	-12.0485
▁toothpaste	-12.0485
▁treasury	-12.0485
▁Byzanti	-12.0485
▁Dabhade	-12.0485
▁Lahiri	-12.0485
▁Siddiqui	-12.0485
▁Wilhelm	-12.0485
▁oblique	-12.0485
▁Avenue	-12.0485
▁Beatles	-12.0485
▁Corbusier	-12.0485
▁Gajapati	-12.0485
▁Phalke	-12.0485
▁Surgery	-12.0485
▁departure	-12.0485
▁garner	-12.0485
▁tolerance	-12.0485
▁Assistant	-12.0485
▁Murthy	-12.0485
▁Satyagraha	-12.0485
▁Vibhushan	-12.0485
▁delicious	-12.0485
▁Leonard	-12.0485
▁Thanksgiving	-12.0485
▁Valencia	-12.0485
▁tackling	-12.0485
▁unstable	-12.0485
▁farewell	-12.0485
▁forbidden	-12.0485
▁Alfred	-12.0485
▁CCTV	-12.0485
▁Kalolsavam	-12.0485
▁Baltistan	-12.0485
▁moisture	-12.0485
▁thrice	-12.0485
▁Venice	-12.0485
▁entity	-12.0485
▁Panipat	-12.0485
▁dioxide	-12.0485
▁unmarried	-12.0485
▁Kurash	-12.0485
▁Nalanda	-12.0485
▁metabolism	-12.0485
▁spokeswoman	-12.0485
▁Sastri	-12.0485
▁surgeries	-12.0485
▁calcium	-12.0485
▁apology	-12.0485
▁Dixit	-12.0485
▁preservation	-12.0485
▁nude	-12.0485
▁Bhattacharya	-12.0485
▁Monaco	-12.0485
▁Mahipala	-12.0485
▁Maravarman	-12.0485
▁Ahmednagar	-12.0485
▁Judaism	-12.0485
▁Sheffield	-12.0485
▁flies	-12.0485
▁RAID	-12.0485
▁Tantric	-12.0485
▁Tirupati	-12.0485
▁Pushkar	-12.0485
▁Sharif	-12.0485
▁maize	-12.0485
▁jeans	-12.0485
▁orientation	-12.0485
▁Khalsa	-12.0485
▁baggage	-12.0485
▁intersection	-12.0485
▁Nidhi	-12.0485
▁mercy	-12.0485
▁kung	-12.0485
▁Paleolithic	-12.0485
▁mutiny	-12.0485
▁posthumously	-12.0485
▁Norton	-12.0485
▁Xbox	-12.0485
▁Civilisation	-12.0485
▁Baroda	-12.0485
▁plaster	-12.0485
▁Protection	-12.0485
▁fungi	-12.0485
▁deficient	-12.0485
▁Chakma	-12.0485
▁admiration	-12.0485
▁Chandragiri	-12.0485
▁Barbara	-12.0486
▁Rigveda	-12.0486
▁headgear	-12.0486
▁evolving	-12.0486
▁Arnold	-12.0486
▁perception	-12.0486
▁Oliver	-12.0486
▁assumption	-12.0486
▁Paschal	-12.0486
▁Warsaw	-12.0486
▁Malini	-12.0486
▁Click	-12.0486
▁bloom	-12.0486
▁Nearby	-12.0486
▁Student	-12.0486
▁foam	-12.0486
▁livestock	-12.0486
▁pony	-12.0486
▁shame	-12.0486
▁allocated	-12.0486
▁Dead	-12.0486
▁recognizable	-12.0486
▁Grover	-12.0487
▁Hasan	-12.0487
▁Dyer	-12.0487
▁Sochi	-12.0487
▁Archery	-12.0487
▁hover	-12.0487
▁deposition	-12.0487
▁Gregory	-12.0487
▁Raipur	-12.0487
▁MTV	-12.0487
▁electorate	-12.0488
▁guitarist	-12.0488
▁Sree	-12.0488
▁dining	-12.0488
▁crest	-12.0488
▁Guardian	-12.0488
▁assured	-12.0488
▁Alwar	-12.0488
▁Wang	-12.0489
▁ransacked	-12.0489
▁stronghold	-12.0489
▁monopol	-12.0489
▁Hariharan	-12.0489
deva	-12.0489
ld	-12.0489
▁kickboxers	-12.049
▁perceived	-12.049
▁genotype	-12.049
▁Saxony	-12.049
▁Mariners	-12.049
▁Amrita	-12.049
▁realis	-12.0491
▁campers	-12.0491
▁pants	-12.0492
▁Suman	-12.0492
shire	-12.0492
▁Drive	-12.0492
▁abnormalities	-12.0492
mandir	-12.0492
▁Mix	-12.0492
▁postage	-12.0492
▁Karuna	-12.0492
▁measuring	-12.0493
▁artwork	-12.0494
▁Atari	-12.0494
▁tit	-12.0495
▁Panchkula	-12.0495
▁Feroz	-12.0495
▁Staff	-12.0495
▁grasses	-12.0495
▁Russell	-12.0495
▁BASIC	-12.0496
▁mobility	-12.0496
▁Ragini	-12.0496
▁Medicine	-12.0496
▁unacceptable	-12.0496
▁neo	-12.0496
▁Divas	-12.0496
▁Eden	-12.0497
▁Lisa	-12.0497
▁wax	-12.0497
▁generalized	-12.0497
▁Dover	-12.0497
▁nicknamed	-12.0498
▁millimetres	-12.0499
▁Irani	-12.0499
▁sero	-12.0499
▁Colts	-12.0499
▁rubb	-12.0499
▁locate	-12.05
erst	-12.05
▁basement	-12.05
▁solving	-12.0501
▁behave	-12.0502
▁chili	-12.0502
▁AFL	-12.0502
▁interfere	-12.0503
▁Aarya	-12.0504
▁Gulab	-12.0505
▁Grey	-12.0505
▁Ruth	-12.0505
▁Newton	-12.0505
▁asleep	-12.0506
▁Credit	-12.0506
▁modelling	-12.0506
▁Independent	-12.0507
▁Nasir	-12.0507
▁Subhas	-12.0508
▁lowered	-12.0508
▁notification	-12.0508
▁Progressi	-12.0509
▁Andrea	-12.051
▁Bahamas	-12.0512
▁phases	-12.0513
▁linguistic	-12.0513
▁Calendar	-12.0514
▁Client	-12.0514
▁loving	-12.0514
▁wrapping	-12.0514
▁Ranvir	-12.0514
▁Muni	-12.0514
▁Iyer	-12.0515
▁choreographer	-12.0516
▁Pir	-12.0516
▁Shree	-12.0516
hostile	-12.0517
▁hydro	-12.0518
▁oval	-12.0518
ranga	-12.0519
▁tortured	-12.0519
▁curse	-12.0519
▁crying	-12.0519
▁warns	-12.052
▁endure	-12.0521
▁unexpectedly	-12.0521
▁Training	-12.0522
▁looted	-12.0523
▁declare	-12.0524
▁inadequate	-12.0524
▁eleventh	-12.0526
▁imagined	-12.0526
▁survivors	-12.0527
▁corn	-12.0529
▁urina	-12.0531
▁sickening	-12.0531
▁resided	-12.0531
▁sultan	-12.0532
▁Brahmi	-12.0532
▁punk	-12.0533
▁turmeric	-12.0533
▁Pallavi	-12.0533
▁boxes	-12.0534
▁tentative	-12.0535
writer	-12.0535
▁pirates	-12.0536
▁Solar	-12.0536
▁Ad	-12.0537
▁cured	-12.0542
▁Bahu	-12.0542
▁Taking	-12.0543
▁macrophages	-12.0545
▁attendants	-12.0546
▁bagg	-12.055
▁precede	-12.0551
▁Rain	-12.0551
▁commissioner	-12.0552
▁Communications	-12.0554
▁Edicts	-12.0554
▁Nine	-12.0555
▁Kids	-12.0556
▁Reports	-12.0556
eeti	-12.0558
▁Luv	-12.0559
▁illegally	-12.0559
▁aversion	-12.0561
▁settl	-12.0561
▁brakes	-12.0563
▁noticeable	-12.0563
▁companions	-12.0564
▁Hiran	-12.0565
▁encompasse	-12.0566
▁fold	-12.0567
▁Nawaz	-12.0571
▁intent	-12.0572
▁attributes	-12.0575
▁Parks	-12.0575
inder	-12.0577
▁locks	-12.0581
▁snacks	-12.0582
▁interference	-12.0583
▁balanced	-12.0585
▁Enter	-12.0587
▁Kirk	-12.0587
▁carbonate	-12.0591
▁crocodiles	-12.0592
▁Vidya	-12.0595
▁surroundings	-12.0596
▁Jiv	-12.0596
▁Alexandria	-12.0597
awa	-12.0598
pul	-12.06
▁shapes	-12.0605
▁backward	-12.0609
wind	-12.0609
▁Javed	-12.061
▁analyze	-12.0611
▁managers	-12.0612
ficial	-12.0615
▁Waterfalls	-12.062
▁modifications	-12.062
▁escalate	-12.0628
▁signatures	-12.0629
zen	-12.063
▁outline	-12.063
arious	-12.0632
trick	-12.0632
iri	-12.0633
action	-12.0635
▁enabled	-12.064
▁contacts	-12.0642
lush	-12.0643
▁Pet	-12.0644
▁Say	-12.0645
▁Primar	-12.0646
▁damm	-12.0648
▁Kadambas	-12.0648
▁Domi	-12.0649
▁regionally	-12.0654
▁provisions	-12.0657
▁dolls	-12.0657
▁Chad	-12.0664
▁Tho	-12.0665
▁duets	-12.0666
▁dominions	-12.0667
▁danda	-12.0669
stone	-12.0671
rohi	-12.0673
▁cooperatives	-12.0676
▁Athletics	-12.0676
▁oars	-12.0677
▁newest	-12.0681
▁gig	-12.0681
▁credits	-12.0688
▁arid	-12.0694
▁Tirthankaras	-12.0696
our	-12.0699
hen	-12.07
▁End	-12.0702
▁disciples	-12.0704
▁exports	-12.0706
eja	-12.0713
med	-12.0714
▁Bern	-12.0714
▁elbows	-12.0714
▁Malay	-12.0717
▁discretionary	-12.0728
dari	-12.0728
vari	-12.073
▁Petr	-12.0734
▁emergenc	-12.0737
building	-12.0738
▁earthquakes	-12.0742
▁smash	-12.0743
▁consumers	-12.0743
▁hormones	-12.0743
▁slay	-12.0745
▁lymph	-12.075
▁springs	-12.0754
▁profits	-12.0762
▁frogs	-12.0771
ou	-12.0775
▁Jhum	-12.0778
▁scales	-12.078
▁corresponds	-12.078
ap	-12.0787
hia	-12.0789
ib	-12.0794
▁Loi	-12.0795
right	-12.08
▁dumps	-12.0802
▁princel	-12.0803
▁pairing	-12.0805
▁Kath	-12.0807
▁insist	-12.0808
▁helicopters	-12.0809
▁Systems	-12.0809
▁oppose	-12.0809
devi	-12.0816
▁yields	-12.0818
▁cakes	-12.0828
▁modes	-12.0829
graphical	-12.0839
▁towers	-12.0843
▁peri	-12.0845
▁Sel	-12.0847
cia	-12.085
▁Tala	-12.0862
▁liberal	-12.0866
▁Masters	-12.0867
▁climbs	-12.0875
hn	-12.0879
▁Patt	-12.088
▁eradicati	-12.0893
▁Moksha	-12.0899
good	-12.0901
▁Cas	-12.0902
leading	-12.0904
▁drawings	-12.0905
uru	-12.0909
▁pets	-12.091
▁exchanges	-12.091
▁undert	-12.0911
▁Bigg	-12.0916
▁Mach	-12.0921
posed	-12.0925
▁Emma	-12.0925
▁Nam	-12.0932
▁Eric	-12.0933
▁specializ	-12.0933
▁Py	-12.0936
tia	-12.0936
▁Karen	-12.0938
coated	-12.0939
llowing	-12.0943
▁Kalyan	-12.0946
▁grad	-12.0946
▁mo	-12.0947
wall	-12.0948
▁Rashtra	-12.0953
▁Arch	-12.0964
▁Tip	-12.0966
type	-12.0968
not	-12.0969
▁Nat	-12.0969
priced	-12.097
scope	-12.0971
▁Monte	-12.0971
▁pots	-12.0971
mount	-12.0971
▁examinations	-12.0972
▁Ger	-12.0973
thological	-12.0974
▁Kon	-12.0977
listed	-12.0981
ography	-12.0981
▁ru	-12.0982
▁Gal	-12.0983
▁broadcasts	-12.0984
cum	-12.0985
▁Pana	-12.0986
▁Resident	-12.0986
space	-12.0987
▁Roberts	-12.0989
mmediately	-12.0989
▁examine	-12.0993
discretionary	-12.0999
▁cr	-12.1004
driven	-12.1004
induced	-12.1004
defense	-12.1005
literally	-12.1006
majority	-12.1008
▁Auto	-12.1016
stock	-12.1018
hard	-12.1019
nja	-12.1022
▁Ash	-12.1022
▁permit	-12.1024
▁differs	-12.1026
▁alarm	-12.1037
▁solemn	-12.1038
▁import	-12.1039
genic	-12.1039
rad	-12.104
wi	-12.104
nne	-12.1044
▁meditat	-12.1046
▁vascular	-12.1048
▁cuisines	-12.105
▁reliefs	-12.1051
appa	-12.1054
▁Breast	-12.1055
▁Yi	-12.1066
anga	-12.1067
▁Koreans	-12.107
▁unite	-12.1078
▁drill	-12.1081
sena	-12.1092
▁Kancha	-12.1092
natal	-12.1092
▁supplement	-12.1092
▁disappointment	-12.1094
▁rejection	-12.1095
ologist	-12.1095
maker	-12.1097
▁Macedonian	-12.1097
▁Pathan	-12.1097
▁productions	-12.1103
▁Debut	-12.1106
▁stake	-12.111
▁magistrate	-12.111
▁consultation	-12.1111
▁civilisation	-12.1112
rian	-12.1114
▁Border	-12.1115
▁guess	-12.1116
▁scenario	-12.1117
▁conviction	-12.1117
▁Raksha	-12.1117
▁Cyclone	-12.1117
tro	-12.1119
▁segment	-12.112
▁impulse	-12.1121
▁Chandela	-12.1123
▁Judge	-12.1125
▁Conservative	-12.1125
▁gorge	-12.1126
▁Drug	-12.1126
▁genital	-12.1127
▁Hoysala	-12.1127
▁transaction	-12.1127
▁nurse	-12.1128
▁defin	-12.1128
▁rifle	-12.1129
yat	-12.1129
▁wander	-12.1129
▁Zaki	-12.113
▁essay	-12.1131
▁Again	-12.1131
▁clinic	-12.1133
▁killer	-12.1133
▁bolt	-12.1134
▁wetland	-12.1136
▁requirement	-12.1138
▁teenager	-12.1138
▁stamp	-12.1138
▁programmer	-12.114
list	-12.114
▁confine	-12.1144
has	-12.1144
▁ovari	-12.1144
▁freedoms	-12.1148
▁scar	-12.1149
▁wouldn	-12.1151
tax	-12.1155
▁pitcher	-12.1155
▁chapter	-12.1162
▁shaft	-12.1169
▁runner	-12.1169
▁seeker	-12.1171
CA	-12.1171
▁melt	-12.1173
▁Sales	-12.1177
▁eliminat	-12.1178
▁NGO	-12.1181
▁Teacher	-12.1181
▁Bever	-12.1182
fficiency	-12.1184
▁boom	-12.1185
tar	-12.1185
▁Sometime	-12.1189
mo	-12.119
▁soup	-12.119
mani	-12.1191
▁sprinkle	-12.1193
▁attacker	-12.1194
▁spelling	-12.1195
▁rider	-12.12
aja	-12.1205
▁Cat	-12.1208
▁Princes	-12.1212
▁moo	-12.1212
▁mor	-12.1214
▁Bra	-12.1215
▁advocat	-12.1216
▁abolish	-12.1219
lean	-12.1225
▁analog	-12.1229
▁alter	-12.123
▁aspirin	-12.123
▁Sandhu	-12.1231
▁senses	-12.1236
iocese	-12.1238
[...]
