<unk>	0
<s>	0
</s>	0
।	-3.20202
▁के	-3.32201
▁में	-3.5234
▁	-3.61625
,	-3.69026
▁है	-3.70234
▁और	-4.0024
▁की	-4.09661
▁से	-4.22524
▁को	-4.35771
▁का	-4.46884
▁एक	-4.52341
▁हैं	-4.54072
0	-4.56424
1	-4.58821
.	-4.79042
2	-4.92452
▁पर	-4.94046
▁लिए	-4.96841
▁ने	-5.0739
ों	-5.10441
▁किया	-5.13497
▁था	-5.17845
ी	-5.2129
े	-5.22762
-	-5.23074
9	-5.27774
▁गया	-5.34247
▁कि	-5.38748
▁यह	-5.43132
▁भी	-5.58124
▁रूप	-5.61084
▁जाता	-5.61422
ा	-5.63838
▁करने	-5.65971
▁कर	-5.67215
▁हो	-5.71153
▁इस	-5.72355
▁जो	-5.76105
5	-5.8168
▁नहीं	-5.83709
▁साथ	-5.88647
8	-5.89309
▁या	-5.93419
3	-5.94118
▁थे	-5.9523
7	-5.98559
4	-6.00871
6	-6.00886
▁तक	-6.01942
ित	-6.04447
▁बाद	-6.05514
▁अपने	-6.06673
▁द्वारा	-6.14508
▁थी	-6.15418
▁दिया	-6.15872
▁वे	-6.19112
ने	-6.22545
ल	-6.25873
▁उन्होंने	-6.31444
▁तो	-6.32563
▁जब	-6.37015
▁कुछ	-6.38719
▁(	-6.39548
न	-6.40565
▁ही	-6.41369
▁कई	-6.42013
▁राज्य	-6.42676
▁गई	-6.44773
▁करते	-6.45851
▁भारत	-6.47156
▁वह	-6.4862
▁गए	-6.4885
▁वाले	-6.4987
▁आप	-6.50423
▁अधिक	-6.51287
▁उस	-6.52555
▁पहले	-6.57689
)	-6.60763
▁सकता	-6.62449
▁उपयोग	-6.642
▁लेकिन	-6.64253
▁समय	-6.66112
▁उन्हें	-6.66978
▁हुआ	-6.68774
▁अन्य	-6.68999
▁उनके	-6.69785
▁सबस	-6.69916
▁अपनी	-6.70485
▁होता	-6.7053
▁हुए	-6.71197
▁खेल	-6.75914
▁शामि	-6.77889
▁क्षेत्र	-6.7865
▁जा	-6.80126
▁कम	-6.80146
र	-6.80532
▁करता	-6.80569
▁होने	-6.81526
▁सकते	-6.8196
▁"	-6.82642
▁फिल्म	-6.84006
▁कारण	-6.84339
▁जिस	-6.86328
▁बहुत	-6.86792
▁लोगों	-6.86907
▁होती	-6.88501
▁दो	-6.91128
▁कहा	-6.91623
▁नाम	-6.93007
▁आम	-6.94272
▁इसे	-6.95193
▁जाने	-6.95741
"	-6.97171
▁रहे	-6.98534
▁शहर	-6.98709
▁जाती	-6.9876
में	-6.99209
▁दौरान	-6.9957
▁बार	-7.02938
ता	-7.03093
▁रहा	-7.03123
▁भारतीय	-7.04481
▁शुरू	-7.05875
▁हुई	-7.0622
▁वाली	-7.0681
▁किसी	-7.07921
▁करना	-7.08204
▁पास	-7.09491
▁इसके	-7.10104
▁बीच	-7.10939
:	-7.11662
▁होते	-7.11958
▁जैसे	-7.125
लगभग	-7.12827
▁तरह	-7.14069
▁स	-7.14688
▁काम	-7.16297
ं	-7.17417
▁न	-7.18902
के	-7.19805
▁लोग	-7.20046
▁कोई	-7.20582
▁किए	-7.21312
से	-7.23841
▁तौर	-7.23841
▁लिया	-7.25254
▁स्थित	-7.25566
▁क	-7.26251
म	-7.27615
▁उन	-7.2779
▁आपको	-7.29116
उनकी	-7.29844
▁फिर	-7.29939
▁वर्ष	-7.31721
सी	-7.32094
▁जाते	-7.3241
ओं	-7.32511
▁जाना	-7.32746
ियों	-7.32866
यदि	-7.33171
▁नदी	-7.33949
ए	-7.33978
▁क्योंकि	-7.35233
▁सभी	-7.35273
▁इन	-7.35846
▁उसे	-7.3675
▁दिन	-7.37653
▁मुझे	-7.38449
▁मुख्य	-7.39108
▁जिसे	-7.4023
▁मैं	-7.40519
▁दी	-7.40753
की	-7.42237
▁दोनों	-7.42914
स	-7.43375
▁साल	-7.43653
▁प्रमुख	-7.43931
क	-7.44915
ई	-7.45827
▁प्राप्त	-7.46833
▁केवल	-7.47174
▁अलग	-7.47829
▁करें	-7.48227
▁तब	-7.48599
▁इसका	-7.48971
▁करती	-7.49471
▁संयुक्त	-7.49531
▁अमेरिका	-7.49971
▁सकती	-7.50841
▁विशेष	-7.51776
▁तीन	-7.5218
▁राष्ट्रीय	-7.52648
▁टीम	-7.52654
▁आ	-7.53691
एस	-7.55502
▁मंदिर	-7.55895
▁संगीत	-7.57015
▁भाग	-7.57148
▁दक्षिण	-7.57219
▁उनक	-7.57542
▁पहली	-7.57677
▁ऐसा	-7.57681
▁ये	-7.58058
▁शुरुआत	-7.58399
▁अनुसार	-7.60272
▁बन	-7.61944
▁अपना	-7.62083
▁अधिकांश	-7.62418
▁रही	-7.62856
▁उत्तर	-7.63885
▁प्रकार	-7.65275
▁हालाँकि	-7.65488
▁ओर	-7.65958
▁वाला	-7.66165
▁पूर्व	-7.66193
'	-7.67029
िक	-7.67184
▁आपके	-7.67628
ीय	-7.68122
▁चाहिए	-7.68506
▁ले	-7.69596
▁महत्वपूर्ण	-7.69668
▁युद्ध	-7.70768
▁विश्व	-7.72065
वीं	-7.7232
▁ह	-7.72888
▁अब	-7.73005
▁स्थान	-7.73292
्स	-7.73785
▁थीं	-7.74744
▁व्यक्ति	-7.75269
▁शताब्दी	-7.75776
कर	-7.76524
▁पता	-7.76689
▁घर	-7.7694
▁कंपनी	-7.77001
▁अक्सर	-7.77268
▁हर	-7.77537
▁आई	-7.77826
▁ए	-7.77992
▁जहाँ	-7.78051
▁'	-7.7861
का	-7.79266
▁अ	-7.79293
▁जारी	-7.79472
▁जिसक	-7.79865
▁बात	-7.81119
▁निर्माण	-7.81391
▁खिलाड़ी	-7.8208
▁देने	-7.8219
▁बनाया	-7.82499
▁मृत्यु	-7.84221
▁प्रति	-7.84222
▁मदद	-7.84582
▁बना	-7.85489
ें	-7.85693
▁माना	-7.85759
▁बड़े	-7.85775
▁विभिन्न	-7.85952
▁मध्य	-7.86412
▁कभी	-7.86782
बारे	-7.87787
▁गोल	-7.89054
▁सी	-7.8981
▁सरकार	-7.90325
▁बड़ी	-7.90971
▁जन्म	-7.91636
▁चार	-7.91864
▁आवश्यकता	-7.92792
▁प्रदर्शन	-7.92846
▁समूह	-7.9332
▁भूमिका	-7.94115
▁करके	-7.94311
▁हिंदू	-7.94737
▁क्षेत्रों	-7.94888
▁दशक	-7.9571
▁जिससे	-7.96096
▁दुनिया	-7.96133
ना	-7.96168
▁द	-7.97242
▁क्या	-7.9736
प्रदान	-7.97527
▁पुरस्कार	-7.98266
▁सेना	-7.98466
डी	-7.98891
कि	-7.9913
आई	-7.99166
टी	-7.99213
▁इसलिए	-7.99263
▁पानी	-7.99533
▁पहला	-7.99642
▁तुलना	-7.99758
▁स्थिति	-7.9991
▁इसमें	-8.00379
▁देश	-8.01412
▁रखा	-8.01983
▁मूल	-8.02204
▁अंत	-8.02264
▁लोकप्रिय	-8.02441
▁बनाने	-8.02529
▁परिवार	-8.02863
▁होगा	-8.03816
बी	-8.03842
▁देता	-8.04063
▁राजा	-8.0425
▁हिस्सा	-8.04575
▁बड़ा	-8.04748
▁बाहर	-8.06276
▁स्तर	-8.06992
▁दिल्ली	-8.07424
▁संख्या	-8.07595
▁पूरी	-8.08116
▁साम्राज्य	-8.08331
▁धर्म	-8.08896
▁मैच	-8.08899
▁हालांकि	-8.09479
▁दूसरे	-8.10148
▁जीवन	-8.10499
▁फ़िल्म	-8.10849
▁माध्यम	-8.12006
ते	-8.12391
▁आयोजित	-8.12562
पी	-8.12677
▁खिलाफ	-8.13546
▁प्रदेश	-8.13559
▁आगे	-8.13736
▁डी	-8.13909
▁जीत	-8.14368
▁लगा	-8.14703
▁ध्यान	-8.14886
त	-8.15398
ो	-8.15443
िंग	-8.16141
▁म	-8.16201
▁अलावा	-8.16687
▁उदाहरण	-8.16708
▁अमेरिकी	-8.1697
▁आयु	-8.18065
▁जिले	-8.18123
▁हूँ	-8.18666
▁भाषा	-8.18716
▁खेलों	-8.1906
▁बिना	-8.19236
;	-8.1925
▁छोटे	-8.19573
▁केंद्र	-8.19753
▁भर	-8.20001
ती	-8.20212
▁गेंद	-8.20424
▁नए	-8.20605
अलग	-8.20622
▁खुद	-8.20882
▁इस्तेमाल	-8.21926
▁कुल	-8.22523
▁देते	-8.22531
▁डॉलर	-8.22773
!	-8.22895
▁पूर	-8.22918
▁स्थानीय	-8.23032
▁महिला	-8.23527
▁प्रभाव	-8.23583
▁प्रभावित	-8.23791
▁स्थापित	-8.24002
▁ब	-8.24229
▁कार्यक्रम	-8.24452
▁लीग	-8.24563
▁जैन	-8.2484
▁वर्तमान	-8.24976
नी	-8.25447
▁कार्य	-8.25537
▁प्रसिद्ध	-8.25634
▁ऐस	-8.26003
▁ऑफ	-8.2657
▁अंतिम	-8.26773
ण	-8.2681
▁भुगतान	-8.26876
▁लेने	-8.27048
▁उच्च	-8.27068
▁ब्रिटिश	-8.27211
▁रहते	-8.27226
ू	-8.27285
▁सदस्य	-8.27346
▁अंतर्राष्ट्रीय	-8.27363
▁वर्षों	-8.27472
ः	-8.27851
▁देख	-8.27944
एफ	-8.28086
▁बनाए	-8.28751
▁लेकर	-8.29075
▁बंद	-8.29219
▁विकास	-8.29436
▁दिए	-8.2957
▁पूरा	-8.29601
▁देशों	-8.29956
▁मेरे	-8.30273
▁दूर	-8.309
▁उत्तरी	-8.31371
▁विकसित	-8.31425
▁देखा	-8.31858
▁पश्चिमी	-8.32006
▁प	-8.3209
▁अभी	-8.32194
▁सामान्य	-8.32391
▁समान	-8.32641
ीन	-8.32652
▁पुलिस	-8.32858
▁स्थापना	-8.33085
या	-8.33196
▁उसक	-8.3321
▁उसकी	-8.33339
▁करोड़	-8.33562
▁एन	-8.33842
▁सीमा	-8.34187
एल	-8.34208
▁अवधि	-8.34231
▁गाँव	-8.34384
▁जिनमें	-8.34415
▁सेवा	-8.3496
▁निध	-8.35339
▁महीने	-8.35761
▁शासन	-8.35923
▁यू	-8.35998
▁रहने	-8.36078
▁फुटबॉल	-8.36127
▁सहित	-8.3641
▁बदल	-8.37123
▁आज	-8.38047
▁विश्वविद्यालय	-8.38627
▁व	-8.3883
▁प्रतिशत	-8.39262
▁प्रणाली	-8.39342
▁मार्च	-8.3973
▁समाप्त	-8.39774
▁इतन	-8.40116
▁खेला	-8.4017
▁रखने	-8.40214
▁ली	-8.40337
▁सिंह	-8.40387
▁बी	-8.40425
▁आधार	-8.40639
▁प्रतियोगिता	-8.40751
▁तैयार	-8.4078
▁एस	-8.40793
▁जनवरी	-8.40803
▁द्वीप	-8.40876
▁महिलाओं	-8.40974
▁ओलंपिक	-8.41774
वी	-8.41981
▁नृत्य	-8.42401
▁अच्छा	-8.42544
▁जगह	-8.42733
▁उपलब्ध	-8.43027
▁मिनट	-8.43143
▁दे	-8.43371
▁कोशिश	-8.43465
▁अगर	-8.43554
▁मैदान	-8.43591
▁-	-8.44016
जी	-8.44023
▁गीत	-8.44157
▁चाहते	-8.44169
▁कमी	-8.44262
▁पूर्वी	-8.44339
▁बंगाल	-8.44343
▁मीटर	-8.44353
ेक	-8.44362
▁वर्ग	-8.45376
▁चला	-8.4594
▁रंग	-8.4607
▁संघ	-8.46116
▁जल	-8.46226
बसे	-8.4631
मी	-8.46609
आर	-8.46734
▁खिलाड़ियों	-8.46982
▁पारंपरिक	-8.46987
▁जिन	-8.47433
▁मौजूद	-8.47502
▁शब्द	-8.47509
▁प्रत्य	-8.47584
कभी	-8.47841
एन	-8.47914
▁प्रयास	-8.47957
ट	-8.48369
▁जैसी	-8.48491
▁आधारित	-8.48546
▁हिस्से	-8.48745
▁मिल	-8.48886
▁कला	-8.48975
▁योजना	-8.48981
▁अगल	-8.49346
▁आने	-8.49462
▁सम्मान	-8.49531
▁किलोमीटर	-8.49692
▁बताया	-8.49694
▁पश्चिम	-8.50317
वें	-8.50343
▁फिल्मों	-8.50511
▁उपचार	-8.50736
▁अंक	-8.50977
▁शादी	-8.50983
▁आबादी	-8.51322
▁यहाँ	-8.51388
▁दिखाई	-8.5152
▁श्रृंखला	-8.51653
▁ऐसी	-8.52172
▁खर्च	-8.5224
ओ	-8.52371
▁यात्रा	-8.52798
▁अर्थ	-8.52829
▁बच्चों	-8.53044
▁दूसरी	-8.53205
▁पिछल	-8.53218
▁प्राचीन	-8.53316
▁परिणामस्वरूप	-8.53386
▁खान	-8.53638
▁मेरा	-8.53691
▁संबंधित	-8.53792
▁सूची	-8.54001
साथ	-8.54112
▁विशिष्ट	-8.54235
▁सुरक्षा	-8.54312
▁पाँच	-8.54578
▁जानकारी	-8.54585
▁नीचे	-8.54657
▁अतिरिक्त	-8.54718
▁दिसंबर	-8.54807
एम	-8.54909
▁मेरी	-8.55275
▁राजधानी	-8.55311
▁ऑस्ट्रेलिया	-8.55331
▁बने	-8.55475
▁वापस	-8.55539
▁आपकी	-8.5556
▁ज	-8.55648
▁व्यापक	-8.55728
▁टी	-8.56045
▁अध्ययन	-8.5631
▁जीता	-8.56463
▁पिता	-8.5651
▁क्लब	-8.56722
▁रह	-8.56738
▁नवंबर	-8.56888
▁ठीक	-8.56919
▁खो	-8.57205
▁झील	-8.5734
▁शैली	-8.57374
▁काउंटी	-8.57468
▁सहायता	-8.57499
▁प्रतिनिधि	-8.5767
▁अप्रैल	-8.57726
▁दर	-8.5798
▁ऊपर	-8.58299
▁स्थल	-8.58306
▁खोज	-8.58361
▁लग	-8.58372
▁हवाई	-8.58464
▁विचार	-8.5885
▁केरल	-8.58921
▁अभिनय	-8.59309
▁भीतर	-8.59343
▁समर्थन	-8.59655
▁दिनों	-8.59683
▁नामक	-8.59749
▁तमिल	-8.59786
▁सहायक	-8.59858
▁लाख	-8.59866
▁जून	-8.60096
▁सामने	-8.60334
.)	-8.60543
▁सितंबर	-8.60546
▁संस्करण	-8.60686
▁तेज	-8.61624
▁पैसे	-8.61665
▁पसंद	-8.61834
▁नई	-8.61862
▁चुनाव	-8.61878
▁त्योहार	-8.62074
रा	-8.62202
▁मैंने	-8.62367
▁जिन्होंने	-8.62516
▁इतिहास	-8.6254
▁अक्टूबर	-8.62563
▁छोटी	-8.62884
▁ताकि	-8.62932
▁जाएगा	-8.63139
▁आसपास	-8.63145
री	-8.63181
▁जापान	-8.63702
▁स्कूल	-8.63777
▁बच्चे	-8.63829
▁राज्यों	-8.64355
▁मुगल	-8.64579
▁सार्वजनिक	-8.64852
▁अच्छी	-8.65142
▁नगरपालिका	-8.65398
▁हिस्सों	-8.65482
▁आया	-8.65496
▁छोड़	-8.65577
▁प्रवेश	-8.65713
▁जिन्हे	-8.65895
▁बस	-8.66034
ियाँ	-8.66037
▁मई	-8.66234
▁दल	-8.66259
▁कंप्यूटर	-8.66359
▁मिली	-8.66366
▁खेले	-8.66604
▁वहाँ	-8.667
▁अंदर	-8.66779
▁एम	-8.6718
▁प्रारंभिक	-8.6719
▁जहां	-8.67492
▁पीछे	-8.67622
▁सफल	-8.67797
▁होना	-8.67859
▁होगी	-8.67966
▁मिला	-8.68029
▁गंभीर	-8.68108
▁अगस्त	-8.68172
▁प्रत	-8.68394
▁सप्ताह	-8.68487
ि	-8.68537
▁मामलों	-8.68577
▁मनाया	-8.68744
▁हम	-8.68803
▁मौसम	-8.69629
▁उप	-8.69638
▁नेतृत्व	-8.69858
▁सर्वश्रेष्ठ	-8.69859
य	-8.70019
िया	-8.70301
▁अनुमति	-8.70314
▁लगता	-8.70617
▁चिकित्सा	-8.71022
▁प्रांत	-8.71082
▁संपर्क	-8.71215
▁बौद्ध	-8.71228
▁निवेश	-8.71322
▁सब	-8.71468
▁पी	-8.71566
तौर	-8.71984
ाई	-8.72204
▁आधुनिक	-8.72224
▁गेम	-8.72234
▁लंबे	-8.72354
▁रिकॉर्ड	-8.72479
▁भोजन	-8.72601
्येक	-8.7265
▁हिंदी	-8.72708
▁निर्धार	-8.72759
▁मामले	-8.72874
▁छह	-8.73044
▁पार्टी	-8.7305
▁हाल	-8.73112
▁बजाय	-8.73218
▁सात	-8.73235
▁चलता	-8.73307
▁लड़ाई	-8.73323
▁ज़्यादा	-8.73483
▁किला	-8.73509
▁फरवरी	-8.7379
▁बैंक	-8.73916
▁उल्लेख	-8.74162
▁संबंध	-8.74389
▁बढ़	-8.74542
▁गैर	-8.74852
▁शाह	-8.74852
▁परीक्षण	-8.75034
▁नियंत्रण	-8.75132
▁घोषणा	-8.75176
▁उसका	-8.75565
▁प्रथम	-8.75655
▁काल	-8.7568
▁आए	-8.75841
▁उम्र	-8.75849
▁भारी	-8.75873
▁खराब	-8.75878
▁देती	-8.75918
▁मार	-8.76062
▁इंग्लैंड	-8.7609
▁रात	-8.76162
▁बीमारी	-8.76482
▁शिक्षा	-8.76742
▁जुलाई	-8.76802
▁बेटे	-8.76824
▁रोग	-8.76891
▁तट	-8.76917
▁शरीर	-8.77712
▁व्यवसाय	-8.77792
▁खरीदारी	-8.77894
▁स्वीडन	-8.7798
▁पूजा	-8.78013
▁पाकिस्तान	-8.78024
▁बढ़ा	-8.78122
▁कहानी	-8.78125
▁मील	-8.7828
▁कप	-8.78339
▁हाथ	-8.7854
▁द्वितीय	-8.78625
▁दर्ज	-8.78668
▁दूसरा	-8.78843
▁सत्र	-8.79356
▁पड़ा	-8.79514
▁भाई	-8.7954
▁भूमि	-8.79554
▁पद	-8.79661
▁पाया	-8.80084
▁पदक	-8.80308
▁सके	-8.80785
▁कुमार	-8.80938
▁हार	-8.81054
▁पाए	-8.81129
▁चीनी	-8.8126
▁राजवंश	-8.81634
▁ग्राहक	-8.81704
▁अध्यक्ष	-8.81948
▁तहत	-8.82175
▁पार	-8.82509
▁तरीके	-8.82712
▁स्वास्थ्य	-8.82819
श	-8.8323
▁समुदाय	-8.8329
▁जिसमे	-8.83346
▁रहता	-8.83358
मात्र	-8.83465
▁पहुँच	-8.83526
▁हॉकी	-8.83568
ली	-8.83569
▁संक्रमण	-8.83804
▁विजय	-8.84063
▁घंटे	-8.84065
▁स्पष्ट	-8.84111
▁उद्योग	-8.84437
▁सुनिश्चित	-8.84484
▁पत्र	-8.84837
▁सुधार	-8.85094
▁गति	-8.85131
▁उम्मीद	-8.85246
▁विद्रोह	-8.85532
▁स्वीकार	-8.85575
▁किले	-8.8562
▁गलत	-8.85838
▁ज़िले	-8.85845
▁पालन	-8.85937
वा	-8.86046
▁शतरंज	-8.86052
▁उत्सव	-8.86163
▁पुरुषों	-8.86213
▁व्यापार	-8.86253
▁जी	-8.86311
▁वित्तीय	-8.86373
▁जिसने	-8.86386
▁नुकसान	-8.86867
▁अधिकारियों	-8.86911
▁बेहतर	-8.87141
▁पड़	-8.87191
▁दक्षिणी	-8.87238
▁पहचान	-8.87253
▁संदर्भ	-8.87493
▁अनुमान	-8.87656
▁मार्ग	-8.87816
▁आय	-8.88339
शा	-8.88486
▁बनाई	-8.88521
▁संकेत	-8.88595
▁नगर	-8.8874
▁कैसे	-8.88742
▁सामाजिक	-8.88826
▁राजनीतिक	-8.89172
▁श्रेणी	-8.89473
▁पुरुष	-8.89609
▁विभाज	-8.89776
▁अनुभव	-8.89933
▁ऑनलाइन	-8.90066
▁वन	-8.90132
▁आता	-8.90366
▁पंजाब	-8.90394
▁पेशेवर	-8.90594
▁पैसा	-8.90688
▁गईं	-8.90816
▁आकार	-8.90891
▁राष्ट्रपति	-8.90962
▁व्यक्तिगत	-8.91228
▁विस्तार	-8.91473
▁आपका	-8.91621
▁अभिनेता	-8.91745
▁धार्मिक	-8.91944
▁आनंद	-8.92015
▁शायद	-8.92062
▁जान	-8.92102
▁मह	-8.92282
▁छोटा	-8.92326
▁शीर्ष	-8.92399
▁ऐतिहासिक	-8.92585
▁तमिलनाडु	-8.92854
▁डिग्री	-8.92868
▁मौत	-8.93144
▁एशिया	-8.93186
▁संगठन	-8.93238
▁:	-8.93332
▁मानव	-8.93404
▁हमला	-8.93462
▁कार्ड	-8.93597
▁प्रस्तुत	-8.93623
▁समुद्र	-8.93776
▁दस	-8.94107
▁इसी	-8.94108
▁देवी	-8.94162
यों	-8.94344
▁कैंसर	-8.94407
▁लेते	-8.94677
एच	-8.94699
▁उत्पादन	-8.94758
▁ग	-8.94893
▁श्री	-8.94899
▁रक्त	-8.95238
▁पहाड़ी	-8.95239
▁दौड़	-8.95275
▁लगाया	-8.95278
▁सड़क	-8.95319
▁एफ	-8.95386
▁संभावना	-8.95507
▁दुकान	-8.95627
त्व	-8.95713
▁चीन	-8.95814
▁लिखा	-8.95834
▁पूर्ण	-8.95945
ला	-8.95994
▁उत्पाद	-8.96083
▁समारोह	-8.96135
▁सफलता	-8.96447
▁सैन्य	-8.96465
▁लगाता	-8.96541
▁शक्ति	-8.96558
▁कानून	-8.96713
▁स्टेशन	-8.96752
▁चोट	-8.97128
▁इंडिया	-8.97156
▁परिवर्तन	-8.97198
▁योग	-8.97323
ारिक	-8.97435
▁क्षमता	-8.97722
▁बा	-8.97967
▁पत्नी	-8.98137
▁सा	-8.98341
▁क्रिकेट	-8.98407
एँ	-8.98409
▁भगवान	-8.98428
▁विकल्प	-8.98655
▁राशि	-8.99325
▁कर्नाटक	-8.99634
▁उ	-8.99675
▁डर	-8.99796
▁बावजूद	-8.99829
▁लाभ	-8.99872
ह	-8.99882
▁वृद्धि	-8.99904
▁आयोजन	-8.99939
▁लंदन	-9.00127
▁राज	-9.0042
▁धन	-9.00595
▁देव	-9.00643
▁अधिकार	-9.00689
इनमें	-9.00806
▁जाए	-9.01012
▁आधिक	-9.01025
▁पैदा	-9.01056
ंग	-9.01117
▁कृषि	-9.0112
▁सामन	-9.01404
▁नियमों	-9.01608
▁वास्तव	-9.01712
▁आर	-9.02003
▁युग	-9.02075
▁वीडियो	-9.02285
▁चले	-9.0239
▁रेलवे	-9.02588
▁घरेलू	-9.02642
▁उद्यान	-9.02767
▁तरफ	-9.0279
▁तापमान	-9.02892
▁होकर	-9.02997
▁एल	-9.03172
▁ईस्वी	-9.03202
▁महाराष्ट्र	-9.0321
▁कनाडा	-9.03261
▁पक्ष	-9.03468
▁विषय	-9.03555
▁जोखिम	-9.03564
▁उद्देश्य	-9.03694
▁औसत	-9.03712
▁शहरों	-9.03738
▁नियुक्त	-9.03809
▁आवश्यक	-9.0387
▁गुजरात	-9.03938
▁तूफान	-9.04217
▁शिलालेख	-9.04461
▁बनी	-9.04575
▁रचना	-9.04862
▁परियोजना	-9.04883
▁सिर	-9.04886
▁अंतर	-9.05026
▁नियम	-9.05053
▁जैसा	-9.05623
▁जनगणना	-9.05731
▁लाल	-9.05819
को	-9.06012
▁नियमित	-9.06176
▁लगाने	-9.06259
▁करेंगे	-9.06443
▁अंग्रेजी	-9.06886
ज	-9.06981
▁पड़ता	-9.07215
▁आठ	-9.07351
▁स्वतंत्रता	-9.07366
▁कार	-9.07502
▁निभाई	-9.07878
▁घाटी	-9.07996
▁परंपरा	-9.08093
▁विरोध	-9.08202
▁राग	-9.08329
▁यूरोप	-9.08338
▁बचत	-9.08466
▁कांग्रेस	-9.08505
▁मुंबई	-9.08506
▁श	-9.08571
▁कॉलेज	-9.08599
▁आदेश	-9.08708
▁दूरी	-9.08889
▁यूरोपीय	-9.09245
▁दृश्य	-9.09455
▁रक्षा	-9.09472
▁हत्या	-9.09537
▁चैंपियनशिप	-9.09652
▁राम	-9.097
▁लगे	-9.09863
▁उपकरण	-9.09929
▁प्रक्रिया	-9.10039
▁फैसला	-9.10225
▁मूल्य	-9.1031
▁पुराने	-9.10346
▁मंदिरों	-9.10696
▁वेबसाइट	-9.10925
▁दिवस	-9.10988
▁गठन	-9.11122
▁बिजली	-9.11135
▁मन	-9.11215
▁दें	-9.11241
▁दिल	-9.11295
▁वर्षा	-9.11316
▁मात्रा	-9.11388
▁कमाई	-9.11599
सूस	-9.11605
▁निर्मित	-9.11607
व	-9.11689
▁विभाग	-9.11994
▁हमे	-9.12312
▁स्रोत	-9.12316
िल	-9.12428
▁सीमित	-9.1257
▁हासि	-9.12579
▁विवाह	-9.12589
▁वार्षिक	-9.12597
▁घटना	-9.12707
।"	-9.12855
तुरंत	-9.12989
▁सम्राट	-9.13031
▁चुना	-9.13095
▁निर्भर	-9.13285
▁ई	-9.13728
▁प्राकृतिक	-9.13752
▁युवा	-9.13866
▁नदियों	-9.14107
▁शाही	-9.14218
▁याद	-9.14382
▁आयोवा	-9.14416
▁जर्मनी	-9.14442
▁अभ्यास	-9.14461
िन	-9.14464
▁खेलने	-9.1447
▁नया	-9.14598
▁प्रतिस्पर्धा	-9.14774
▁विज्ञान	-9.1486
▁जाँच	-9.14929
▁स्वयं	-9.15124
▁मतलब	-9.15141
▁सामान	-9.15163
▁लक्षण	-9.15189
▁शिव	-9.15303
▁ज्यादा	-9.15475
▁ईसा	-9.1579
▁बाढ़	-9.15823
▁मे	-9.15836
▁सदस्यों	-9.15849
▁निर्णय	-9.15897
▁स्थानों	-9.15931
▁रिलीज़	-9.162
़	-9.16367
▁आदि	-9.16585
द	-9.16671
▁आर्थिक	-9.16763
▁त्वचा	-9.1688
▁करेगा	-9.1693
▁ओ	-9.17001
▁कहीं	-9.17057
▁एशियाई	-9.17079
▁वस्तुओं	-9.17327
▁आक्रमण	-9.17365
▁इ	-9.17432
▁केंद्रित	-9.17614
▁अधिकारी	-9.17696
▁बाल	-9.17753
▁प्रकाशित	-9.17802
▁आरोप	-9.17891
▁प्रयोग	-9.18026
▁लंबी	-9.18069
▁बेटी	-9.18118
▁मिलता	-9.18176
▁अली	-9.18249
▁आते	-9.18314
▁संस्कृति	-9.18338
▁माता	-9.18579
▁वर्णन	-9.18861
▁अस्पताल	-9.19003
▁प्रस्ताव	-9.19448
▁रोकने	-9.19618
▁प्र	-9.19696
▁जुड़े	-9.19765
▁संभावित	-9.19801
▁प्रशिक्षण	-9.19874
▁नियंत्रित	-9.19895
▁फोन	-9.19953
▁समस्या	-9.20115
▁न्यू	-9.20231
▁हों	-9.20523
▁वि	-9.20532
▁रहती	-9.20673
▁बराबर	-9.20923
▁परिणाम	-9.2095
▁सही	-9.21033
▁जॉन	-9.21159
▁पांच	-9.21207
▁मिलती	-9.21383
▁ल	-9.21448
▁माँ	-9.21616
▁रखें	-9.21831
▁बैंडी	-9.21889
▁कीमत	-9.22002
▁गर्म	-9.22412
▁रोक	-9.22435
▁कब्जा	-9.22485
▁निश्चित	-9.22683
),	-9.22686
▁निजी	-9.22837
▁दावा	-9.22848
▁लक्ष्य	-9.2286
▁दरबार	-9.23386
▁सकें	-9.23519
▁मारे	-9.23534
▁ज्यादातर	-9.23584
▁स्वतंत्र	-9.23667
▁चित्र	-9.23673
▁समझ	-9.23678
दार	-9.23981
▁पोलो	-9.24012
▁अरब	-9.24127
▁तंत्रिका	-9.24521
▁कश्मीर	-9.2472
▁गुफा	-9.2473
ले	-9.24907
▁राष्ट्र	-9.25105
▁रे	-9.2518
▁सैनिकों	-9.25351
▁बनने	-9.25381
▁विद्यालय	-9.25382
▁समाचार	-9.25474
▁उत्पन्न	-9.2548
▁चरण	-9.25589
क्षम	-9.257
▁बजट	-9.25915
▁चल	-9.25962
▁टीमों	-9.25996
▁मिलने	-9.2603
▁निर्देशक	-9.26058
ीकरण	-9.26085
▁मान्यता	-9.26227
▁शुल्क	-9.26298
▁पवित्र	-9.26322
▁लागत	-9.2642
▁प्रतीक	-9.26532
▁न्यूयॉर्क	-9.26658
शास्त्रीय	-9.26682
▁संग्रह	-9.26705
▁बच	-9.26769
▁घोष	-9.26836
▁स्वर्ण	-9.26933
▁मजबूत	-9.27082
▁कपड़े	-9.27088
▁पेश	-9.27088
▁मिट्टी	-9.27103
▁खाते	-9.27212
▁महान	-9.27373
▁प्रतिक्रिया	-9.27661
▁होंगे	-9.27921
▁निर्देशित	-9.28001
▁ला	-9.28149
▁टेलीविजन	-9.28248
▁मॉडल	-9.28262
▁मीडिया	-9.28366
▁पहुंच	-9.2843
▁एच	-9.2885
▁पत्थर	-9.2909
▁समीक्षा	-9.29134
▁लाग	-9.29191
▁शारीरिक	-9.29472
▁प्रबंधन	-9.29541
▁प्यार	-9.29603
▁फ	-9.29686
▁बाजार	-9.29751
▁कोड	-9.29767
▁हवा	-9.29771
▁विपरीत	-9.2986
▁तीसरे	-9.29879
▁उपहार	-9.29913
▁चू	-9.29915
▁शाम	-9.29967
▁परिवहन	-9.29975
▁शासनकाल	-9.30014
▁बॉक्स	-9.30041
प	-9.30109
▁मंत्री	-9.30174
▁सक्रिय	-9.30287
▁मांग	-9.30414
▁गाड़ी	-9.30417
▁मराठा	-9.30612
▁वास्तविक	-9.30659
▁आती	-9.30758
▁उनसे	-9.3095
▁सूचना	-9.31028
▁सोच	-9.31107
रण	-9.31143
▁दर्शात	-9.31186
▁सामग्री	-9.31203
▁प्रेरित	-9.31407
▁एंड	-9.31411
▁मिले	-9.31693
▁प्रदर्श	-9.31816
पिता	-9.3183
▁बैंड	-9.31856
▁दिखाया	-9.31967
▁अच्छे	-9.32018
▁फ्रांस	-9.32087
▁बल्कि	-9.32334
▁खरीद	-9.32362
▁नेटवर्क	-9.32369
जह	-9.32384
▁शासक	-9.32411
▁पुष्टि	-9.32761
▁मानना	-9.32824
▁प्रसार	-9.32881
▁विशाल	-9.33001
▁डब्ल्यू	-9.33045
▁विवरण	-9.33105
▁मुश्किल	-9.33242
▁खुशी	-9.33295
यू	-9.33381
▁रिपोर्ट	-9.33441
▁पार्क	-9.33463
फी	-9.33601
▁वस्तु	-9.33611
▁जंगल	-9.33617
▁बिक्री	-9.33676
▁राजस्थान	-9.33927
▁राजमार्ग	-9.34104
▁जल्द	-9.34124
▁शुरुआती	-9.34131
▁पाई	-9.34496
▁कृष्ण	-9.3453
▁जिम्मेदार	-9.3458
▁स्टोर	-9.34652
▁तुम	-9.34664
▁इन्हें	-9.34933
▁चोल	-9.34957
▁त	-9.3496
पर्याप्त	-9.35126
ार	-9.3515
▁मानक	-9.35196
▁चैम्पियनशिप	-9.35306
▁कितन	-9.35365
▁व्यवस्था	-9.35397
▁हमारे	-9.35634
▁बोली	-9.35774
▁देखभाल	-9.35784
▁निकल	-9.35833
▁मस्तिष्क	-9.35866
▁समूहों	-9.35872
▁अशोक	-9.35879
▁वालों	-9.35934
▁सुबह	-9.35938
▁प्राग	-9.36191
▁जांच	-9.36375
▁बोर्ड	-9.36484
▁कहना	-9.36659
▁साहित्य	-9.36959
▁देना	-9.36967
▁आसान	-9.37001
▁समर्प	-9.37079
▁कहते	-9.37124
ष्ट	-9.37171
▁पुत्र	-9.37455
▁दोस्त	-9.37519
▁दौरा	-9.37641
▁टेस्ट	-9.37716
▁संपत्ति	-9.37793
▁लिखे	-9.37911
▁रुपये	-9.37931
▁उल्लेखनीय	-9.37941
▁लेख	-9.37986
▁खाद्य	-9.38019
▁नाटक	-9.38042
▁विष्णु	-9.38147
▁चुक	-9.38172
▁र	-9.38294
▁लौट	-9.38343
▁तरीका	-9.38381
▁मान	-9.38482
▁कलाकार	-9.38609
▁टूर्नामेंट	-9.38814
▁इसक	-9.38899
▁करीब	-9.3891
▁नागरिक	-9.39024
▁जमा	-9.39123
▁अदालत	-9.39177
▁अभिनेत्री	-9.39329
▁जल्दी	-9.39386
▁परिषद	-9.39533
इलाज	-9.39597
▁लद्दाख	-9.39696
▁किनारे	-9.39876
▁सलाह	-9.40072
पश्चिम	-9.40091
▁योग्य	-9.40201
पूर्ण	-9.40259
▁जिनका	-9.40486
▁प्रकाश	-9.4052
▁स्टेडियम	-9.40604
▁फैला	-9.40607
▁पहाड़ियों	-9.40619
▁आघात	-9.40638
▁जनसंख्या	-9.4064
▁अभियान	-9.40643
▁हद	-9.40767
पुर	-9.40777
▁सुरक्षित	-9.41008
▁रखते	-9.41103
▁बदलाव	-9.41109
▁कार्यालय	-9.41144
▁मना	-9.41188
▁नौ	-9.41287
▁प्राथमिक	-9.41346
▁मारने	-9.41453
ासिल	-9.41462
▁सरकारी	-9.41542
▁पीड़ित	-9.41609
▁खरीदने	-9.41793
▁गंगा	-9.4188
▁मजबूर	-9.41912
▁चावल	-9.41998
▁शराब	-9.42044
▁अल	-9.42155
▁रेखा	-9.42185
▁मानसून	-9.42431
▁अंततः	-9.42434
▁निर्माता	-9.42561
▁आग	-9.42603
▁बारिश	-9.42948
▁प्रभावी	-9.42957
▁सुल्तान	-9.42968
▁ग्रामीण	-9.42969
▁जीते	-9.42976
▁सीधे	-9.42989
▁अंग्रेज	-9.4311
ात्मक	-9.43405
▁पुरानी	-9.43426
▁संस्थान	-9.43464
▁संरचना	-9.43488
▁क्यों	-9.43614
▁रन	-9.4363
▁योगदान	-9.43672
▁बल	-9.43832
▁संभव	-9.44018
▁देखें	-9.44077
▁व्यवहार	-9.44216
▁तंत्र	-9.44221
▁चंद्र	-9.44322
▁ब्याज	-9.44353
▁हराया	-9.44397
▁जुड़ा	-9.44453
▁इंटरनेट	-9.44769
▁अनुरोध	-9.44786
▁अकबर	-9.44817
▁वास्तुकला	-9.44949
▁पा	-9.45026
▁खिताब	-9.45238
▁यूनाइटेड	-9.45244
पूर्व	-9.45246
▁एल्बम	-9.45268
▁चीज़	-9.45273
▁दर्द	-9.4528
▁लें	-9.45423
▁सिर्फ	-9.4552
▁बांध	-9.45715
▁ब्रिटेन	-9.45757
▁ईसाई	-9.458
▁छूट	-9.45963
▁तय	-9.46153
▁शो	-9.4619
▁ओडिशा	-9.4627
▁विजेता	-9.46344
▁मुसलमान	-9.4636
ब	-9.46369
▁जीवित	-9.46406
▁व्यावसायिक	-9.46681
▁गांधी	-9.467
▁बर्फ	-9.46706
▁सिख	-9.46734
▁दवाओं	-9.46747
▁निदान	-9.46794
▁शहरी	-9.46834
ज़	-9.46926
▁पाल	-9.46999
▁क्षति	-9.47556
▁हिमालय	-9.47762
▁प्रमाण	-9.48208
▁गवर्नर	-9.48262
▁गिर	-9.48453
▁बढ़ाने	-9.4855
पूर्वक	-9.48554
▁लकड़ी	-9.4867
▁चयन	-9.48983
▁जेल	-9.49129
▁अत्यधिक	-9.49175
▁चुका	-9.49221
▁लगी	-9.49242
▁तीसरी	-9.49256
▁अवसर	-9.49269
▁जवाब	-9.49334
▁गुरु	-9.49432
▁दृष्टि	-9.49544
▁प्रशासन	-9.49623
▁नौकरी	-9.49695
▁सांस्कृतिक	-9.49735
▁सूर्य	-9.4974
मैन	-9.49768
▁पाने	-9.49931
▁निम्न	-9.50044
▁संघर्ष	-9.50179
▁डेटा	-9.50194
▁गायक	-9.5021
▁खुश	-9.5033
▁सह	-9.50349
▁विश्वास	-9.50365
▁लाइन	-9.50372
▁यहां	-9.50386
▁जिनक	-9.50396
▁रख	-9.50411
▁कैलिफोर्निया	-9.50615
▁जर्मन	-9.50659
▁जिन्ह	-9.50756
▁शोध	-9.508
▁भाषाओं	-9.5082
▁पकड़	-9.50908
▁जिला	-9.50935
▁इलाक	-9.50941
▁डाल	-9.50956
▁समस्याओं	-9.51165
▁क्षेत्रीय	-9.51184
▁प्रधानमंत्री	-9.51215
▁पृष्ठ	-9.51235
▁फ्रांसीसी	-9.51256
▁विटामिन	-9.51269
▁एकल	-9.51275
▁आंदोलन	-9.51679
▁जोड़	-9.5172
▁समाज	-9.5174
▁शांति	-9.51933
▁कदम	-9.51959
▁आस	-9.52002
▁लोक	-9.52046
▁लेखक	-9.52075
▁नि	-9.52113
▁महल	-9.52129
▁गतिविधियों	-9.52211
▁कपूर	-9.52257
▁उत्पादों	-9.52411
▁महत्व	-9.52572
▁दिशा	-9.52612
▁पैमाने	-9.52658
▁लेता	-9.52728
▁प्रशंसा	-9.52785
▁सेंट	-9.52817
▁चर्च	-9.52837
▁निर्देशन	-9.52847
▁देवता	-9.52859
▁केंद्रीय	-9.52889
▁विदेशी	-9.52966
▁खाने	-9.52969
शासित	-9.53033
▁उत्पत्ति	-9.53161
▁संरक्षण	-9.53233
ाने	-9.53405
▁भेजा	-9.5358
▁फैल	-9.53644
▁चेन्नई	-9.53682
▁तलाश	-9.53683
▁संस्कृत	-9.5377
▁सूचीबद्ध	-9.53825
▁प्रतियोगिताओं	-9.53828
▁मुक्त	-9.5409
▁पतंग	-9.54151
▁तेल	-9.5431
▁बीमा	-9.54372
▁आपूर्ति	-9.5443
▁मुस्लिम	-9.54451
▁गाने	-9.54467
▁सो	-9.54741
▁दर्शकों	-9.54855
▁डॉक्टर	-9.54901
▁बता	-9.5506
▁संबंधी	-9.5509
बार	-9.55104
▁कंपनियों	-9.55235
▁समिति	-9.55657
▁समृद्ध	-9.55715
▁अंतरराष्ट्रीय	-9.55761
▁अड्डे	-9.55766
▁भविष्य	-9.55791
▁संचालन	-9.55795
▁संभवतः	-9.55861
▁चलते	-9.55873
▁बेच	-9.55941
त्मक	-9.56143
▁विफल	-9.56209
▁वयस्क	-9.56334
▁कार्यक्रमों	-9.56361
▁ऑफिस	-9.56386
▁प्रार्थना	-9.56434
▁लक्षणों	-9.56465
▁पर्वत	-9.56493
▁इनकार	-9.56539
▁स्थानांतर	-9.56581
▁शेष	-9.56614
▁दोष	-9.56709
▁रिलीज	-9.56797
▁कार्यकाल	-9.56849
▁यौन	-9.56872
▁बांग्लादेश	-9.56879
▁महीन	-9.56934
▁असम	-9.56952
▁हटा	-9.56953
▁उड़ान	-9.57104
▁छात्र	-9.5728
▁साइकिल	-9.57398
▁डाला	-9.57404
▁पर्यटन	-9.57425
▁बचाव	-9.57466
▁फुट	-9.57487
▁शूटिंग	-9.57517
▁डे	-9.57624
▁ताल	-9.57631
ग	-9.57749
▁अफ्रीका	-9.57967
▁सागर	-9.5798
▁बहु	-9.57984
▁बे	-9.58011
▁राजाओं	-9.58221
▁राव	-9.58285
▁ग्रीष्मकाल	-9.58612
▁शॉट	-9.58693
▁बचा	-9.58709
▁लिख	-9.58918
▁साझा	-9.58967
▁तेलुगु	-9.59033
▁भिन्न	-9.59161
▁संचालित	-9.59192
▁आकर्ष	-9.59243
▁कल	-9.59375
▁चर्चा	-9.59424
▁अड्डा	-9.59527
▁कर्मचारी	-9.59541
▁संसद	-9.59541
▁कौशल	-9.59551
▁कार्यों	-9.59668
▁नज़र	-9.59744
▁निगम	-9.59797
▁प्रतिबंध	-9.59922
सा	-9.59967
▁स्वामित्व	-9.60171
▁चढ़ाई	-9.60241
बद्ध	-9.6048
▁बहत	-9.60482
ाफी	-9.60508
▁घायल	-9.60609
▁वंश	-9.60635
▁कलाकारों	-9.60739
▁आसानी	-9.60748
▁बिहार	-9.60785
▁गोवा	-9.60865
▁विक्रेता	-9.612
▁वी	-9.61235
▁गणना	-9.61391
▁संक्रम	-9.61428
▁उपस्थिति	-9.61459
▁विवाद	-9.6152
▁ऑर्डर	-9.61578
▁मछली	-9.6177
▁चाल	-9.61844
▁देखकर	-9.61909
▁हाथों	-9.62158
▁नंबर	-9.62421
▁फाइनल	-9.62426
▁साथी	-9.62453
▁रानी	-9.62552
▁जानवरों	-9.62552
▁व्यक्त	-9.62778
▁सेल्सियस	-9.62859
▁विविधता	-9.62903
▁खेलते	-9.62948
▁रखना	-9.62972
▁मनोरंजन	-9.63162
▁पैर	-9.63316
▁स्कोर	-9.63335
▁सिनेमा	-9.63357
▁संरक्षित	-9.63461
▁सजा	-9.63463
▁मानते	-9.63511
▁दौर	-9.63525
ाँ	-9.63531
▁निचले	-9.63663
▁स्वर	-9.63668
दूसरे	-9.63762
▁ईस्ट	-9.6378
▁विशेषता	-9.63878
▁सिस्टम	-9.63969
ीकृत	-9.64
▁आलोचना	-9.64005
▁गांव	-9.64014
▁प्रतिद्वंद्वी	-9.6403
▁पेड़	-9.64129
▁जनता	-9.64159
▁हमले	-9.64164
▁बनाते	-9.6441
▁निवास	-9.64471
▁भेज	-9.64568
▁घाट	-9.64604
▁दुर्घटना	-9.64647
▁अपेक्षा	-9.64768
▁रेड	-9.64784
▁पर्यटक	-9.64805
▁जानी	-9.6482
▁जलवायु	-9.65241
▁ना	-9.65246
दी	-9.65432
▁भीम	-9.65433
▁अनुबंध	-9.6553
▁चलने	-9.65554
▁पति	-9.65573
▁कारक	-9.65726
▁सकारात्मक	-9.65757
▁दबाव	-9.65762
▁सु	-9.65999
▁श्रेय	-9.66036
▁पात्र	-9.66051
▁चेक	-9.66276
▁लंबा	-9.66357
▁अभयारण्य	-9.6646
▁जिलों	-9.66507
▁शाखा	-9.66712
बॉल	-9.66864
▁हजार	-9.66869
▁अनुष्ठान	-9.66905
▁खाड़ी	-9.66908
▁मुख्यालय	-9.66923
▁बुनियादी	-9.66961
▁पदार्थ	-9.67014
▁विषाणु	-9.67151
▁मैचों	-9.67258
▁ऊपरी	-9.67416
एक	-9.67424
▁कौन	-9.67595
▁सभा	-9.6762
▁खड़	-9.67648
▁मणिपुर	-9.67691
▁कानूनी	-9.67875
▁ख	-9.67994
▁किस	-9.68174
शन	-9.68334
▁खंड	-9.68376
▁मालिक	-9.68386
▁मंच	-9.68404
▁तल	-9.68439
▁गिरफ्तार	-9.6865
▁औपचारिक	-9.68688
▁बतात	-9.68725
▁घरों	-9.68791
▁पुराना	-9.68884
▁चिंता	-9.68928
▁संचार	-9.68982
▁जुड़ी	-9.68997
▁विमान	-9.69194
▁हस्ताक्षर	-9.69356
▁ज्ञात	-9.69369
मा	-9.69399
▁उपकरणों	-9.69538
▁प्रचार	-9.69791
▁बढ़ती	-9.69813
▁बढ़ने	-9.69853
▁फीट	-9.69912
▁ऊँचाई	-9.69914
▁ऊर्जा	-9.69935
▁चट्टान	-9.70022
▁नेशनल	-9.70058
▁बोल	-9.70273
▁सारे	-9.70399
▁चेहरे	-9.70523
▁न्यायालय	-9.70533
▁दुर्लभ	-9.70646
▁संयोजन	-9.70683
▁तथा	-9.70709
▁समुद्री	-9.71046
▁चैनल	-9.71217
▁प्रोग्राम	-9.713
▁कह	-9.7146
▁वायरस	-9.71505
लिखित	-9.71521
▁तेज़	-9.71553
▁बहन	-9.71567
▁शानदार	-9.71811
▁सफेद	-9.71906
▁रेडियो	-9.7192
▁सुंदर	-9.71964
▁प्रवाह	-9.72039
▁सिटी	-9.72043
▁सुझाव	-9.72356
▁अपराध	-9.72397
जैसे	-9.72487
▁सलाहकार	-9.7249
▁अनु	-9.72504
ड	-9.72743
▁होली	-9.72746
▁विद्वान	-9.72993
▁सिक्किम	-9.7304
▁होटल	-9.73064
▁वहां	-9.73085
▁मेजबान	-9.73094
▁व्यक्तियों	-9.73276
तम	-9.73277
▁शब्दों	-9.7332
▁उपमहाद्वीप	-9.73616
▁अधिनियम	-9.73623
▁थोड़ा	-9.73677
▁दौरे	-9.73748
▁दवा	-9.73915
▁तोड़	-9.74264
▁रूस	-9.74269
▁जोड़ा	-9.7446
▁लड़की	-9.74486
▁वर्षीय	-9.74498
▁भीड़	-9.74517
▁लोकप्रियता	-9.74722
▁जे	-9.7476
धीरे	-9.74849
▁चली	-9.7485
▁गूगल	-9.74875
▁धीरे	-9.7488
▁जाएगी	-9.74913
एं	-9.74957
▁कोशिकाओं	-9.7507
▁सत्ता	-9.75145
▁विकार	-9.75174
▁बातचीत	-9.75522
▁सॉफ्टवेयर	-9.75526
▁अप	-9.75556
▁लघु	-9.75579
▁चाहता	-9.75599
▁चलचित्र	-9.75629
▁पुस्तक	-9.75736
▁गतिविधि	-9.75791
कृत	-9.75834
▁प्रथा	-9.75969
▁सर्दिय	-9.76182
▁तकनीक	-9.76247
▁निकाल	-9.7627
▁सेवाओं	-9.76412
ियन	-9.76424
उष्णकटिबंधीय	-9.76425
▁अधीन	-9.76729
▁सुविधा	-9.76806
▁अचानक	-9.76813
▁संलक्षण	-9.76821
▁शिकार	-9.76843
▁ग्रेट	-9.76849
▁वकील	-9.76856
▁छोड़कर	-9.76961
▁वर्णित	-9.76969
▁अन	-9.7737
▁बॉलीवुड	-9.77472
▁बाहरी	-9.77843
▁फ़	-9.779
▁गुप्त	-9.78082
▁इस्लाम	-9.78098
▁यूनानी	-9.78105
▁गणराज्य	-9.78157
▁सर्वोच्च	-9.78183
▁गुफाओं	-9.78193
▁चैंपियन	-9.78213
▁गुणवत्ता	-9.78262
▁वर्गीकृत	-9.78267
▁मासिक	-9.7831
▁कबड्डी	-9.78316
▁निकाय	-9.78384
▁सीट	-9.78524
▁रेल	-9.78575
▁सं	-9.78675
वे	-9.78748
▁कठिन	-9.7885
िका	-9.78917
▁घटनाओं	-9.78933
▁किशोर	-9.78984
▁पशु	-9.79051
▁बचाने	-9.79077
▁नोट	-9.7909
▁शा	-9.79236
▁प्रेम	-9.7935
▁साइट	-9.79473
▁अकादमी	-9.79473
▁मौर्य	-9.79484
▁लंबाई	-9.79515
ाना	-9.7959
▁नेता	-9.79657
▁काफ	-9.79699
▁दुकानों	-9.79813
▁बिल	-9.79822
▁शल्य	-9.79839
▁भ	-9.79894
▁डच	-9.79897
ग्रस्त	-9.8004
▁खाना	-9.80101
▁कु	-9.80113
▁जलप्रपात	-9.8013
▁बास्केटबॉल	-9.80131
▁दोस्तों	-9.80163
▁कन्नड़	-9.80182
▁शक्तिशाली	-9.80198
▁कुश्ती	-9.80267
▁चलाने	-9.8027
▁स्टार	-9.80274
▁हॉल	-9.80325
▁च	-9.8036
▁दूसर	-9.80365
▁लेना	-9.80381
▁देखते	-9.80517
▁ट्रेन	-9.80581
▁गैस	-9.80616
▁उपाधि	-9.80736
▁अर्थव्यवस्था	-9.80768
गुप्त	-9.80819
▁टिकट	-9.80847
▁लैक्रोस	-9.80858
▁नेहरू	-9.80881
▁परिसर	-9.81144
▁संगीतकार	-9.81163
▁छात्रों	-9.81371
▁जोड़ी	-9.81474
ंस	-9.81532
थ	-9.81736
▁स्मारक	-9.81813
पन	-9.81844
िस	-9.81962
▁बनाना	-9.82024
मंडल	-9.82171
▁हैदर	-9.82274
पास	-9.82308
▁बनाता	-9.8234
▁एक्स	-9.82567
▁आपातकाल	-9.82603
▁स्टॉक	-9.82728
▁पदार्थों	-9.82773
▁अर्जित	-9.82869
▁प्रतीत	-9.82905
▁गुस्सा	-9.82919
▁विदेश	-9.82955
▁शासकों	-9.83
ँ	-9.83003
▁सिंधु	-9.83028
ान	-9.83155
▁खतरा	-9.83231
▁रखी	-9.83363
▁रद्द	-9.83592
▁महाविद्यालय	-9.83643
▁लिखी	-9.84187
▁वायु	-9.84208
▁छोड़ने	-9.84215
▁अवकाश	-9.84249
▁विस्तृत	-9.84252
▁आंध्र	-9.84305
▁कप्तान	-9.84342
▁किमी	-9.84356
▁परेशान	-9.84397
▁स्पेन	-9.84436
▁शोथ	-9.84462
▁ग्रंथ	-9.84488
▁बह	-9.84492
▁आलोचक	-9.84812
र्स	-9.84868
▁सेवन	-9.84938
▁सल्तनत	-9.84954
▁टूट	-9.84956
▁मलयालम	-9.85042
▁प्रशासनिक	-9.8505
▁मिलकर	-9.85161
▁बदले	-9.85173
▁साफ	-9.85296
▁दिखा	-9.85299
▁सैनिक	-9.85524
▁देखन	-9.85592
▁सहमत	-9.85636
▁कर्मचारियों	-9.85671
रियर	-9.85679
▁राय	-9.85684
▁मेल	-9.85721
▁संस्थापक	-9.85786
▁महा	-9.85793
▁हृदय	-9.85793
▁हरा	-9.85801
▁चक्र	-9.85818
▁सम्मेलन	-9.85897
▁हमार	-9.8591
▁पकड़ने	-9.85951
▁खाता	-9.85991
▁सड़कों	-9.86058
▁सुपर	-9.86219
▁गृह	-9.86348
▁मुहम्मद	-9.86495
▁क्रेडिट	-9.86496
▁विभाजन	-9.86505
डब्ल्यू	-9.86619
▁बेसिन	-9.86654
▁पीत	-9.86735
▁बैठक	-9.86861
▁थ	-9.86876
▁इलाकों	-9.86913
सन	-9.86955
▁टकरा	-9.87073
▁तारीख	-9.87124
▁दैनिक	-9.87132
▁पांड्य	-9.87284
▁सरल	-9.8729
▁आखिरी	-9.87293
▁बंगाली	-9.87321
▁खेती	-9.87394
▁गाया	-9.87421
▁संस्कार	-9.87491
▁राज्यपाल	-9.87501
▁रुचि	-9.87528
▁चिह्न	-9.87649
▁इकट्ठ	-9.87821
▁गिरावट	-9.87822
▁संग्रहालय	-9.87832
▁आंतरिक	-9.87852
गढ़	-9.87857
▁पेशक	-9.87986
▁रखता	-9.87989
▁विरोधी	-9.88058
▁स्नातक	-9.88254
▁किरदार	-9.88259
▁राजकुमार	-9.883
गी	-9.88315
▁डिज़ाइन	-9.88502
▁इंच	-9.88555
▁कथित	-9.88586
▁खाली	-9.88733
▁संदेह	-9.8874
▁वैश्व	-9.88787
ु	-9.88873
जा	-9.88998
▁वैदिक	-9.89021
▁हाथी	-9.89066
▁व्यंजन	-9.89079
▁औरंगजेब	-9.89288
▁कपड़ों	-9.89307
▁कॉल	-9.89315
▁उम्मीदवार	-9.89356
▁स्थलों	-9.89507
▁खर्चों	-9.89544
▁रॉक	-9.89554
▁खतर	-9.89623
▁पाठ	-9.89706
▁बीमार	-9.89756
▁सर	-9.89905
▁त्रिपुरा	-9.90006
▁बेल्जियम	-9.90038
▁निकट	-9.90045
▁हैदराबाद	-9.90092
▁मिश्रित	-9.9015
▁परंपराओं	-9.90238
▁मुद्रा	-9.90385
▁शेर	-9.90427
▁स्थायी	-9.90446
▁सटीक	-9.90692
▁रेस	-9.90776
▁प्रोत्साहित	-9.90785
▁मेघालय	-9.90803
▁लिखित	-9.90821
▁सोचा	-9.90854
▁पालिका	-9.90885
▁आत्मा	-9.90912
▁शैलियों	-9.90982
▁मूल्यांकन	-9.91186
▁चिकित्सक	-9.91264
▁रोड	-9.91297
▁बताते	-9.91444
▁सिंचाई	-9.91529
▁हरियाणा	-9.91559
गत	-9.91611
▁जीती	-9.91615
▁प्रजातियों	-9.9166
▁रास्ते	-9.91731
▁नव	-9.91743
▁जमीन	-9.91772
पूर्वोत्तर	-9.91797
▁अधिकतर	-9.91806
▁फसल	-9.91809
▁मूर्ति	-9.91952
▁खुले	-9.91991
▁आधे	-9.9204
▁नारायण	-9.92051
▁कोरिया	-9.92081
▁इतिहासकार	-9.92194
▁सर्वेक्षण	-9.92287
ियर	-9.92293
▁जम्मू	-9.92312
▁बुखार	-9.92365
▁मनात	-9.92366
कों	-9.92458
▁सर्विस	-9.9246
▁माइक्रोसॉफ्	-9.9253
▁ऑफ़	-9.92551
▁स्थितियों	-9.92625
▁सर्व	-9.92771
▁टीमें	-9.92804
▁सतह	-9.92841
▁वेस्ट	-9.93023
▁शिकायत	-9.93046
▁क्रम	-9.93071
▁सिंहासन	-9.93082
▁चेतावनी	-9.93146
▁मनुष्यों	-9.93195
▁ड	-9.93255
▁चुन	-9.93294
▁जितना	-9.9332
▁ज्वर	-9.93325
▁रहना	-9.93403
▁जटिल	-9.935
▁कोर्ट	-9.93523
▁जीव	-9.9363
▁डिजिटल	-9.93817
▁दृष्टिकोण	-9.93819
▁टाइम्स	-9.93835
▁भावना	-9.93838
▁तीव्र	-9.93881
▁रविवार	-9.93909
▁छोर	-9.93911
▁अनुकूल	-9.93931
▁मादक	-9.93969
▁काली	-9.94252
▁माल	-9.94338
▁ब्रांड	-9.94418
ामिल	-9.94471
▁कैद	-9.94488
▁एसोसिएशन	-9.94594
▁तनाव	-9.94633
▁ज्ञान	-9.94644
दान	-9.94737
▁एकत्र	-9.9477
रे	-9.9477
▁तीसरा	-9.94778
▁वीं	-9.94818
▁सेकंड	-9.94821
▁सि	-9.94993
स्कर	-9.95036
▁वाहन	-9.95088
ीदा	-9.95123
▁हथियार	-9.95153
▁अर्ध	-9.95259
▁फिल्में	-9.95355
▁पढ़ाई	-9.95399
▁अस्थायी	-9.95443
▁न्याय	-9.95621
▁दान	-9.95638
▁देखी	-9.95671
▁असामान्य	-9.95759
▁ट्रैक	-9.95786
▁असफल	-9.95891
▁वजन	-9.9591
वर	-9.96015
▁बिंदु	-9.9602
▁स्टूडियो	-9.96126
▁फिल्मफेयर	-9.96167
▁विरासत	-9.96172
▁मुकाबल	-9.96187
▁टेक्सास	-9.96192
▁आक्रामक	-9.9622
▁पड़ोसी	-9.96285
▁कहता	-9.9639
▁प्रयासों	-9.9651
▁विशेषज्ञ	-9.96554
▁सेंटर	-9.96705
▁जीवाणु	-9.96814
▁निवासी	-9.96929
▁दुल्हन	-9.96986
▁शिवाजी	-9.96989
▁नेटबॉल	-9.97044
▁शिशु	-9.97122
▁जरूरत	-9.97148
ानी	-9.97166
नाथ	-9.97225
▁प्रबंधक	-9.97303
▁शेयर	-9.97343
▁नौका	-9.97403
▁चालक	-9.97457
▁ग्रंथों	-9.97516
▁सिद्धांत	-9.97631
▁गोली	-9.97686
▁किंगडम	-9.97753
ेट	-9.97756
▁संक्षिप्त	-9.97756
▁पटकथा	-9.97761
▁विंडोज़	-9.97824
▁स्थिर	-9.97843
▁द्वार	-9.9791
▁संदेश	-9.97916
▁श्रीलंका	-9.98075
तटीय	-9.98127
▁आराम	-9.98226
▁कथा	-9.98296
▁बढ़ते	-9.98433
▁लूट	-9.98516
▁पृष्ठभूमि	-9.98578
▁दक्कन	-9.98602
▁तैयारी	-9.98744
▁उत्तराखंड	-9.9881
पू	-9.98874
▁जि	-9.98879
▁नायक	-9.98879
▁उठा	-9.9902
▁रोमन	-9.99291
▁चरित्र	-9.99405
▁चंडीगढ़	-9.99406
▁महिलाएँ	-9.99415
▁मलेशिया	-9.99435
▁पुल	-9.99668
▁प्रोटीन	-9.99672
▁विधि	-9.99955
्	-10.0005
्य	-10.0015
▁तभी	-10.0029
▁पौराणिक	-10.0032
▁हिंदुओं	-10.0035
▁मिलाकर	-10.0037
▁पक्षियों	-10.0037
▁वितरण	-10.0041
▁उत्तराधिकारी	-10.0049
▁विज्ञापन	-10.0059
▁अंग	-10.0061
खत्म	-10.0067
▁दीवार	-10.0081
▁स्वाद	-10.0082
▁जय	-10.0088
▁कक्ष	-10.0093
▁वेब	-10.0098
▁डॉ	-10.0102
▁तीर्थ	-10.0105
▁तेलंगाना	-10.0105
▁आखिरकार	-10.0106
▁प्रशिक्षित	-10.0106
▁नदियाँ	-10.0106
▁उपवास	-10.0107
▁उत्कृष्ट	-10.0109
▁देगा	-10.011
▁पुलकेश	-10.0112
▁तरीकों	-10.012
▁बनता	-10.0122
▁चौथे	-10.0133
▁ईरान	-10.0138
▁बंदरगाह	-10.0141
▁वैज्ञानिक	-10.0143
▁पत्रिका	-10.0173
▁दंड	-10.0174
▁उपयुक्त	-10.0187
▁रोगियों	-10.0205
पर	-10.0213
▁अमरीक	-10.023
▁तस्वीर	-10.0266
▁उपयोगकर्ता	-10.0273
▁रोलर	-10.0276
▁अवैध	-10.0277
▁हाई	-10.0284
▁लगती	-10.0292
▁राजपूत	-10.0299
▁गर्मी	-10.0302
▁स्क्रीन	-10.0306
▁ईस्टर	-10.031
▁प्रशिक्षक	-10.0311
वेयर	-10.0342
▁रहें	-10.0349
▁जॉर्ज	-10.0352
▁अनुसंधान	-10.0357
▁डाक	-10.036
गा	-10.0362
▁बेहद	-10.0368
▁मिलते	-10.0377
▁सेन	-10.0378
▁सैन	-10.0379
▁खरीदार	-10.0382
▁पठार	-10.0416
▁सेट	-10.0419
▁पहुँचा	-10.0427
शाली	-10.0427
▁ऊंचाई	-10.0442
▁यक्षगान	-10.0446
▁छड़ी	-10.0446
▁पारिवार	-10.0447
▁ऐ	-10.0449
▁बारह	-10.0467
▁मुसलमानों	-10.0475
▁संगम	-10.0478
▁टीवी	-10.0484
▁कराया	-10.0486
रों	-10.0489
पश्चिमी	-10.0494
▁हट	-10.0514
▁रूपों	-10.0518
▁रूसी	-10.0519
▁वापसी	-10.0524
▁विकिपीडिया	-10.0526
▁विलय	-10.0527
▁इंटरनेशनल	-10.0529
▁पेरिस	-10.0532
▁इटली	-10.0538
▁पेट	-10.0541
▁आदमी	-10.0546
▁प्रधान	-10.055
▁शीर्षक	-10.055
▁लिंग	-10.0555
▁पुनः	-10.0557
▁वनस्पति	-10.0559
▁यात्री	-10.0564
▁मर	-10.0575
▁बल्लेबाज	-10.0592
▁गठबंधन	-10.0612
▁देवताओं	-10.0617
▁अकेले	-10.0619
▁परिभाषित	-10.062
▁इंजन	-10.0625
▁भागों	-10.0633
▁मानसिक	-10.0637
▁भागीदार	-10.0644
▁आँखों	-10.0645
▁मुझ	-10.0645
▁जाएँ	-10.0646
▁अभिलेख	-10.0668
▁मोबाइल	-10.067
▁आउट	-10.0692
▁वित्त	-10.0693
▁जोर	-10.0693
▁बुद्ध	-10.0697
▁सूअर	-10.07
▁विधानसभा	-10.07
▁घास	-10.0702
▁प्रीमियर	-10.0702
▁बुरा	-10.0703
▁कैलेंडर	-10.0708
▁रखे	-10.0709
▁बॉम्बे	-10.0709
▁इस्लामी	-10.071
तु	-10.0714
▁ज़रूरत	-10.0718
▁मि	-10.0718
चित	-10.073
▁हिंसा	-10.0731
▁मत	-10.0737
▁आंख	-10.0749
▁राजनीति	-10.0776
▁गो	-10.0777
▁पहने	-10.0779
▁मैसूर	-10.0786
लैंड	-10.0793
▁आश्चर्य	-10.0796
▁गणेश	-10.0797
▁प्रारूप	-10.0797
▁विचारों	-10.0809
▁हासन	-10.0822
▁खास	-10.0822
▁कड़ी	-10.0825
▁इमारत	-10.0827
▁घाव	-10.0838
▁लेती	-10.0839
पाल	-10.0841
ंकि	-10.0859
▁घंट	-10.086
▁पोस्ट	-10.0877
▁मा	-10.0879
▁नेपाल	-10.0881
युक्त	-10.0882
▁परीक्षा	-10.0889
▁वेतन	-10.0891
▁आकर्षण	-10.0895
▁तुलसी	-10.0902
▁मंडल	-10.0904
▁मुद्दों	-10.0914
▁शुष्क	-10.0925
▁फल	-10.0932
▁मार्क	-10.094
▁लॉस	-10.095
▁रणनीति	-10.0954
▁देरी	-10.0955
▁माँग	-10.0964
▁मुगलों	-10.0975
अनिवार्य	-10.0978
▁लाया	-10.0978
▁बटन	-10.0983
▁ऐप	-10.0984
▁वसंत	-10.0986
▁इनका	-10.0986
▁चीजों	-10.1001
▁जहाज	-10.102
▁तुम्हार	-10.1022
▁टर्न	-10.103
च	-10.1032
▁कमान	-10.105
▁नकारात्मक	-10.1059
▁श्रृंगेरी	-10.1063
▁प्रकृति	-10.1063
▁औद्योगिक	-10.1063
▁ऊँची	-10.1067
▁आदर्श	-10.1067
▁मराठी	-10.1069
▁दर्शाया	-10.1069
▁निरंतर	-10.1073
▁अस्तित्व	-10.1089
▁निदेशक	-10.1089
▁विस्फोट	-10.1098
▁आवास	-10.1118
▁जनरल	-10.1129
▁उपाय	-10.1135
▁पैरों	-10.1144
▁पंजाबी	-10.115
▁कोच	-10.1154
▁कैथोलिक	-10.1154
▁फेडरेशन	-10.1158
▁नीति	-10.1164
▁बढ़त	-10.1193
▁शीतकाल	-10.1196
▁सर्वर	-10.1208
▁देर	-10.1208
▁परिवारों	-10.1231
▁विविध	-10.1238
▁नीदरलैंड	-10.1244
▁कार्रवाई	-10.1244
▁सप्ताहांत	-10.1247
"।	-10.1247
▁हल्के	-10.1249
▁मुद्द	-10.1254
▁देखना	-10.1257
▁भंडार	-10.1261
▁पैदल	-10.1263
▁मंत्र	-10.1268
▁सामु	-10.1269
▁मध्यम	-10.128
▁तुर्की	-10.1287
▁भरी	-10.1289
▁फ्री	-10.1292
यात्रियों	-10.1292
▁संधि	-10.1293
और	-10.1307
▁समुदायों	-10.1311
▁गाव	-10.1317
▁सम	-10.1317
▁सैकड़ों	-10.1337
▁दुख	-10.1338
▁मराठों	-10.1342
▁स्पोर्ट्स	-10.135
▁हास्य	-10.135
▁दुकानें	-10.1357
▁भरा	-10.1364
▁ब्लैक	-10.1364
▁हुईं	-10.1367
▁स्रोतों	-10.1371
▁हटाने	-10.1372
▁छत्तीसगढ़	-10.1375
▁रक्तस्राव	-10.1381
जनक	-10.1385
▁आहार	-10.1391
▁फूल	-10.1406
ुद्दीन	-10.1419
▁पक्षी	-10.1427
▁राजस्व	-10.1435
▁बाघ	-10.1435
▁शिक्षक	-10.1436
▁क्रमश	-10.1437
▁लड़	-10.1439
▁गहरा	-10.1445
▁चोरी	-10.1445
दायिक	-10.1449
▁निर्णायक	-10.1451
▁उतन	-10.1459
▁हाउस	-10.146
▁आवाज़	-10.1464
▁मौक	-10.1467
▁मुफ्त	-10.1469
▁व्याख्या	-10.1469
▁कमजोर	-10.1472
वर्ती	-10.148
▁भर्त	-10.1483
▁गाय	-10.1487
▁खतरनाक	-10.1526
▁आवेदन	-10.1527
▁ज़्यादातर	-10.1528
▁मिस्र	-10.1533
▁अति	-10.1536
▁शिविर	-10.1537
▁वरिष्ठ	-10.1537
▁चीज़ें	-10.154
▁पर्यावरण	-10.1548
▁अभि	-10.1551
▁लगते	-10.1554
▁जीन	-10.1557
लाल	-10.1561
ेन	-10.157
▁गीतों	-10.1577
▁जानवर	-10.1581
▁सिक्के	-10.1582
दा	-10.1584
▁बाधा	-10.1602
▁ड्राइव	-10.1606
▁डिजाइन	-10.1607
▁स्नूकर	-10.1622
▁सारा	-10.163
▁न्यूजीलैंड	-10.163
▁प्रजातियाँ	-10.1631
बुरी	-10.1633
▁अज्ञात	-10.1634
▁व्यस्त	-10.1637
▁दायर	-10.1637
▁पेरियार	-10.1639
िष्ट	-10.164
▁सच	-10.1649
▁मेट्रो	-10.1677
कार	-10.1681
▁सौ	-10.1683
▁लेखन	-10.1696
▁वज	-10.1709
▁जश्न	-10.1719
ति	-10.1722
▁आध्यात्मिक	-10.1723
▁डेमोक्रेट	-10.1726
▁आइस	-10.1726
▁फेफड़ों	-10.173
▁पहुंचा	-10.1741
ारी	-10.1756
▁प्रशंसक	-10.1767
▁परिवर्त	-10.1781
▁प्रतिरोध	-10.1788
ही	-10.181
▁नेत्र	-10.1817
▁जेम्स	-10.1818
▁गुफाएँ	-10.1819
वादी	-10.1823
▁टीकाकरण	-10.1826
▁पृथ्वी	-10.1827
▁पहनत	-10.1831
▁अमीर	-10.1836
▁मोटर	-10.1838
▁दूध	-10.184
बारा	-10.1863
▁पड़े	-10.1876
▁सिक्क	-10.1883
याँ	-10.1905
▁दिमाग	-10.1916
▁तपेदिक	-10.1916
▁सोने	-10.1919
▁बच्चन	-10.1923
▁देंगे	-10.1923
जो	-10.1935
▁शंकर	-10.1939
▁सितारे	-10.1941
▁कवि	-10.1959
▁डाउन	-10.1975
▁अंग्रेज़	-10.1979
ाल	-10.1983
▁कमरे	-10.1988
▁अपनाया	-10.2001
▁टिप्पणी	-10.2003
▁मां	-10.201
▁गाँधी	-10.2016
▁संविधान	-10.2017
▁सिंगापुर	-10.2017
▁आत्महत्या	-10.202
▁मांसपेशियों	-10.202
▁त्यौहार	-10.2021
▁तलाक	-10.2023
▁कब्ज़ा	-10.2025
▁समकालीन	-10.2026
▁सूच	-10.204
▁यहूदी	-10.2041
▁बजे	-10.2049
▁कितने	-10.2055
▁वर्ल्ड	-10.2059
रो	-10.206
▁नक्काशी	-10.2062
▁जोड़त	-10.207
▁पीछ	-10.2086
▁ढ	-10.2086
▁लगात	-10.2106
▁संबंधों	-10.2108
▁बढ़ता	-10.2111
▁मुँह	-10.2112
▁ब्राजील	-10.2117
▁प्रकोप	-10.2117
▁तुम्हें	-10.2118
▁प्रगति	-10.2122
नैदानिक	-10.2124
▁चुनौती	-10.2128
▁सेवाएँ	-10.2129
▁पोर्ट	-10.2139
वाणी	-10.2141
▁दत्त	-10.2143
▁पुनर्	-10.2149
ताओं	-10.2151
लाने	-10.2156
▁खोल	-10.2162
▁न्यूनत	-10.2164
▁सवाल	-10.2165
▁मशीन	-10.2167
▁उदय	-10.217
▁कोशिका	-10.2173
▁विवाहित	-10.2176
▁बाज़ार	-10.2184
▁प्रतिभाग	-10.2185
▁व्यायाम	-10.2197
▁अनुस	-10.2197
▁चट्टानों	-10.22
▁चौथा	-10.2204
▁समझौते	-10.2221
▁साक्ष्य	-10.2221
▁चीजें	-10.2223
▁सुविधाओं	-10.2226
▁पौधों	-10.2238
▁गुना	-10.2239
देव	-10.2241
िनी	-10.2246
▁प्रचलित	-10.2254
▁असल	-10.2257
▁मै	-10.2259
▁इंडियन	-10.226
गीर	-10.2271
)।	-10.2272
▁पतन	-10.2277
▁बहाल	-10.2282
▁य	-10.2282
▁तकनीकों	-10.2288
▁रंगों	-10.2291
▁यही	-10.2292
▁लगाए	-10.2292
▁शव	-10.2298
▁सेनाओं	-10.23
▁तकनीकी	-10.2303
▁लय	-10.2304
▁सराहन	-10.2305
▁उपदंश	-10.2322
▁यद्यपि	-10.2322
▁शनिवार	-10.2322
▁उल्लंघन	-10.2323
▁सचिव	-10.2327
▁मूर्तियों	-10.2328
▁रस्सी	-10.2331
▁वाणिज्यिक	-10.2341
मान	-10.2342
▁मैक	-10.2342
▁चुने	-10.2349
▁हैः	-10.2356
▁देकर	-10.2362
▁संगठनों	-10.238
▁मित्र	-10.239
करण	-10.2409
▁नागा	-10.2409
▁रिहा	-10.2414
▁अमर	-10.2422
▁सुना	-10.243
▁सूत्र	-10.2431
▁संवाद	-10.2432
▁तर्क	-10.2432
▁डर्बी	-10.2435
▁इकाई	-10.2435
▁पीने	-10.244
▁संगठित	-10.2444
▁थोड़ी	-10.2446
▁चलती	-10.2449
▁वादा	-10.2458
▁डूब	-10.2467
▁पाते	-10.2469
▁खेत	-10.2471
▁जानत	-10.2476
▁देखे	-10.252
▁विक्रम	-10.2522
▁कै	-10.2524
▁हैरान	-10.2525
▁रहीं	-10.2526
▁व्यवस्थित	-10.2528
▁स्नान	-10.2529
▁लाइसेंस	-10.2532
▁महासंघ	-10.2532
▁शुक्रवार	-10.2532
▁गायब	-10.2534
▁इतालवी	-10.2534
▁सांस	-10.2536
▁प्रणालियों	-10.2536
▁सेवानिवृत्ति	-10.2541
▁ब्राह्मण	-10.2544
▁कॉमेडी	-10.2545
▁कांस्	-10.2546
▁मार्शल	-10.2546
▁पंक्ति	-10.2546
▁इलाके	-10.2548
▁हुसैन	-10.2549
▁ग्रुप	-10.2553
▁सूखे	-10.2554
▁रो	-10.2564
राज	-10.2567
▁माध्यमिक	-10.257
▁मारा	-10.2574
बा	-10.2587
▁सौंप	-10.2591
▁लो	-10.2598
▁अंतराल	-10.2611
▁अंतर्	-10.2636
▁दलों	-10.2637
▁दीर्घकालिक	-10.2639
▁शिकागो	-10.2642
▁डेल्टा	-10.2642
▁सोमवार	-10.2643
▁कोलकाता	-10.2643
▁क्रिसमस	-10.2643
▁वितरित	-10.2644
▁पौधे	-10.2647
▁प्रतिरक्षा	-10.2649
▁रक्षक	-10.2652
▁घिरा	-10.2655
▁विश्लेषण	-10.2656
▁पराजित	-10.2657
▁सदस्यता	-10.2658
▁मिश्रण	-10.2659
भले	-10.2663
▁बुक	-10.267
▁नर्तक	-10.2675
▁डालने	-10.2683
▁कहाँ	-10.2686
ेश्वर	-10.2692
▁तत्व	-10.272
▁ओपन	-10.2732
▁जंगलों	-10.2741
▁शुद्ध	-10.2744
▁बम	-10.2744
▁महोत्सव	-10.2746
▁पटेल	-10.2749
▁चोपड़ा	-10.275
▁स्कूलों	-10.2754
▁सवार	-10.2755
▁ध्वनि	-10.2765
▁खबर	-10.2766
▁बीस	-10.2769
▁अनुवाद	-10.2799
▁प्रेस	-10.2807
▁निर्देश	-10.2823
▁चालुक्य	-10.2831
एवं	-10.2838
▁प्रतिमा	-10.2844
▁अपील	-10.2845
स्थ	-10.2846
औपनिवेशिक	-10.2849
▁छवि	-10.2852
▁दोपहर	-10.2855
▁पृथ्वीराज	-10.2857
ँकि	-10.2858
▁साक्षात्कार	-10.2859
▁नेताओं	-10.286
▁नर्मदा	-10.2863
▁पुणे	-10.2863
▁किताब	-10.2864
▁रेफरी	-10.2864
▁अफगानिस्तान	-10.2868
▁भक्ति	-10.2869
▁ओवर	-10.2875
▁भू	-10.2875
▁छुट्टी	-10.2875
▁चाय	-10.2887
चारों	-10.29
▁पूल	-10.2912
▁गर्मिय	-10.2913
▁दुखी	-10.2914
▁फारसी	-10.2917
▁धारा	-10.2921
▁हथियारों	-10.2921
▁जलाशय	-10.2928
▁डिवीजन	-10.2932
▁चोटी	-10.2933
▁पात्रों	-10.2934
▁एयर	-10.2943
▁पारित	-10.2962
▁वैकल्पिक	-10.2965
▁भाइयों	-10.2965
▁क्रांति	-10.2965
▁रिपब्लिकन	-10.2967
▁कठोर	-10.2968
▁लड़कियों	-10.2973
▁हैंः	-10.2978
▁दास	-10.2979
▁डिस्क	-10.2989
▁दर्शन	-10.2995
▁जाति	-10.2996
▁तत्वों	-10.3009
▁चित्रण	-10.3009
▁वन्यजीव	-10.3035
▁गुण	-10.3035
▁संत	-10.3059
▁प्रत्यक्ष	-10.3069
▁मेले	-10.307
▁निभा	-10.307
▁मुलाकात	-10.3075
▁विजयनगर	-10.3077
कालीन	-10.3079
▁रजत	-10.3079
▁पोशाक	-10.308
▁बर्बाद	-10.308
▁गुस्से	-10.3081
▁थोड़े	-10.3084
▁कहानियों	-10.3084
▁काट	-10.3087
▁हिसाब	-10.3087
▁अर्जेंटीना	-10.3088
जोड़ने	-10.3097
▁बहादुर	-10.3098
▁भौगोलिक	-10.3098
▁पहाड़ों	-10.3103
▁बगल	-10.3112
▁चरम	-10.3119
▁वही	-10.3131
▁पॉल	-10.3133
▁ठिकान	-10.3135
▁वहीं	-10.3137
▁ग्रैंड	-10.315
▁बदला	-10.3152
▁उतार	-10.3166
वियत	-10.3167
▁टीके	-10.3187
▁अवशेष	-10.3188
▁चंद	-10.3188
▁झरना	-10.3188
▁उपनाम	-10.319
▁उसन	-10.3191
",	-10.3191
▁शिखर	-10.3194
टन	-10.3196
▁संजय	-10.3205
▁हस्तक्षेप	-10.3205
▁कब	-10.3208
▁ख्याल	-10.3212
▁अनेक	-10.3222
टा	-10.3226
वती	-10.3227
▁भेजने	-10.3243
▁बहने	-10.3257
मिल	-10.326
नगर	-10.3264
▁शर्मा	-10.3265
▁मेला	-10.3269
राने	-10.3271
ाओं	-10.329
▁बंधन	-10.3295
▁ग्रीन	-10.3301
▁असमर्थ	-10.3302
▁पारिस्थितिक	-10.3302
▁ढेर	-10.3303
▁परिस्थितियों	-10.3305
▁कार्यकार	-10.3307
▁बैंगलोर	-10.3312
▁वैष्णव	-10.3315
▁खून	-10.333
▁मच्छर	-10.3332
▁मुकदम	-10.3336
▁बहस	-10.3349
▁वै	-10.3355
▁चौथी	-10.3355
▁सहयोग	-10.3358
▁पेय	-10.336
ीत	-10.3371
▁तिथि	-10.3377
▁विलियम	-10.3384
▁नामांक	-10.3385
▁पद्म	-10.3387
▁बर	-10.3402
▁बिलकुल	-10.3417
▁आयरलैंड	-10.3417
▁थिएटर	-10.3421
▁फ्लोरिडा	-10.3422
▁अनुरूप	-10.3424
्दीन	-10.3433
रानी	-10.3435
▁दस्तावेज	-10.3435
▁निभात	-10.3438
▁आतंकवाद	-10.3441
▁जॉर्जिया	-10.3442
▁पाउंड	-10.3442
▁इंस्टाकार्ट	-10.3445
▁प्रसारण	-10.3446
▁फैसल	-10.3447
राव	-10.3448
▁गिरने	-10.3465
▁कुंभ	-10.3474
▁अधिकत	-10.348
▁प्रदर्शि	-10.3487
▁नशील	-10.3495
▁छ	-10.3502
▁महामार	-10.3507
ेड	-10.3508
▁वो	-10.3514
▁विकेट	-10.353
▁वर्जीनिया	-10.3533
▁पेनल्टी	-10.3533
▁अफ्रीकी	-10.3536
▁अतीत	-10.3538
▁संभा	-10.3539
▁रेस्तरां	-10.3539
▁गोलकीपर	-10.3543
▁किकबॉक्सिंग	-10.3552
वाद	-10.3556
▁महाद्वीप	-10.3563
▁क्रॉस	-10.3564
द्दीन	-10.3568
▁बचे	-10.3569
एक्स	-10.357
▁काले	-10.3572
▁तार	-10.3572
▁सरदार	-10.3573
▁वैध	-10.3573
▁जातीय	-10.359
▁आनुवंशिक	-10.36
▁सातवाहन	-10.3606
▁निष्कर्ष	-10.361
▁लक्ष्मी	-10.3619
▁टूर	-10.3621
▁नाव	-10.3628
▁आवाज	-10.3643
▁उत्तरार्ध	-10.3651
▁झरने	-10.3652
▁खरीदा	-10.3654
▁सूजन	-10.3655
▁सख्त	-10.3658
▁यकृत	-10.3661
▁हराकर	-10.3661
▁चरणों	-10.367
प्रतिबंधित	-10.3683
▁माइकल	-10.3685
▁नामांकन	-10.3691
कालिक	-10.3692
▁नाडु	-10.3701
तू	-10.3704
▁समारोहों	-10.3716
▁कतार	-10.372
▁आँख	-10.3727
▁परत	-10.3731
▁मठ	-10.3735
▁मौख	-10.374
शोथ	-10.375
▁ज़रूर	-10.3758
▁ठोस	-10.3769
▁उच्चतम	-10.3774
ाते	-10.3779
▁प्रोफेसर	-10.3779
▁रा	-10.3785
▁इच्छा	-10.3789
▁प्रतिष्ठ	-10.3792
▁स्व	-10.3795
▁कनाडाई	-10.3799
▁सेनापति	-10.3802
▁पड़ती	-10.3806
▁तलवार	-10.3814
▁जहाज़	-10.3816
▁टेनिस	-10.3827
▁बेटा	-10.3832
▁जगहों	-10.384
▁क्यू	-10.3842
▁ऊतक	-10.3849
▁अंग्रेज़ी	-10.3851
▁नेट	-10.3865
▁जोड़े	-10.3871
जीत	-10.3882
फ	-10.3883
▁समग्र	-10.389
▁मंगलवार	-10.389
▁नागालैंड	-10.3891
▁प्रौद्योगिकी	-10.3891
▁मणिपुरी	-10.3893
▁पहलू	-10.3894
▁कामयाब	-10.3897
▁पीठ	-10.3917
▁श्रेणियों	-10.3919
▁अलाउ	-10.3922
▁चलाया	-10.3937
▁फ़िल्मों	-10.394
▁लगाना	-10.3946
न्स	-10.395
▁मौ	-10.3956
िश	-10.3959
▁खोला	-10.3961
▁गुजर	-10.3991
▁ऑपरेट	-10.4002
▁नकद	-10.4005
▁बैल	-10.401
▁जनजाति	-10.4011
▁नवाब	-10.4012
▁एप्पल	-10.4012
▁तथ्य	-10.4012
▁डेविड	-10.4016
▁एक्सप्रेस	-10.4017
▁वाशिंगटन	-10.4022
▁बचपन	-10.4023
▁हिल	-10.4023
▁इस्तीफ	-10.4029
▁रोशनी	-10.4032
▁नमक	-10.4032
▁स्तंभ	-10.4033
बाधित	-10.4038
▁कमल	-10.4038
▁रोगी	-10.4043
▁पूर्णिमा	-10.4057
▁बॉल	-10.4057
▁वाहक	-10.4059
▁हल	-10.4062
▁छुट्टिय	-10.4068
चल	-10.4081
▁पुर्तगाल	-10.4087
▁विकिरण	-10.4093
▁गरीब	-10.4116
▁वा	-10.4129
रत	-10.413
▁टोक्यो	-10.4135
▁आलम	-10.4135
▁मतदान	-10.4136
▁पुनर्निर्माण	-10.4136
▁कोलंबिया	-10.414
▁संस्था	-10.4141
▁फ्लोरबॉल	-10.4145
▁उठाया	-10.4146
▁निराश	-10.4149
▁महाभारत	-10.4151
▁ताकत	-10.4153
▁डिलीवरी	-10.4154
▁बाई	-10.4181
भूमि	-10.4184
▁मु	-10.4188
▁लड़के	-10.4195
षि	-10.4202
▁ऊंच	-10.4214
▁प्रबंध	-10.4215
▁छत	-10.4223
▁सहयोगी	-10.4226
▁ढूंढ	-10.4226
▁माने	-10.4227
▁गर्भ	-10.4241
वां	-10.4243
▁आर्ट	-10.4243
▁प्रतिभा	-10.4248
▁सेवानिवृत्त	-10.4255
शील	-10.4259
▁तुगलक	-10.4259
▁समाधान	-10.426
▁उद्घाटन	-10.426
▁गर्भावस्था	-10.426
▁ट्रॉफी	-10.4261
▁स्विट्जरलैंड	-10.4266
▁सीज़न	-10.4266
▁आयोग	-10.4268
▁अवस्था	-10.4274
▁वर्गीकरण	-10.4281
▁विद्युत	-10.4281
स्को	-10.4282
▁त्याग	-10.4283
▁किसानों	-10.4295
▁कविता	-10.4305
▁पल्लव	-10.4306
▁उठाने	-10.431
▁जन	-10.4317
▁कल्पना	-10.4321
▁अंडमान	-10.4328
▁अहमद	-10.4331
पट्टी	-10.4332
▁कथाओं	-10.4343
क्स	-10.4353
▁अस्वीकार	-10.4354
▁अलाउद	-10.4359
▁हिट	-10.4361
▁तीर	-10.4361
▁साधन	-10.4373
▁अंतर्गत	-10.4387
▁इडाहो	-10.4389
▁लक्षद्वीप	-10.4397
ेशा	-10.4398
▁मलिक	-10.44
कर्ता	-10.4401
▁दिख	-10.4407
था	-10.4408
▁अम्ल	-10.4409
▁केंद्रों	-10.4411
▁सीनेट	-10.4412
▁हानि	-10.4413
▁विक्टोरिया	-10.4413
▁धनुष	-10.4418
▁रचित	-10.4421
▁एकदम	-10.4426
▁घातक	-10.4426
▁भौतिक	-10.4428
▁बोलने	-10.443
▁बाँध	-10.4439
▁दीं	-10.4445
मे	-10.4451
▁खेलना	-10.4462
▁निशान	-10.4462
ेज	-10.4467
▁टाइम	-10.4474
राम	-10.4476
▁निकाला	-10.4479
▁रोम	-10.448
▁खड़ी	-10.4491
पूर्वी	-10.4507
▁इंडोनेशिया	-10.451
▁धरोहर	-10.4514
▁रखरखाव	-10.4515
▁पीढ़ी	-10.4515
▁संक्रांति	-10.4515
▁थाईलैंड	-10.4515
▁लाहौर	-10.452
▁मेक्सिको	-10.452
▁रैकेट	-10.452
▁कुशल	-10.4522
▁किराए	-10.4523
▁पेशवा	-10.453
▁त्योहारों	-10.4531
▁रेसिंग	-10.4532
▁गुड	-10.4538
▁मामूली	-10.4541
▁प्रश्न	-10.4542
▁फेंक	-10.4552
▁पलक	-10.4556
▁दुर्गा	-10.4569
▁गायन	-10.4579
▁शांत	-10.4601
ल्पन	-10.4606
▁मांस	-10.4608
जात	-10.461
▁मृत	-10.4612
▁मैन	-10.4614
▁वैसे	-10.4614
▁अधि	-10.4614
▁ग्यारह	-10.464
▁रग्बी	-10.4644
▁मिशिगन	-10.4644
▁परामर्श	-10.4645
▁तेंदुलकर	-10.4645
▁फांसी	-10.4647
▁जयपुर	-10.4652
▁चार्ल्स	-10.4655
युद्ध	-10.4656
▁अग्नि	-10.4656
▁प्रतीक्षा	-10.4658
▁पोंगल	-10.4659
▁सबूत	-10.4661
▁विद्यालयों	-10.4667
▁गहरे	-10.4674
रियाई	-10.4678
▁साबि	-10.4678
▁वेल्स	-10.4682
▁भरे	-10.4685
▁शुभ	-10.4691
▁प्रस्तुति	-10.4703
कारी	-10.4704
▁भेजे	-10.4714
▁दीवारों	-10.4716
▁मीर	-10.4723
▁अधिकारों	-10.4724
▁हिंद	-10.4726
लाइन	-10.4731
▁निकास	-10.4739
▁कॉफी	-10.475
▁श्रीनिवास	-10.4754
पोषण	-10.4756
वन	-10.4757
▁मास्टर	-10.4758
▁यूरो	-10.4759
▁जितन	-10.4762
▁गोल्ड	-10.4765
▁बेसबॉल	-10.4776
▁अनाज	-10.4778
▁नागरिकों	-10.4781
▁लिपि	-10.4782
▁हल्की	-10.4784
▁साउथ	-10.4784
▁जैव	-10.4785
▁करेगी	-10.4786
▁मोहम्मद	-10.4787
▁दिलचस्प	-10.4788
▁प्रहार	-10.4791
▁सुनाई	-10.4795
▁लिमिटेड	-10.4797
▁खुला	-10.4808
▁चु	-10.482
मन	-10.4828
ूर	-10.4835
▁रथ	-10.4836
▁फूलों	-10.4843
▁पुर्तगाली	-10.4845
▁रुक	-10.4852
▁संरक्षक	-10.487
▁सुन	-10.4876
▁काटने	-10.4881
▁मस्जिद	-10.4895
▁जुलूस	-10.4909
▁पहलुओं	-10.491
▁कठिनाई	-10.4914
▁जन्मदिन	-10.4918
▁सामूहिक	-10.4919
▁मद्रास	-10.492
▁फैली	-10.4924
▁मुख्यमंत्री	-10.4925
▁लेन	-10.4925
▁पढ़ने	-10.4928
▁प्रदर्शनों	-10.4933
▁पावर	-10.4933
▁लेबल	-10.4936
▁टीका	-10.4938
▁पड़ी	-10.4943
बर्ग	-10.4963
▁अपहरण	-10.4973
▁ब्रह्मपुत्र	-10.4975
▁निचल	-10.4985
▁प्रतिस्पर्ध	-10.4989
▁संशोध	-10.4994
▁उच	-10.5001
म्	-10.5001
गो	-10.5007
▁परेशानी	-10.5013
▁जरूर	-10.502
▁चौड़ा	-10.5028
▁रसायन	-10.5029
▁व्यापारी	-10.503
ड़ा	-10.5032
▁ट	-10.5034
▁धातु	-10.5034
मेंट	-10.5041
▁नाक	-10.5042
▁कृत्रिम	-10.5045
▁मंत्रालय	-10.5045
▁कंपनियाँ	-10.5045
▁कटौती	-10.5047
▁क्षेत्रफल	-10.5049
▁जर्सी	-10.5049
ायात	-10.5054
▁वंशज	-10.5054
▁ब्लू	-10.506
वाला	-10.5061
▁भावनात्मक	-10.5062
▁उपयोगकर्ताओं	-10.5062
▁बीटा	-10.5062
▁पहनने	-10.5064
▁कीमतों	-10.5073
राहत	-10.5076
ंशिक	-10.5081
▁पीले	-10.5081
▁मेरु	-10.5112
▁फील्ड	-10.5118
▁मेन	-10.5118
▁मॉल	-10.5127
▁उपन्यास	-10.5131
▁उत	-10.5136
▁लि	-10.514
▁दबा	-10.5151
▁परीक्षणों	-10.5164
▁भवन	-10.5169
▁सौदे	-10.5177
▁संदिग्ध	-10.5182
▁स्वायत्त	-10.5182
▁मिस	-10.5184
▁अवधारणा	-10.5184
▁जाएंगे	-10.5185
▁विवादास्पद	-10.5187
▁लिखन	-10.5198
जनरल	-10.52
▁ज़ोर	-10.52
▁स्वस्थ	-10.5203
▁कार्तिक	-10.5212
▁गा	-10.5212
▁भाव	-10.5213
▁जुड़	-10.5222
▁गढ़	-10.523
हती	-10.5234
▁रियासत	-10.5246
▁व्यंजनों	-10.5265
▁करन	-10.5268
▁प्रकट	-10.5277
ांत्रिक	-10.5281
▁जाएं	-10.5288
▁मल	-10.5292
▁आविष्कार	-10.5292
द्ध	-10.5301
▁प्रांतों	-10.5306
▁टैक्स	-10.5312
▁फ्राइडे	-10.532
▁महावीर	-10.5321
▁आदिवासी	-10.5321
▁परमाणु	-10.5322
▁रेशम	-10.5324
▁प्रवास	-10.533
▁लायक	-10.533
▁रिकॉर्डिंग	-10.5334
▁बस्ती	-10.5338
▁निकलती	-10.5363
मंद	-10.5364
▁स्तन	-10.5367
▁अव	-10.5373
▁उद्देश्यों	-10.5378
बल	-10.538
▁चढ़	-10.5381
आउट	-10.5386
▁चूक	-10.5391
▁तृतीय	-10.5391
▁बनती	-10.5399
▁पुरातत्व	-10.5402
▁माह	-10.5418
आधारित	-10.5441
▁करवा	-10.5443
▁नजर	-10.5461
▁एजेंसी	-10.5462
▁एहसा	-10.5463
▁स्थानिक	-10.5465
▁रिचर्ड	-10.5465
▁कोच्चि	-10.5467
▁प्रभुत्व	-10.5479
▁गिरा	-10.5481
▁पंजीकृत	-10.5482
▁फ़ाइल	-10.5482
▁धन्यवाद	-10.549
▁डि	-10.5497
▁सका	-10.55
▁एक्शन	-10.5503
▁चलाते	-10.5503
▁बयान	-10.5505
▁सफाई	-10.5516
▁रेत	-10.5516
▁जीतन	-10.5518
▁नॉर्थ	-10.5523
▁इंतजा	-10.5532
▁अमरीका	-10.5532
▁जटिलता	-10.5551
▁गाना	-10.5555
▁संगीतकारों	-10.5559
िस्तान	-10.556
▁ईरानी	-10.556
▁निर्वाच	-10.5561
▁भक्त	-10.5561
▁तालाब	-10.5562
▁प्ले	-10.5575
ृत	-10.5578
▁जूनियर	-10.5603
▁विपणन	-10.5604
▁वॉलीबॉल	-10.5604
▁एयरलाइंस	-10.5604
▁स्वागत	-10.5604
▁एंटरटेनमेंट	-10.5604
▁कथक	-10.5605
▁समझौता	-10.5605
▁स्मृति	-10.5606
▁आश्रय	-10.5606
▁भार	-10.5606
▁ठहराया	-10.5607
▁मिलेगा	-10.5607
▁आह्वान	-10.561
▁स्क्वैश	-10.561
▁संकट	-10.5611
▁खनन	-10.5611
▁घोड़ों	-10.5611
▁प्रतिस्थापन	-10.5612
▁कलकत्ता	-10.5616
▁सकल	-10.5618
▁चाहती	-10.5622
▁गुलाम	-10.5622
बकि	-10.5622
▁स्टीव	-10.5629
▁अभिनेताओं	-10.563
▁चाहे	-10.5632
▁मेज	-10.5636
▁मनाई	-10.5637
लर	-10.5643
▁हिंदुस्तानी	-10.5643
▁नाट्य	-10.5646
▁लेह	-10.566
▁खुली	-10.5664
▁उगा	-10.5672
▁शर्त	-10.5677
▁कलिंग	-10.5678
सदी	-10.5679
▁उत्साह	-10.5681
▁सौदा	-10.5684
कारिक	-10.5689
▁लहर	-10.5699
▁शूट	-10.5712
▁प्रो	-10.5713
▁सुर	-10.5714
▁बर्तन	-10.5717
▁पृष्ठों	-10.5736
▁छू	-10.574
▁मंजूर	-10.5745
▁मरम्मत	-10.5749
▁साउंडट्रैक	-10.5749
▁मैसाचुसेट्स	-10.5749
▁योद्धा	-10.5757
▁श्रमिक	-10.5759
▁सभ्यता	-10.5762
▁फ़ोन	-10.5763
फ़	-10.5766
ियो	-10.5767
▁बच्चा	-10.5779
▁समझा	-10.5784
▁बढ़ाया	-10.5791
▁भरोस	-10.5796
▁कराटे	-10.5798
फ़ी	-10.5804
▁सुख	-10.5814
▁ढक	-10.5815
▁यात	-10.5818
दर	-10.5829
▁बेचन	-10.5831
▁विफलता	-10.5833
▁फैले	-10.5835
▁धर्मों	-10.5842
▁उत्तराधिकार	-10.5851
खड़ा	-10.5855
▁पुराण	-10.5868
▁छेद	-10.5883
▁साक्षर	-10.5887
▁उन्नत	-10.5888
रन	-10.589
▁ऑटो	-10.5894
▁ज़	-10.5896
▁पुरातात्विक	-10.5896
▁स्कॉटलैंड	-10.5896
▁मध्ययुग	-10.5897
▁लीला	-10.5897
लोकसभा	-10.5898
▁अंतरराज्य	-10.5899
▁पहुंचे	-10.5899
▁तत्काल	-10.5899
▁पैकेज	-10.59
▁यीशु	-10.5901
▁खुजली	-10.5904
▁प्रोग्रामिंग	-10.5907
▁पीटर	-10.5908
▁कुलीन	-10.591
▁चक्रवात	-10.5911
ंत	-10.5919
▁खुराक	-10.5922
▁योग्यता	-10.5925
ड़ी	-10.5926
ै	-10.5931
▁आधि	-10.5948
▁घुड़सवार	-10.595
गर	-10.5956
▁समाप	-10.5956
▁लड़क	-10.598
▁हफ्त	-10.5986
▁औसतन	-10.5988
▁बेल	-10.5989
▁साब	-10.5991
▁युगल	-10.6003
लिंग	-10.6007
▁थाई	-10.6013
▁लात	-10.6015
▁आत्म	-10.6017
▁गाए	-10.6018
▁जिम	-10.6019
▁निर्	-10.6034
▁कागज	-10.6039
▁बवेरिया	-10.604
▁थॉमस	-10.6045
▁मेहनत	-10.6045
▁किंवदंती	-10.6045
▁ईमेल	-10.6046
▁खुल	-10.6053
▁महाराजा	-10.6055
▁ओपेरा	-10.6057
▁जैक	-10.6059
▁किताबें	-10.6059
▁घट	-10.6061
▁उपनिवेश	-10.6062
▁इराक	-10.6063
▁सोशल	-10.6069
▁व्रण	-10.6069
▁लक्ष्यों	-10.607
▁बैठने	-10.6071
▁रफी	-10.6073
▁चुनने	-10.6091
▁अग्रण	-10.6091
▁आपदा	-10.6106
▁वोट	-10.6107
▁ग्राम	-10.6115
आ	-10.6116
▁मैदानों	-10.6118
▁निर्द	-10.6121
▁वैज्ञानिकों	-10.6129
ोन	-10.613
▁चढ़ा	-10.6138
्री	-10.615
जे	-10.6157
▁हरे	-10.6168
▁आपसे	-10.6176
▁पथ	-10.618
▁ऑल	-10.6182
▁पीड़ितों	-10.6192
▁इलेक्ट्रॉनिक	-10.6195
▁रॉबर्ट	-10.6196
जन्य	-10.6196
▁साधारण	-10.6197
▁ओकलाहोमा	-10.6197
▁पोलैंड	-10.6197
▁आगमन	-10.6199
▁अर्हता	-10.6199
बिल्कुल	-10.62
▁प्रारंभ	-10.6204
ंड	-10.6205
▁मैनेजर	-10.6205
▁बिग	-10.6205
▁खा	-10.6207
▁निर्माताओं	-10.621
▁नकदी	-10.6215
▁युद्धों	-10.6219
▁जनजातियों	-10.622
रास्ता	-10.622
▁दंपति	-10.6221
▁टेबल	-10.6221
मामला	-10.6229
▁सॉफ़्ट	-10.623
▁संभाला	-10.6234
▁बैठा	-10.6239
▁सावधानी	-10.624
▁हेतु	-10.6244
▁अभिव्यक्ति	-10.6249
▁आना	-10.6251
यंस	-10.6258
▁नॉर्वे	-10.6259
▁कल्याण	-10.6265
▁तुमने	-10.6266
▁इंग	-10.6266
▁गरीबी	-10.6271
ीं	-10.6284
जिसे	-10.6289
▁भरने	-10.6293
▁संयंत्र	-10.6305
▁न्यायाधीश	-10.6306
▁व्यवसायों	-10.6321
▁दंत	-10.6321
▁स्वरों	-10.6323
पने	-10.633
▁अंश	-10.6336
▁घेर	-10.6343
▁टोरंटो	-10.635
▁समस्याएं	-10.6352
▁गुरुवार	-10.6352
▁ऑपरेशन	-10.6352
▁धीमी	-10.6353
▁रहमान	-10.6357
▁हूं	-10.6358
▁घड़ी	-10.6359
▁भाषाएँ	-10.6361
▁तस्वीरें	-10.6362
▁सेपक	-10.6363
▁स्वदेशी	-10.6363
▁मुक्केबाजी	-10.6364
▁गोलरक्षक	-10.6367
▁गज	-10.6374
▁विरोधियों	-10.6379
▁स्टेट	-10.6389
भ	-10.639
शस्त्र	-10.6391
▁पहुँचे	-10.6402
▁नकली	-10.6404
▁खुलास	-10.6409
▁ड्राइवर	-10.6417
▁द्रव्य	-10.6419
▁उधार	-10.6425
▁इमारतों	-10.6428
ांतर	-10.6432
▁निवेशक	-10.6452
▁उपस्थित	-10.6455
▁पुस्तकों	-10.6458
▁लगाई	-10.6474
▁ट्रक	-10.6478
ारा	-10.6478
▁मूत्र	-10.6487
कर्ताओं	-10.6504
▁पूछताछ	-10.6507
▁आकाश	-10.6507
▁ज़मीन	-10.6508
▁शास्त्र	-10.6509
▁आभूषण	-10.6513
▁दस्तावेज़	-10.6514
▁रूढ़िवादी	-10.6515
▁हेक्टेयर	-10.6519
▁पर्वतारोही	-10.652
▁अनंत	-10.6528
▁संबद्ध	-10.6529
▁खरीदना	-10.6529
▁स्कैन	-10.653
▁रहेगा	-10.6531
▁बढ़िया	-10.6533
▁परिणामों	-10.6539
▁वाद्य	-10.6544
▁आगरा	-10.6549
▁संसाधनों	-10.6549
▁मिशन	-10.6555
▁पोष	-10.6581
▁बैठे	-10.6582
▁मैरी	-10.6586
▁प्राथमिकता	-10.6596
▁बनाकर	-10.6598
▁उतर	-10.6602
▁पुरी	-10.6604
▁सीख	-10.6611
▁उपनगर	-10.6623
व्यक्तित्व	-10.6627
▁निगर	-10.6628
▁पाता	-10.6633
▁प्रताप	-10.6642
▁गु	-10.6645
")	-10.6647
▁तंग	-10.6651
▁मधुमेह	-10.6665
▁पेंगुइन	-10.6665
▁वातावरण	-10.6665
▁पुडुचेरी	-10.6666
▁भुवनेश्वर	-10.6666
▁ओक्लाहोमा	-10.6666
▁सिडनी	-10.6666
▁व्हाइट	-10.6668
▁दोगुन	-10.6669
▁घुटने	-10.6669
▁क्रिया	-10.6671
▁लाक्रोस	-10.6672
▁लेफ्टिनेंट	-10.6672
▁प्रायद्वीप	-10.6672
▁बालाजी	-10.6675
▁एयरलाइन	-10.6677
▁मोड़	-10.6677
▁नदियां	-10.6678
▁समलैंगिक	-10.6678
▁कटाई	-10.6679
▁रवि	-10.6685
नि	-10.6686
▁परिचित	-10.6692
▁आशी	-10.6694
▁पंद्रह	-10.6706
▁बि	-10.6713
▁दाग	-10.6716
स्ट	-10.6717
▁हफ्ते	-10.6728
▁वीर	-10.673
▁आमंत्र	-10.6731
▁संशोधन	-10.6731
▁रोका	-10.6737
▁शास	-10.6744
▁स्मिथ	-10.6747
▁बाइक	-10.6752
▁सहमति	-10.6753
▁शिक्षकों	-10.6755
▁चीज	-10.6766
ीफा	-10.6773
▁तालिका	-10.6775
▁निकटत	-10.6779
▁पेड़ों	-10.679
ाबाद	-10.6793
▁अमेरिक	-10.6803
दायक	-10.6806
▁हमने	-10.6807
▁चा	-10.6818
▁वाई	-10.682
▁आगंतुक	-10.6826
▁अवरुद्ध	-10.6827
▁ग्वालियर	-10.6827
▁घेराबंदी	-10.6827
▁सर्जरी	-10.6827
▁प्रवक्ता	-10.6827
▁गुफाएं	-10.6828
▁संक्रामक	-10.6833
▁हुमायूं	-10.6837
▁वाह	-10.6837
▁वाद्ययंत्र	-10.6839
▁नारियल	-10.6839
▁जलाल	-10.684
▁कुत्ते	-10.6841
▁राजेंद्र	-10.6841
▁सलीम	-10.6844
▁पार्वती	-10.6846
▁तरल	-10.6851
ॉन	-10.6861
▁भूत	-10.6861
▁भावनाओं	-10.6862
▁घोड़े	-10.687
ून	-10.6873
▁पेज	-10.688
▁ग्रहण	-10.6883
र्वाद	-10.6889
▁दुश्मन	-10.6889
▁कहें	-10.6896
▁साम	-10.6897
▁दम	-10.69
यन	-10.6901
ेल	-10.6904
▁मुख	-10.691
▁बनते	-10.6912
▁उत्पादक	-10.6915
▁इंक	-10.6917
▁मार्टिन	-10.692
▁ऊँचा	-10.6922
▁अस्थि	-10.6924
▁फट	-10.6933
णों	-10.6935
▁स्मारकों	-10.6939
▁ज़िम्मेदार	-10.6943
▁गोद	-10.697
▁पहल	-10.6986
्ट	-10.6986
▁तैनात	-10.699
▁स्तूप	-10.699
▁झारखंड	-10.699
▁सिकंदर	-10.699
▁फ़ुटबॉल	-10.6991
▁अल्पसंख्यक	-10.6991
▁अनुपात	-10.6992
▁पड़ेगा	-10.6992
▁शपथ	-10.6993
▁तीर्थंकर	-10.6996
▁फिनलैंड	-10.6997
▁नौकायन	-10.6998
▁नौसेना	-10.7001
▁बोलते	-10.7001
▁भंडारण	-10.7001
▁उर्दू	-10.7003
▁अमृतसर	-10.7004
▁विरुद्ध	-10.7004
▁सिनेमाघर	-10.7012
▁प्लास्टिक	-10.7016
▁फेंकने	-10.7018
क्षेत्र	-10.7026
▁बाबर	-10.7034
▁संघों	-10.7038
▁घटक	-10.7042
▁बाग	-10.7046
▁बैक	-10.7047
▁ठंडी	-10.7052
▁चालुक्यों	-10.7059
▁पोप	-10.7067
जल	-10.7068
▁हार्ड	-10.7073
▁बिशप	-10.709
▁ठंड	-10.7097
▁स्वरूप	-10.71
▁रेगिस्तान	-10.7101
▁लौटन	-10.7104
▁कृति	-10.7107
▁महासागर	-10.711
▁कार्यकर्ता	-10.7112
▁संसाधन	-10.7115
▁अग्र	-10.713
▁गंभीरता	-10.7141
▁बॉब	-10.7147
▁तालुक	-10.7147
इस	-10.7148
▁संस्थानों	-10.7149
▁दृढ़	-10.715
▁अपमान	-10.7152
करार	-10.7155
▁तूफ़ान	-10.7157
▁इलिनोइस	-10.7157
▁यूनिवर्सिटी	-10.7158
▁लेखकों	-10.7159
▁अद्वितीय	-10.7159
▁भाषण	-10.716
▁एकजुट	-10.7163
▁मनोवैज्ञानिक	-10.7164
▁धमकी	-10.7165
▁सोन	-10.7167
▁रासायनिक	-10.7167
▁माला	-10.717
▁क्लाइंट	-10.7171
▁लैटिन	-10.7172
▁उद्यम	-10.7173
वाई	-10.7173
▁साहित्यिक	-10.7175
▁निष्क्रिय	-10.7175
▁विधान	-10.7179
▁भव्य	-10.7184
▁व्यापारियों	-10.7194
▁कूद	-10.7201
▁निकोबार	-10.7203
▁सिद्ध	-10.7206
▁कलाओं	-10.7208
▁ब्रेक	-10.7215
िता	-10.7224
पा	-10.7233
▁ब्लॉक	-10.7242
▁पढ़	-10.7246
▁कार्यवाह	-10.7252
स्वामी	-10.7258
▁टू	-10.7267
▁अर्थशास्त्र	-10.727
▁कच्छ	-10.7275
▁प्रजन	-10.7276
कम	-10.7278
नो	-10.728
▁अर	-10.7286
है	-10.7296
▁फायद	-10.7297
इन	-10.7306
▁अवसरों	-10.7307
स्त	-10.7312
▁संवेदनशील	-10.7322
▁मैड्रिड	-10.7327
▁वेशभूषा	-10.7327
▁नवरात्रि	-10.7327
▁विंडोज	-10.7327
▁आरंभ	-10.7328
▁बृहदांत्र	-10.7328
▁चिंतित	-10.7329
▁मिर्जा	-10.7329
▁नींद	-10.7329
▁विश्वसनीय	-10.733
▁मिजोरम	-10.7333
▁सफ़ेद	-10.734
▁ध्रुपद	-10.734
▁बुश	-10.7342
▁श्रीनगर	-10.7342
ख	-10.7347
▁प्लेट	-10.7349
▁गुहा	-10.7351
ास	-10.7358
▁बनाएँ	-10.7358
▁स्वचालित	-10.7361
▁स्वामी	-10.7363
▁बादामी	-10.7364
▁पत्रों	-10.7367
▁पार्श्व	-10.7369
▁रीति	-10.7383
▁द्वि	-10.7389
▁पै	-10.7392
▁कम्यून	-10.7395
▁आयोजनों	-10.7404
▁फेम	-10.7427
▁वार्षिकी	-10.7431
▁नामों	-10.7433
▁कर्ज	-10.7437
▁ठंडा	-10.7439
▁गौतम	-10.7443
▁रू	-10.7451
▁रण	-10.7464
▁ब्राज़ील	-10.7466
▁बेचा	-10.7485
▁नकल	-10.7487
▁इनकी	-10.749
▁प्राप्तकर्ता	-10.7495
▁शौचालय	-10.7499
▁स्वीडिश	-10.7499
▁अलबामा	-10.7499
▁अपलोड	-10.7499
▁पिक्चर्स	-10.7499
▁मिलेगी	-10.7502
▁घटिया	-10.7503
▁बुलाया	-10.7505
▁दुरुपयोग	-10.7506
▁जानबूझकर	-10.7506
पत्र	-10.751
▁पित्ती	-10.7515
उ	-10.7517
▁खनिज	-10.7523
▁हमलावर	-10.7523
▁समीक्षक	-10.7524
▁सरस्वती	-10.7525
▁प्रजाति	-10.753
▁स्केटिंग	-10.7536
कृपया	-10.7539
ची	-10.7541
▁हाथियों	-10.7541
ियां	-10.7546
▁माउंट	-10.755
स्तर	-10.7556
▁निकालन	-10.7573
▁पहुँचन	-10.7574
▁तिब्बती	-10.7585
▁प्रवासी	-10.7591
▁उड़	-10.7592
▁गाते	-10.7593
▁गुट	-10.7597
▁घुस	-10.76
▁वाहनों	-10.7603
▁मानचित्र	-10.7606
▁शाब्दिक	-10.7611
▁मकर	-10.7617
▁सोनी	-10.7619
ाम	-10.7622
▁नाग	-10.7637
▁अवसाद	-10.7638
▁सत्रों	-10.7647
ांग	-10.7649
▁रुद्र	-10.765
▁समर्थक	-10.7662
▁बैठ	-10.7667
▁कॉर्फ	-10.7668
ज़ा	-10.7668
▁रेटिनॉल	-10.7674
▁शाकाहार	-10.7674
▁शौकिया	-10.7676
▁लड़न	-10.7676
▁हल्का	-10.7678
▁पाठ्यक्रम	-10.7681
▁देशी	-10.7686
▁विक्रेताओं	-10.7687
▁वुशु	-10.7688
▁अर्जुन	-10.7691
▁निराशा	-10.7694
▁लखनऊ	-10.7695
▁ऊँचे	-10.7697
▁दादा	-10.7701
▁युवाओं	-10.7701
▁आकर्षक	-10.7707
▁दाहिन	-10.7707
▁मौतें	-10.771
▁शतक	-10.771
▁जंग	-10.7711
▁ताज़	-10.7717
▁करण	-10.772
▁बालों	-10.7727
▁सीखा	-10.7729
▁नवीनत	-10.7734
▁गानों	-10.7737
▁खाँसी	-10.7743
निक	-10.7755
▁माफी	-10.7755
▁सत्य	-10.7761
तना	-10.7763
▁अन्यथा	-10.7785
▁शि	-10.7787
▁धारणा	-10.7791
▁लड़ी	-10.7798
भिन्न	-10.7806
▁फाइल	-10.782
▁वर्ण	-10.7821
ुआ	-10.7827
▁ईद	-10.783
▁अक्षर	-10.7834
▁गिटार	-10.7853
▁सूचकांक	-10.7853
▁हेनरी	-10.7853
▁पिट्सबर्ग	-10.7853
▁पेनाल्ट	-10.7853
चंद	-10.7856
▁वसा	-10.7856
▁अम्बेडकर	-10.786
▁सुनकर	-10.7861
▁रॉयल	-10.7865
▁इं	-10.7867
ेशन	-10.7871
▁गुजरती	-10.7872
▁कैमरा	-10.7873
▁भूख	-10.7874
▁रखती	-10.7874
घर	-10.7877
▁आधा	-10.7882
▁क्रोध	-10.7883
▁मोहन	-10.7889
▁संपादक	-10.7896
▁सहज	-10.7898
▁केबल	-10.7899
▁ऑस्ट्रिया	-10.7899
▁पेन	-10.7907
▁गले	-10.7913
▁लिंक	-10.7916
वाले	-10.7927
▁जीका	-10.793
सर	-10.7932
▁भारतीयों	-10.7935
▁रस	-10.7943
भार	-10.7948
▁हे	-10.795
▁गोल्फ	-10.7953
▁फोटो	-10.7955
▁पूछें	-10.7958
▁बंदूक	-10.7966
परंपरागत	-10.7982
▁अवतार	-10.7993
▁जला	-10.7995
▁आवृत्ति	-10.8001
▁सार	-10.8011
▁नील	-10.8012
▁श्वसन	-10.8022
▁स्वा	-10.8025
ाली	-10.8032
▁राजदूत	-10.8035
▁मुताबिक	-10.8035
▁प्राधिकरण	-10.8035
▁हनुमान	-10.8036
▁अधिग्रहण	-10.8037
▁क्षण	-10.8037
▁सुविधाएँ	-10.8037
▁धूल	-10.8037
▁कैरोलिना	-10.8038
▁महापौर	-10.8041
▁वियतनाम	-10.8042
▁जयंती	-10.8042
▁अप्रत्याशित	-10.8043
▁प्रतियोगिताएँ	-10.8043
▁खासकर	-10.8044
▁नीतियों	-10.8045
▁फसलें	-10.8049
▁स्वर्ग	-10.805
▁मेज़बान	-10.8051
ाता	-10.8052
▁खोजन	-10.8052
▁संभालने	-10.8059
▁पाक	-10.8061
▁फिल्माया	-10.8061
साधारण	-10.8061
▁सेवाएं	-10.8068
▁समर्पण	-10.8073
▁सड़कें	-10.8081
▁विषम	-10.8086
▁वर्मा	-10.8087
ाइट	-10.8092
ानिक	-10.8093
आधिकार	-10.8094
▁प्रसाद	-10.8103
▁किंग	-10.8103
अपने	-10.8125
▁एकड़	-10.8131
▁ताज	-10.8142
▁अंगों	-10.8142
▁छिप	-10.815
डे	-10.8152
▁कृष्णा	-10.8153
▁निपटन	-10.8165
▁सिंध	-10.8166
▁प्रेरणा	-10.817
▁नेपाली	-10.8173
▁तिब्बत	-10.8173
रू	-10.8178
▁बढ़ी	-10.8191
बलों	-10.8193
▁स्टेन	-10.8194
▁किसान	-10.8206
▁साहस	-10.8217
▁भूकंप	-10.8219
▁बुधवार	-10.822
▁ख़िलाफ़	-10.822
▁इलाहाबाद	-10.822
▁कारोबार	-10.822
▁फाउंडेशन	-10.822
▁बर्लिन	-10.822
▁भा	-10.8222
▁बोतल	-10.8222
▁ख़रीदार	-10.8225
▁खन्ना	-10.8228
जीवन	-10.8228
▁कवच	-10.8229
▁हिरण	-10.8231
▁महिलाएं	-10.8232
▁फेसबुक	-10.8235
▁उंगली	-10.8236
▁परि	-10.8242
▁मिज़ोर	-10.8245
▁सदन	-10.8246
वाँ	-10.825
▁वृक्ष	-10.8257
▁संतुलन	-10.8261
▁छठी	-10.8262
▁सीरीज़	-10.8263
▁वार	-10.827
▁व्यास	-10.8272
▁मालवा	-10.8272
▁पीला	-10.8275
▁पॉप	-10.8277
▁टुकड़े	-10.8295
▁शै	-10.83
चा	-10.8308
▁पैक	-10.8309
रिया	-10.8323
▁उठ	-10.8334
▁फसलों	-10.8337
▁पहाड़	-10.8337
▁कवर	-10.8343
▁हा	-10.8356
▁बोस	-10.8359
ये	-10.8375
▁पत्रकार	-10.8381
▁शिल्प	-10.8405
▁धूप	-10.8405
खारिज	-10.8406
▁इज़राइल	-10.8408
▁सौंदर्य	-10.8408
▁सुदूर	-10.8409
▁सार्वभौमिक	-10.8409
▁निजाम	-10.841
▁इवेंट	-10.841
▁आवरण	-10.841
▁अनुपस्थिति	-10.8411
▁कूपन	-10.8411
▁प्रतियोगी	-10.8412
▁समस्याएँ	-10.8412
▁चेहरा	-10.8413
▁अखिल	-10.8415
▁चाहेंगे	-10.8415
▁सिलिका	-10.8416
▁तुर्क	-10.8416
▁मधुर	-10.8418
▁समर्थित	-10.842
▁अफगान	-10.8423
▁पर्वतीय	-10.8428
▁यादव	-10.843
▁मोर	-10.843
▁सुंदरता	-10.8434
▁फर्म	-10.8439
▁बु	-10.8439
पुनर्जीवित	-10.844
▁हिंसक	-10.8448
▁पिच	-10.8449
▁रेटिंग	-10.8452
▁अतिथि	-10.8454
▁चमक	-10.8461
▁क्षमा	-10.8468
ाचार्य	-10.8477
जीवों	-10.8478
▁नहर	-10.8485
▁हमल	-10.8488
▁पढ़ा	-10.849
▁लिखें	-10.8491
वाओं	-10.8499
▁निकला	-10.8503
वर्मन	-10.8508
िवासियों	-10.8511
ओडिसी	-10.8512
▁कक्षा	-10.8514
ड़	-10.8523
▁आईं	-10.8529
▁निर्धारण	-10.8531
रोधी	-10.8537
हो	-10.8542
सारी	-10.8548
▁भोपाल	-10.8549
▁मनो	-10.8569
यह	-10.8593
▁रेंज	-10.8594
टर	-10.8594
▁दिगंबर	-10.8601
▁मुखर्जी	-10.8601
▁भूस्खलन	-10.8601
▁बर्फबारी	-10.8601
▁पुस्तकालय	-10.8601
▁मूर्तियाँ	-10.8602
▁चक्रवृद्धि	-10.8602
▁फिल्मांकन	-10.8606
▁इलिनॉयस	-10.8608
▁हेलीकॉप्टर	-10.8609
▁कलात्मक	-10.861
▁ड्रॉ	-10.8612
▁याचिका	-10.8615
▁पाठक	-10.8615
▁रतन	-10.8616
गामी	-10.8622
▁खरीदते	-10.8624
▁नियुक्ति	-10.8626
▁सदियों	-10.8638
▁अरक्तता	-10.864
▁क्लबों	-10.8643
▁रत्न	-10.8645
▁राधा	-10.8648
विन	-10.8649
▁रॉय	-10.8668
▁टाइप	-10.8675
▁रि	-10.8677
▁दब	-10.8677
यर	-10.8681
▁गायत्री	-10.8685
नों	-10.8691
▁सूक्ष्म	-10.8709
लों	-10.8712
डा	-10.8715
▁निर्यात	-10.8721
स्थल	-10.8737
▁गुजराती	-10.874
▁कोष	-10.8747
वर्ष	-10.8748
रॉनी	-10.876
▁बेस	-10.876
कल	-10.8763
▁बो	-10.8764
▁महाकाव्य	-10.8767
▁योनि	-10.877
▁मनाए	-10.878
▁अभियानों	-10.8792
▁भं	-10.8793
▁लड़ा	-10.8793
▁तलहटी	-10.8796
▁उपजाऊ	-10.8796
▁गंतव्य	-10.8797
▁ट्विटर	-10.8797
▁सिफारिश	-10.8797
▁डेट्रॉइट	-10.8797
▁बीजापुर	-10.8797
▁मैनचेस्टर	-10.8797
▁दवाएँ	-10.8799
▁यूनियन	-10.8799
▁असर	-10.88
▁दर्शा	-10.8801
हर	-10.8802
▁अनुशंसा	-10.8804
▁मार्गदर्शन	-10.8806
▁आँखें	-10.8807
▁नदीमुख	-10.8807
▁पहलवान	-10.881
रवाना	-10.8816
▁साहिब	-10.8817
▁अंडे	-10.8818
▁दावे	-10.882
▁आंत्र	-10.8826
▁जु	-10.883
▁बढ़कर	-10.8841
▁प्रशासक	-10.8844
▁संतान	-10.8846
▁दोस्ती	-10.885
▁कॉस्ट	-10.8858
ास्त	-10.8859
▁चि	-10.8864
साली	-10.8866
▁हिल्स	-10.8866
▁अंडर	-10.8874
▁पि	-10.8883
▁शोर	-10.8887
़ा	-10.8892
▁स्टेशनों	-10.8904
▁लिखत	-10.8904
▁उन्मूलन	-10.8911
ंडी	-10.892
खेल	-10.892
▁शृंखला	-10.8937
▁इंदि	-10.8938
▁जड़	-10.8939
▁आखिर	-10.894
!"	-10.8944
▁अनजान	-10.8951
▁लोकत	-10.8952
▁दलदल	-10.8954
▁क्यूबा	-10.8961
नेट	-10.8966
वासियों	-10.8973
रक्षित	-10.8981
▁बहुमत	-10.8989
▁चिढ़	-10.8993
ाकार	-10.8995
▁त्वरित	-10.8997
▁ऑक्सीजन	-10.8997
▁संप्रभु	-10.8997
▁रंगमंच	-10.8997
▁कारावास	-10.8997
▁मिर्च	-10.8998
▁ऑर्केस्ट्रा	-10.8998
▁स्विस	-10.9
▁बेगम	-10.9
▁हवेली	-10.9
▁सैम	-10.9001
▁योद्धाओं	-10.9002
▁पुजारी	-10.9005
▁अंतरिक्ष	-10.9005
▁फ्लू	-10.9005
▁एजेंट	-10.9005
▁इंजीनियरिंग	-10.9006
▁दूल्हे	-10.9006
▁पश्च	-10.9007
▁पैस	-10.9012
▁वस्तुएँ	-10.9016
▁सीधा	-10.9017
▁घबरा	-10.902
▁मंगोल	-10.9022
उद	-10.9023
▁टुकड़	-10.903
▁टेप	-10.9038
िए	-10.9038
▁बदलते	-10.904
▁एलेक्स	-10.904
▁फैलता	-10.9041
▁स्पीडवे	-10.9043
बोर्ड	-10.9054
▁ढांचे	-10.9055
लोड	-10.9061
▁संचरण	-10.9079
▁दाम	-10.9092
▁बढ़े	-10.9101
▁चेर	-10.9104
▁सर्वाधिक	-10.9113
नेस	-10.9118
▁सद	-10.9141
▁निर्वास	-10.9144
▁अवध	-10.9144
▁आपस	-10.9146
षण	-10.9154
▁चतुर्थ	-10.9154
▁खींच	-10.9161
▁प्रिय	-10.9162
▁पोषण	-10.9167
ल्स	-10.9181
वेल	-10.919
्ड	-10.9191
▁उभर	-10.9199
▁बोझ	-10.92
▁नतीजतन	-10.9201
▁मजदूर	-10.9201
▁प्रदूषण	-10.9202
▁कुत्तों	-10.9203
▁जॉनसन	-10.9203
▁केंटकी	-10.9204
▁सम्मिल	-10.9206
▁नाटकों	-10.9206
▁मेंढक	-10.9209
▁मैक्सिको	-10.9209
▁समायोजित	-10.921
वार	-10.9213
▁आवासीय	-10.9216
▁साप्ताहिक	-10.9217
▁जल्लीकट्टू	-10.9217
▁निलंब	-10.922
▁हेड	-10.9223
▁बांस	-10.9225
▁खिलाफ़	-10.9226
ग्राम	-10.923
▁व्यावहारिक	-10.9233
▁अकाल	-10.9241
▁अनिश्चित	-10.9242
▁दिवसीय	-10.9245
▁मारना	-10.9249
▁खुर्र	-10.9251
▁खोजें	-10.9252
िव	-10.9252
गिरी	-10.9259
कुल	-10.9261
▁संप्रदाय	-10.9263
▁मार्केट	-10.9266
▁घन	-10.9269
▁देखत	-10.927
ियम	-10.9271
गहरी	-10.9272
कर्षित	-10.928
▁समानता	-10.9283
▁ड्रामा	-10.9286
▁धुन	-10.9299
▁कार्बन	-10.9304
बाई	-10.9309
▁बनीं	-10.9309
▁आशा	-10.9312
▁दिये	-10.9313
▁लेंस	-10.9319
लीला	-10.9321
▁काला	-10.9323
पत	-10.9328
स्थान	-10.9335
▁गहन	-10.9338
ीज़	-10.9347
▁गुप्ता	-10.9348
▁लुईस	-10.9355
▁वॉल	-10.9358
शिप	-10.9363
▁कटक	-10.9365
हा	-10.9369
▁मनोरंज	-10.9381
▁फारस	-10.9397
▁अरुणा	-10.9398
▁किस्म	-10.9402
निर्मित	-10.9407
▁ओहायो	-10.9409
▁आशंका	-10.9409
▁डेटाबेस	-10.9409
▁अपार्टमेंट	-10.9409
▁मोनिका	-10.9412
▁जाएँगे	-10.9412
▁वृत्तचित्र	-10.9413
▁प्रबल	-10.9415
▁बिन	-10.9419
▁जुर्माना	-10.9419
कृतियों	-10.9422
टॉप	-10.9425
▁दस्ताने	-10.9425
▁रोकथाम	-10.9425
▁अजीब	-10.9426
▁अमरिका	-10.9427
▁आग्रह	-10.9429
ुर	-10.943
▁रस्साकशी	-10.9434
▁मीठे	-10.9439
▁प्रयोगशाला	-10.9442
▁गर्दन	-10.9443
▁निधि	-10.9443
▁मोहर	-10.9447
▁चोटें	-10.945
अमेरिकियों	-10.9451
▁लेंगे	-10.9451
▁श्रृंखलाओं	-10.9453
▁भाग्य	-10.9457
▁कोयला	-10.946
▁समीर	-10.9462
हीन	-10.9467
▁नरम	-10.9468
▁दिखने	-10.9468
▁अरबी	-10.9473
▁जासूस	-10.9474
▁मिलाया	-10.9477
बन	-10.9479
हम	-10.9484
ेश	-10.9491
▁डबल	-10.9505
▁तोड़ने	-10.9507
▁वर्गों	-10.9508
लो	-10.9525
▁लाइव	-10.9531
▁वक्त	-10.9548
रने	-10.9548
राजीव	-10.955
▁शैल	-10.9559
▁तारा	-10.9562
▁पूछ	-10.9563
▁करे	-10.9572
िम	-10.9579
▁मोटे	-10.9582
▁सौर	-10.9596
▁भूल	-10.96
टो	-10.9602
ाधिकार	-10.9603
▁किक	-10.9606
▁लव	-10.9606
▁दर्शक	-10.9612
▁हुमायू	-10.9619
▁नींव	-10.9621
▁वाक्यांश	-10.9622
▁फिलीपींस	-10.9622
▁अनौपचारिक	-10.9622
▁सेमीफाइनल	-10.9622
▁प्रजातियां	-10.9622
संभव	-10.9622
▁ट्रेडमिल	-10.9622
▁इन्फ्लूएंज	-10.9623
▁वाकई	-10.9623
▁क्वींसलैंड	-10.9623
▁कब्रिस्तान	-10.9623
▁आईफोन	-10.9624
▁कथकली	-10.9625
▁स्ट्रीट	-10.9625
▁कर्तव्य	-10.9628
▁कॉर्पोरेशन	-10.9629
▁यूक्रेन	-10.9629
्या	-10.9632
▁कावेरी	-10.9634
▁पूरक	-10.9635
▁मिलान	-10.9636
▁लुइस	-10.9636
▁खंडहर	-10.9636
▁धोनी	-10.9645
▁स्थिरता	-10.9645
▁पूर्वजों	-10.965
▁इंद्र	-10.9661
▁वादक	-10.9665
▁डालते	-10.9666
▁गयी	-10.9675
▁शेख	-10.9675
▁प्रकाशन	-10.9681
▁ब्रह्म	-10.9682
▁भजन	-10.9689
▁चिली	-10.9693
▁माइक्रो	-10.9694
मार	-10.97
▁स्ट्रोक	-10.9705
▁गवाह	-10.9706
स्टर	-10.971
▁फॉर्म	-10.971
▁घूमत	-10.9714
▁रियो	-10.9719
मती	-10.972
ितना	-10.9725
ुओं	-10.9731
▁भट्ट	-10.9743
▁मेडिक	-10.9744
▁झूठ	-10.9747
▁बिगड़	-10.9755
ाव	-10.9757
▁फंड	-10.9758
▁अरे	-10.9772
▁निभान	-10.9776
▁मुकदमे	-10.9778
▁मालिकों	-10.978
▁पहचाना	-10.9786
क्षणिक	-10.979
▁ट्रेल	-10.9798
▁भिन्नता	-10.9799
▁निकलन	-10.9801
ेस	-10.9809
▁फोर्ट	-10.981
▁आकर	-10.9812
▁सांसद	-10.9828
▁स्वच्छ	-10.9828
▁दफनाय	-10.9832
▁व्य	-10.9833
▁रचनात्मक	-10.9838
▁मुग़ल	-10.9839
▁मिसौरी	-10.9839
▁अंपायर	-10.9839
▁मिनेसोटा	-10.9839
▁सेंट्रल	-10.9839
▁मेलबर्न	-10.9839
▁अटलांटिक	-10.9839
▁तैमूर	-10.984
▁संबोधित	-10.984
▁मोटरस्पोर्ट्स	-10.984
▁डेविस	-10.9842
▁अनोख	-10.9842
▁भविष्यवाणी	-10.9844
▁एडवर्ड	-10.9844
▁लोहड़ी	-10.9848
दीन	-10.9848
▁सहयोगियों	-10.9851
▁रॉकेट	-10.9851
▁नासिक	-10.9853
▁स्पेनिश	-10.9857
▁ता	-10.9859
▁सजाया	-10.9864
▁छाती	-10.9865
▁पार्श्वनाथ	-10.9866
▁राणा	-10.9869
▁रिश्तेदारों	-10.9874
▁अनुचित	-10.9877
▁मानद	-10.9883
▁चुनें	-10.9887
▁मीनार	-10.9888
▁पु	-10.9889
वीर	-10.9892
▁समर्थकों	-10.9894
▁पकड़े	-10.9898
▁किलों	-10.9909
▁सै	-10.9938
▁क्लाइ	-10.995
▁हार्मोन	-10.9953
▁क्रिस	-10.9955
▁मुक्ति	-10.9958
▁शिया	-10.9962
▁प्रसव	-10.9964
▁मो	-10.9965
▁स्थग	-10.9971
▁होम	-10.9979
▁टाउन	-10.9983
▁राक्षस	-10.9985
▁लाइफ	-10.9991
▁सोलह	-10.9994
तनी	-11
छोटे	-11.0001
▁रिंग	-11.0002
▁राजकुमारी	-11.0002
▁कमज़ोर	-11.0013
शी	-11.0015
▁सीनेटर	-11.0016
▁अनूठ	-11.0019
▁बीज	-11.002
▁वर्चस्व	-11.0024
▁क्लास	-11.0028
पति	-11.0029
▁श्वेत	-11.0035
▁विवेक	-11.0036
वहन	-11.0039
▁ज़िला	-11.005
▁ओणम	-11.006
▁साजिश	-11.0061
▁उड़ीसा	-11.0061
▁फैशन	-11.0061
▁एंजिल्स	-11.0061
▁राजनयिक	-11.0061
▁रक्तचाप	-11.0061
▁बलात्कार	-11.0061
▁सुनवाई	-11.0061
▁अनीता	-11.0062
▁पंजीकरण	-11.0062
▁बोस्टन	-11.0062
ेंगे	-11.0063
▁भरपूर	-11.0064
▁चोलों	-11.0065
▁उल्टी	-11.0065
▁कपास	-11.0065
▁बिताया	-11.0067
▁लिनक्स	-11.007
▁निष्पाद	-11.0071
▁विवरणों	-11.0073
▁ऑक्सफोर्ड	-11.0075
िर	-11.0076
▁संलग्न	-11.0079
▁धनुस्तम्भ	-11.0079
▁बिल्ली	-11.0079
मुफ़्त	-11.0083
▁स्वच्छता	-11.0087
▁पांडवों	-11.0089
▁हॉलीवुड	-11.0089
▁डांस	-11.01
ेंद्र	-11.0103
लिया	-11.0104
▁अनुयायी	-11.0105
▁कमांडर	-11.0106
▁पूछा	-11.0113
▁झलक	-11.0118
कलन	-11.0118
▁माइक	-11.0122
कॉक	-11.0127
▁कारखाने	-11.013
र्ड	-11.0132
▁फायदे	-11.0135
▁आदत	-11.0136
▁दिव्य	-11.0139
▁द्रविड़	-11.0142
ंगी	-11.0159
▁कूट	-11.0173
▁पंचायत	-11.0177
▁दिखान	-11.0179
गृह	-11.0179
मार्ग	-11.018
▁ध	-11.0181
▁ख़	-11.0181
ियस	-11.0187
बू	-11.0187
▁दा	-11.0206
▁हज़ार	-11.0208
ाजपेयी	-11.0211
▁प्रतिष्ठा	-11.022
▁खासी	-11.0236
साइड	-11.0237
▁गिरजाघर	-11.0242
▁चेरा	-11.0254
▁न्यूज़	-11.0263
▁खेलता	-11.0269
▁संभाल	-11.0273
▁पे	-11.0278
▁प्रशांत	-11.0281
▁ऑटिज्म	-11.0288
▁गर्भपात	-11.0288
▁टेनेसी	-11.0288
▁भरतनाट्यम	-11.0289
▁पंचांग	-11.0289
▁फिलाडेल्फिया	-11.0289
▁मछलियों	-11.0289
▁पादरी	-11.029
▁टेक्सस	-11.029
▁स्वाइन	-11.0291
भाविक	-11.0291
▁तत्कालीन	-11.0292
▁बेकार	-11.0293
▁दाखिल	-11.0295
▁फॉक्स	-11.0297
▁दार्जिलिंग	-11.0298
▁औषधीय	-11.0298
▁कूच	-11.0298
▁शून्य	-11.03
▁मेमोरी	-11.0301
▁बर्मा	-11.0301
▁हस्त	-11.0304
▁तीरंदाजी	-11.0308
▁पत्थरों	-11.031
▁शरण	-11.031
▁संपादन	-11.0312
▁निर्वाचन	-11.0318
▁कार्ल	-11.033
▁चेन	-11.0334
▁कमर	-11.0337
बाद	-11.034
▁सजावटी	-11.0347
▁शीत	-11.0349
▁गुलाबी	-11.0356
▁सितार	-11.036
विक	-11.0364
▁त्रुटि	-11.0366
▁मी	-11.0367
▁गोलीबार	-11.0369
शॉ	-11.0377
▁केन्द्र	-11.0392
▁जाल	-11.0393
टे	-11.0394
▁पहन	-11.0399
जन	-11.0406
▁बिक	-11.041
स्थापित	-11.0416
▁विज्ञापनों	-11.0421
▁स्	-11.0422
▁झूम	-11.0428
▁कायम	-11.044
▁विकारों	-11.0441
▁चिकित्स	-11.0444
▁जावा	-11.0454
▁इला	-11.0456
▁ढलान	-11.0459
▁माप	-11.0464
वासी	-11.0467
ज़ी	-11.0468
▁बंदर	-11.0471
▁मनुष्य	-11.0476
▁शिरा	-11.0479
िंदा	-11.0493
▁सोचत	-11.0501
▁नाइट	-11.0512
▁हरि	-11.0513
होम	-11.0514
▁भ्रूण	-11.052
▁लैगून	-11.052
▁समतल	-11.0521
▁उपभोक्ता	-11.0521
▁बैडमिंटन	-11.0521
▁पर्वतारोहण	-11.0521
▁जंक्शन	-11.0522
▁संश्लेषण	-11.0522
▁खरीदी	-11.0522
▁घृणा	-11.0525
▁कंकाल	-11.0528
▁टाइफाइड	-11.0528
▁फाउल	-11.053
▁म्यूनिख	-11.053
▁यूट्यूब	-11.053
▁लेखाकार	-11.0531
▁मानवाधिकार	-11.0531
▁बीजिंग	-11.0532
▁मानदंड	-11.0533
▁चिंताओं	-11.0536
▁न्यूज	-11.0536
▁भूमिकाएँ	-11.0537
▁कोशिकाएँ	-11.0539
▁मुंह	-11.0539
▁थ्रिलर	-11.054
▁रोमांटिक	-11.054
▁सस्ते	-11.0544
▁एकादशी	-11.0547
▁सीरम	-11.055
▁सप्तक	-11.0554
▁अस्थिर	-11.0557
▁नोक	-11.0559
विल	-11.0559
▁कैमरे	-11.0563
▁क्लिक	-11.0565
▁पोते	-11.0573
▁अक्षरों	-11.0577
▁बदलती	-11.0578
▁इंटर	-11.0579
▁गौरव	-11.0579
▁भेजी	-11.0581
▁अनुक्रम	-11.0593
▁व्यय	-11.06
▁गाइड	-11.0602
▁स्कॉट	-11.0604
▁रोज़	-11.0612
अप	-11.0619
क्रिया	-11.062
▁सामंत	-11.0635
ंद	-11.0639
▁शेयरों	-11.0651
श्त	-11.0652
▁विशेषज्ञता	-11.0661
▁बेचे	-11.0663
▁गोपाल	-11.0665
▁गद्दी	-11.0683
ोर	-11.0684
▁तरंग	-11.0684
▁डैन	-11.0712
▁संचालक	-11.0715
ाया	-11.0732
▁रोगों	-11.0735
▁प्रेमी	-11.0738
मेल	-11.074
▁ख़तर	-11.074
▁तराश	-11.0741
▁मानेक	-11.0746
▁छठे	-11.0749
▁जीवंत	-11.0751
▁चौक	-11.0751
▁जेन	-11.0754
▁इकाइयों	-11.0759
▁वैंकूवर	-11.0759
▁श्रद्धांजलि	-11.0759
▁धोखा	-11.0759
▁दार्शनिक	-11.0759
▁फॉर्मूला	-11.0759
▁एक्सचेंज	-11.0759
▁ओंटारियो	-11.0759
▁भ्रष्टाचार	-11.0759
▁आश्चर्यचकित	-11.0759
▁देखरेख	-11.076
▁नग्न	-11.076
▁महारानी	-11.0761
▁छवियों	-11.0763
▁नाराज़	-11.0765
▁विशेषताएँ	-11.0765
▁कंधे	-11.0765
▁प्रतीकात्मक	-11.0766
▁संतुष्ट	-11.0767
▁रूम	-11.0768
▁देसाई	-11.0768
▁अहमदाबाद	-11.0769
▁नशे	-11.0769
▁रुप	-11.077
▁कट	-11.0777
▁सूरज	-11.0778
▁धीमा	-11.0778
▁मोल	-11.078
▁क्रोएशिया	-11.0781
▁बजाया	-11.0782
▁पूर्ववर्ती	-11.0788
▁शरद	-11.0788
▁पकाने	-11.0792
▁लड़ते	-11.0794
▁सोचें	-11.0798
▁कीमतें	-11.0798
▁पांडे	-11.0804
▁मारकर	-11.081
▁प्रोजेक्ट	-11.0812
▁बुला	-11.0815
▁कैश	-11.0818
▁खेली	-11.0819
निहित	-11.0828
▁मातृ	-11.083
▁किनार	-11.083
्रा	-11.0834
▁चलाना	-11.0836
▁बागान	-11.0838
▁मैक्स	-11.0842
जस्सी	-11.0847
▁नवीन	-11.0848
▁निकले	-11.0853
सवारी	-11.0856
▁उपलब्धि	-11.0859
▁मालाब	-11.086
▁चुकाने	-11.0873
ष्णकटिबंधीय	-11.088
▁रचा	-11.0885
▁बंदरगाहों	-11.0889
▁सिरे	-11.089
▁प्री	-11.089
▁नृत्यों	-11.0892
▁फोड़	-11.0896
▁गुजरन	-11.0898
▁धारण	-11.0902
▁रणनीतिक	-11.0906
ांकन	-11.0909
राधिक	-11.091
▁द्रव	-11.0915
▁चौथ	-11.0928
▁आयोजक	-11.0928
▁संन्यास	-11.093
ाती	-11.0964
▁अल्प	-11.0965
प्रमाणित	-11.0973
▁रोज	-11.0974
▁सातव	-11.0975
▁कुषाण	-11.0976
▁पाली	-11.0977
ाइड	-11.0978
▁लाप	-11.0991
फोर्ड	-11.0992
▁युक्त	-11.0992
▁लोह	-11.0997
▁छंद	-11.0999
▁हिन्द	-11.1001
▁चित्तौड़	-11.1002
▁मदुरै	-11.1002
▁हिमाचल	-11.1003
▁अँग्रेज	-11.1003
▁कनेक्शन	-11.1003
▁त्रावणकोर	-11.1003
▁प्लेस्टेशन	-11.1003
▁इंतज़ा	-11.1003
▁खिलौने	-11.1003
▁सकेंगे	-11.1006
▁विस्थापित	-11.1006
▁फ़ारसी	-11.1006
▁ब्राउन	-11.1007
▁घटनाएँ	-11.101
▁कारगिल	-11.101
▁संभोग	-11.1012
▁दुर्भाग्य	-11.1013
▁मॉन्ट्रियल	-11.1013
▁वरुण	-11.1014
▁रहेंगे	-11.1014
▁शैलियाँ	-11.1014
किन	-11.1019
▁बिस्तर	-11.1019
▁टकराव	-11.102
सिस	-11.1021
▁बैंकिंग	-11.1023
▁विद	-11.1024
उल	-11.1026
▁आयुक्त	-11.103
▁चाकू	-11.1032
▁उथल	-11.104
▁कस्बों	-11.1041
▁कैनो	-11.1045
▁कागज़	-11.1047
▁मिलियन	-11.1049
▁वृत्त	-11.1053
▁सर्दी	-11.1054
▁शोले	-11.1055
हित	-11.1056
▁विज	-11.1064
▁कर्ण	-11.1064
▁बोर	-11.1065
▁पत्ते	-11.1065
▁गोविंद	-11.1068
▁फंस	-11.1069
रेखा	-11.1073
▁यमुना	-11.1073
▁होंगी	-11.1074
▁मुहान	-11.1075
▁मंदी	-11.1081
राष्ट्रीय	-11.1082
▁ज्वार	-11.109
▁नीले	-11.1103
▁रोमांचक	-11.111
▁गुल	-11.1121
▁प्राय	-11.1122
▁नंद	-11.1134
▁बैले	-11.114
▁घने	-11.1143
▁कब्ज	-11.1143
टाइम	-11.1144
▁तले	-11.115
कला	-11.115
▁अनुयाय	-11.1154
▁खात	-11.1155
▁चौड़ी	-11.1155
▁सू	-11.1159
▁बेन	-11.116
▁परिभाषा	-11.1165
▁बातें	-11.1169
▁निकायों	-11.117
बर	-11.1174
▁टन	-11.1174
वुड	-11.1174
▁नाराज	-11.1187
▁पू	-11.1189
▁नियत	-11.1197
▁सजावट	-11.1198
▁नस्ल	-11.12
▁माया	-11.1201
▁गिरोह	-11.1202
▁भैंस	-11.1203
▁ओम	-11.1204
▁गायकों	-11.1223
▁आर्य	-11.1224
ार्सिलो	-11.1228
▁भोज	-11.1234
▁ग्रे	-11.1237
▁हिम	-11.1238
▁धर	-11.1241
लिए	-11.1245
▁कस्ब	-11.1249
▁रिले	-11.1249
▁संकीर्ण	-11.1252
▁हिमनद	-11.1252
▁लीजिए	-11.1252
▁खलनायक	-11.1252
▁मुकेश	-11.1253
▁मेगावाट	-11.1253
▁समकक्ष	-11.1253
▁धोखाधड़ी	-11.1253
▁दुर्योधन	-11.1253
▁इंजेक्शन	-11.1253
▁टेलीविज़न	-11.1253
▁परिदृश्य	-11.1253
▁फर्श	-11.1253
▁शेट्टी	-11.1253
▁उपग्रह	-11.1253
▁उत्पीड़न	-11.1254
▁कोहिमा	-11.1254
▁बनवाया	-11.1254
▁नमूने	-11.1254
▁परिधान	-11.1254
▁जताई	-11.1255
▁शोधकर्ताओं	-11.1256
नीय	-11.1256
▁हड्डी	-11.1256
▁लगेगा	-11.1258
िला	-11.1258
▁सहानुभूति	-11.1263
▁भेंट	-11.1266
▁कहानियाँ	-11.1266
▁तांबे	-11.1267
ीर्ण	-11.1267
▁मुद्राओं	-11.1267
▁देगी	-11.1267
बीर	-11.1268
▁आइटम	-11.1272
यम	-11.1272
▁प्रतिबिंब	-11.1273
▁घाटियों	-11.1279
▁तैराकी	-11.1283
▁यंग	-11.1285
▁टॉम	-11.129
▁ज्वालामुखी	-11.129
▁पैलेस	-11.1292
▁रिया	-11.1294
▁महात्म	-11.1294
तर	-11.1294
रीक्षण	-11.1297
▁राष्ट्रवादी	-11.1299
▁टैंक	-11.1299
▁धकेल	-11.1303
▁खरीदें	-11.1306
▁नाना	-11.131
▁गीता	-11.1316
▁इब्	-11.1316
▁टुकड़ों	-11.1316
▁कान	-11.1316
▁बंधक	-11.1321
डेट	-11.1323
▁संभाली	-11.1325
▁क्वीन	-11.1326
राज्य	-11.1329
▁रुख	-11.1332
▁घिर	-11.1339
▁राउंड	-11.1342
▁ऊतकों	-11.1346
▁बॉस	-11.135
▁पहना	-11.1357
▁गर्भाशय	-11.136
▁मारिया	-11.1367
▁गिल	-11.1374
ूनी	-11.1378
ुल	-11.1387
बिजली	-11.1395
▁सिद्धांतों	-11.1395
म्मा	-11.1408
पन्न	-11.1414
▁मिलीं	-11.1426
गन	-11.143
▁कैन	-11.1436
रहित	-11.1437
▁ज़ी	-11.1437
▁उठाए	-11.1437
धारा	-11.144
▁ढाल	-11.1457
▁दमन	-11.1457
▁शैव	-11.1466
▁प्रतिजैविक	-11.1466
▁वर्	-11.147
डेन	-11.1471
▁वैन	-11.1472
▁उपेक्ष	-11.1472
र्न	-11.1473
पुरम	-11.1474
षित	-11.1481
▁गेट	-11.1484
▁पूर्वानुमान	-11.1486
▁कांच	-11.1487
▁स्नेह	-11.1489
▁दोहरी	-11.1491
▁रागम	-11.1498
▁फ़्रांस	-11.1499
▁रंगी	-11.1505
▁ओह	-11.1506
ाइटिस	-11.1506
▁दंग	-11.1507
वास	-11.1507
▁ऐहोल	-11.1509
▁टक्कर	-11.1509
▁उजागर	-11.1509
▁क्लर्क	-11.1509
▁बर्खास्त	-11.1509
▁रेजिमेंट	-11.1509
▁लाभांश	-11.1509
▁दुष्प्रभाव	-11.1509
▁शटल	-11.1509
▁कैम्ब्रिज	-11.1509
▁पद्मिनी	-11.1509
▁फ्रांसिस्को	-11.1509
▁मछुआर	-11.151
▁फ्रीस्टाइल	-11.151
▁दूल्हा	-11.151
▁सिन्हा	-11.1511
▁झरनों	-11.1511
▁हरकत	-11.1512
▁खिलजी	-11.1512
▁चक्कर	-11.1513
▁मज़बूत	-11.1513
▁मसालों	-11.1513
▁हवाएँ	-11.1513
▁उत्परिवर्तन	-11.1515
ख्यात	-11.1516
▁अनुदान	-11.1517
जैविक	-11.152
▁आदित्य	-11.1521
▁आजकल	-11.1523
वि	-11.1523
▁सीधी	-11.1524
▁स्वीकृत	-11.1527
▁स्थानांतरण	-11.153
▁अक्षय	-11.1531
▁इरादा	-11.1532
▁आश्रम	-11.1532
▁शोषण	-11.1535
वाल	-11.1539
▁धूम्रपान	-11.154
▁संभवत	-11.1544
▁मनु	-11.1547
▁दरवाजे	-11.1549
▁गणित	-11.155
▁सीखन	-11.1555
र्ट	-11.1556
▁संपूर्ण	-11.1558
क्यू	-11.1558
▁थैले	-11.1568
▁सॉफ्ट	-11.1569
▁इशार	-11.1569
सके	-11.157
टोनी	-11.1572
▁चौदह	-11.1579
▁दिखात	-11.1581
▁तबाह	-11.1584
▁नाइजीरिया	-11.1586
▁बताए	-11.1586
▁ईश्वर	-11.1588
▁लगीं	-11.159
▁इंडो	-11.1591
च्चे	-11.1591
▁बिताए	-11.1591
▁डेली	-11.1594
शाह	-11.16
बाएं	-11.1601
▁भय	-11.1605
▁छठा	-11.1613
▁तेरह	-11.1614
▁निकटता	-11.1616
▁ऑस्ट्रेलिय	-11.1621
▁मेयर	-11.1624
▁मानी	-11.1628
▁जहाजों	-11.1636
▁प्रतिष्ठान	-11.1638
भाव	-11.1638
▁डेन	-11.1639
▁सोचने	-11.1643
▁रवैय	-11.1646
हावी	-11.1649
▁जेस	-11.1659
बारी	-11.1661
▁चुरा	-11.1664
▁उड़ा	-11.1672
वैध	-11.1673
▁बीमारिय	-11.1674
▁आत्मसमर्प	-11.1677
▁अनियमित	-11.1678
▁तिल	-11.1683
▁विराम	-11.1683
▁आंकड़	-11.1685
▁लत	-11.1688
▁पक	-11.169
▁पारा	-11.1691
बैक	-11.1696
▁उमर	-11.17
▁महानगर	-11.1706
▁दिखाए	-11.1706
लय	-11.1708
ॉइड	-11.171
▁उछाल	-11.1718
▁पलट	-11.172
▁पट्ट	-11.1724
▁स्तनपा	-11.1729
▁गौर	-11.1731
▁खु	-11.1734
सम	-11.1743
▁एड	-11.1747
▁शोक	-11.1747
▁बनात	-11.1756
▁अवरोध	-11.1758
▁चमड़	-11.176
▁फिल्म्स	-11.176
▁वाणिज्य	-11.1768
▁दूकान	-11.1772
▁आँसू	-11.1772
▁हेलमेट	-11.1772
▁कंपनियां	-11.1772
▁ह्यूस्टन	-11.1772
▁उपाध्यक्ष	-11.1772
▁पेंसिल्वेनिया	-11.1772
▁आर्थर	-11.1773
▁अल्सर	-11.1773
▁अभिगम	-11.1773
▁पैरिश	-11.1773
▁सहकारी	-11.1773
▁ब्रह्मांड	-11.1773
▁पत्नियों	-11.1774
लिन	-11.1775
▁स्प्रिंग	-11.1777
▁प्रतियोगिताएं	-11.1777
▁जैक्सन	-11.1778
▁प्रायोजित	-11.1779
▁मोड	-11.1779
▁प्रासंगिक	-11.178
▁स्वीकृति	-11.1781
भारत	-11.1781
▁झिल्ली	-11.1781
▁चचेरे	-11.1781
▁रैप	-11.1781
▁उद्गम	-11.1782
▁एपिसोड	-11.1782
▁वाराणसी	-11.1782
▁मूल्यवान	-11.1783
▁राजेश	-11.1785
▁राइट	-11.1792
▁मिज़ो	-11.1792
फा	-11.1792
▁नागपुर	-11.1795
▁महंगी	-11.1803
▁चाचा	-11.1804
▁छाप	-11.1805
▁ब्लॉग	-11.1806
▁रिकॉर्ड्स	-11.1808
तीर्थयात्रियों	-11.1809
▁सक	-11.181
▁बचन	-11.1812
▁निकलत	-11.1814
▁संहिता	-11.1814
▁बैनर	-11.1819
▁सुनने	-11.1822
शैली	-11.1826
▁हिस्सेदार	-11.1827
▁प्रपत्र	-11.1828
▁विंग्स	-11.183
▁फॉर	-11.1831
▁रु	-11.1831
▁साथियों	-11.1834
उठाते	-11.184
▁आजाद	-11.1841
ेंट	-11.1843
आम	-11.1847
▁लेक	-11.1847
▁ब्र	-11.1853
▁गेम्स	-11.1857
▁रणजी	-11.1861
▁टैक्सी	-11.1875
▁यंत्र	-11.1875
▁एलिस	-11.1876
▁वर	-11.188
▁गुड़	-11.1883
िकोड	-11.1885
विशेष	-11.1891
▁दरार	-11.1894
▁बातों	-11.19
नाम	-11.1902
गार	-11.1902
▁जोशी	-11.1903
संबंधी	-11.1906
▁सीता	-11.191
▁लॉ	-11.1917
▁निर्देशों	-11.1926
▁प्रवृत्ति	-11.1931
वानी	-11.1936
▁मज़ा	-11.1939
वस्तु	-11.1943
▁आपात	-11.1945
▁बिलों	-11.1947
टंकी	-11.1952
▁शर्ट	-11.1961
▁गोला	-11.1963
▁खरीदे	-11.1964
दि	-11.198
▁लॉर्ड	-11.1981
▁बनना	-11.1993
▁सिपाह	-11.1994
ाला	-11.1995
▁लगाएँ	-11.2007
सेन	-11.2008
वियों	-11.2013
मारी	-11.2015
▁प्रभाग	-11.2017
्स्की	-11.2027
▁ऑन	-11.2027
▁महीना	-11.2027
▁लियोन	-11.2029
▁मुद्र	-11.2032
लाई	-11.2036
▁हि	-11.2039
वाड़ा	-11.2041
▁जवाहर	-11.2042
▁अत्यंत	-11.2042
▁विनम्र	-11.2042
▁उद्धृत	-11.2042
▁अलास्का	-11.2042
▁सिंड्रोम	-11.2042
▁भूटान	-11.2042
▁कीजिए	-11.2042
▁ताइवान	-11.2042
▁स्वामीनाथन	-11.2043
▁बनावट	-11.2043
▁ब्रायन	-11.2043
▁इधर	-11.2044
▁एथलेटिक्स	-11.2044
▁पहाड़ियाँ	-11.2044
▁विलुप्त	-11.2045
▁जिनमे	-11.2046
▁नोकिया	-11.2046
▁अत्याचार	-11.2046
▁क़िला	-11.2047
▁रघु	-11.2047
▁रूपांतरण	-11.2051
▁बताएँ	-11.2052
▁ईंधन	-11.2052
▁रामायण	-11.2052
▁परिचय	-11.2053
▁कानपुर	-11.2055
▁क्यूबेक	-11.2055
▁आयरन	-11.2055
▁इलाक़	-11.2055
▁रोहे	-11.2057
▁जबलपुर	-11.2057
अपमानजनक	-11.2059
▁संगीतमय	-11.2059
▁अजीत	-11.206
▁म्यांमार	-11.2064
▁कराची	-11.2064
▁प्रतिकूल	-11.2065
▁झंडे	-11.2065
▁अभाव	-11.2066
▁वस्त्र	-11.2068
▁कपड़ा	-11.2068
▁पुनर्गठन	-11.2068
▁मोदी	-11.207
▁बेड	-11.207
▁सन	-11.207
▁भतीजे	-11.2071
▁सम्बन्ध	-11.2071
▁जागरूकता	-11.2077
▁अद्यतन	-11.2078
▁साड़ी	-11.2079
▁डेल	-11.208
▁सस्ता	-11.2084
▁बाएँ	-11.2085
रात	-11.2086
▁विल	-11.2086
▁विनाश	-11.2086
बीच	-11.2086
▁नहरों	-11.2092
▁श्रम	-11.2093
▁गोल्डन	-11.2094
आप	-11.2095
▁पद्धति	-11.21
▁व्रत	-11.2104
▁अधूर	-11.2106
यार	-11.2113
▁चौड़े	-11.2114
▁ग्रह	-11.2115
▁चतुर्थी	-11.2116
▁प्रभु	-11.2117
▁इंडियाना	-11.2119
दाहिने	-11.2124
▁इत	-11.2131
रिक	-11.2142
▁लक्षित	-11.2143
ेज़	-11.2144
नियंत्रित	-11.2147
▁पतवार	-11.2156
▁मानता	-11.2156
▁फलों	-11.2157
▁दिला	-11.216
मैं	-11.2166
▁नीली	-11.2167
टेल	-11.2171
▁सिक्का	-11.2172
▁घावों	-11.2177
▁बरामद	-11.2188
दर्जा	-11.219
ाहौल	-11.2191
▁घूम	-11.2198
▁सहारा	-11.2199
▁बज	-11.2212
▁यॉज	-11.2219
▁चिप	-11.2227
▁लाइट	-11.2231
▁विकि	-11.2234
▁इल्	-11.2237
▁लाए	-11.2252
▁बै	-11.2255
▁मंडली	-11.226
▁ढोल	-11.2274
▁बुजुर्ग	-11.2275
ावा	-11.228
▁बैग	-11.2283
▁शिष्य	-11.2289
▁करो	-11.229
ग्रहण	-11.229
▁चैंपिय	-11.2294
▁पंख	-11.2299
▁ग्रीक	-11.2302
किया	-11.2307
▁चिन्ह	-11.2308
▁इलिनॉय	-11.231
कॉम	-11.2312
▁उदार	-11.2314
▁भिक्षु	-11.2316
▁अवशोष	-11.2317
ग्राहक	-11.2317
▁आर्द्रभूमि	-11.2319
▁सैयद	-11.2319
▁एंडरसन	-11.232
▁पादुकोण	-11.232
▁जगन्नाथ	-11.232
▁दर्जन	-11.232
▁प्रोडक्शन	-11.232
▁ऑडियो	-11.232
▁थ्रोबॉल	-11.232
▁सऊद	-11.232
▁वंचित	-11.232
▁ईसाइयों	-11.232
▁अवनि	-11.2321
▁इडुक्की	-11.2321
▁म्यूजिक	-11.2322
▁झटका	-11.2322
▁समानांतर	-11.2323
▁मेवाड़	-11.2324
▁लौटा	-11.2327
▁गारो	-11.2328
▁डरावनी	-11.233
▁अनूप	-11.233
▁धागे	-11.233
▁घबराहट	-11.2331
▁सत्याग्रह	-11.2331
▁पियानो	-11.2331
▁निराशाजनक	-11.2331
▁सम्पूर्ण	-11.2332
▁अजय	-11.2333
▁तान	-11.2333
▁इमारतें	-11.234
▁मेहमानों	-11.234
▁पदोन्नत	-11.234
▁इंदौर	-11.2342
▁सामान्यतः	-11.2345
.-	-11.2348
▁अश्विन	-11.2349
▁गुणसूत्र	-11.2352
▁जूते	-11.2353
▁दंगल	-11.2353
▁गोदावरी	-11.2353
▁वेद	-11.2354
▁खंडों	-11.2355
▁पंचमी	-11.2359
▁बर्दा	-11.236
▁पंडित	-11.2361
मित्र	-11.2361
▁प्राणी	-11.2362
▁अपवाद	-11.2363
▁अपर्याप्त	-11.2367
▁क्वार्टर	-11.2368
▁सूरत	-11.2375
यान	-11.2376
▁औ	-11.2378
▁अंतः	-11.2379
▁पसीन	-11.2382
भाग	-11.2386
▁नम	-11.239
▁विधियों	-11.2393
प्रवाह	-11.2393
▁पुनर्वा	-11.2404
▁अभिन	-11.2409
▁चिकन	-11.2415
प्रत्यक्ष	-11.2425
▁स्टील	-11.2439
▁छिपा	-11.2448
▁("	-11.2453
्र	-11.2459
▁गदा	-11.2461
▁पूर्वार्	-11.2466
कुंड	-11.2469
▁प्राण	-11.2476
▁करिय	-11.2493
▁फ्रैंक	-11.2493
▁रातों	-11.2519
डियम	-11.252
▁कोस्ट	-11.2524
▁पैड	-11.2525
▁साँस	-11.2537
▁कोंकण	-11.255
▁उदास	-11.2552
▁गढ़वाल	-11.2553
▁नो	-11.2557
▁दु	-11.256
▁रिश्तेदार	-11.2563
▁अखबार	-11.257
भारतीय	-11.257
▁क्रिकेटर	-11.2571
▁कारों	-11.2573
▁बेहतरी	-11.2584
▁हिंदुस्तान	-11.2585
▁ब्रिज	-11.2586
▁शैक्ष	-11.2588
ौर	-11.2594
▁लड़ाक	-11.26
▁जोसेफ	-11.2602
▁राजनेता	-11.2602
▁खगोल	-11.2604
दास	-11.2604
▁रसोई	-11.2605
▁फीचर	-11.2605
▁रिश्ते	-11.2605
▁रिसाव	-11.2605
▁निखिल	-11.2605
▁संगमरमर	-11.2605
▁कोलोराडो	-11.2606
▁ट्रस्ट	-11.2606
▁इस्पात	-11.2606
▁जयदेव	-11.2606
▁अर्बुद	-11.2606
▁पक्षाघात	-11.2606
▁जौहर	-11.2606
▁रैंकिंग	-11.2606
▁आंग्ल	-11.2607
▁नीलामी	-11.2608
▁दवाएं	-11.2609
▁हॉलैंड	-11.2609
▁कठिनाइयों	-11.2609
▁अहोम	-11.2615
▁अग्रिम	-11.2617
▁सेंटीमीटर	-11.2617
▁करवाया	-11.2618
▁पहनना	-11.2618
▁गिल्ली	-11.2618
▁साझेदारी	-11.2619
▁आयाम	-11.2624
▁भाजपा	-11.2628
▁पटना	-11.263
▁आर्द्र	-11.263
▁बजाते	-11.2641
▁होलिका	-11.2642
कोट	-11.2643
▁बाबा	-11.265
▁बुजुर्गों	-11.2652
खंड	-11.2662
▁आध	-11.2666
▁सार्स	-11.2667
▁कांजी	-11.267
▁दिखत	-11.2673
इंग	-11.2674
▁पेपर	-11.2676
▁झीलों	-11.2679
▁पहुँचाने	-11.2688
▁शुरूआत	-11.269
रक्षक	-11.269
सान	-11.269
तो	-11.2691
▁विलियम्स	-11.2698
▁प्रविष्टि	-11.2698
▁छोड़ा	-11.2709
▁मेज़	-11.2723
गल	-11.2723
▁न्यायाधीशों	-11.2725
▁छिद्र	-11.2727
▁भंग	-11.2728
प्ले	-11.2745
▁गार्ड	-11.2749
टिव	-11.2749
घराने	-11.275
▁बिट	-11.2768
▁हेर	-11.2769
▁पते	-11.2773
पाट	-11.2774
▁जातियों	-11.2774
▁वनस्पतिय	-11.2781
▁हर्ष	-11.2782
▁निपट	-11.2785
दो	-11.2786
नाड	-11.2791
▁भेजत	-11.2791
▁फ्रेम	-11.2792
▁फि	-11.2798
▁दौड़ने	-11.2801
▁शास्त्री	-11.2804
बकाया	-11.2806
▁धो	-11.2811
गठित	-11.2812
▁संकल	-11.2812
तः	-11.2819
बुक	-11.2821
ड़े	-11.283
▁पाप	-11.2831
▁रीड	-11.2831
▁सामग्रिय	-11.2831
सिंह	-11.2841
▁मूर	-11.2841
जेड	-11.2849
विनाश	-11.285
▁नर	-11.285
ाइन	-11.2856
▁पो	-11.2862
▁डीन	-11.2873
▁यकीन	-11.2879
▁सांता	-11.2887
▁चलाए	-11.2893
मध्य	-11.2895
▁पचास	-11.2899
▁बदबू	-11.2899
▁गेहूँ	-11.2899
▁ख़राब	-11.2899
▁अफवाह	-11.2899
▁इलेनॉय	-11.2899
▁तंजावुर	-11.29
▁अनुच्छेद	-11.29
▁फारेनहाइट	-11.29
▁पुनरुत्थान	-11.29
▁जन्माष्टमी	-11.29
▁लुप्तप्राय	-11.29
▁प्रेसीडेंसी	-11.29
▁विस्कॉन्सिन	-11.29
▁निमोनिया	-11.29
▁ट्रम्प	-11.29
▁अटलांटा	-11.29
▁गैलिंग	-11.29
▁स्की	-11.2901
▁चक्रवर्ती	-11.2901
▁बिंदुसार	-11.2901
▁सुभाष	-11.2901
▁मिलीमीटर	-11.2902
▁अभिषेक	-11.2904
▁संस्थाओं	-11.2909
▁साहब	-11.2911
▁परिकल्पना	-11.2911
▁दुर्व्यवहार	-11.2911
अगला	-11.2912
▁नमूना	-11.2912
▁ऑस्कर	-11.2912
▁हस्तियों	-11.2912
▁बोनस	-11.2912
▁साइमन	-11.2913
▁सचिन	-11.2913
▁उत्सर्ज	-11.2913
▁नैतिकता	-11.2914
▁तीर्थयात्री	-11.2915
▁उच्चारण	-11.2915
▁डिफेंस	-11.2917
▁याज	-11.2919
▁प्रसन्न	-11.2921
▁नियोक्ता	-11.2923
▁जॉली	-11.2924
▁महंगा	-11.2928
▁घटा	-11.2929
रूप	-11.293
▁अध्याय	-11.2933
▁शिलांग	-11.2935
▁टर्मिनल	-11.2937
▁यज्ञ	-11.2938
माला	-11.2946
ध	-11.2947
▁बेल्ट	-11.2949
▁कुंजी	-11.295
▁नारंगी	-11.295
▁पल	-11.2951
▁चूना	-11.2952
पुट	-11.2953
ियल	-11.2956
▁उपज	-11.2957
▁पेशी	-11.2958
बॉक्स	-11.2959
▁अस्पतालों	-11.2961
▁क्लासिक	-11.2964
▁एट	-11.2966
▁मूक	-11.2977
▁बाह्य	-11.2983
▁सेठी	-11.2985
▁सोना	-11.2992
▁आजीविक	-11.2994
▁विधवा	-11.2994
▁उपचारों	-11.2998
▁बजा	-11.2999
▁मूल्यों	-11.2999
▁पुराणों	-11.3
▁दारा	-11.3003
्ज़	-11.3008
▁हसन	-11.3009
▁पोत	-11.3015
▁किरण	-11.3017
चढ़ाव	-11.3018
▁ठंडे	-11.3019
त्र	-11.3026
कुलम	-11.303
फ़ील्ड	-11.3031
▁पुन	-11.3033
▁क्ल	-11.3034
▁घिन	-11.3035
समय	-11.3036
धन	-11.3038
▁साम्राज्यों	-11.305
▁एयरब	-11.3057
ोस	-11.3058
▁गेंदबाज	-11.306
▁पहनती	-11.3066
▁लैंग	-11.3066
▁सुखद	-11.3068
बंद	-11.3071
▁रास	-11.3072
▁डिवि	-11.3077
▁बीत	-11.3078
▁पुष्ट	-11.3086
▁कलाई	-11.309
थी	-11.3096
▁पर्द	-11.3117
मलाई	-11.3122
▁डालें	-11.3122
बहुत	-11.3122
▁कोरोना	-11.3123
▁विकलांग	-11.3135
धर्म	-11.3137
टिंग	-11.3139
▁तटों	-11.3139
▁साज	-11.3142
▁गुलाब	-11.3149
▁मिलना	-11.3152
ग्याल	-11.3165
▁दावत	-11.3172
▁डोंगी	-11.3173
ाब	-11.3179
▁गिरफ्तारी	-11.3181
▁आर्क	-11.3187
▁ध्वज	-11.3187
▁तीर्थयात्रा	-11.3202
▁निज़ाम	-11.3202
▁किराये	-11.3202
िरासत	-11.3202
▁ध्रुव	-11.3202
▁भोंसले	-11.3202
▁वफादार	-11.3202
▁ट्यूमर	-11.3202
▁स्कीइंग	-11.3203
▁मवेशियों	-11.3203
▁मैक्सिकन	-11.3203
▁हांगकांग	-11.3203
▁कुचीपुड़ी	-11.3203
▁डेनमार्क	-11.3203
▁गिरफ़्तार	-11.3203
▁सिलेंडर	-11.3203
▁एप्लिकेशन	-11.3203
▁नियमोल्लंघन	-11.3203
▁जोधपुर	-11.3203
▁अगरतला	-11.3203
▁न्यूज़ीलैंड	-11.3203
▁पुनर्निर्मित	-11.3203
▁प्रगतिशील	-11.3203
▁गायिका	-11.3204
▁मिसिसिपी	-11.3205
▁रॉयल्टी	-11.3206
▁भिक्षुओं	-11.3207
▁राजनेताओं	-11.3207
▁रोजगार	-11.3207
▁गुर्दे	-11.3208
▁इलेक्ट्रिक	-11.321
▁पढ़ाया	-11.3213
▁नरसंहार	-11.3214
▁नवजात	-11.3215
▁अवलोकन	-11.3215
▁मक्का	-11.3221
▁मांसपेशी	-11.3224
▁डिब्बे	-11.3225
▁विनिमय	-11.3226
▁उज्जैन	-11.3226
▁प्रान्त	-11.3227
▁अमृत	-11.3227
▁लीडर	-11.3227
▁बलिदान	-11.3227
लौकिक	-11.3233
▁जैमर	-11.3239
▁उड़ाने	-11.324
▁लाठी	-11.3243
▁किचन	-11.3245
▁बोल्ट	-11.3246
▁प्रदाता	-11.3251
▁ओंट	-11.3253
▁टोपी	-11.3256
▁छीन	-11.3256
▁पैन	-11.3259
▁गेंदबाजी	-11.3262
हस्तांतरण	-11.3269
▁भागवत	-11.327
▁बेटों	-11.3271
▁जलाने	-11.3272
▁यु	-11.3273
▁महाकाव्यों	-11.3273
न्हें	-11.3274
▁जोन्स	-11.3277
▁पर्व	-11.3278
श्वेत	-11.328
▁अवरोधक	-11.3285
▁वर्दी	-11.3286
ेरियो	-11.3286
कारियों	-11.329
▁शक	-11.3294
▁बंध	-11.3295
डो	-11.3297
▁बेचत	-11.3301
▁बचना	-11.3301
▁भ्रम	-11.3301
▁ऊंचा	-11.3307
जहाँ	-11.3311
▁दरें	-11.3311
▁चार्ट	-11.3317
▁समन्वय	-11.3325
▁फी	-11.3325
▁अस	-11.3327
▁ड्रम	-11.3333
▁पंक्तिय	-11.3333
▁विनियम	-11.3333
▁बिता	-11.3336
दिन	-11.3339
▁उत्साही	-11.3341
▁खिल	-11.3349
भूत	-11.3352
▁शिक्षण	-11.3352
▁जब्त	-11.3354
णी	-11.3366
रस	-11.3366
▁फिलिप	-11.3373
चंद्र	-11.3379
▁रिक	-11.3384
▁रोमांच	-11.3391
स्की	-11.3395
▁पवन	-11.3398
▁भाषी	-11.3399
▁सेल	-11.3401
▁मोट	-11.3402
बड़	-11.341
डाउन	-11.3411
▁मिनी	-11.3424
▁लोकतंत्र	-11.3424
▁उत्त	-11.3431
▁जानता	-11.3432
रंग	-11.3436
मयता	-11.3439
▁त्रि	-11.3442
▁चेस	-11.3443
▁खिड़क	-11.3446
▁ध्व	-11.3446
रक्षण	-11.3458
्यू	-11.3461
▁लॉक	-11.3464
▁लुई	-11.3466
पण	-11.348
▁पूँजी	-11.348
▁मणि	-11.3481
▁चाह	-11.3488
▁लाना	-11.3492
▁पंच	-11.3495
▁चुनी	-11.3496
मार्गों	-11.3496
▁प्रिंट	-11.3498
▁भरत	-11.3503
▁पकड़ा	-11.3511
▁टाइगर	-11.3512
▁वास	-11.3512
▁जलन	-11.3513
▁हेंड्रिक	-11.3513
फील्ड	-11.3513
▁प्रेमिका	-11.3513
▁एकीकरण	-11.3514
▁कंडोम	-11.3515
▁रुझान	-11.3515
▁उपनिषद	-11.3515
▁जीवाश्म	-11.3515
▁गुवाहाटी	-11.3515
▁फर्नीचर	-11.3515
▁सिरदर्द	-11.3515
▁ग्रेनाइट	-11.3515
▁यादृच्छिक	-11.3515
▁सिद्धार्थ	-11.3515
▁आवंट	-11.3515
▁किशोरावस्था	-11.3515
▁टेलीफोन	-11.3516
▁घनत्व	-11.3516
▁जमैका	-11.3517
▁वस्तुएं	-11.3517
▁वास्तुकार	-11.3519
▁मिडफील्डर	-11.352
▁ज़िंदग	-11.352
विद्या	-11.3521
▁देखेंगे	-11.3521
▁मिलेंगे	-11.3521
▁महाबली	-11.3522
▁सेनापतियों	-11.3522
▁जुड़वां	-11.3522
▁सिखाया	-11.3523
▁आएगा	-11.3524
▁बाउल	-11.3525
▁राहुल	-11.3526
▁चयापचय	-11.3527
▁फाइबर	-11.3527
▁रेड्डी	-11.3527
▁इंडोनेशियाई	-11.3528
▁लापरवाह	-11.3528
▁साम्यवाद	-11.3529
▁मॉडलिंग	-11.353
▁सुनील	-11.3531
▁प्रदर्शनी	-11.3532
▁खाल	-11.3532
▁रसीद	-11.3532
रफ्तार	-11.3535
▁झंडा	-11.3536
▁निपुण	-11.3538
▁चे	-11.3538
▁दीवारें	-11.3539
▁ब्लेड	-11.354
▁सहस्राब्द	-11.354
▁उठाना	-11.354
▁कर्म	-11.354
▁नाविक	-11.3543
▁साहि	-11.3543
▁अंगूठ	-11.3544
▁जवाबी	-11.3544
▁पकड़ना	-11.3549
▁लिटिल	-11.3552
▁मापने	-11.3552
▁विमोच	-11.3552
▁गोपनीय	-11.3553
▁बचें	-11.3555
▁चांदी	-11.3557
▁अन्ना	-11.3558
▁कुचल	-11.3559
र्रा	-11.3559
▁दश	-11.3559
▁सशक्त	-11.356
▁दया	-11.356
▁जेट	-11.3564
▁शहीद	-11.3565
▁फ्रिज	-11.3569
▁प्रशास	-11.3574
▁संवेदनशीलता	-11.3579
▁कैसा	-11.358
▁प्रीति	-11.3582
▁अनुशासन	-11.3585
▁टुकड़ा	-11.3585
वर्धन	-11.3594
▁थैला	-11.3595
▁पागल	-11.3601
तपुड़ा	-11.3603
यूनानियों	-11.3604
ुक	-11.3608
▁किफाय	-11.3611
▁अमिता	-11.3616
▁गाद	-11.3619
▁कथानक	-11.3621
▁अंशु	-11.3622
▁योजनाकार	-11.3622
▁स्थितियाँ	-11.3625
▁पल्लवों	-11.3627
▁प्रिया	-11.3628
▁जेब	-11.3635
▁फेंका	-11.364
▁बंदी	-11.364
▁जगत	-11.3641
▁वुड	-11.3644
क्या	-11.3644
▁ललित	-11.3644
▁सौंपा	-11.3647
मर	-11.3647
▁पाइप	-11.3649
▁आइलैंड	-11.3649
▁मिलर	-11.3653
पाकिस्तान	-11.3662
▁दर्जे	-11.3663
संपर्क	-11.3677
▁डोर	-11.3677
▁जोस	-11.3678
▁पंक	-11.3685
राष्ट्रपति	-11.3685
▁बदलना	-11.3686
वाहक	-11.3688
▁डॉन	-11.3698
ाऊ	-11.3699
चित्रों	-11.3703
▁अखाड़	-11.3707
▁बसों	-11.3707
कूरियर	-11.3716
कस	-11.3719
▁पैरा	-11.3726
पद	-11.3738
▁जाली	-11.3739
▁आंत	-11.3743
श्री	-11.3743
▁पहुंचन	-11.3747
▁तर	-11.3757
ेरी	-11.3768
माउथ	-11.3773
▁कॉमिक	-11.3777
▁पदार्	-11.3783
▁धमनी	-11.379
▁धारावाहिक	-11.3792
▁सिपाही	-11.3795
▁पिट	-11.3799
▁आकृति	-11.3801
▁विकृति	-11.3807
▁अमित	-11.3808
▁ट्रांस	-11.3809
▁अवटु	-11.3817
ूरी	-11.3818
ात	-11.3819
▁अंधे	-11.3822
यो	-11.3828
हाउस	-11.383
ाओ	-11.3833
▁इंजीनियर	-11.3836
▁हताहत	-11.3837
▁वारंगल	-11.3837
▁मगरमच्छ	-11.3837
▁लक्ष्मण	-11.3837
▁अर्कांसस	-11.3837
▁मत्स्य	-11.3837
▁राष्ट्रकूट	-11.3838
▁स्तनधारियों	-11.3838
▁फ़ीट	-11.3838
▁स्कॉटिश	-11.3838
▁मंत्रिमंडल	-11.3838
▁मलेरिया	-11.3838
▁किंवदंतियों	-11.3839
▁दुबई	-11.3839
माने	-11.3839
▁चेल्सी	-11.3839
▁अवार्ड्स	-11.3839
▁वज़न	-11.384
▁कर्नाट	-11.3843
वल	-11.3844
▁बैटरी	-11.3844
▁अड्डों	-11.3845
▁खेद	-11.3845
▁धब्बे	-11.3847
▁कनिष्ठ	-11.3848
▁कमीशन	-11.3848
▁महानदी	-11.3848
▁अफीम	-11.3849
▁विश्राम	-11.3849
▁मतभेद	-11.3849
▁आयरिश	-11.385
▁दिलीप	-11.385
▁फ्रेंचाइजी	-11.385
▁अभिजात	-11.3851
▁छापे	-11.3852
▁सीमाएँ	-11.3852
▁संकलन	-11.3854
▁टाइफ	-11.3855
▁विषाक्तता	-11.3858
▁फिजी	-11.3859
▁संपाद	-11.386
▁सराहा	-11.3861
▁दोहरा	-11.3862
विले	-11.3863
▁निभाया	-11.3865
▁पायलट	-11.3865
▁पर्यवेक्षक	-11.3866
▁प्रतियाँ	-11.3869
▁मिश्रा	-11.387
▁मेटल	-11.3873
▁मामल	-11.3875
▁प्रतीकों	-11.3876
▁हड़प्पा	-11.3876
गंगा	-11.3876
▁सपाट	-11.3879
▁बंदूकधार	-11.388
खाई	-11.388
अब	-11.3881
▁शाहजहा	-11.3881
▁एरिया	-11.3882
▁ईमानदारी	-11.3887
▁चौधरी	-11.3888
िस्ट	-11.3891
▁जीवनी	-11.3893
▁नी	-11.3894
▁टैग	-11.3898
▁अंकुर	-11.3898
▁बारीकी	-11.39
▁असहमत	-11.3901
▁दिखाते	-11.3906
▁घ	-11.3907
▁उल्	-11.3907
▁भूषण	-11.391
▁घटकों	-11.392
▁प्रा	-11.3925
परवाह	-11.3925
▁गोट	-11.3933
▁आयात	-11.3935
▁गंग	-11.3936
▁उलट	-11.3938
▁गुणा	-11.3941
▁क्षरण	-11.3942
▁रोल	-11.3959
▁वर्णक	-11.3963
अभी	-11.3971
▁वाहिका	-11.3971
▁बितात	-11.3978
ामना	-11.3979
▁थक	-11.3983
▁जग	-11.3985
ोल	-11.3985
▁साइबर	-11.3987
नम	-11.3988
▁ब्राह्मणों	-11.399
▁वाल	-11.3992
न्ना	-11.3996
बर्स	-11.3998
▁माय	-11.4006
▁कचर	-11.4006
▁सोल	-11.4015
योग	-11.4024
▁उत्तेज	-11.4025
▁प्राप्ति	-11.4031
▁चिकित्सकों	-11.4035
▁बड़	-11.4042
टलैंड	-11.4057
▁निग	-11.4062
▁परेड	-11.4065
▁दृष्टिपटल	-11.407
▁गौ	-11.4073
खा	-11.4073
▁मैट	-11.4078
▁भावे	-11.4089
▁उग्र	-11.4095
दीप्ति	-11.4098
घंटा	-11.4099
▁रिंक	-11.4111
▁लाई	-11.4119
▁सुनी	-11.4121
ढ़	-11.4124
▁ब्रॉड	-11.4127
▁चमकील	-11.4129
प्पा	-11.4135
▁वैष्ण	-11.4142
▁प्रतिरूप	-11.4142
गेट	-11.4144
▁नाटकीय	-11.4149
टिक	-11.4158
पुत्र	-11.4159
तुतमिश	-11.4165
▁कौर	-11.4167
▁मज़े	-11.4169
▁बारी	-11.4169
▁खुसरो	-11.417
▁तंबाकू	-11.417
▁रिश्वत	-11.417
▁दूतावास	-11.4171
▁गणतंत्र	-11.4171
▁वरीयता	-11.4171
▁टैगोर	-11.4171
▁झुंड	-11.4171
▁अरावली	-11.4171
▁फ्लैट	-11.4171
▁युवावस्था	-11.4171
▁मुरुग	-11.4171
▁स्टेरॉयड	-11.4171
▁पैकेट	-11.4172
दल	-11.4173
▁चालीस	-11.4173
▁कुत्ता	-11.4173
▁तीर्थस्थल	-11.4173
▁समाजवादी	-11.4174
▁उदयपुर	-11.4177
▁जम	-11.4177
▁एलर्जी	-11.4177
▁एनीमे	-11.4182
▁सतर्क	-11.4183
▁दीमापुर	-11.4183
▁प्लेटफॉर्म	-11.4184
▁ख़ास	-11.4184
▁प्रजा	-11.4186
▁लंच	-11.4187
▁फ्रेंच	-11.4192
▁वरकुदरा	-11.4193
▁चंद्रमा	-11.4193
▁जूलिय	-11.4197
▁भेदभाव	-11.4197
▁फेंकना	-11.4197
▁गलग्रंथि	-11.4197
▁डेस्क	-11.4198
▁डकैती	-11.4201
▁अनुप्रयोगों	-11.4202
▁हंगरी	-11.4203
▁जादू	-11.4205
▁गौड़ा	-11.4207
▁बरसात	-11.4209
▁प्रक्रियाओं	-11.4211
▁कैरेबिय	-11.4212
▁बताई	-11.4212
लू	-11.4215
▁डालना	-11.4216
सदाबहार	-11.4217
वर्णक	-11.4221
▁उपदेश	-11.4223
▁रूपांतर	-11.4227
यिक	-11.4229
▁विन्यास	-11.4231
▁दलाल	-11.4231
▁माही	-11.4233
▁संवर्धन	-11.4233
▁रोमांस	-11.4234
व्यापी	-11.4234
जन्म	-11.4239
▁माफ	-11.4241
▁लोन	-11.4248
निया	-11.4254
▁लैंड	-11.4265
ंट	-11.4268
▁जानकर	-11.4269
▁हंस	-11.427
कर्षण	-11.427
▁सीरीज	-11.4274
र्पण	-11.4275
▁वाक्य	-11.4275
▁जड़ी	-11.4279
▁ताजे	-11.4281
▁सूरी	-11.4289
▁कबीर	-11.429
राजा	-11.4292
▁करा	-11.4294
▁दीपक	-11.4297
▁ग्राउंड	-11.4297
▁बाइब	-11.4299
▁सातवाहनों	-11.43
▁काउंट	-11.4302
▁रचनाएँ	-11.4307
▁लास	-11.4308
▁उद्यानों	-11.4309
▁बादशाह	-11.4309
▁निंद	-11.4314
पल्ली	-11.4314
▁शह	-11.4315
▁अनुसूच	-11.4323
▁पॉकेट	-11.4323
▁मोक्ष	-11.4324
▁शे	-11.4328
हन	-11.4328
▁फर्स्ट	-11.4342
▁कुकी	-11.4343
▁पेंट	-11.4343
▁लटका	-11.4344
▁राजपूतों	-11.4352
गू	-11.4362
▁भित्ति	-11.4364
▁स्टिक	-11.4371
▁यूनान	-11.4371
▁तिहा	-11.4373
▁प्रतिस्थाप	-11.4381
▁मानो	-11.4382
▁अम	-11.4386
टों	-11.4387
▁वैस	-11.4406
▁पोल	-11.4406
र्द	-11.4418
जर	-11.4426
▁बिखर	-11.4436
▁पीड़ा	-11.4438
▁पॉलिस	-11.4441
▁कैल	-11.4446
▁कीबोर्ड	-11.4452
▁कपिल	-11.4453
▁बनाएं	-11.446
▁एनिमेट	-11.4461
▁ति	-11.4461
दिवसीय	-11.4465
▁बगीच	-11.447
▁महंग	-11.4472
क्रांतिकारी	-11.4477
▁करुणा	-11.4479
▁कराना	-11.4483
▁हॉट	-11.4487
▁हु	-11.4489
▁तोपखान	-11.449
▁दोहर	-11.4492
▁बुल	-11.4493
▁बीयर	-11.4494
▁अनुमोद	-11.4496
ानंद	-11.4503
▁चार्ज	-11.4504
रिवाजों	-11.4507
▁चौहान	-11.4508
▁गिनत	-11.4512
भर	-11.4512
▁एंड्रयू	-11.4513
▁शीघ्र	-11.4515
▁सिएटल	-11.4515
▁बवंडर	-11.4515
▁इम्फाल	-11.4515
▁टचडाउन	-11.4515
▁इकाइयाँ	-11.4515
▁कनेक्टिकट	-11.4515
▁चतुर्थांश	-11.4515
▁मजिस्ट्रेट	-11.4515
▁बृहदान्त्र	-11.4515
▁मुल्तान	-11.4516
▁रेस्तराँ	-11.4516
▁नरेंद्र	-11.4516
▁मोटरसाइकिल	-11.4516
▁फ्रैंकलिन	-11.4516
▁मिठाई	-11.4516
▁बॉन्ड	-11.4516
▁बिलियर्ड्स	-11.4516
एफ़	-11.4516
▁राजकीय	-11.4516
भी	-11.4516
▁अमीरात	-11.4517
▁मथुरा	-11.4518
▁अब्दुल	-11.4518
▁मसाले	-11.4518
▁मियामी	-11.4519
▁साइड	-11.452
रम	-11.4523
▁नियंत्रक	-11.4524
लु	-11.4525
▁आर्ट्स	-11.4525
▁डाले	-11.4525
मूर्ति	-11.4527
▁निशानेबाजी	-11.4528
▁समितियों	-11.4528
▁उपभोग	-11.4528
▁वायसराय	-11.4528
▁सापेक्ष	-11.4529
▁दामोदर	-11.4529
▁मूवाट्टुपुड़	-11.4529
▁रहस्यमय	-11.4529
▁पढ़ना	-11.4529
▁कॉर्निया	-11.453
▁ऑफ़िस	-11.4531
▁शताब्दिय	-11.4531
▁रोकत	-11.4532
▁गंदे	-11.4533
▁दूरदर्शन	-11.4533
▁विषाक्त	-11.4534
▁बारकोड	-11.4535
▁विनियमन	-11.4536
▁निबंध	-11.4536
▁वेस्टर्न	-11.4538
▁हँसी	-11.4539
▁थैली	-11.454
▁विषाणुओं	-11.454
▁जुनून	-11.4541
नर	-11.4544
▁हितों	-11.4544
▁घूमने	-11.4544
▁इंस्ट	-11.4544
▁पद्मावती	-11.4544
▁जनजात	-11.4546
धारी	-11.4551
▁केले	-11.4552
धा	-11.4552
▁श्रवण	-11.4554
▁बोलियों	-11.4554
▁झ	-11.4556
▁भयानक	-11.4556
▁स्टेट्स	-11.456
हूर	-11.456
▁बचाया	-11.4562
▁कोहनी	-11.4563
▁रोके	-11.4565
▁विक्रय	-11.4566
▁रुकन	-11.4566
▁बेसिक	-11.4572
▁सूख	-11.4576
▁दत्ता	-11.4577
▁शॉप	-11.4579
▁पूर्वज	-11.458
▁डो	-11.4581
▁दिखते	-11.4584
आधी	-11.4584
▁नुआ	-11.4584
▁सुपरमॉडल	-11.4586
▁विपक्ष	-11.4588
▁रज्जु	-11.459
▁संकल्प	-11.459
▁आंकड़े	-11.4592
▁समा	-11.4592
ोट	-11.4593
▁संगत	-11.4601
▁लपेट	-11.4602
समान	-11.4603
िद	-11.4606
ाएँ	-11.4609
▁टिम	-11.4616
गाँव	-11.462
▁उभरे	-11.4621
▁बसें	-11.4625
▁वृद्ध	-11.4626
▁टिप्पणिय	-11.4634
▁बर्न	-11.4635
ंका	-11.4635
जाने	-11.464
▁निशाना	-11.4643
▁रात्रि	-11.4645
▁पड़ोस	-11.4649
▁फे	-11.4658
▁पहनी	-11.4663
▁डा	-11.4664
▁सत्याप	-11.4673
▁मायन	-11.4681
▁पाना	-11.4681
हे	-11.4685
ां	-11.4693
▁यानी	-11.4698
▁वॉटर	-11.4701
चार	-11.4704
क्रम	-11.4707
▁भारती	-11.4707
▁चो	-11.4707
▁ओल्ड	-11.4719
▁उन्नीस	-11.4735
▁लेगा	-11.4737
▁आर्म	-11.4743
▁बस्तिय	-11.4743
▁ब्रा	-11.4752
मंत्रित	-11.4756
▁तैरत	-11.4762
▁ग्रंथि	-11.4763
▁देसी	-11.4764
▁मादा	-11.4764
शास्त्र	-11.4766
स्ट्रा	-11.4768
▁अर्	-11.4768
▁जाप	-11.4769
शुल्क	-11.477
डन	-11.4778
धर	-11.4786
स्पर	-11.4797
मुक्त	-11.4798
कोपिंग	-11.4811
▁ब्रह्मा	-11.4817
राग	-11.4822
▁बैंकों	-11.4822
▁संघर्षों	-11.4831
▁सींग	-11.4837
▁कुंड	-11.4841
▁पांडव	-11.4853
रूम	-11.4859
▁अहम	-11.4861
पाषाण	-11.4869
▁शुजा	-11.4871
▁तपस्या	-11.4872
▁रिसॉर्ट	-11.4872
▁ऊर्ध्व	-11.4872
▁सब्जियों	-11.4872
▁परिधीय	-11.4872
▁काउंसिल	-11.4873
▁वंशावली	-11.4873
▁एनिमेशन	-11.4873
▁कार्यान्वयन	-11.4873
▁कॉमन्स	-11.4873
▁रिटर्न	-11.4873
▁पलायन	-11.4873
▁गर्व	-11.4875
▁आचार्य	-11.4876
▁जूडो	-11.4876
▁मूर्तिकला	-11.4876
▁धक्का	-11.4877
▁पीढ़ियों	-11.4878
▁छेड़	-11.4878
▁जीवनकाल	-11.4878
▁शौक	-11.4879
▁सुन्नी	-11.4879
▁अमेज़न	-11.4879
▁पहनाया	-11.4881
▁आएगी	-11.4881
▁मूर्तिया	-11.4882
▁नाखुश	-11.4882
▁आर्द्रता	-11.4883
▁टाटा	-11.4884
▁रनौत	-11.4885
▁साफ़	-11.4885
▁अमरावती	-11.4886
भूतपूर्व	-11.4889
▁संरचनात्मक	-11.4889
▁चोर	-11.4891
▁मरियम	-11.4891
▁शांतिपूर्ण	-11.4892
▁पीट	-11.4896
▁स्टाफ	-11.4897
▁कोल्लम	-11.4897
▁सूती	-11.4899
▁होन	-11.49
▁खोजकर्ता	-11.49
▁विजेताओं	-11.4902
▁विनिर्माण	-11.4903
लेन	-11.4904
▁मिमी	-11.4908
▁परिवर्ति	-11.4909
▁अतिसंवेदनशील	-11.491
▁सोम	-11.4912
ेल्थ	-11.4914
▁व्युत्पन्न	-11.4916
▁मैराथन	-11.4916
▁ब्रूस	-11.4916
▁बैक्टीरिया	-11.4918
▁रक्ष	-11.4918
गे	-11.4919
▁वान	-11.492
▁जू	-11.4924
▁इरादे	-11.4925
इ	-11.4926
▁छी	-11.4929
▁कण	-11.493
▁घराना	-11.4933
▁बहनों	-11.4934
▁नाते	-11.4935
▁आलिया	-11.4936
▁ऑ	-11.4937
न्य	-11.4938
▁गि	-11.4939
ेक्ट	-11.494
स्टा	-11.4944
▁मल्ल	-11.4952
▁निक्क	-11.4952
▁उभरा	-11.4956
ग्रेगोरियन	-11.4961
▁खाई	-11.4961
▁बढ़ना	-11.4962
▁जागीरदार	-11.4963
▁छोड़ना	-11.4966
▁रिज	-11.4968
▁रियल	-11.4972
▁पुटीपुच्छकता	-11.4974
▁टूटने	-11.4974
▁चेतना	-11.4975
माही	-11.4979
▁बांट	-11.4981
ासन	-11.4985
▁स्राव	-11.4985
▁टि	-11.4988
चकित	-11.4988
गांव	-11.4989
▁यातना	-11.4994
रोव	-11.4995
क्कन	-11.4997
▁लड़का	-11.5004
▁करम	-11.5009
▁कृत्य	-11.5016
▁विंध्य	-11.5017
न्न	-11.502
▁बुरे	-11.502
▁वार्ता	-11.5026
▁घेरे	-11.5026
▁स्ट	-11.5034
▁शिक्षित	-11.5034
▁छाया	-11.504
▁निक	-11.5041
डू	-11.5044
▁तुम्हारा	-11.5052
ेयर	-11.5052
भाड़	-11.5072
▁गिरत	-11.5075
▁पाती	-11.5076
ोसा	-11.5083
वान	-11.5084
▁क्रूर	-11.5085
▁ज़ो	-11.509
▁प्रतिकृति	-11.5095
▁रॉस	-11.5096
▁चर	-11.5102
यात्राओं	-11.5103
▁मश	-11.5105
ॉल	-11.5116
उज़	-11.5119
लेबर	-11.5119
वर्थ	-11.5128
▁पुलिसकर्म	-11.514
▁लेट	-11.5145
▁परोस	-11.5145
दाएँ	-11.5148
जाना	-11.5148
▁मास	-11.5152
ंच	-11.5153
कश्मीर	-11.5154
▁यवन	-11.5155
▁केन्या	-11.5157
ड़ने	-11.5158
▁शिकारी	-11.5158
्दों	-11.516
मुझे	-11.5164
▁उचि	-11.5166
ावरण	-11.5167
पोर्ट	-11.5172
▁शेखर	-11.5176
▁महलों	-11.5178
मूल्य	-11.5179
▁स्वरम	-11.5182
ऊ	-11.5184
▁ओक	-11.5192
▁विहार	-11.5194
▁एनी	-11.5195
▁बताएं	-11.5196
▁अंकित	-11.52
▁अल्बर्ट	-11.5203
▁चट्टानी	-11.5204
▁हड़ताल	-11.5208
नायक	-11.5212
मंड	-11.5212
▁रोजर	-11.5222
ब्बर	-11.5228
▁बाँस	-11.523
▁तहसील	-11.523
▁प्रचुर	-11.5234
प्रकाश	-11.5237
▁हास	-11.524
▁चंबल	-11.5242
▁उखाड़	-11.5242
▁अद्भुत	-11.5242
आकस्मिक	-11.5242
▁सिगरेट	-11.5242
▁गॉर्डन	-11.5242
▁अग्रदूत	-11.5243
▁सारांश	-11.5243
▁उंगलियों	-11.5243
▁पर्णपाती	-11.5243
▁वॉशिंगटन	-11.5243
▁गुर्जर	-11.5243
▁हरिद्वार	-11.5243
▁प्रोडक्शंस	-11.5243
▁कीर्तिमान	-11.5243
▁स्विट्ज़रलैंड	-11.5243
▁वायलिन	-11.5243
▁ब्रदर्स	-11.5244
▁गतिशील	-11.5244
▁वध	-11.5244
▁पर्वतमाला	-11.5244
▁रेंजर्स	-11.5244
▁शब्दावली	-11.5245
▁सांख्यिकी	-11.5247
▁राइफल	-11.5247
▁इंग्ल	-11.5248
▁सतारा	-11.5248
▁पड़ोसियों	-11.5249
▁डलास	-11.525
निःशुल्क	-11.5251
▁एडम्स	-11.5251
▁विल्सन	-11.5252
▁सुगंधित	-11.5254
▁धर्मपाल	-11.5254
▁परपोष	-11.5255
▁बितान	-11.5255
▁विकिमीडिय	-11.5256
भाई	-11.5256
▁स्पिरिट	-11.5257
▁पाटलिपुत्र	-11.5257
▁कम्युनिस्ट	-11.5257
▁जॉर्डन	-11.5257
▁मिशेल	-11.5258
▁नानक	-11.5259
बढ़े	-11.526
▁कारीगरों	-11.526
▁स्मार्ट	-11.5263
▁कुरियन	-11.5263
▁ग्रीवा	-11.5264
▁रोमानिया	-11.5266
पुड़ा	-11.5267
▁परिपक्व	-11.5269
▁कलश	-11.5269
▁वैली	-11.5269
▁असमिया	-11.527
▁सरीसृप	-11.5272
▁देवदार	-11.5272
▁विनाशकारी	-11.5273
▁पूछता	-11.5273
▁जनजातियाँ	-11.5274
▁ख़ान	-11.5276
▁सपना	-11.5278
▁सिड	-11.5278
▁तोपों	-11.528
▁बदलन	-11.528
▁समझत	-11.5281
▁दिवालिया	-11.5285
▁दिग्गज	-11.5287
▁लंगर	-11.5287
▁मार्	-11.5289
हट	-11.5294
▁थकान	-11.5295
▁बताना	-11.5296
स्ती	-11.5296
▁समृद्धि	-11.5296
▁एंथ	-11.5299
▁काबुल	-11.5299
▁सटीकता	-11.5299
▁धार	-11.53
▁बलि	-11.53
▁मुखर	-11.5302
▁हैमिल्टन	-11.5303
▁मुखिया	-11.5303
▁सूखी	-11.5304
फोन	-11.5312
वाह	-11.5312
तेई	-11.5313
दीप	-11.5314
▁प्रकाशक	-11.5316
▁योजनाएँ	-11.5316
ावश्यक	-11.5318
▁न्यूकॉम्ब	-11.5318
▁चित्रकार	-11.5319
▁मदर	-11.5321
▁जुड़ने	-11.5325
▁ढं	-11.533
▁बंदूकों	-11.5337
▁जै	-11.5341
▁सेंसर	-11.5343
▁वेदों	-11.5348
रेल	-11.5348
▁समझना	-11.535
▁बॉडी	-11.535
▁मांगी	-11.5351
▁कथन	-11.5363
▁राक्षसों	-11.5364
▁कॉलेजों	-11.5366
▁बाँट	-11.5368
▁अध	-11.5368
▁वली	-11.5372
▁प्रेरक	-11.5372
▁कराई	-11.538
▁उपनिवेशवाद	-11.5381
कांत	-11.5386
▁दह	-11.5388
▁मठों	-11.5393
▁खाया	-11.5396
▁रावल	-11.5399
▁लड़े	-11.5405
▁फाइन	-11.5405
▁पेर	-11.5406
▁दूत	-11.5407
▁यार्ड	-11.541
मु	-11.5413
▁प्रभार	-11.5413
▁अना	-11.5414
▁हानिकार	-11.5418
▁प्लेऑफ	-11.5423
चिन	-11.5424
▁आजीव	-11.5425
▁पोस्टर	-11.5428
चित्र	-11.5436
▁वास्तविकता	-11.5436
▁पट्टे	-11.5445
लाइट	-11.5457
▁पहुँचत	-11.5462
▁रिवर	-11.5463
मेर	-11.5463
▁डल	-11.5464
विशिष्ट	-11.547
शाही	-11.5476
▁भग	-11.5483
▁सांप्रदायिक	-11.5486
▁गंध	-11.5499
पुरी	-11.5506
▁नूर	-11.551
▁फू	-11.5512
▁फिट	-11.5518
▁कोयल	-11.5529
▁कॉ	-11.5536
▁बैठत	-11.5541
गाड़ियों	-11.5542
वाहिक	-11.5552
▁गुड़िया	-11.5554
ज़ीर	-11.5556
ुई	-11.5561
▁दरवाज	-11.5567
पूर्ति	-11.5569
▁फ्रंट	-11.557
क्का	-11.5574
▁एना	-11.5579
▁हार्ट	-11.558
▁क्लीन	-11.5583
▁चैट	-11.559
▁अनुकरण	-11.5591
▁अपराधी	-11.5593
चिह्न	-11.5598
▁भुजा	-11.5599
शायर	-11.5603
▁कोर्स	-11.5604
▁हताश	-11.561
(	-11.5611
▁कैमर	-11.5614
▁किये	-11.5615
मग्न	-11.5618
कैरोटीन	-11.5622
उध	-11.5624
▁नफरत	-11.5624
▁विध	-11.5625
▁सूफी	-11.5626
▁क्रेग	-11.5627
▁लॉरेंस	-11.5627
▁पैरालंपि	-11.5627
▁इंटरफेस	-11.5627
▁कोयंबटूर	-11.5627
▁पोटेशियम	-11.5627
▁अभिवादन	-11.5627
▁हैम्पशायर	-11.5627
▁प्रोटोकॉल	-11.5627
▁नूरजहाँ	-11.5627
▁एम्स्टर्डम	-11.5627
▁कांचीपुरम	-11.5627
▁विराट	-11.5627
▁बायर्न	-11.5627
▁बोइंग	-11.5627
▁कंसोल	-11.5627
▁आत्मविश्वास	-11.5627
▁सौतेल	-11.5627
▁मलबे	-11.5628
▁पैरालिंपिक	-11.5628
▁प्रावधान	-11.5628
▁मक्खन	-11.5628
▁व्यंग्य	-11.5628
▁प्रत्यारोपण	-11.5628
▁मैरीलैंड	-11.5628
▁सोसाइटी	-11.5628
▁अर्थात्	-11.5628
▁एंटोनियो	-11.5629
▁वर्णमाला	-11.563
▁चित्रकला	-11.5631
▁कलाकृतियों	-11.5631
▁एरिना	-11.5632
▁धर्मनिरपेक्ष	-11.5633
इयों	-11.5633
▁समक्ष	-11.5634
हल	-11.5635
▁बेची	-11.5637
विक्रमादित्य	-11.5638
दर्दनाक	-11.5638
▁प्रामाणिक	-11.5638
▁बेटियों	-11.564
▁भ्रष्ट	-11.5641
▁ठाकुर	-11.5641
▁कोलेस्ट्रॉल	-11.5641
▁अजमेर	-11.5641
▁रमज़ान	-11.5641
▁सर्किट	-11.5641
▁जोरदार	-11.5641
▁खूबसूरत	-11.5642
▁ढांचा	-11.5642
▁सूर्योदय	-11.5642
▁मध्यस्थ	-11.5643
▁द्रव्यमान	-11.5644
▁दुष्ट	-11.5649
िटी	-11.5654
नील	-11.5655
▁आपत्ति	-11.5655
▁आलू	-11.5655
▁प्रोटेस्टेंट	-11.5658
▁अलेक्जेंडर	-11.5658
▁पांचवें	-11.5659
पहला	-11.566
गंज	-11.5662
▁यश	-11.5663
▁कोमल	-11.5666
▁धाराओं	-11.5667
▁शाहू	-11.5669
▁काउंटर	-11.5671
▁माउंटेन	-11.5672
▁प्रिंटर	-11.5673
▁मैथ्यू	-11.5673
▁उत्तम	-11.5673
अनुशंसित	-11.5674
टनी	-11.5678
▁ढाका	-11.5679
▁अपराधियों	-11.568
▁बजाए	-11.5683
▁अक्षमता	-11.5684
▁वैकुंठ	-11.5689
ंगा	-11.5689
कशॉ	-11.5689
खो	-11.5691
▁छोड़ते	-11.5694
ोत्तम	-11.5697
▁तीव्रता	-11.5701
▁ढलानों	-11.5703
▁बढ़ाते	-11.5707
▁दिवाली	-11.5708
▁मार्गरेट	-11.5709
▁अनुपम	-11.571
▁बेकर	-11.5713
थलग	-11.5717
त्रित	-11.572
▁अंग्रेजो	-11.5721
गड़ी	-11.5722
▁एफ़	-11.5728
स्टन	-11.5728
▁सलमान	-11.5735
पाई	-11.5736
▁लौटे	-11.5736
▁बैर	-11.5737
सेंट	-11.5738
▁तालुका	-11.5738
समूह	-11.5742
▁पूछे	-11.5749
दे	-11.575
▁विकृत	-11.5751
▁भक्तों	-11.5754
काल	-11.5756
▁चलाई	-11.5756
▁ताजा	-11.5764
▁प्रदेशों	-11.5765
कोव	-11.5766
गाई	-11.577
▁उत्तेजक	-11.5772
▁पिघल	-11.5773
▁ज़मान	-11.5774
▁मीना	-11.5779
▁कब्र	-11.5781
▁नर्स	-11.5782
▁चुप	-11.5791
▁नोबे	-11.5793
▁नियोज	-11.5799
ोजी	-11.5811
▁प्रतिदिन	-11.5813
▁अयाल	-11.5816
सेल	-11.5817
▁खंभ	-11.5822
▁भरोसे	-11.5825
णाल	-11.5832
ावती	-11.5837
▁खेर	-11.584
▁बाध्य	-11.5841
▁प्रसाधन	-11.5845
▁पल्लवी	-11.5846
▁स्पर्धा	-11.5847
शिया	-11.5848
वादक	-11.5852
जान	-11.5859
▁मज़ाक	-11.5862
मार्ट	-11.587
▁किम	-11.5878
▁आंश	-11.5887
▁कार्लो	-11.5889
▁मधु	-11.589
्म	-11.5891
सीजन	-11.5893
▁लार	-11.59
ेदार	-11.5904
▁कबील	-11.5906
बे	-11.5909
▁जीतता	-11.5909
क्ष	-11.5923
▁ठहरा	-11.5924
▁वीरा	-11.5927
▁रहस्य	-11.593
वार्षिक	-11.593
ॉक्स	-11.5947
▁एरिक	-11.595
▁कैट	-11.596
▁थो	-11.5963
▁चतुर	-11.597
स्टार	-11.5971
▁साइन	-11.5971
▁नरसिंह	-11.5971
▁पार्ट	-11.5974
▁फेफड़	-11.5975
▁नागोर	-11.5977
▁धावक	-11.5981
▁लेखा	-11.5984
▁गिनी	-11.5987
योजित	-11.5987
▁विधाय	-11.599
▁बसंत	-11.5993
▁ग्र	-11.5994
▁एथलीट	-11.5995
▁दांत	-11.5999
▁कतर	-11.6003
▁खाए	-11.6007
देवताओं	-11.6013
▁पिछड़	-11.6018
▁मिलन	-11.6019
▁अपस्फीत	-11.602
लोन	-11.6022
▁संजीव	-11.6022
▁ऑडिशन	-11.6024
▁मस्तूल	-11.6025
▁खौल	-11.6025
▁तरुण	-11.6025
▁करार	-11.6027
▁मॉरीशस	-11.6027
▁पुत्रों	-11.6027
▁एंटवर्प	-11.6027
▁हार्वर्ड	-11.6027
▁एजेंसियों	-11.6027
▁गायकवाड़	-11.6027
▁पराबैंगनी	-11.6027
▁पुनर्जागरण	-11.6027
▁लुइसियाना	-11.6027
▁वास्तुशिल्प	-11.6027
▁भूभाग	-11.6027
▁दूरसंचार	-11.6028
तृक	-11.6028
▁प्रतियोगियों	-11.6028
▁संग्राम	-11.6029
▁अल्लाह	-11.6029
▁पेंटिंग	-11.6029
▁कार्डिनल	-11.603
▁बेघर	-11.6031
▁परिसंपत्तियों	-11.6031
▁कनिष्क	-11.6032
मोबाइल	-11.6033
▁खजाने	-11.6034
▁दावेदार	-11.6035
▁श्वान	-11.6035
▁पाएंगे	-11.6036
वाली	-11.6037
बो	-11.6037
▁कासिम	-11.6037
▁ज़रिए	-11.604
▁रीढ़	-11.604
▁कविताओं	-11.6041
सेना	-11.6041
▁जलोढ़	-11.6042
▁साइक्लिंग	-11.6042
▁श्रव्य	-11.6043
▁लड़ाकू	-11.6044
▁भांग	-11.6045
▁घाना	-11.6045
चिकित्सकीय	-11.6045
▁सगाई	-11.6048
▁उरु	-11.6052
▁आंखें	-11.6053
▁लैप	-11.6053
शेखर	-11.6054
▁बाड़	-11.6054
▁मसीह	-11.6054
▁बिजनेस	-11.6058
▁मनोदशा	-11.6058
▁जबरदस्त	-11.6058
▁भाले	-11.6061
▁सफ	-11.6066
▁पतंगें	-11.6066
▁यून	-11.6067
▁बदत	-11.6069
नाई	-11.6071
▁सूचीः	-11.6073
▁जिंदगी	-11.6075
▁हटाया	-11.6077
▁गोपी	-11.6077
▁समेक	-11.6078
▁बाबू	-11.6079
▁गड़बड़ी	-11.608
▁ड्रैगन	-11.608
▁नैतिक	-11.6082
▁विक	-11.6083
ग्रोव	-11.6085
▁कराता	-11.6089
▁द्रोण	-11.6091
▁वीणा	-11.6092
▁विपक्षी	-11.6092
▁करेंगी	-11.6092
▁घी	-11.6094
▁दस्ते	-11.6097
▁प्रदर्शनकार	-11.6097
▁दिखती	-11.6098
▁वायरल	-11.6099
▁दूरदराज	-11.61
स्क	-11.6101
▁निष्ठा	-11.6103
▁ताई	-11.611
▁जोड़ना	-11.6113
▁कोने	-11.6113
▁रिश्ता	-11.6113
▁सुरंग	-11.6114
लेट	-11.6116
इनडोर	-11.6119
▁सत	-11.612
▁प्रायोजक	-11.6124
सागर	-11.6124
▁न्यास	-11.6135
▁स्पर्श	-11.6138
▁राजस्थानी	-11.6139
▁उपनगरों	-11.6142
▁जोड़ें	-11.6143
▁गहने	-11.6147
▁पॉइंट	-11.6147
ेर	-11.6148
▁भाला	-11.6152
▁आँकड़	-11.6169
▁रैम	-11.6178
▁टीक	-11.6179
▁दुर्	-11.618
▁व्याख्यान	-11.6183
▁ज्योति	-11.6184
▁प्रतिरक्षी	-11.6184
▁वाइन	-11.6189
ाधीन	-11.6191
▁दू	-11.6193
▁चलना	-11.6193
▁हनी	-11.6195
▁फु	-11.6196
▁कंपन	-11.6197
▁ज़िल	-11.6199
▁फीस	-11.62
▁नेहा	-11.62
▁प्रतिद्वंद्वि	-11.6204
▁बेला	-11.6208
▁कौ	-11.6211
▁हठ	-11.6213
▁पले	-11.6218
▁गार्डन	-11.6219
▁क्र	-11.622
▁कारा	-11.6221
▁गीतकार	-11.6228
▁फर	-11.6229
▁फोर	-11.6232
संपत्तियों	-11.6236
़ी	-11.6243
धार	-11.6246
भुगतान	-11.6256
चिकित्सा	-11.6256
▁हान	-11.6257
स्तरों	-11.6258
▁गंवा	-11.6262
ेबल	-11.6263
▁सिखान	-11.6271
विकास	-11.6275
टेक	-11.6277
▁एपल	-11.6282
▁विकी	-11.6282
▁कृष्णन	-11.6282
▁गुंड	-11.6283
बिंग	-11.6284
▁कोटा	-11.6284
▁विघटन	-11.6288
अ	-11.629
▁फ्ल	-11.6293
▁माधव	-11.6297
नू	-11.6299
साल	-11.63
▁जुटा	-11.6307
▁संस्कारों	-11.6308
▁पादप	-11.631
▁अल्पकाल	-11.6315
ोसिस	-11.6315
दबा	-11.6321
▁अस्पष्ट	-11.6321
▁दर्शान	-11.6323
द्वा	-11.6323
▁संवाददाता	-11.6324
▁शिप	-11.6332
▁रेटिनाल	-11.6333
▁महत्वाकांक्ष	-11.6357
▁प्राइम	-11.6359
पेशेवर	-11.6359
▁परिस्थिति	-11.636
फ़ेल	-11.6361
▁वसूल	-11.6365
▁निष्कास	-11.6373
▁गै	-11.6374
▁अणु	-11.638
▁नाइल	-11.6381
फिल्म	-11.6387
▁आंदोलनों	-11.6389
टेन	-11.639
▁लाइनों	-11.6391
▁वॉर	-11.6393
▁अलगाव	-11.6395
▁जन्मे	-11.6397
▁सिम	-11.6397
▁रहित	-11.6398
▁ईंट	-11.6399
▁स्टैंड	-11.6399
▁बांधों	-11.64
▁सिं	-11.6403
▁नंदी	-11.6406
▁दस्त	-11.641
ेंशियल	-11.6412
पर्य	-11.6426
▁अयोग्य	-11.6433
▁निकली	-11.6434
▁छल	-11.6438
मलों	-11.6438
▁शॉर्ट	-11.6438
▁पृथक	-11.644
▁ईर्ष्या	-11.6441
▁यौगिक	-11.6441
▁चॉकलेट	-11.6441
▁आईट्यून	-11.6441
▁ताजमहल	-11.6441
▁क्लार्क	-11.6441
▁गंदगी	-11.6441
▁सतबीर	-11.6441
▁एंजेलेस	-11.6441
▁संध्या	-11.6441
▁ढक्कन	-11.6441
▁शिमला	-11.6441
▁गर्भगृह	-11.6442
▁असेंबली	-11.6442
▁माइलिन	-11.6442
▁स्वतः	-11.6442
▁लेबनान	-11.6443
▁सुविधाएं	-11.6443
▁नौसैनिक	-11.6443
▁बेंजामिन	-11.6443
▁यूनिवर्स	-11.6444
▁अनुपचारित	-11.6444
▁उपप्रकार	-11.6444
ग्वेद	-11.6444
▁सुसज्जित	-11.6444
▁जोंकोपिंग	-11.6444
▁पतंगबाजी	-11.6444
▁दिनचर्या	-11.6444
▁कुआला	-11.6444
मैसूर	-11.6444
▁चाहें	-11.6444
▁टोकरी	-11.6445
▁बहुसंख्यक	-11.6445
▁धर्मार्थ	-11.6445
▁अवशोषण	-11.6445
▁जैकेट	-11.6446
▁वॉल्ट	-11.6447
▁एंग्लो	-11.6449
▁अलमारी	-11.6449
▁कंधों	-11.645
▁पुनरावृत्त	-11.645
▁दोहराया	-11.6453
कथित	-11.6453
▁जमानत	-11.6453
▁लॉन्च	-11.6455
▁दिलाया	-11.6456
▁कुरान	-11.6456
▁रोगजनक	-11.6456
▁फॉरवर्ड	-11.6459
▁उपभेद	-11.6459
▁ज़बरदस्त	-11.6459
▁संज्ञानात्मक	-11.6459
▁भूमध्यसागर	-11.6459
▁मौलिक	-11.646
▁हड्डियों	-11.6461
ट्रैफिक	-11.6462
▁परिचालन	-11.6462
▁परिक्रमा	-11.6464
▁शुक्राणु	-11.6464
▁पत्तों	-11.6465
▁राज्यसभा	-11.6466
▁दर्पण	-11.6469
▁शुंग	-11.647
्ली	-11.6475
▁विश्वासघात	-11.6475
▁बाजी	-11.6476
▁आश्वस्त	-11.6476
▁बेंगलुरु	-11.6477
▁पदानुक्रम	-11.6477
▁कैफे	-11.6477
▁व्याकरण	-11.6478
▁स्पेक्ट्र	-11.6478
▁मंडप	-11.6481
▁बेयर	-11.6482
▁दृढ़ता	-11.6483
प्पी	-11.6485
▁मदन	-11.6486
▁किंग्स	-11.6487
▁क्लिप	-11.6487
▁हटाना	-11.6488
▁सर्वोत्	-11.6489
पिंग	-11.6489
▁चैन	-11.649
▁भूरे	-11.6492
▁डेस	-11.6492
▁अयस्क	-11.6494
लिबान	-11.6494
मुख	-11.6495
▁तु	-11.6495
▁दुसर	-11.6498
▁खांसी	-11.6501
▁किराया	-11.6501
▁अर्थात	-11.6504
▁कार्यात्मक	-11.6505
▁कैंडी	-11.6508
▁अठारह	-11.6513
▁पंथ	-11.6514
▁वॉन	-11.6515
▁यांत्रिक	-11.6521
▁आसन	-11.6522
ीट्यूट	-11.6523
▁अमरिक	-11.6525
▁डोनाल्ड	-11.6529
ोला	-11.653
कट	-11.6534
▁लु	-11.6536
▁ग्राही	-11.6536
कालत	-11.6536
▁उभरी	-11.6543
▁वेम्ब	-11.6546
▁बढ़ाना	-11.6551
▁हवाला	-11.6553
▁सहन	-11.6555
▁कस्टमर	-11.6556
बॉक्सिंग	-11.6557
▁दीव	-11.656
ादित्य	-11.6562
जुलत	-11.6572
मल	-11.6574
▁बल्लेबाज़	-11.6578
▁फुफ्फुसी	-11.6579
▁प्रभागों	-11.658
▁कुंग	-11.6587
रना	-11.6587
ार्ड	-11.659
▁अकेला	-11.6595
▁पिक	-11.6597
▁पट	-11.6597
सिया	-11.6603
▁परे	-11.6603
▁फोर्ड	-11.6603
▁कैम्प	-11.6605
▁खंडन	-11.6608
चर	-11.6613
▁तीस	-11.6616
▁जलाशयों	-11.6616
▁नौकर	-11.662
क्वालिटी	-11.6624
पता	-11.6626
▁यहूदिय	-11.6633
▁खोले	-11.6634
▁ताप	-11.6637
▁नावों	-11.6645
▁नवीनीक	-11.6646
िक्स	-11.6652
▁धारक	-11.6654
▁एंटी	-11.6654
▁गड़बड़	-11.6656
ोई	-11.666
▁मुकाबलों	-11.6665
▁शार्क	-11.6673
▁लेडी	-11.6685
▁चौ	-11.6685
लेखन	-11.6688
▁लीफ	-11.6692
▁मृतक	-11.6697
▁डाली	-11.6705
▁जियो	-11.6708
ंडा	-11.6712
▁लटक	-11.6716
▁गोलियों	-11.6721
▁जानकार	-11.6723
▁दि	-11.673
▁पेस	-11.6737
मत	-11.6739
▁डालत	-11.6742
▁शताब्द	-11.6746
्पण	-11.6749
▁फेर	-11.6749
▁जौ	-11.6749
▁खे	-11.6763
स्टिंग	-11.6767
▁छोड़े	-11.6778
ानुपात	-11.6804
मय	-11.6804
▁बांड	-11.6812
▁भैरव	-11.6815
▁तलछट	-11.6817
लन	-11.682
▁अकाउंट	-11.682
▁टाल	-11.6824
▁मुक़ाबल	-11.6825
▁अब्राहम	-11.6826
▁रोशन	-11.6826
▁तैराक	-11.6827
▁प्रतिस्थापि	-11.6828
▁आदम	-11.6829
▁रकम	-11.6831
न्	-11.6833
▁तलवारबाज	-11.684
▁विष	-11.6851
▁उबर	-11.6852
▁अल्फा	-11.6859
भिषेक	-11.687
▁टेक	-11.6874
ेंड	-11.6874
▁जिम्नास्टिक	-11.6875
▁आम्बेडकर	-11.6876
▁चमगादड़	-11.6876
▁चाणक्य	-11.6876
▁फिलिस्तीन	-11.6876
▁मर्तबान	-11.6876
▁सचमुच	-11.6876
▁कोल्हापुर	-11.6876
▁वेस्टइंडीज	-11.6876
▁अक्षांश	-11.6876
▁रवींद्र	-11.6876
▁लिफाफ	-11.6876
▁अपशिष्ट	-11.6876
▁एंड्रॉइड	-11.6876
▁बेकहम	-11.6876
▁आयुर्वेद	-11.6876
▁फ्रेडरिक	-11.6876
▁कैनोइंग	-11.6876
▁अछूत	-11.6876
▁विश्वकोश	-11.6876
▁स्वभाव	-11.6877
सेट	-11.6877
▁ढाँचे	-11.6877
▁सूडान	-11.6878
▁नमूनों	-11.6878
▁क्रीम	-11.6878
▁पर्वतारोहियों	-11.6878
▁बलदेव	-11.6879
▁तकलीफ	-11.6879
▁आवेग	-11.6879
▁ईबे	-11.6879
▁ग्राहियों	-11.6879
▁घुटनों	-11.688
▁पड़ेगी	-11.6881
▁पेट्रोल	-11.6881
▁शिवलिंग	-11.6882
दिया	-11.6882
▁दोस्ताना	-11.6883
▁क्षत्रिय	-11.6885
▁समायोजन	-11.6885
▁कोविड	-11.6886
▁तात्	-11.6887
▁एडोब	-11.6887
▁श्रेणीकरण	-11.6887
▁सीमांत	-11.6888
▁अवधारणाओं	-11.6889
▁इच्छाओं	-11.6892
स्टीन	-11.6893
स्सी	-11.6893
सरकारी	-11.6893
▁कंधार	-11.6894
▁फ्लैश	-11.6894
▁आधिपत्य	-11.6895
▁सरगम	-11.6895
▁त्रिपुर	-11.6895
▁ब्लेयर	-11.6896
▁कांगड़ा	-11.6896
▁श्लोक	-11.6897
▁चुंबक	-11.6898
▁बनारस	-11.6899
▁सीनियर	-11.6899
▁समझाया	-11.69
▁सियोल	-11.6902
▁जागीर	-11.6903
▁उत्पादकता	-11.6903
▁गांधार	-11.6903
रेख	-11.6905
▁काँच	-11.6905
▁क्षत्रपों	-11.6905
▁मगध	-11.6906
▁कर्नल	-11.6907
▁पका	-11.6909
▁फीडे	-11.691
▁प्रोसेसर	-11.6911
▁पिन	-11.6911
▁गन्ना	-11.6912
▁शाओलिन	-11.6912
▁फ़ारेनहाइट	-11.6913
▁स्मार्टफोन	-11.6913
▁जीर्ण	-11.6914
▁दिलाई	-11.6917
▁गोविंदा	-11.6917
▁फुल	-11.6921
▁लिंकन	-11.6921
▁अचल	-11.6922
▁फर्क	-11.6923
▁नायर	-11.6925
▁टेरेस	-11.6927
▁श्रद्धा	-11.6927
▁परजीवी	-11.6928
ज़मानी	-11.6929
▁युवक	-11.6929
▁चोरों	-11.6932
▁स्क्वॉ	-11.6933
▁परिष्कृत	-11.6933
ोक	-11.6934
देशीय	-11.6936
▁सर्च	-11.6937
▁घोड़ा	-11.6937
हैं	-11.695
▁तराशा	-11.6953
▁रावी	-11.6954
▁डोमिनिक	-11.6954
▁वेबसाइटें	-11.696
▁ग्रां	-11.6961
▁ब्राज़ीलिया	-11.6962
▁इर	-11.6967
▁ढूँढ	-11.6969
▁हैंडल	-11.6969
न्वित	-11.697
▁कस्बे	-11.6973
ॉप	-11.6975
▁अपरि	-11.6977
▁जमाव	-11.6979
विश्वरूपम	-11.698
▁मेपल	-11.698
▁प्रायोज	-11.6982
सार	-11.6983
▁विलास	-11.6983
▁आतंक	-11.6984
हत्याओं	-11.6986
लीग	-11.6986
▁गारंटी	-11.6992
रवरी	-11.6994
▁पर्ल	-11.7005
ुअल	-11.7009
▁वित्तपोष	-11.7017
▁जाट	-11.7019
▁कामुक	-11.7025
▁टेलर	-11.7026
▁प्रतिज्ञा	-11.7028
▁मसौद	-11.7036
र्थ	-11.7039
ाचार	-11.7041
बैंक	-11.7043
चालकों	-11.7046
▁पदार	-11.7049
▁सकी	-11.7052
▁फ्लाइ	-11.7064
▁बुर	-11.7065
ज्जा	-11.7071
▁इट	-11.7071
▁खोजा	-11.7072
▁उग	-11.7072
चीन	-11.7075
नीत	-11.7077
ुला	-11.7085
▁गोर	-11.7087
▁नलिका	-11.7094
ाज	-11.7096
▁नर्तकों	-11.7096
ेंडर	-11.7099
▁नीला	-11.7101
▁बाली	-11.711
▁गे	-11.712
▁मकान	-11.7129
दंड	-11.7134
▁रेखांक	-11.7139
▁संदर्भों	-11.715
पुतली	-11.715
▁देखो	-11.7151
र्ग	-11.7152
▁अग	-11.7158
हार	-11.7161
िट	-11.7161
प्लस	-11.7168
निका	-11.7174
▁उन्ह	-11.7179
न्यूज़	-11.718
▁तन	-11.7182
▁पूंजी	-11.7187
ैंटन	-11.7188
क्षमताओं	-11.7194
गु	-11.7194
रोहित	-11.7201
दम	-11.7206
बोर्न	-11.7208
▁किलो	-11.7213
निकेत	-11.7218
▁बॉय	-11.7231
ूल	-11.7232
▁छत्रप	-11.7233
▁छुपा	-11.7235
▁वार्ड	-11.7236
ग्रा	-11.724
मिस्टर	-11.7241
देन	-11.7244
▁निपटा	-11.7244
्राइड	-11.7246
▁लैस	-11.7248
नंदा	-11.7254
▁घोटाल	-11.7254
▁वाटर	-11.7254
़र	-11.7258
▁पाइक	-11.7266
न्यू	-11.7267
ऑफ	-11.7269
▁लौटत	-11.7272
▁कमा	-11.7273
विलंबित	-11.7275
ताल	-11.7276
▁मंजिल	-11.7287
▁हीरे	-11.7288
▁पित्त	-11.729
▁औषधि	-11.729
ैया	-11.7296
▁ठहरात	-11.7296
▁जुटान	-11.7296
▁दीक्षित	-11.7309
▁संतुल	-11.7312
स्ट्रोक	-11.7314
शुद	-11.7317
▁एंजेल	-11.7323
ंगामा	-11.7325
▁नायिका	-11.7325
ल्ली	-11.7326
▁एथलेटिक	-11.7327
▁वंशानु	-11.7329
▁इब्राहिम	-11.733
▁काठमांडू	-11.733
▁कैलिफ़ोर्निया	-11.733
▁प्यूर्टो	-11.733
▁फ़्लोरिडा	-11.733
▁बुंडेसलीगा	-11.733
▁लिवरपूल	-11.733
▁श्रोणि	-11.733
▁सिलीगुड़ी	-11.733
▁एडिलेड	-11.733
▁कन्नौज	-11.733
▁गेहूं	-11.733
▁डॉल्फिन	-11.733
▁महाशिवरात्रि	-11.733
▁स्काउट	-11.733
▁अक्षतंतु	-11.733
▁कॉपीराइट	-11.733
▁प्लेटफ़ॉर्म	-11.733
▁फिलहाल	-11.733
▁एथेंस	-11.733
▁यंत्रमानव	-11.733
▁ओड़िशा	-11.733
▁असंतोष	-11.733
▁त्योरी	-11.7331
▁मिर्ज़ा	-11.7331
▁तात्कालिक	-11.7331
▁उपनयन	-11.7331
▁संकेन्द्र	-11.7331
▁काकतीय	-11.7331
▁रिसीवर	-11.7331
▁गड्ढ	-11.7331
▁गन्ने	-11.7331
▁पेयजल	-11.7331
▁डकोटा	-11.7331
▁निम्मी	-11.7332
▁फॉल्स	-11.7332
▁हिरानी	-11.7332
▁मॉड्यूल	-11.7332
▁ब्यास	-11.7333
▁रॉबिन्सन	-11.7333
▁कश्यप	-11.7333
▁वायुमंडल	-11.7334
▁वज़ीर	-11.7334
▁विशेषताएं	-11.7334
▁प्रोत्साहन	-11.7335
▁आर्सेनल	-11.7335
टेड	-11.7336
▁मार्गदर्शक	-11.7336
▁श्रेणियां	-11.7337
च्छिक	-11.7337
▁शौकीन	-11.7337
▁धान	-11.7338
सीमिया	-11.7339
▁पठान	-11.7339
▁वारंटी	-11.734
▁मशाल	-11.734
▁शहद	-11.734
▁निष्पक्ष	-11.734
▁मैनेज	-11.7341
नॉकआउट	-11.7343
▁चैपल	-11.7343
दक्षिण	-11.7343
▁पावरबोट	-11.7345
▁दाव	-11.7345
तीन	-11.7346
▁रज्ज	-11.7346
वेट	-11.7347
▁ग्लेशियर	-11.7349
▁पलक्कड़	-11.735
▁पेशावर	-11.735
▁पाएगा	-11.735
▁पोन्नानी	-11.735
▁नवाचार	-11.7351
▁दादरा	-11.7352
▁स्पोर्ट	-11.7352
▁सम्बंध	-11.7352
▁मलाशय	-11.7353
▁सच्चाई	-11.7353
▁स्टार्स	-11.7355
▁पूछना	-11.7359
पैड	-11.7361
▁यथा	-11.7361
▁रबर	-11.7362
▁राजाराम	-11.7362
▁वॉक	-11.7364
धातु	-11.7364
▁पहुंचाया	-11.7366
▁हेपेट	-11.7367
▁दाँत	-11.7368
▁स्मरण	-11.7368
▁अधिहृषता	-11.7368
▁चुनना	-11.7369
▁रेखाओं	-11.7371
▁मुड़	-11.7372
▁मसाला	-11.7373
▁कहे	-11.7375
▁साइप्र	-11.7378
दाताओं	-11.7378
▁क्रमिक	-11.7378
▁मेनन	-11.7379
▁ब्रैड	-11.7381
कानूनी	-11.7381
▁फ्रेड	-11.7383
▁दुकानदार	-11.7384
वश्य	-11.7385
▁गुरुओं	-11.7386
▁सतलुज	-11.7387
ड्स	-11.7387
▁जांघ	-11.7387
▁चैंबर	-11.7387
▁कन्नूर	-11.7388
▁स्कैनर	-11.7388
▁सीटी	-11.739
▁कार्टर	-11.7396
िर्द	-11.7396
▁शंकु	-11.7397
▁ख़ुश	-11.7398
▁विनोद	-11.7399
▁चित्रकारी	-11.7402
▁मूस	-11.7406
▁पोर	-11.7406
▁पेरू	-11.7407
▁लू	-11.7417
▁गैंग	-11.742
▁सीखना	-11.742
फर	-11.7427
सो	-11.7429
▁गैरी	-11.7438
सातकर्णी	-11.7447
▁प्रकरण	-11.7447
▁दीवान	-11.7448
▁हॉर्न	-11.7451
▁अवरोह	-11.7456
▁ताड़	-11.7464
बारूद	-11.7465
▁किरान	-11.7466
▁घुड़सवारों	-11.7472
▁सामानों	-11.7474
▁कुमारी	-11.7475
▁सस्त	-11.7477
▁मोर्च	-11.7486
▁असुर	-11.7488
सिवाय	-11.7488
▁माँस	-11.7497
▁निहित	-11.7497
▁किलेबंद	-11.7498
थोक	-11.7499
ियत	-11.7499
▁हेलेन	-11.7502
▁सितारा	-11.7503
▁इनसे	-11.7503
▁बेट	-11.7506
▁वेल	-11.7507
▁पीना	-11.751
ायत	-11.7523
▁पारगम	-11.7525
र्	-11.7529
टकर	-11.753
मीठा	-11.7534
▁हरी	-11.7536
▁खिलाडि	-11.7537
▁चेरों	-11.7539
▁लॉन्ग	-11.754
▁मजाक	-11.7541
पीठ	-11.7545
▁हीरो	-11.7546
▁तेलुग	-11.7547
ानुसार	-11.7552
ानो	-11.7559
▁बियर	-11.7561
▁अद	-11.7564
▁पान	-11.7564
▁होश	-11.757
ैक	-11.7574
▁उदयगिर	-11.7576
▁स्लेट	-11.7581
कोटा	-11.7589
▁मोह	-11.759
▁मोशन	-11.7591
▁खनिक	-11.7591
वर्ग	-11.7594
जीराव	-11.7603
▁स्वै	-11.7604
ाईं	-11.7609
▁कोड़	-11.7612
▁ज़ोन	-11.7618
नस	-11.7628
▁वक्ष	-11.7642
▁विव	-11.7649
▁व्यापारि	-11.7651
▁फंसे	-11.7652
▁मोनो	-11.7653
▁अं	-11.7656
▁अपनाई	-11.7657
▁मंगल	-11.766
▁सल्फ	-11.766
चेन	-11.7667
▁भेद	-11.7675
ाजी	-11.7677
▁फोटोग्राफ	-11.7677
▁मिलें	-11.7685
च्छुक	-11.7685
श्रेणी	-11.7688
▁डिस्प्	-11.7688
यात्रा	-11.7692
▁तालम	-11.7692
ुदा	-11.7695
ेरियन	-11.7701
सुरक्षित	-11.7701
ट्टु	-11.7702
▁हेम	-11.7704
ेत	-11.7709
▁ग्रेव्	-11.7711
िकी	-11.7713
▁बहिष्क	-11.7714
▁बास	-11.7724
▁गण	-11.7727
▁महेंद्र	-11.7728
गम	-11.7733
तता	-11.7733
ाशय	-11.7738
▁फिन	-11.7744
क्षी	-11.7746
▁वाद	-11.7746
जू	-11.7748
▁बारीक	-11.775
▁मारवाड़	-11.775
सामने	-11.7751
क्रमण	-11.7753
मीटर	-11.7756
▁मुहर	-11.7758
▁अलाव	-11.7759
िड	-11.776
▁अनुप्रयोग	-11.7762
▁स्वयंसेवक	-11.7764
▁विन	-11.7767
दूसरा	-11.7769
▁ईमानदार	-11.7771
▁पहनें	-11.7774
▁क्रिस्टल	-11.7775
▁नॉर्ड	-11.7775
धार्मिक	-11.7775
▁जाफर	-11.7775
यु	-11.7779
ट्टी	-11.778
▁झाड़िय	-11.7784
▁जननांग	-11.7787
रिला	-11.7789
▁संचय	-11.7795
▁प्रक्षेप	-11.7797
लोल	-11.7798
▁मुठभेड़	-11.7799
▁एस्टोनिया	-11.7801
▁माओ	-11.7802
▁प्रयाग	-11.7802
▁टायर	-11.7803
▁खदान	-11.7806
▁कुतुब	-11.7806
▁अश्लील	-11.7807
▁एलिजाबेथ	-11.7807
▁डगलस	-11.7807
▁निरुपमा	-11.7807
▁नॉरफ़ॉक	-11.7807
▁बटालियन	-11.7807
▁नज़दीक	-11.7807
▁जस्टिस	-11.7807
▁शिंदे	-11.7807
▁प्रणालियाँ	-11.7807
▁खदेड़	-11.7807
▁करिश्म	-11.7807
▁चिड़ियाघर	-11.7807
▁तिरुवनंतपुरम	-11.7807
▁कोलंबस	-11.7807
▁अभिनेत्रियों	-11.7807
▁वर्षगांठ	-11.7807
▁जयंतिया	-11.7807
▁ची	-11.7808
▁चपेट	-11.7808
▁किलोग्राम	-11.7809
▁मदिरा	-11.7809
▁अधिराज्य	-11.781
▁कयाकिंग	-11.781
कायदा	-11.781
▁सर्बिया	-11.7811
▁शरणार्थ	-11.7811
▁टेम्पलेट	-11.7811
▁ऐंठन	-11.7812
▁शूकर	-11.7812
▁महेश	-11.7812
▁कुर्द	-11.7813
▁ग्राहम	-11.7814
▁सपनों	-11.7814
▁स्टेज	-11.7815
▁सोचिए	-11.7816
▁शिवरात्रि	-11.7816
▁चमत्कार	-11.7816
▁वीरू	-11.7818
▁मैककार्	-11.7818
रोक्त	-11.7819
फ्लिक्स	-11.782
▁खिड़कियों	-11.7821
▁कैरिबिय	-11.7823
स्बा	-11.7824
▁ग्लोब	-11.7825
▁कक्षाओं	-11.7825
▁सेकेंड	-11.7825
▁श्रद्धालु	-11.7825
▁ह्यू	-11.7825
▁कीचड़	-11.7826
▁अमावस्या	-11.7826
▁प्लान	-11.7826
▁बूढ़े	-11.7826
▁घुमावदार	-11.7826
▁जकार्ता	-11.7827
बहन	-11.7827
▁इंस्टॉल	-11.7827
▁नेत्रहीन	-11.7827
▁बुनाई	-11.7828
गति	-11.783
▁बोहेमिया	-11.7833
▁कान्हा	-11.7834
▁तस्करी	-11.7835
▁फौज	-11.7836
▁वर्तनी	-11.7836
▁नंगे	-11.7837
ंदिरा	-11.7839
▁प्रवर्तन	-11.7839
▁सुनाया	-11.7839
तारों	-11.7841
▁फैमिली	-11.7841
▁मंगलेश	-11.7842
▁काटा	-11.7845
▁मोती	-11.785
▁कोशिकाएं	-11.7853
▁घात	-11.7853
यूनानी	-11.7856
कृतियाँ	-11.786
▁बिज़	-11.7863
▁गुजरते	-11.7863
▁उत्साहित	-11.7868
वर्षीय	-11.7868
▁गंदा	-11.7868
▁चांद	-11.7871
▁नमी	-11.7872
▁बर्फील	-11.7877
▁रहेगी	-11.7877
़िले	-11.788
हार्य	-11.7881
▁व्हिट	-11.7883
मेन	-11.7885
ंक	-11.7886
▁सजाते	-11.7886
▁कैप्ट	-11.789
डेल	-11.789
▁वितरक	-11.7893
▁कद	-11.7901
▁मचा	-11.7901
▁स्तम्भ	-11.7902
▁फूड	-11.7904
▁सुलेमान	-11.7906
▁दंगे	-11.7906
▁राखी	-11.7908
फिशर	-11.7908
हने	-11.7912
▁सूचि	-11.7917
▁माथे	-11.7917
▁बैंगनी	-11.792
▁चौकी	-11.7922
▁बमबा	-11.7923
▁नानी	-11.7924
चारी	-11.7925
▁सारिका	-11.7927
▁जीतीं	-11.7928
निर्माण	-11.7929
ड़ित	-11.793
▁फ़ाइन	-11.7933
▁ज़रा	-11.7935
▁गला	-11.7937
पल	-11.7939
▁पारसी	-11.7939
▁प्रसंग	-11.794
मोन	-11.7947
▁यूनि	-11.7949
▁विचारधारा	-11.7949
▁कहलात	-11.7952
मारा	-11.7953
▁असमानता	-11.7954
▁लॉग	-11.7961
▁रची	-11.7965
▁रोकना	-11.7965
▁विभागों	-11.7967
▁पीली	-11.7968
▁सुई	-11.7979
▁प्रलेख	-11.7986
▁साद	-11.7988
▁निष्कर्षों	-11.7988
▁अंडा	-11.799
हुआ	-11.799
मानवीय	-11.7991
▁लवण	-11.8
▁दाह	-11.801
▁जाम	-11.8014
हान	-11.8015
▁घुमा	-11.8017
▁शर्म	-11.8028
▁ब्रे	-11.8032
▁लाभों	-11.8032
▁कैरोल	-11.8041
▁पैनल	-11.8043
कन	-11.8048
किस्मत	-11.8057
यक	-11.8057
रिस	-11.8061
कॉन्फ्रेंस	-11.8062
▁स्नो	-11.8067
निर्भरता	-11.8068
▁बोट	-11.807
▁टच	-11.8073
स्	-11.8074
▁शत्रु	-11.8076
रती	-11.8076
पुल	-11.808
माल	-11.8081
ारकों	-11.8084
▁अन्	-11.8089
ग्वे	-11.8098
▁भूज	-11.8098
▁गुज़र	-11.8098
▁प्रभावशील	-11.8099
ठ	-11.81
मू	-11.8101
▁आठव	-11.8106
▁माई	-11.8106
▁हरिहर	-11.8107
पॉड	-11.8114
▁द्वितीयक	-11.8116
▁उत्सवों	-11.8116
▁अदला	-11.8122
अमेरिकी	-11.8129
वायरस	-11.8135
▁ग्रीष्म	-11.8136
▁उत्कीर्ण	-11.814
▁इच्छ	-11.814
्दी	-11.8141
▁झुक	-11.8143
▁विशिष्टता	-11.8147
▁डिजाइनर	-11.8147
मो	-11.8148
▁पत	-11.8152
▁हीरा	-11.8154
▁उभरत	-11.8158
▁पन	-11.816
▁नॉर्म	-11.816
▁जमीनी	-11.8164
उस	-11.8165
सीनू	-11.8171
▁विद्या	-11.8174
▁जोश	-11.8177
▁सुधारने	-11.8177
▁फास्ट	-11.8182
▁प्रोग्रामर	-11.8185
बाग	-11.8185
▁केलों	-11.8187
उन	-11.8188
▁पंज	-11.819
▁बूट	-11.8202
▁क़	-11.8211
▁स्पिन	-11.8212
▁धूम	-11.8216
▁मद	-11.8224
▁क्लेयर	-11.8232
▁रयान	-11.8233
▁कर्मी	-11.8235
▁पिंड	-11.8237
चेज़	-11.824
ईद	-11.8243
▁डाय	-11.8244
▁कॉन	-11.8246
्का	-11.825
▁डेविल	-11.825
▁श्रुति	-11.8251
▁चुनौतिय	-11.8253
ेंस	-11.826
ियार	-11.8261
▁पह	-11.8263
जाया	-11.8266
▁इंसान	-11.8266
▁प्लेस	-11.8268
▁प्रमुखों	-11.8269
▁कार्ट	-11.8269
जारों	-11.8278
▁एयरवेज	-11.8279
▁सती	-11.828
▁रंगा	-11.8285
टाउन	-11.8288
▁बेत	-11.8294
▁बाक	-11.8294
▁बराक	-11.8294
▁फ्रांसिस	-11.8295
▁माफ़	-11.8295
▁छात्रा	-11.8298
▁उत्सुक	-11.8298
▁जंजीर	-11.8298
▁यॉर्क	-11.8299
पुरुष	-11.8299
▁ख़रीद	-11.8305
▁अज़रबैजान	-11.8307
▁अयोध्या	-11.8307
▁चैलेंज	-11.8307
▁छद्म	-11.8307
▁तक्षशिला	-11.8307
▁नेब्रास्का	-11.8307
▁बदमाश	-11.8307
▁मिठाइयाँ	-11.8307
▁मेईतेई	-11.8307
▁म्यूचुअल	-11.8307
▁रक्ताल्पता	-11.8307
▁खाद्यान्न	-11.8307
▁पुजारियों	-11.8307
▁अख्तर	-11.8307
▁अग्निशमन	-11.8307
▁कंटेनर	-11.8307
▁डिएगो	-11.8307
▁श्वेतांबर	-11.8307
▁पटियाला	-11.8307
▁शुभंकर	-11.8307
▁कीटनाशक	-11.8307
▁सागौन	-11.8307
▁अवांछ	-11.8307
▁गांगुली	-11.8307
▁वासुदेव	-11.8307
▁तिवारी	-11.8307
▁प्रिंसटन	-11.8307
▁वायरलेस	-11.8307
दौला	-11.8307
▁सुलभ	-11.8307
▁बख्शीश	-11.8307
▁इलैया	-11.8307
पुथल	-11.8307
▁भूगोल	-11.8307
▁हकदार	-11.8308
▁खिलौना	-11.8308
▁आइसलैंड	-11.8308
▁अंतर्राज्य	-11.8309
▁श्रीधर	-11.8309
▁पट्टियाँ	-11.831
▁मीटिंग	-11.831
▁एसिड	-11.831
▁क्राउन	-11.831
▁देवगन	-11.831
▁ब्लूज़	-11.831
▁चुनौतीपूर्ण	-11.8311
▁ग्रीस	-11.8312
▁अशांति	-11.8312
▁लेखिका	-11.8313
▁प्रतियां	-11.8314
▁पेसो	-11.8314
▁सचेत	-11.8314
▁पछाड़	-11.8314
▁भलाई	-11.8315
▁बेंच	-11.8316
▁परतों	-11.8316
▁वृत्तांत	-11.8317
▁मास्को	-11.8317
▁इलेक्ट्रॉनिक्स	-11.8317
▁बजरंग	-11.8317
▁डब्बे	-11.8318
▁नारद	-11.8318
▁लड़ाइयों	-11.8319
▁मतली	-11.8321
▁शल्यचिकित्सा	-11.8324
मां	-11.8324
▁यूटा	-11.8326
▁महमूद	-11.8326
▁कैल्शियम	-11.8326
▁अमूर्त	-11.8327
▁संतोष	-11.8327
▁अनुभूति	-11.8327
▁राठौ	-11.8327
▁बहाव	-11.8328
▁अविवाहित	-11.8328
▁छवियाँ	-11.8328
▁प्रतिशोध	-11.8328
थे	-11.8329
▁अनुभाग	-11.833
▁वेदांत	-11.833
▁जीवाणुओं	-11.8332
▁लगाएं	-11.8332
▁मोहरे	-11.8332
फॉर्मेशन	-11.8334
▁कटे	-11.8335
तीत	-11.8336
▁हड़प	-11.8337
▁मूसर	-11.8337
व्यवस्थित	-11.8337
▁तराई	-11.8339
▁टूर्नामेंटों	-11.8339
▁ट्रेड	-11.8339
▁प्रतिबद्धता	-11.834
▁बाइबल	-11.834
▁कार्यस्थल	-11.8342
▁फिनिश	-11.8343
वादियों	-11.8344
▁कोर्फ	-11.8345
▁ड्राफ्ट	-11.8346
▁खरोंच	-11.8346
▁इजरायल	-11.8347
▁स्क्वायर	-11.8348
▁बहाने	-11.8348
ाद	-11.835
शासन	-11.8351
परिषद	-11.8352
▁छा	-11.8352
▁अरुण	-11.8352
▁सिल्वर	-11.8353
▁मरीज़	-11.8355
▁स्वयंसेवकों	-11.8355
▁गोदाम	-11.8355
▁माध्य	-11.8358
▁संसार	-11.836
▁सिखात	-11.8361
▁संयोग	-11.8361
▁उपयोगिता	-11.8362
▁माइक्रोसॉफ	-11.8362
धिक	-11.8362
▁तोमर	-11.8363
▁अरबों	-11.8365
▁रैंक	-11.8367
▁निर्देशकों	-11.8367
लेम्बोर्ग	-11.8367
▁ऑरेंज	-11.8368
▁निकालें	-11.8368
नाद	-11.8368
▁भ्रमित	-11.8369
▁भवानी	-11.8372
▁बेबी	-11.8373
पोव	-11.8376
▁विं	-11.8381
▁ओमान	-11.8383
महान	-11.8383
▁खोपड़	-11.8387
वंश	-11.8387
▁बद	-11.8388
बिल्लू	-11.8393
▁नस्लों	-11.8395
▁उपखंड	-11.8399
▁होवे	-11.8406
▁निकोल	-11.8413
▁हटाए	-11.8414
घ	-11.8417
नारायण	-11.8421
▁संरच	-11.8422
▁भेजें	-11.8423
संगीत	-11.8424
▁रिको	-11.8426
िना	-11.8437
▁दुश्मनों	-11.8449
▁लैपट	-11.8452
▁सिंधी	-11.8465
▁डरा	-11.8466
▁फिरोज	-11.8466
▁ऑब्ज	-11.847
फेर	-11.8475
जातीय	-11.8476
▁बैड	-11.8477
ड्र	-11.8479
▁पितृ	-11.848
ंगत	-11.848
▁संज्ञा	-11.8481
▁ट्रिप	-11.8482
▁झा	-11.8486
▁स्केट	-11.8489
मेरे	-11.8491
▁समाधि	-11.8495
▁पाम	-11.8507
▁इंडीज	-11.8508
▁आड	-11.8512
▁मात्र	-11.8515
▁स्काई	-11.8515
▁सुखी	-11.8515
सॉ	-11.8517
ंजी	-11.8519
लॉग	-11.8527
क्त	-11.8528
▁गये	-11.8534
▁डेरा	-11.8535
घाट	-11.854
▁मास्ट	-11.854
▁रोटी	-11.8546
▁व्यवहार्य	-11.8554
िमा	-11.8556
▁लिपिड	-11.8557
चे	-11.8558
▁मोटा	-11.8559
▁नीर	-11.8559
▁फै	-11.8561
▁बूंद	-11.8562
▁घोर	-11.8568
▁राजी	-11.8571
▁पाठशाला	-11.8573
▁नीच	-11.8574
▁घंटा	-11.8575
▁कामना	-11.8581
▁रै	-11.8586
▁दिव	-11.8587
▁गुर	-11.859
▁इनाम	-11.859
▁मुनि	-11.8593
▁लिबरल	-11.8597
▁अनुभवों	-11.8599
▁लूटा	-11.8601
▁सनी	-11.8603
▁रॉब	-11.8603
▁सर्प	-11.8608
ताएँ	-11.8609
▁सिने	-11.861
▁वृत्ति	-11.8613
▁पीस	-11.8614
▁दादी	-11.8616
काया	-11.8616
ल्ड	-11.8619
मर्डर	-11.8626
▁मय	-11.8626
▁एली	-11.8627
▁रक्तस्रावी	-11.8628
हेम	-11.8635
▁खोद	-11.8638
▁वाय	-11.8658
ावस्था	-11.8663
▁लैंगिक	-11.8666
▁रॉ	-11.8667
▁लेग	-11.8668
▁विला	-11.867
कोरम	-11.8674
प्रति	-11.8675
▁मू	-11.8677
▁धाम	-11.868
▁प्रतिभूति	-11.8683
वर्तमान	-11.8691
ट्स	-11.8692
प्र	-11.8699
▁चार्टर	-11.8702
▁अभयारण्यों	-11.8702
विराम	-11.8706
वह	-11.871
ऑस्ट्रियाई	-11.871
▁अर्ल	-11.8719
कुमार	-11.872
▁संघी	-11.8721
ंतु	-11.8723
म्बा	-11.8723
शक्ति	-11.8723
▁पैंट	-11.8729
▁आपसी	-11.873
▁पालक	-11.8732
ैन	-11.8735
▁शान	-11.8742
▁आसमा	-11.8744
भाषा	-11.8752
भद्रा	-11.8755
▁यक्ष	-11.8756
▁उदर	-11.8757
नाटक	-11.8761
कुल्हाड़ी	-11.8762
वनों	-11.8765
▁हस्तांतर	-11.8767
ूम	-11.8783
▁शुक्ल	-11.8785
हिल	-11.8791
▁शु	-11.8797
▁ऑर्गन	-11.8801
छोटी	-11.8803
▁पेरि	-11.8804
▁रोनाल्डो	-11.8805
अपनी	-11.8805
विजय	-11.8805
रियन	-11.8806
ंजय	-11.8821
▁लॉज	-11.8823
ोव	-11.8825
तिया	-11.8825
ैटर्न	-11.8827
्टन	-11.8827
बदली	-11.8827
▁अनुपस्थित	-11.8828
▁कारें	-11.883
▁इंपीरियल	-11.8833
▁एंटीबायोटिक	-11.8833
▁कंबोडिया	-11.8833
▁कुमाऊं	-11.8833
▁द्रौपदी	-11.8833
▁पैगंबर	-11.8833
▁मंगेशकर	-11.8833
▁लक्ज़मबर्ग	-11.8833
▁ब्वॉय	-11.8833
▁हस्तशिल्प	-11.8833
▁मेकअप	-11.8833
▁गंधर्व	-11.8833
▁पाउलो	-11.8833
▁अत्याधिक	-11.8833
▁ऊँट	-11.8833
▁माइक्रोग्राम	-11.8833
▁अवार्ड	-11.8834
▁झांसी	-11.8834
▁परोपकार	-11.8834
▁सिलंबम	-11.8834
▁मनोरोग	-11.8834
▁खुशहाल	-11.8834
▁दुब	-11.8834
▁कलाकृतियाँ	-11.8835
▁उस्मान	-11.8835
▁पास्कल	-11.8835
उच्छेदन	-11.8836
▁नाश्ते	-11.8836
▁आधारभूत	-11.8837
▁दबाएँ	-11.8837
शर्करा	-11.8837
▁साहनी	-11.8837
▁आदिनाथ	-11.8837
▁दोहराव	-11.8838
▁टावर	-11.8838
▁वाहिकाओं	-11.8839
▁शाखाएँ	-11.8839
▁इमाम	-11.884
▁वांछ	-11.8841
▁रिकेट्सिया	-11.8843
▁समीकरण	-11.8844
▁मलयाली	-11.8844
▁प्रदाताओं	-11.8845
▁गतिशीलता	-11.8846
▁रईसों	-11.8846
▁चश्मे	-11.8849
▁बहुल	-11.8849
▁शेयरधारक	-11.8851
तन	-11.8851
▁बंदूकें	-11.8852
▁ग्लोबल	-11.8852
▁उपर्	-11.8852
▁कल्चर	-11.8853
▁गोबिंद	-11.8853
▁लौह	-11.8854
▁जवान	-11.8854
▁छलांग	-11.8854
▁मुकुट	-11.8854
▁शर्मिंदा	-11.8854
▁आइडाहो	-11.8854
▁सुपरस्टार	-11.8855
▁होंठ	-11.8855
▁जर्नल	-11.8855
द्धांत	-11.8856
ाए	-11.8856
▁धब्बों	-11.8856
उत्तर	-11.8858
▁पतली	-11.8858
▁पढ़ें	-11.8859
▁ढूंढें	-11.8859
▁सांप	-11.886
▁हथेल	-11.886
▁उड़िया	-11.8863
▁अपेक्षित	-11.8863
▁डेवलपर	-11.8863
ैंड	-11.8864
▁दाएं	-11.8865
▁जोहान	-11.8865
▁प्रमाणपत्र	-11.8865
▁ग्राफ़िक	-11.8866
▁पौ	-11.8867
▁फैलाव	-11.8868
▁गिल्ड	-11.887
▁हेडन	-11.887
▁टेरी	-11.8871
▁खूब	-11.8871
▁मनान	-11.8872
गालैंड	-11.8873
▁सूट	-11.8874
▁नजरअंदाज	-11.8874
▁मालदीव	-11.8875
▁पुस्तिका	-11.8876
▁बाल्टीमोर	-11.8876
▁दिशानिर्देशों	-11.8876
▁वैधता	-11.8877
▁थ्रो	-11.8878
▁गिरवी	-11.8879
▁डायरी	-11.888
▁अंधेर	-11.8883
▁तृतीयक	-11.8885
▁पाताल	-11.889
मराठा	-11.889
▁खोए	-11.8892
▁पतंजल	-11.8894
▁कवक	-11.8896
िब्रू	-11.8898
▁लाइनें	-11.89
▁छापा	-11.89
▁तांग	-11.8901
▁अल्	-11.8903
▁बहल	-11.8906
▁माफिया	-11.8906
▁आर्यन	-11.8909
▁ईंटों	-11.8911
▁नाभिक	-11.8915
▁मेहरा	-11.8915
▁भेड़	-11.8915
ाघात	-11.892
▁काटना	-11.8925
▁ताक	-11.8926
▁अनिल	-11.893
▁चिकनी	-11.8931
सु	-11.8933
▁आस्था	-11.8935
▁आव	-11.8939
ौ	-11.8944
रंगा	-11.8951
ताकार	-11.8951
▁प्रकाशनों	-11.8957
यानंद	-11.8963
▁एव	-11.8967
▁क्रोन	-11.8967
बाल	-11.8967
बड़े	-11.8968
▁टेली	-11.8969
▁एशिय	-11.8971
कक्ष	-11.8973
ुन	-11.8974
तक	-11.8975
कू	-11.8976
पंक्ति	-11.8979
ॉ	-11.8979
▁नागर	-11.8979
ौती	-11.8982
ीदार	-11.8982
▁राष्ट्रवाद	-11.8982
▁आयन	-11.8983
लिस्ट	-11.8984
कुछ	-11.8989
▁फायर	-11.8998
▁विमानन	-11.8999
गैर	-11.9002
मार्केट	-11.9003
▁एडम	-11.9009
▁चीर	-11.901
▁मस्जिदों	-11.9013
▁सिवि	-11.9016
▁इंसुल	-11.9018
▁चौंका	-11.9023
ण्ड	-11.9025
▁भवनों	-11.9029
▁एस्टेट	-11.9032
▁विघट	-11.9032
▁आर्	-11.9033
ाले	-11.9035
▁अनदेख	-11.9037
▁बुलात	-11.9038
▁सुप्री	-11.9044
लियन	-11.9044
▁गत	-11.9048
▁वन्यजीवों	-11.9054
लीकट	-11.9055
▁लोकल	-11.906
जाति	-11.9062
स्मिथ	-11.9063
सुर	-11.9065
▁पाये	-11.9065
▁खींचत	-11.9072
ज़बर्ग	-11.9074
रिंग	-11.9075
▁बाज़ारों	-11.9075
ाँसी	-11.9077
▁कैथे	-11.9077
▁मलय	-11.9078
▁गिरे	-11.9079
▁लगना	-11.9083
▁संतों	-11.9085
▁ड्यूक	-11.9085
ेश्वरी	-11.9085
हेल	-11.9086
कथा	-11.9088
▁फाल	-11.9089
▁पहुँचता	-11.909
▁अदा	-11.9093
▁पर्थ	-11.9098
▁कन्या	-11.9098
ोत्तर	-11.91
यां	-11.9108
पालन	-11.9113
▁गुज़रत	-11.9114
▁गेंदें	-11.9119
▁अंतर्नि	-11.9123
▁कोर	-11.9128
▁केंट	-11.9128
रूढ़	-11.9129
▁जुआ	-11.9136
▁ब्रुइ	-11.9136
▁पदा	-11.9138
▁नायकों	-11.9141
पीड	-11.9149
दून	-11.9149
▁गहर	-11.9152
हीं	-11.9153
▁निर	-11.9158
बर्ट	-11.916
▁अगस्त्य	-11.9169
▁तवा	-11.9179
▁रास्त	-11.9185
ंगे	-11.9187
▁कब्ज़	-11.9192
राई	-11.9204
▁लसीका	-11.9207
▁रूपरेखा	-11.9211
बत	-11.9211
▁निष	-11.9214
▁जात	-11.9214
वारी	-11.9219
▁ऐन	-11.9226
पारी	-11.9236
▁मल्टी	-11.9238
▁टे	-11.9241
▁रिल	-11.9244
▁पॉली	-11.9245
▁खोलन	-11.9249
▁असीम	-11.925
कारा	-11.9251
संख्य	-11.9255
िएट	-11.9263
ावनी	-11.9266
सूची	-11.9268
तिहा	-11.9269
स्पेक्ट	-11.9274
▁बेड़	-11.9275
▁काफ़	-11.9276
▁मोरा	-11.9296
कता	-11.9299
साधनों	-11.93
▁प्रिंस	-11.9308
▁जटा	-11.9312
▁वश	-11.9313
▁नौकरान	-11.932
बित	-11.9322
किंग	-11.9323
▁प्लस	-11.9324
▁चिन	-11.9325
▁चर्चों	-11.9326
मुखी	-11.933
टने	-11.9331
▁भतीज	-11.9332
▁येल	-11.9333
ोड	-11.9333
▁लोगो	-11.9336
▁मुक्केबाज़	-11.9337
▁फार्म	-11.9339
▁स्वीकार्य	-11.9342
▁श्रेष्ठ	-11.9343
लाते	-11.9349
विकृति	-11.935
▁छत्र	-11.9351
▁दिशानिर्देश	-11.9353
िस्ट्री	-11.9357
लोअर	-11.9357
▁महाराज	-11.9362
त्तर	-11.9367
▁स्नैप	-11.9367
ाह	-11.9369
क्	-11.937
▁फूला	-11.938
िद्ध	-11.938
चन	-11.9383
फ्ट	-11.9388
▁उज़्बेक	-11.9388
▁इलायची	-11.9388
▁उडुपी	-11.9388
▁एज़िथ्रोमाइसिन	-11.9388
▁ग्वाटेमाला	-11.9388
▁धैर्य	-11.9388
▁निहत्थ	-11.9388
▁प्रोफेशनल	-11.9388
▁मैनहट्टन	-11.9388
▁युधिष्ठिर	-11.9388
▁व्हीलचेयर	-11.9388
▁क्रॉनिकल	-11.9388
▁मोरक्को	-11.9388
▁सुगन्ध	-11.9388
▁हेगड़े	-11.9389
▁औरंगाबाद	-11.9389
▁सोलोमन	-11.9389
▁निवारक	-11.9389
▁रीमेक	-11.9389
▁नौशाद	-11.9389
▁स्कर्वी	-11.9389
▁ट्रिनिट	-11.9389
▁राजनीतिज्ञ	-11.9389
▁दरवाज़ा	-11.9389
▁अविश्वसनीय	-11.9389
▁बैटमैन	-11.9389
▁अध्यादेश	-11.9389
▁फंक्शन	-11.9389
▁झड़प	-11.9389
▁जनेरियो	-11.9389
▁होल्कर	-11.9389
▁चप्पू	-11.9389
▁स्वेच्छ	-11.9389
▁अनाथालय	-11.9389
▁तथापि	-11.9389
▁सूरमा	-11.9389
▁सुअर	-11.939
▁खिलौनों	-11.939
▁आइकन	-11.939
▁डैश	-11.939
▁निश्चय	-11.9391
▁प्रसंस्करण	-11.9391
▁झुकाव	-11.9391
▁कैनेडी	-11.9391
▁बैंकॉक	-11.9391
▁संजाल	-11.9391
पो	-11.9391
▁टैप	-11.9392
▁बहरीन	-11.9392
▁कविताएँ	-11.9392
▁रिफंड	-11.9392
▁जस्टिन	-11.9393
▁सूबेदार	-11.9393
▁डोमेन	-11.9393
▁मनीष	-11.9393
▁लीबिया	-11.9393
▁इन्	-11.9393
▁स्लैम	-11.9393
▁ईयर	-11.9394
▁मददगार	-11.9395
▁उद्भव	-11.9396
▁प्लेग	-11.9396
▁बांसुरी	-11.9397
▁बेरोजगारी	-11.9397
ट्टा	-11.9397
▁संपदा	-11.9397
▁भेजन	-11.9398
▁रिजर्व	-11.9398
▁रबड़	-11.9398
▁आचरण	-11.9399
▁चकमा	-11.94
▁फँस	-11.94
▁सुनामी	-11.9401
▁वामन	-11.9402
▁संकुचन	-11.9402
▁डेनिस	-11.9402
हाथ	-11.9402
▁कृपा	-11.9404
▁भाषाएं	-11.9405
▁लेजर	-11.9406
▁भूलें	-11.9406
बूटियों	-11.9407
▁जैज़	-11.9409
▁अंगद	-11.9409
▁चटगाँव	-11.941
▁शिवालिक	-11.9411
▁निकिता	-11.9411
▁सामरिक	-11.9412
▁हाउज़	-11.9413
▁वाइल्ड	-11.9413
हत	-11.9413
जून	-11.9415
▁फ़्रांसीसी	-11.9416
▁आंगन	-11.9417
▁हृद्	-11.9418
▁रोनाल्ड	-11.9419
▁मिजो	-11.9419
▁निन्टेंड	-11.9419
▁तटस्थ	-11.9421
▁वर्णम	-11.9422
▁ट्र	-11.9422
▁लॉयड	-11.9423
▁स्थलाकृति	-11.9427
▁आरंभिक	-11.9428
▁लोहार	-11.9429
▁बल्ले	-11.9429
▁वू	-11.9429
▁निकालते	-11.943
▁भारतपुड़ा	-11.9431
▁टुडे	-11.9432
▁आटे	-11.9432
▁तपस्वी	-11.9433
▁संवहनी	-11.9434
गोल	-11.9437
▁चूर्ण	-11.9438
मीर	-11.9439
▁नॉर्डिक	-11.9439
▁किण्व	-11.944
▁नोवा	-11.944
▁समावेश	-11.944
▁रेटिनोइ	-11.9444
▁गांठ	-11.9444
▁बिल्लियों	-11.9444
िविल	-11.9445
▁करों	-11.9447
ज़ीका	-11.9449
▁ब्राउज़र	-11.945
ट्री	-11.9451
▁प्लेयर	-11.9455
▁नवोद	-11.9455
▁डायरेक्टर	-11.9456
▁अल्पाइन	-11.9457
▁खारे	-11.9458
्दे	-11.946
▁संग	-11.9461
▁सोते	-11.9464
▁लम्ब	-11.9464
ामी	-11.9464
▁हल्दी	-11.9466
▁दक्षिणपूर्व	-11.9469
▁अक्षम	-11.947
णा	-11.9476
▁चंपा	-11.9478
कृष्ण	-11.9482
टोक	-11.9483
▁डोम	-11.9483
▁घरानों	-11.9483
▁आंद्रे	-11.9484
▁सराय	-11.9484
कॉइन	-11.9485
▁शॉल	-11.9487
▁विचल	-11.9488
कोई	-11.9491
▁कुषाणों	-11.9495
▁वाल्टर	-11.9496
रान	-11.95
▁नामकरण	-11.95
▁चंदन	-11.9501
फू	-11.9501
निगम	-11.9502
▁मंजू	-11.9503
छात्र	-11.9504
▁पेनिसिलिन	-11.9504
राष्ट्र	-11.9506
▁तुंग	-11.9511
▁फ्लोर	-11.9515
तुलनीय	-11.9517
▁सेवक	-11.9518
टू	-11.9525
फल	-11.9526
▁गज़	-11.9527
▁थैलेसीमिया	-11.9528
▁अभियोजक	-11.9534
▁गोरा	-11.9535
टोरेंट	-11.9536
▁मुक्केबाज़ी	-11.9536
▁देय	-11.9541
रुख	-11.9542
सीमा	-11.9544
नसों	-11.9547
▁खर	-11.9548
▁विक्ट	-11.956
▁बुद्धि	-11.956
▁मनी	-11.9566
पानी	-11.9566
▁डंडा	-11.9572
▁सावधान	-11.9572
▁छिड़	-11.9574
▁सिराज	-11.9578
▁रमन	-11.9581
वादन	-11.9581
▁कैम	-11.9587
▁गौरी	-11.9594
▁अबू	-11.9597
▁शेल	-11.9598
▁मंगा	-11.9599
विरोधी	-11.9602
प्रतिद्वंद्वियों	-11.9604
ावली	-11.9609
▁जीतकर	-11.9616
जब	-11.9616
▁उतारा	-11.9618
कोंडा	-11.9619
▁छठ	-11.962
▁धृतम	-11.962
▁यूनिट	-11.9631
▁लालच	-11.9635
यवन	-11.9636
▁रश	-11.9638
▁नाद	-11.9642
▁सबके	-11.9643
▁कैरी	-11.9643
▁कैर	-11.9644
▁बुझा	-11.9644
▁सैमस	-11.9645
▁ओसा	-11.965
▁पेशे	-11.965
▁अंड	-11.9652
तार	-11.9659
▁आमने	-11.966
मासी	-11.9669
▁टाइल	-11.9672
▁लोककथा	-11.9674
▁बिक्र	-11.968
▁अन्न	-11.9686
▁संकेतक	-11.9693
▁अफ़गान	-11.9694
▁विज़	-11.9696
चिंग	-11.97
▁पढ़त	-11.9707
बिल	-11.9719
▁कमजोरी	-11.9724
▁चिर	-11.9727
ांक	-11.9727
▁कास्प	-11.9729
▁जूना	-11.9732
▁ऊ	-11.9736
▁मनमोह	-11.9737
▁आज़ाद	-11.9738
मोशन	-11.9742
▁एं	-11.9746
▁आपूर्तिकर्ता	-11.9747
ब्रो	-11.9753
वत	-11.9759
ाय	-11.9765
▁जिमनास्ट	-11.9768
▁सरकारें	-11.9774
प्स	-11.9776
▁टूल	-11.9778
▁विंग	-11.9783
तों	-11.9783
▁दही	-11.9785
▁विक्	-11.9787
▁गोथ	-11.979
▁कहानिया	-11.9793
परांत	-11.9797
िंगटन	-11.9797
िय	-11.9797
▁निपटान	-11.9799
घात	-11.9801
▁परिपूर्ण	-11.9804
▁विशु	-11.9808
▁तंतु	-11.9814
▁प्रतिरक्ष	-11.9816
टि	-11.9817
िज्म	-11.9817
▁हिला	-11.9819
▁नादे	-11.9821
▁गोरखा	-11.9824
अनुसूची	-11.9826
▁पैट	-11.9828
रु	-11.9828
ुष्ठ	-11.9832
थन	-11.9832
▁सिंच	-11.9837
▁अंतरा	-11.9837
▁कॉलोन	-11.9839
▁रेडिफ	-11.9841
▁ड्रेस	-11.9846
तिज	-11.9852
संघ	-11.9852
▁सुल	-11.9854
ांडा	-11.9856
▁पं	-11.9856
▁संभालत	-11.9862
▁अनिश्चितता	-11.9862
▁देहर	-11.9873
▁मेलों	-11.9874
नाते	-11.988
▁गुम	-11.9882
ाची	-11.9882
▁कारखान	-11.9882
▁दिव्या	-11.9895
▁टूटे	-11.9895
▁मकबर	-11.9901
▁कहां	-11.9902
▁बें	-11.9904
पात	-11.9905
▁जूझ	-11.9908
लर्स	-11.9919
▁डकैत	-11.9922
▁मिन	-11.9923
▁फेरे	-11.9923
रि	-11.9926
▁राजराज	-11.9928
▁गुरुद्वार	-11.9928
ृष्टि	-11.9929
सिन	-11.9933
वांग	-11.9936
▁कदंब	-11.9937
ध्याय	-11.9942
▁नै	-11.9943
सने	-11.9946
▁पंचम	-11.9946
बेरी	-11.9954
लाभ	-11.9955
षभ	-11.9955
▁सुगंध	-11.9959
▁घुल	-11.9959
ग्राफिक	-11.996
▁सृजन	-11.9962
▁सेल्यू	-11.9963
▁नौव	-11.9964
तिहासिक	-11.9964
▁हेरा	-11.9965
▁सुस्त	-11.9969
▁मात	-11.9969
क्षत्र	-11.997
ार्ध	-11.9972
▁डेनियल	-11.9972
▁नॉर	-11.9974
▁स्पेशल	-11.9977
▁आग्नेयास्त्र	-11.9977
▁एस्पिरिन	-11.9977
▁खजुराहो	-11.9977
▁चरमोत्कर्ष	-11.9977
▁जैसलमेर	-11.9977
▁बारबाडोस	-11.9977
▁बुडापेस्ट	-11.9977
▁बेनेडिक्ट	-11.9977
▁मल्होत्रा	-11.9977
▁मेसोपोटामिया	-11.9977
▁व्योमिंग	-11.9977
▁हथकरघा	-11.9977
▁अजंता	-11.9977
▁ओबेरॉय	-11.9977
▁तंजौर	-11.9977
▁चाइना	-11.9977
▁फतेह	-11.9977
▁नरसिम्हा	-11.9977
▁नेपोलियन	-11.9977
▁रिसर्च	-11.9977
▁हिम्मत	-11.9977
आयनीकारक	-11.9977
▁फेलुदा	-11.9977
▁सौभाग्य	-11.9977
▁संगरोध	-11.9977
▁रियलिटी	-11.9977
▁पीटर्सबर्ग	-11.9977
▁फलस्वरूप	-11.9977
▁स्टार्टअप	-11.9977
▁नाबालिग	-11.9977
▁असंतुष्ट	-11.9977
▁पैरालम्पिक	-11.9977
▁ज्यामित	-11.9977
▁स्तनधारी	-11.9977
▁अस्थमा	-11.9977
▁सौम्य	-11.9977
▁अचीव	-11.9977
▁अरोड़ा	-11.9977
▁हीमोग्लोबिन	-11.9977
▁आत्मरक्षा	-11.9977
▁फिल्टर	-11.9977
▁मातृभूमि	-11.9977
▁अंबेडकर	-11.9977
▁सद्भाव	-11.9978
▁जादूगर	-11.9978
शर्मनाक	-11.9978
▁ट्रेकिंग	-11.9978
▁गैलरी	-11.9978
▁प्रलोभन	-11.9979
▁डागर	-11.9979
▁मुट्ठी	-11.9979
▁वियना	-11.9979
▁बस्तियाँ	-11.9979
भयंकर	-11.9979
▁भोजपुरी	-11.9979
▁रीगन	-11.9979
▁संकाय	-11.998
▁स्कंद	-11.998
▁वीर्य	-11.998
भयावह	-11.998
▁अल्जीरिया	-11.9981
▁पाएँगे	-11.9982
▁खांडे	-11.9982
▁आईपैड	-11.9982
▁पुनरावर्त	-11.9982
▁कढ़ाई	-11.9983
▁विश्वव्यापी	-11.9983
▁मट्टू	-11.9983
▁प्राइस	-11.9984
▁बत्रा	-11.9984
▁निर्वाण	-11.9984
▁सम्भावना	-11.9985
▁चिंतन	-11.9985
▁कटाव	-11.9985
▁सेल्टिक	-11.9985
▁ग्रैमी	-11.9985
▁बक्सर	-11.9986
▁मरीन	-11.9986
यांग	-11.9987
▁क्रिस्टोफर	-11.9987
▁फ़ोटो	-11.9988
▁संकुल	-11.9988
▁स्वराज	-11.9988
▁माउस	-11.999
▁घाटियाँ	-11.999
▁सिंग	-11.999
▁प्रयोगात्मक	-11.9992
▁उत्प्रेरक	-11.9992
▁अलवर	-11.9993
▁शिवानी	-11.9993
▁तटबंध	-11.9994
▁सरोवर	-11.9995
▁दशहरा	-11.9995
▁बहाना	-11.9996
▁तोशाम	-11.9996
▁कॉर्पोरेट	-11.9997
▁आबू	-11.9998
▁बधाई	-11.9998
स्का	-11.9999
▁टिकाऊ	-11.9999
▁ताप्ती	-11.9999
▁मॉस्को	-11.9999
▁अफ़्रीका	-11.9999
▁कोट्टायम	-11.9999
▁चैत्र	-12
▁सरसों	-12
▁बंदिश	-12.0001
▁प्रशंसित	-12.0001
▁गृहस्थ	-12.0002
▁गैलेक्	-12.0003
▁संकोच	-12.0003
मैनुअल	-12.0004
टर्स	-12.0005
▁सांगा	-12.0005
▁डंडे	-12.0008
पुरा	-12.0008
केंद्रित	-12.0009
▁वन्य	-12.001
▁मैड	-12.001
▁उद्	-12.001
▁प्रस्थान	-12.001
▁खबरें	-12.0011
▁नतीज	-12.0011
घाती	-12.0012
▁बेचैनी	-12.0013
पब्लिक	-12.0014
ताई	-12.0015
मूल	-12.0016
▁कथाएँ	-12.0018
▁डु	-12.0019
वचन	-12.0022
▁बोलती	-12.0022
▁उन्माद	-12.0023
▁प्रांगण	-12.0024
▁बिकने	-12.0024
▁डेर	-12.0024
▁मुवाट्टुपुड़ा	-12.0024
▁कार्तिकेय	-12.0025
▁सॉकर	-12.0027
▁उभार	-12.003
▁क्रीक	-12.0035
▁पहुँचाया	-12.0036
परिवर्तन	-12.0037
▁लम्बे	-12.0038
रोमियो	-12.0039
घंटे	-12.0041
▁चट्टानें	-12.0042
▁मांगत	-12.0047
▁आशुरचना	-12.0049
▁विधायक	-12.0051
▁पाइरेट	-12.0054
▁अब्बास	-12.0055
▁फैंट	-12.0057
▁रखकर	-12.0057
▁हॉर्स	-12.0059
▁सर्जन	-12.0059
ियाना	-12.0061
जुलता	-12.0063
शत	-12.0065
दारी	-12.0069
आर्थिक	-12.007
▁पाला	-12.0071
▁आत्मकथा	-12.0072
डर	-12.0075
▁अपूर्ण	-12.0075
▁फेयर	-12.0078
ंपुर	-12.0081
▁उमा	-12.0085
▁सील	-12.0091
▁ब्राह्म	-12.0091
▁उर्फ	-12.0095
▁प्रतिजन	-12.0096
तमिल	-12.0099
▁कार्लस	-12.0099
▁अनूठा	-12.0099
▁बाज़	-12.01
▁डायर	-12.0105
▁भुज	-12.0106
▁लिखीं	-12.0107
सूली	-12.0109
▁बर्	-12.0111
▁खर्चे	-12.0112
▁माँगने	-12.0113
▁आयकर	-12.0114
▁आरोहण	-12.0122
▁आधान	-12.0122
बर्गर	-12.0123
▁छींक	-12.0123
▁कार्	-12.0125
▁कुश	-12.0125
▁फाइलों	-12.013
▁पत्रकारों	-12.0132
▁अक्	-12.0135
फिर	-12.0135
ियाई	-12.0137
▁जमी	-12.014
वैदिक	-12.0143
▁पहुंची	-12.0156
▁आशु	-12.0162
▁जाहिर	-12.0162
लक्ष्मी	-12.0163
अनुवाद	-12.0166
▁दर्र	-12.0167
▁योन	-12.0172
▁छुआ	-12.0174
शाब्दिक	-12.0178
▁पहुंचना	-12.0178
▁झीलें	-12.0178
जिस	-12.018
दूर	-12.0185
कभार	-12.0185
▁मारी	-12.0187
▁क्रू	-12.0187
▁सूखा	-12.0188
ख्वाह	-12.0188
सस	-12.019
▁फोर्स	-12.019
▁चूह	-12.0193
▁काशी	-12.0194
ेनबर्ग	-12.0195
▁गौड़	-12.0196
▁छुड़ा	-12.0199
चरण	-12.0202
▁एंट	-12.0203
▁आद	-12.0204
योगिक	-12.0207
▁गढ़ा	-12.0207
▁संवेदन	-12.0209
▁वेश्या	-12.0209
डस्ट	-12.0213
ेगा	-12.0216
▁सनम	-12.0217
▁वक्ता	-12.0219
▁बरुथ	-12.022
▁भाप	-12.0221
ऑन	-12.0222
ुकिंग	-12.0231
देश	-12.0232
▁स्लेज	-12.0235
▁सम्	-12.0235
▁नाच	-12.0236
▁निभाईं	-12.0238
▁बादल	-12.0238
ांडर	-12.0239
ैली	-12.0243
▁कुक	-12.0243
▁इनक	-12.0253
▁नॉर्	-12.0255
▁उत्तेजना	-12.026
▁सिखा	-12.0262
बान	-12.0264
▁हुक	-12.027
▁रूमान	-12.0273
▁व्युत्पत्ति	-12.0274
फेल्ड	-12.0275
मांस	-12.0276
ेन्द्र	-12.0278
राबाई	-12.028
दर्शन	-12.0282
▁वेंकट	-12.0285
▁ब्यूर	-12.0289
▁पर्यावरणी	-12.029
▁काठिन्य	-12.029
ुलेटर	-12.0291
ाएं	-12.0292
▁बरी	-12.0293
वेशन	-12.0294
नुसार	-12.0297
▁स्क्रिप्ट	-12.0298
ोटी	-12.0301
न्या	-12.0301
▁प्रण	-12.0306
लमार	-12.0307
▁ब्लड	-12.031
वश	-12.031
कर्म	-12.0312
▁बालक	-12.0312
▁स्प	-12.0313
देवी	-12.0314
निंग	-12.0315
▁दबान	-12.0315
▁लाएँ	-12.0321
▁उधारकर्ता	-12.0326
▁बदलता	-12.0327
लान	-12.0327
▁इंस्टा	-12.0328
▁प्रदूष	-12.0335
▁दस्तान	-12.0336
▁अंतत	-12.0342
रोही	-12.0343
▁ड्रीम	-12.0344
▁ठहर	-12.0345
▁ढकी	-12.0349
विच	-12.0361
▁पिल्ल	-12.0379
▁रेटिना	-12.0379
▁नल	-12.038
बर्न	-12.038
ाही	-12.0384
पार	-12.0391
धीर	-12.0392
यार्ड	-12.0393
▁ज्योतिष	-12.0393
्यूरो	-12.0393
ायक	-12.0399
▁विकासकर्ता	-12.0404
▁पड़ाव	-12.0404
▁टॉप	-12.0406
शिमा	-12.0408
ग्रह	-12.0412
▁सुबर्ण	-12.0417
हरी	-12.0419
▁सर्द	-12.0423
▁पद्य	-12.0424
तिन	-12.043
▁जाय	-12.0431
ुसम	-12.0436
▁स्पेस	-12.0439
क्की	-12.0442
संभावनाओं	-12.0448
▁क्रिस्टी	-12.0449
▁तारे	-12.0457
▁चक	-12.0469
ध्य	-12.0475
▁प्रत्याश	-12.0483
पथ	-12.0484
पेट	-12.0484
▁पेरुम	-12.049
▁करूँ	-12.049
▁सेतु	-12.0491
▁भटक	-12.0499
▁बसा	-12.0502
स्थानीय	-12.0503
▁वैक्स	-12.0504
वेज	-12.0507
▁मज	-12.0509
▁बाथ	-12.0511
▁सदा	-12.0517
▁माघ	-12.052
हेड	-12.0522
▁उछल	-12.0524
▁मिशनरी	-12.0533
▁बायो	-12.0538
▁संबलपुर	-12.0541
▁ऑक्सी	-12.0541
▁मुक्केबाज	-12.0542
▁लगन	-12.0548
▁भड़क	-12.0549
▁निरोध	-12.055
गस	-12.055
▁निकाले	-12.0551
▁परिसंघ	-12.0553
▁खिला	-12.0554
▁राज़	-12.0556
रियस	-12.0556
▁वॉ	-12.0557
दोष	-12.0557
कोल	-12.0563
मनी	-12.0564
▁स्केटर	-12.0564
स्टेड	-12.0567
▁क्यूब	-12.0567
▁अंदाज	-12.0569
▁पत्रकारि	-12.0572
ेस्ट	-12.0573
▁सिल	-12.0574
वाड़ी	-12.0576
कई	-12.0578
ल्प	-12.0579
▁मेहमान	-12.058
मि	-12.058
शब्द	-12.0581
▁म्यूज़िक	-12.0582
▁लता	-12.0584
▁तोड़ा	-12.0589
▁निर्मल	-12.059
छाड़	-12.0592
मिक	-12.0595
▁अपराजित	-12.0596
▁रैपिड	-12.0599
स्फीति	-12.06
▁शोधकर्ता	-12.0601
▁अफ़्रीकी	-12.0602
▁इस्माइल	-12.0602
▁एजुकेशन	-12.0602
▁कास्पारोव	-12.0602
▁टोपालोव	-12.0602
▁पुनरुद्धार	-12.0602
▁पॉलिटेक्निक	-12.0602
▁प्रह्लाद	-12.0602
▁माउंटबेटन	-12.0602
▁मिनिकॉय	-12.0602
▁वेस्टमिंस्टर	-12.0602
▁आइसक्रीम	-12.0602
▁कन्याकुमारी	-12.0602
▁ट्यूनीशिया	-12.0602
▁तेहरान	-12.0602
▁स्थापत्य	-12.0602
▁कैथरीन	-12.0602
▁ऑरलियन्स	-12.0602
▁कैंपबेल	-12.0602
▁मैनिटोबा	-12.0602
▁इकबाल	-12.0602
▁चौबीस	-12.0602
▁मुक़दम	-12.0602
▁समोआ	-12.0602
▁कैनबरा	-12.0602
▁फेयरफील्ड	-12.0602
▁मिथ्या	-12.0602
▁हॉवर्ड	-12.0602
▁बेईमान	-12.0602
▁क्रैमनिक	-12.0602
▁लचीलापन	-12.0602
▁ओटावा	-12.0602
▁महाधमनी	-12.0602
▁ग्लासगो	-12.0602
▁तालवाद्य	-12.0602
▁मछलियाँ	-12.0602
▁डिज़नी	-12.0602
▁उत्थान	-12.0602
▁अंबानी	-12.0602
▁किशनगढ़	-12.0602
▁न्यायपालिका	-12.0602
▁ओरेगॉन	-12.0602
▁गोलटेंडर	-12.0602
▁प्लीज़	-12.0602
▁डेंगू	-12.0602
▁डेबिट	-12.0602
▁घोंसल	-12.0603
▁मुमताज	-12.0603
▁ब्रेस्ट	-12.0603
▁डिफेंडर	-12.0603
▁पेनांग	-12.0603
▁अलंकरण	-12.0603
▁ओलाव	-12.0603
▁सुरेश	-12.0603
▁जिनेवा	-12.0603
▁गठिया	-12.0603
▁झाड़ियाँ	-12.0604
▁कैनेडियन	-12.0604
▁पोर्टलैंड	-12.0604
▁पिक्सेल	-12.0604
▁वेल्लोर	-12.0605
▁जाऊँगा	-12.0607
▁सीकरी	-12.0609
▁हिन्दू	-12.0609
▁क्रूज	-12.0609
▁अल्बानिया	-12.061
▁लाइब्रेरी	-12.0611
▁सिद्दीकी	-12.0612
▁वेगास	-12.0612
▁नमकीन	-12.0613
वर्ड	-12.0614
▁स्टीफ	-12.0615
▁पेस्ट	-12.0615
▁जीभ	-12.0615
▁अधिसूचना	-12.0616
▁नक्शे	-12.0616
▁चलेगा	-12.0616
▁गुरुत्व	-12.0617
▁धीमे	-12.0618
▁सौद	-12.062
▁विंडो	-12.0621
▁आयर्स	-12.0622
▁शक्तियाँ	-12.0623
▁मोटर्स	-12.0623
▁हेवी	-12.0623
▁अफसोस	-12.0625
▁ऑर्किड	-12.0625
▁पलकें	-12.0625
▁क्लीवलैंड	-12.0625
▁सर्वसम्मत	-12.0625
▁पगडंड	-12.0626
▁परिवेश	-12.0626
▁कंक्रीट	-12.0626
▁वेश्यावृत्ति	-12.0626
▁आइडिया	-12.0626
▁रचनात्मकता	-12.0627
▁प्रमस्तिष्क	-12.0627
▁कूटनीति	-12.0627
▁लिफ्ट	-12.0628
▁मरीज	-12.0628
बिनेट	-12.0628
▁कौरवों	-12.0629
▁चौराह	-12.0629
▁लैरी	-12.063
▁मुद्रण	-12.063
▁सौदेबाजी	-12.0631
▁संयोजित	-12.0631
▁कठपुतली	-12.0632
नीचे	-12.0633
▁बेस्ट	-12.0634
▁सैक्सन	-12.0635
▁साउंड	-12.0635
▁जैम	-12.0637
▁फ़ेम	-12.0639
ैन्सी	-12.064
▁जर	-12.0643
▁वार्न	-12.065
▁खेलेंगे	-12.0651
▁कल्पनास्वरम	-12.0651
▁बलूचिस्तान	-12.0652
▁गणपति	-12.0652
▁मॉरिस	-12.0653
▁संकुच	-12.0653
▁स्केन	-12.0654
▁महादेव	-12.0656
▁बसु	-12.0658
▁अहिंसा	-12.0658
▁बाइट	-12.066
▁घर्षण	-12.0661
श्य	-12.0663
▁मनोचिकित्सक	-12.0663
▁मोर्चा	-12.0664
▁ऑप्टिक	-12.0665
▁ताइप	-12.0667
दुई	-12.0668
▁प्रतिक्रियाओं	-12.0669
▁थाली	-12.0671
▁खंडवा	-12.0674
▁सपोर्ट	-12.0675
▁जेरी	-12.0675
▁सैंट	-12.0677
▁स्पीड	-12.0678
▁कड़ा	-12.0678
नौका	-12.068
शाला	-12.0681
▁ड्रॉप	-12.0683
▁बगीचों	-12.0686
▁काओ	-12.0689
▁पुस्तकें	-12.069
▁मास्क	-12.0691
▁वल्लभ	-12.0691
▁पला	-12.0692
▁धारावाहिकों	-12.0692
▁सीखत	-12.07
▁उठाई	-12.0701
▁थाईप	-12.0703
▁त्रिशा	-12.0703
▁वैगन	-12.0704
▁गेंदबाजों	-12.0705
▁एज	-12.071
▁रच	-12.071
▁आंकड़ा	-12.0712
▁बच्च	-12.0713
▁कमीज	-12.0715
▁दीपिका	-12.0716
▁उठाता	-12.0717
▁राख	-12.0718
▁दलाली	-12.0722
▁श्रा	-12.0722
▁त्रासद	-12.0723
सवम	-12.0723
रोड	-12.0725
गेम	-12.0726
स्टाइल	-12.073
ायर	-12.0734
▁सच्च	-12.0735
▁परमेश्वर	-12.0737
▁मजा	-12.0737
▁टैब	-12.0738
▁ताली	-12.074
लिस	-12.074
▁बर्बर	-12.0741
▁जावेद	-12.0743
▁संभाग	-12.0744
▁डेथ	-12.0746
▁री	-12.0746
▁संप्रदायों	-12.0746
▁जोन्	-12.0749
चक	-12.075
▁कैथल	-12.0752
▁अभद्र	-12.0752
▁पैंथर	-12.0753
राधिका	-12.0759
विद	-12.0761
यी	-12.0766
▁ट्यूब	-12.0766
▁नही	-12.0767
▁बैरी	-12.0771
िधि	-12.0771
▁किशन	-12.0772
▁साहसी	-12.0775
▁मंत्रि	-12.0776
▁एलेन	-12.0776
रकों	-12.0777
▁करतब	-12.078
▁स्टिंग	-12.078
ँग	-12.0782
सिख	-12.0784
▁आकृतियों	-12.0784
▁केली	-12.0789
▁फूट	-12.0789
▁सातवा	-12.079
▁कराए	-12.0795
सोच	-12.0795
▁पालकी	-12.0796
▁उद्यमी	-12.0797
▁बजाता	-12.0798
▁वें	-12.0808
▁ओलिव	-12.0808
▁प्यारी	-12.081
▁दाब	-12.081
▁रिच	-12.0811
▁विभेद	-12.0812
वो	-12.0813
मोंट	-12.0818
दन	-12.082
▁तिथिय	-12.0821
▁शार्ल	-12.0825
्लैंडर्स	-12.0828
▁राजू	-12.0828
▁पैट्रि	-12.0831
▁सोची	-12.0835
तरफा	-12.0835
▁फेंकत	-12.0837
▁ते	-12.084
▁फ़े	-12.0843
न्नी	-12.0844
बिशप	-12.0845
हर्ट्ज़	-12.0849
▁कंगन	-12.0851
▁लातविया	-12.0851
▁जेफ	-12.0851
बाज़ी	-12.0851
ज्ञा	-12.0855
▁कू	-12.0857
▁फाड़	-12.0858
▁कैंप	-12.0858
विनय	-12.086
▁ट्रै	-12.0861
▁पाँचव	-12.0861
▁तैर	-12.0867
▁साग	-12.0867
▁स्ट्रीम	-12.0867
▁फेंके	-12.0869
▁सत्रह	-12.0873
▁तरण	-12.0878
वर्जित	-12.0878
▁लूप	-12.0878
मंदिर	-12.0878
क्षण	-12.0881
प्रिय	-12.0884
▁ड्यू	-12.0885
▁क्लाउड	-12.0886
▁कॉन्	-12.0889
▁पूजन	-12.0889
▁फेन	-12.0893
▁मैग	-12.0896
ाकर	-12.0906
▁धा	-12.0909
वारा	-12.0917
▁महँग	-12.0919
मिट	-12.092
▁चित्त	-12.0921
अखाड़े	-12.0922
▁पार्कर	-12.0925
्सबर्ग	-12.0927
▁गेट्स	-12.0927
▁रेस्	-12.0929
▁गंद	-12.0935
▁कपाल	-12.094
रक्त	-12.0941
▁बुर्ज	-12.0944
कर्त	-12.0945
▁टेट्रा	-12.0949
िणी	-12.095
▁सतहों	-12.0952
▁स्त्री	-12.0953
▁हरित	-12.096
त्रयी	-12.096
▁हू	-12.0961
बस	-12.0963
सल	-12.0965
▁एड्स	-12.0965
▁स्टोक	-12.0969
ॉक	-12.097
▁फो	-12.0972
▁समझदार	-12.0973
फीफ	-12.0974
▁यांग	-12.0977
कुट्टी	-12.0979
▁स्थाना	-12.0979
यूर	-12.0981
▁रोज़ा	-12.0981
▁काटे	-12.0983
▁भौतिकी	-12.0984
▁टाय	-12.0984
▁मुइज़	-12.0993
▁डॉर्टम	-12.0994
▁प्रतिबद्ध	-12.0995
▁सूक्ष्मजीव	-12.1005
▁विस्फोटक	-12.1007
▁होस्ट	-12.1012
▁श्याम	-12.1012
रार	-12.1013
िलंबित	-12.1014
▁पेंसिल	-12.1017
केश	-12.1028
ज़ो	-12.1031
ैरियर	-12.1046
▁मुंडा	-12.1051
ैल	-12.1051
्थ	-12.1053
▁मेमोर	-12.1053
लव	-12.1054
ेरा	-12.1057
▁झाड़	-12.1057
▁मान्य	-12.1058
▁जनक	-12.106
▁कीर्तन	-12.1067
▁तंत्रिकाकोशिका	-12.1071
▁इको	-12.1072
▁कोट	-12.1086
मान्य	-12.1087
सेक्स	-12.1087
▁अद्वैत	-12.109
अल	-12.1093
संजू	-12.1093
▁गँवा	-12.1099
▁ईगल	-12.11
वेन	-12.1101
▁जांचकर्ता	-12.1118
ट्टम	-12.112
▁अरक्	-12.1121
▁स्लाइड	-12.1126
▁टूटी	-12.1126
▁कारनाम	-12.1126
▁उत्तरदाय	-12.113
▁एंटन	-12.1134
िरी	-12.1134
▁बेरी	-12.1147
ज़ेब	-12.1148
लाता	-12.1151
▁आविष्कारक	-12.1151
स्तान	-12.1152
▁प्रचारक	-12.1157
भा	-12.1167
▁साम्राज्यवाद	-12.117
▁मज्जा	-12.1181
▁सिंघ	-12.1182
▁भु	-12.1182
▁एल्ब	-12.1185
▁तीरंदाज	-12.1186
चू	-12.1194
लॉय	-12.1197
▁क्	-12.12
▁पौध	-12.1201
िन्न	-12.1209
्रे	-12.1217
▁होयसल	-12.1221
▁ल्यूक	-12.1223
▁अप्रवा	-12.1224
▁एलो	-12.1226
▁जलमार्ग	-12.1228
पोल	-12.1228
▁साठ	-12.1233
▁कसम	-12.1237
▁ग्लेन	-12.1238
पुलिस	-12.124
▁कल्प	-12.124
▁धर्मांतर	-12.1248
▁आरा	-12.125
▁रेव	-12.1252
▁टो	-12.1253
ैक्ट	-12.1254
▁नर्तकिय	-12.1255
▁वहन	-12.1256
स्वर	-12.1257
▁बोला	-12.1262
▁जिम्नास्ट	-12.1264
▁अशांत	-12.1266
▁व्याप्त	-12.1266
▁बख्श	-12.1266
▁गिफ्ट	-12.1267
▁एबॉट	-12.1267
▁प्रायश्चित	-12.1268
▁अंडकोष	-12.1268
▁कुंभकोणम	-12.1268
▁कोझिकोड	-12.1268
▁टमाटर	-12.1268
▁डिज़्नी	-12.1268
▁भौंचक्क	-12.1268
▁संबन्धित	-12.1268
▁स्प्रेडशीट	-12.1268
▁गरुड़	-12.1268
▁वशिष्ठ	-12.1268
▁ब्रॉडबैंड	-12.1268
▁अर्धशतक	-12.1268
▁इन्फैंट	-12.1268
▁यॉर्कशायर	-12.1268
▁फ़ाउल	-12.1268
▁नागार्जुन	-12.1268
▁ब्रिगेड	-12.1269
▁रिव्यू	-12.1269
▁उपासना	-12.1269
▁विल्किंस	-12.1269
▁स्मैश	-12.1269
▁अटारी	-12.1269
▁एवेन्यू	-12.1269
▁ससुराल	-12.1269
▁पुरस्कृत	-12.1269
▁ज़ब्त	-12.1269
▁क्रैश	-12.1269
▁खंजर	-12.1269
▁बेलारूस	-12.1269
▁दायित्व	-12.1269
▁जैस्पर	-12.1269
▁नीलगिरी	-12.1269
▁विलासिता	-12.1269
▁मीतेई	-12.1269
▁तेंदुए	-12.1269
▁भारोत्तोलन	-12.1269
▁एयरटेल	-12.1269
▁गौहर	-12.1269
▁मोंटाना	-12.1269
▁मेइतेई	-12.1269
▁ताम्रपत्र	-12.1269
▁हाइड्रोजन	-12.1269
▁अनिच्छा	-12.1269
▁नापसंद	-12.127
▁स्टेटमेंट	-12.127
▁संदीप	-12.127
▁मंज़िल	-12.127
▁जीवनसाथी	-12.127
▁उत्खनन	-12.127
▁कैपिटल	-12.1271
▁प्रश्नावली	-12.1271
िन्हो	-12.1271
▁उकसाया	-12.1271
▁ओरेगन	-12.1271
▁ज़्यादा	-12.1271
म्पा	-12.1272
▁रायगढ़	-12.1272
▁ओस्लो	-12.1272
▁छिट	-12.1272
▁यूगोस्लाविया	-12.1274
▁सिग्नल	-12.1275
▁घटनाएं	-12.1275
▁वर्कुदर	-12.1275
▁कमाल	-12.1275
▁व्हेल	-12.1276
▁बुद्धिमान	-12.1276
▁वेनिस	-12.1277
▁पर्याय	-12.1277
▁शरणार्थियों	-12.1277
▁परिमाण	-12.1278
▁नाचते	-12.1279
▁गुब्बार	-12.1279
▁जफर	-12.1279
▁बर्फ़	-12.128
आपत्तिजनक	-12.128
ोपा	-12.1283
▁प्लग	-12.1284
▁परंपराएँ	-12.1284
▁अस्सी	-12.1285
▁सकेगा	-12.1285
▁क्लिंट	-12.1285
▁झंड	-12.1286
▁स्ट्राइकर	-12.1287
▁जिन्होने	-12.1287
▁टाइफस	-12.129
▁पूर्ति	-12.129
▁चौखट	-12.129
▁प्रियजन	-12.129
▁किकबॉक्सर	-12.129
▁सॉन्ग	-12.129
ुम	-12.1291
पांडिचेरी	-12.1291
▁आवर्तन	-12.1292
▁लूथर	-12.1292
▁पतलून	-12.1292
▁बिन्दु	-12.1293
▁वायनाड	-12.1293
▁अहिल्या	-12.1293
▁मांसाहार	-12.1293
▁वाइसराय	-12.1293
▁क्वार्टरबैक	-12.1293
र्जर	-12.1294
▁बिली	-12.1294
▁शुरु	-12.1294
▁प्रशस्त	-12.1295
▁अस्थिरता	-12.1295
हाइपहेमा	-12.1296
▁श्रृंखलाएँ	-12.1296
▁सलाद	-12.1296
▁पक्की	-12.1296
▁तिलक	-12.1297
▁संयुग्म	-12.1297
▁क्षत्रप	-12.1297
बोर्ग	-12.1298
बायीं	-12.1298
▁पहुँची	-12.1301
▁लातिनी	-12.1304
▁रसेल	-12.1305
नल	-12.1305
▁उड़ात	-12.1305
▁आयुष	-12.1305
▁मर्दान	-12.1305
▁थीसियस	-12.1306
▁अनुमोदन	-12.1307
▁किन	-12.1308
▁वंशाणु	-12.1309
▁धोन	-12.131
▁कंट्रोल	-12.131
शिप्ट	-12.131
▁मशीनें	-12.1311
▁घोल	-12.1312
▁चाँदी	-12.1313
▁राइड	-12.1313
▁टेन	-12.1316
▁कैटेलोनिया	-12.1317
▁एंडी	-12.1318
▁घुसपैठ	-12.132
▁चीरा	-12.132
▁मिथुन	-12.132
▁कम्प्यूटर	-12.132
प्रतिकारक	-12.1321
▁कॉनकॉर्ड	-12.1321
▁विशुद्ध	-12.1321
त्म	-12.1322
ेलो	-12.1325
▁मैकेनिक	-12.1326
▁झगड़े	-12.1326
▁नासा	-12.1327
▁गेमिंग	-12.1327
▁क्षै	-12.1329
परक	-12.1329
डुबकी	-12.133
▁लॉकर	-12.133
▁स्ट्रिंग	-12.1331
▁कन्वें	-12.1334
क्लब	-12.1337
▁तिकड़	-12.1338
▁निक्षेप	-12.1342
▁बाहों	-12.1345
▁मोहित	-12.1348
▁अंधेरी	-12.1348
▁उग्रवाद	-12.1349
▁ओशिनिया	-12.1349
▁ब्ल	-12.135
ैबर	-12.1351
ग्रंथि	-12.1353
▁ग्रेगरी	-12.1356
▁साल्	-12.1356
बिंदु	-12.1356
▁चतुर्	-12.1358
▁वीरता	-12.1361
मिया	-12.1362
▁छून	-12.1364
▁इंडस्ट्रीज	-12.1364
ारंभ	-12.1365
▁उर्वरक	-12.1368
▁आटा	-12.1369
▁पहचाने	-12.1375
राजनीतिक	-12.1377
▁गियर	-12.1379
▁बाला	-12.1381
िच	-12.1382
▁प्रेमियों	-12.1383
▁अयान	-12.1387
▁नास्तिक	-12.139
ाढ़े	-12.139
▁पंप	-12.139
निष्कासन	-12.1392
टस	-12.1393
खने	-12.1394
▁पाएँ	-12.1399
▁शक्तिय	-12.1402
▁दाल	-12.1403
▁कुंत	-12.1404
▁लाइटन	-12.1404
▁कामकाज	-12.1404
▁कांप	-12.141
▁रोगाणु	-12.141
▁रिका	-12.1411
▁बलराम	-12.1411
▁दीर्घा	-12.1412
कोर	-12.1416
बिन	-12.1419
हानि	-12.142
्ता	-12.1426
▁फहरा	-12.1428
मुंबई	-12.1428
▁गिरते	-12.1433
▁फाल्के	-12.1433
▁फटा	-12.1437
▁मनाना	-12.1438
▁पड़त	-12.1439
▁अलगाववाद	-12.144
▁एमी	-12.1441
▁सिट	-12.1442
▁रेटिन	-12.1442
▁विलो	-12.1445
ंत्रिकी	-12.1446
्की	-12.1447
▁विकलांगता	-12.1447
▁पद्मा	-12.1448
संस्कृत	-12.1449
▁ब्लैकहॉक	-12.145
▁कमांड	-12.1455
▁इकोनॉमिक	-12.1456
▁तह	-12.1458
जिन	-12.1462
▁खींचा	-12.1463
मिन	-12.1464
▁खेप	-12.1464
▁आभार	-12.1466
▁मैत्री	-12.1467
फूल	-12.1467
▁रेलमार्ग	-12.147
▁नाइ	-12.1471
ाधर	-12.1475
▁रेन	-12.148
लैंगिक	-12.1487
र्ना	-12.15
▁अहो	-12.1502
▁नाथ	-12.1502
▁दुश्मनी	-12.1504
▁रामा	-12.1505
▁सैंड	-12.1507
पित	-12.1511
▁अंदाज़	-12.1511
ोडोर	-12.1518
जवाब	-12.152
स्ता	-12.1522
▁मुकदमों	-12.1525
तुल्य	-12.1526
▁शेव	-12.1528
▁माँसपेशिय	-12.1528
्न	-12.1533
मियाओ	-12.1533
रिवाज	-12.1536
▁बीचों	-12.1536
मानव	-12.1552
▁गली	-12.1553
▁पिछला	-12.1553
▁टेल	-12.1554
निर्धारण	-12.1556
लता	-12.1557
लेस	-12.1564
▁मुन	-12.1565
▁स्विम	-12.1568
▁ढूँढ़	-12.157
▁पटल	-12.1571
▁बोध	-12.1571
रित	-12.1572
▁जाग	-12.1574
▁उतरत	-12.1574
शत्रु	-12.1575
▁जुड़वा	-12.1577
वैसे	-12.1578
▁ज्यूरिख	-12.158
▁समीक्षाए	-12.1581
पड़ोस	-12.1588
▁क्रूरता	-12.1588
▁सेव	-12.1589
सूचक	-12.1597
▁फेंकी	-12.1597
▁यम	-12.1597
▁बाघों	-12.1598
▁क्रो	-12.1604
ंगर	-12.1611
▁परिवर्तनशील	-12.162
▁जित	-12.1621
वाटर	-12.1627
▁टीप	-12.1628
▁बर्ग	-12.1629
ामिक	-12.1629
सेल्स	-12.163
▁आरोह	-12.1635
▁ट्राइ	-12.1635
स्पेस	-12.1637
ेला	-12.164
▁जुड	-12.164
फ़र	-12.1646
▁आश्व	-12.1652
▁दीन	-12.1652
▁मिटा	-12.1654
▁संश्लेष	-12.1655
▁समझन	-12.1658
▁दौलत	-12.1658
▁उत्तरार्	-12.1665
्स्ट्रा	-12.1672
्व	-12.1672
▁सार्थ	-12.1679
कार्ड	-12.1687
इबी	-12.1689
▁अर्प	-12.1693
गोपाला	-12.1694
▁ऐब	-12.1697
एहसान	-12.1697
▁थैल	-12.17
▁माँगी	-12.1702
▁रस्म	-12.1705
ोंग	-12.1707
▁रणनीतिय	-12.171
▁इल	-12.1717
म्प	-12.1717
ालय	-12.1725
दाता	-12.1725
▁भगा	-12.1725
▁झेल	-12.1726
'।	-12.1727
▁टॉ	-12.1727
ुएला	-12.1732
▁ऑर	-12.1735
▁पकड़ी	-12.1737
िपाह	-12.1741
▁कुरूप	-12.1744
▁अला	-12.1745
▁खोली	-12.1746
▁भुना	-12.175
बेट	-12.1751
▁बोले	-12.1754
च्ची	-12.1757
्रिया	-12.1761
ोनी	-12.1768
पोलिस	-12.1769
▁गुंज	-12.1769
बंदी	-12.1782
▁बेसब	-12.1795
▁ट्रेक	-12.1801
गली	-12.1809
बेन	-12.181
नाने	-12.1818
▁पट्टा	-12.1823
फोड़	-12.1826
▁लोहा	-12.1834
▁अक	-12.1838
▁थैंक	-12.184
▁दिलात	-12.1842
▁महारत	-12.1845
▁अंधा	-12.1853
कु	-12.1856
दादी	-12.1856
र्थक	-12.1857
▁दाने	-12.1858
▁बिल्ल	-12.1869
▁डबल्	-12.1888
थर	-12.1896
▁मेड	-12.1897
▁कलाकृति	-12.1897
▁धीर	-12.1898
कार्य	-12.19
कारक	-12.1902
▁धड़	-12.1904
▁कमांडो	-12.1905
▁पुर	-12.1907
▁हथिया	-12.1907
नहीं	-12.1909
रोहन	-12.1911
▁आर्मेनिया	-12.1912
▁आपा	-12.1913
▁सेब	-12.1913
ेक्स	-12.1926
▁डिलीवर	-12.1928
▁दलित	-12.1931
▁धोखे	-12.1935
▁अर्जेंटीन	-12.1935
मैक	-12.1935
▁वरकुदर	-12.1936
▁अभियोज	-12.1937
णदाता	-12.1937
▁जमींदार	-12.1939
मुरा	-12.194
▁अराजकता	-12.1946
▁संग्रही	-12.1946
▁सीरिया	-12.1953
▁रुकत	-12.1955
डु	-12.1956
▁स्क	-12.1959
मंगोल	-12.196
▁प्रशिक्षु	-12.1965
▁खीर	-12.1965
ौदा	-12.1965
▁जुआन	-12.1966
▁एक्सेल	-12.1967
▁सन्	-12.1967
▁पारस्परिक	-12.1971
▁भावुक	-12.1974
टेंडो	-12.1976
▁क्वींस	-12.1978
▁आइ	-12.1978
ोत्साहित	-12.198
▁टूथपेस्ट	-12.1983
▁मृद्भांड	-12.1983
▁अक्तूबर	-12.1983
▁अल्फ्रेड	-12.1983
▁इकलौत	-12.1983
▁इलिनोय	-12.1983
▁क्लाइम्बिंग	-12.1983
▁झुंकू	-12.1983
▁निदेशालय	-12.1983
▁पूर्ववर्तियों	-12.1983
▁मुजफ्फर	-12.1983
▁मॉनिटर	-12.1983
▁शंघाई	-12.1983
▁नरगिस	-12.1983
▁बीकानेर	-12.1983
▁ऑकलैंड	-12.1983
▁डाइऑक्साइड	-12.1983
▁धनुस्तंभ	-12.1983
▁रीमिक्स	-12.1983
▁नालंदा	-12.1983
▁एंथ्रेक्स	-12.1983
▁बाल्टिस्तान	-12.1983
▁रिटायर	-12.1983
▁हिमस्खलन	-12.1983
▁कुलोत्तुंग	-12.1983
▁चटर्जी	-12.1983
▁रुकावट	-12.1983
▁सुदृढ़	-12.1983
▁स्ट्रिप	-12.1983
▁अभिविन्यास	-12.1983
▁कालिदास	-12.1983
▁अस्थिभंग	-12.1983
▁गॉथिक	-12.1983
▁ठेकेदार	-12.1983
▁मनोविज्ञान	-12.1983
▁पणजी	-12.1983
▁पेट्रोलियम	-12.1983
▁विषुव	-12.1983
▁मुस्कान	-12.1983
▁पुरोहित	-12.1983
▁सिम्फनी	-12.1983
▁ट्रू	-12.1983
▁फोर्ब्स	-12.1983
▁दैत्य	-12.1983
▁आकाशगंगा	-12.1983
▁कुराश	-12.1983
▁ज़ांस्कर	-12.1983
▁गोमांस	-12.1984
▁डामर	-12.1984
▁मुराद	-12.1984
▁विभूषण	-12.1984
▁कराईकल	-12.1984
▁पाऊंगा	-12.1984
▁मतदाताओं	-12.1984
▁कार्टून	-12.1984
▁अहमदनगर	-12.1984
▁शैतान	-12.1984
▁असुविधा	-12.1985
फेस्टिवल	-12.1985
▁पुष्कर	-12.1985
▁डोवर	-12.1985
▁डायमंड	-12.1985
▁आशूरा	-12.1986
डमरू	-12.1986
▁ढाँचा	-12.1986
▁दृष्टिबाधित	-12.1986
▁क्लिनिक	-12.1986
▁मालिनी	-12.1987
▁अधीनस्थ	-12.1987
▁बांह	-12.1987
▁गोलकोंडा	-12.1987
▁बोस्निया	-12.1987
▁मारवर्मन	-12.1987
भ्रंश	-12.1988
▁चटनी	-12.1988
फॉरेस्ट	-12.1988
▁चिल्ड्रन	-12.1988
▁चैत्य	-12.1988
▁पटसन	-12.1988
▁लिबर्ट	-12.1988
▁रायपुर	-12.1989
▁प्रस्तुतकर्ता	-12.1989
▁नॉर्टन	-12.1989
▁पाऊँगा	-12.1989
▁पाचन	-12.199
▁तिरछ	-12.199
▁न्यूटन	-12.1991
नहैम	-12.1992
▁होल्डिंग	-12.1992
▁जनम	-12.1992
▁बनर्जी	-12.1992
▁साबुन	-12.1993
▁दबाएं	-12.1994
▁ग्रोवर	-12.1994
▁स्पर्धाओं	-12.1994
▁फिरोज़	-12.1994
▁कैटरीन	-12.1995
▁लियोनार्ड	-12.1996
▁पियरे	-12.1996
▁पक्षपात	-12.1996
▁रॉबर्ट्स	-12.1998
▁नारे	-12.1998
▁सुमन	-12.1998
▁इक्ता	-12.1998
▁सवाना	-12.1998
▁शुक्र	-12.1999
▁मिथक	-12.2
▁स्ट्राइक	-12.2
▁अंगूर	-12.2
▁धर्मनिरपेक्षता	-12.2001
▁दक्षता	-12.2001
▁घड़े	-12.2002
▁सलामी	-12.2003
▁ट्रंक	-12.2003
▁स्पष्टीकरण	-12.2004
▁मुर्गी	-12.2004
▁मलाया	-12.2005
▁सिग	-12.2005
▁करूंगा	-12.2005
▁नजरबंद	-12.2006
▁ब्रेड	-12.2006
▁कॉपी	-12.2007
▁कन्सास	-12.2007
▁भयभीत	-12.2008
▁उज्बेक	-12.2008
▁शाश्वत	-12.2008
▁मधुबाला	-12.2008
▁निरावल	-12.2008
▁जलाकर	-12.2009
▁सांद्र	-12.2009
▁प्रबन्ध	-12.2009
▁ऐप्स	-12.2009
▁भट्टाचार्य	-12.2009
▁संधिशोथ	-12.2009
▁सिमर	-12.201
ीना	-12.2011
▁टखने	-12.2011
▁संचयन	-12.2012
▁अय्यर	-12.2012
▁टीचर	-12.2014
होमोसिस्टीन	-12.2015
▁बहामा	-12.2015
▁मूलधन	-12.2017
▁देंगी	-12.2017
▁लुकास	-12.2018
▁रियाल	-12.2019
▁सुनना	-12.2021
▁लुक	-12.2021
▁बर्कले	-12.2022
▁हेमा	-12.2022
नृत्य	-12.2022
▁पदनाम	-12.2024
▁स्वप्रतिरक्ष	-12.2024
▁गिराया	-12.2025
▁नाइट्स	-12.2025
▁सांची	-12.2026
▁सजीव	-12.2026
▁सांडा	-12.2028
▁पाव	-12.2028
▁दिनांक	-12.2029
▁बाय	-12.203
स्टोन	-12.2031
ड़ियों	-12.2032
▁आक्रमणकारी	-12.2033
▁कुशलता	-12.2033
▁फैक्ट्	-12.2035
▁रोच	-12.2035
▁देशमुख	-12.2035
▁टॉवर	-12.2036
▁भाद्र	-12.2038
स्टेट	-12.2038
▁एलबम	-12.2039
स्थि	-12.2039
मरणो	-12.204
▁मसालेदार	-12.204
▁गजपति	-12.2042
▁निलय	-12.2044
सभा	-12.2047
जेन	-12.2048
▁गीगा	-12.2049
▁हॉर	-12.2049
ेराल्ड	-12.2051
▁ओलंपिया	-12.2051
पक्ष	-12.2052
▁मुहरों	-12.2054
▁चंदेल	-12.2054
माता	-12.2055
▁स्वार्थ	-12.2056
▁ट्रांसफ	-12.2058
▁पारदर्श	-12.2062
▁समस्त	-12.2064
▁होंडा	-12.2065
▁तीरंदाज़	-12.2065
▁हिप	-12.2066
▁दीक्षा	-12.2066
▁मिट	-12.2068
▁परिण	-12.2069
▁ब्रेन	-12.207
▁अल्फ़ा	-12.207
▁सिम्पस	-12.2071
▁ज़र	-12.2074
▁धर्मशास्त्र	-12.2076
▁जॉय	-12.2078
▁निरीक्षक	-12.2082
▁पश्चात	-12.2083
▁पलटन	-12.2084
▁राइन	-12.2086
▁रेखाचित्र	-12.2086
▁सारणी	-12.2087
▁समझें	-12.2088
▁बोलना	-12.2091
पट्ट	-12.2094
▁गुच्छ	-12.2097
▁रूपक	-12.2099
▁अव्यवस्था	-12.2099
▁उमड़	-12.2102
बेक	-12.2103
इड	-12.2103
आधुनिक	-12.2104
▁शिष्यों	-12.2104
▁इवान	-12.2104
▁रॉकी	-12.2107
▁तापीय	-12.2108
▁हिटर	-12.2109
▁गवाहों	-12.211
▁अनुवादित	-12.211
्वा	-12.2112
▁कुर	-12.2114
ीश्वर	-12.2118
▁कोल	-12.2118
▁वर्षावन	-12.2119
मापा	-12.212
विष्णु	-12.212
फ़ेयर	-12.2121
▁लै	-12.2124
▁राघव	-12.2125
ेना	-12.2127
्को	-12.2127
ोग	-12.2127
विज्ञानी	-12.2129
गार्ड	-12.2132
ोरलैंड	-12.2135
▁चलकर	-12.2136
▁वांग	-12.2141
▁ब्रज	-12.2151
▁हंटर	-12.2152
▁आदिल	-12.2155
नुमा	-12.2157
मंगलम	-12.216
▁तापी	-12.2163
▁मेडल	-12.2168
▁दाद	-12.2168
▁डिश	-12.2169
▁ट्री	-12.2169
▁टोकन	-12.2176
मुख्य	-12.2178
▁मेवे	-12.2179
केरल	-12.2179
्सी	-12.2181
▁अभिया	-12.2181
फ़ोन	-12.2185
▁उबाल	-12.2186
▁धमनिय	-12.2187
▁कैरम	-12.2189
▁कड़े	-12.219
▁ग्रै	-12.2195
▁बिल्डर	-12.2197
विद्यार्थी	-12.2205
▁अवरोहण	-12.221
▁आच्छाद	-12.2214
▁हेली	-12.2215
ुरा	-12.2215
▁बर्तनों	-12.2216
▁गौतमी	-12.2222
▁बेले	-12.2223
▁ब्रि	-12.2228
नूर	-12.2232
लेखक	-12.2234
चीनी	-12.2234
▁निव	-12.2237
▁गोरख	-12.2238
▁भूमध्य	-12.2238
मुस्लिम	-12.2238
खाने	-12.224
▁जिमनास्टिक	-12.2245
▁रंजन	-12.2246
विंग	-12.2247
डरावने	-12.2248
▁खेलीं	-12.2248
ऑर्डर	-12.2251
▁उद	-12.2252
लबर्ग	-12.2257
▁जलने	-12.2262
▁फिलिप्स	-12.2264
▁सैट	-12.2265
▁तलवारों	-12.2266
गाम	-12.2266
ओवर	-12.2266
▁मामा	-12.2268
▁स्पी	-12.227
▁सीमांक	-12.2281
संरक्षक	-12.2283
▁ब्रो	-12.2283
▁राजघरान	-12.2283
▁कांची	-12.2285
▁लिंडा	-12.2286
▁नैनो	-12.2287
▁डेला	-12.2289
तंत्र	-12.2289
मिली	-12.2291
विज्ञान	-12.2291
शुष्क	-12.2292
▁पेंच	-12.2296
▁छूटने	-12.2299
ाड	-12.2302
दर्शित	-12.2305
▁कान्ह	-12.2308
▁खाती	-12.2309
▁जिन्ना	-12.2309
▁गेंदबाज़	-12.2315
▁बारात	-12.2316
दौलत	-12.2319
विद्युत	-12.2319
स्मृति	-12.232
▁चंदा	-12.2324
संप्रदाय	-12.2326
कुश	-12.2326
▁संवेदी	-12.2333
▁सैन्यबल	-12.2335
▁अश्व	-12.2336
▁मंद	-12.2337
▁खोजे	-12.2337
मरी	-12.2338
सहारा	-12.2338
▁सीढ़ी	-12.2339
रमेश	-12.2339
▁बीम	-12.2342
्यता	-12.2343
▁शीश	-12.2344
स्क्रिप्ट	-12.2347
भुज	-12.2347
▁प्रता	-12.2351
▁एज़	-12.2352
जेट	-12.2353
स्थिति	-12.2354
काठिन्य	-12.2354
ॉय	-12.2357
र्विन	-12.2357
एड्स	-12.2359
▁सुचार	-12.2359
मस	-12.2364
▁इरफ	-12.2365
▁एरेन	-12.2367
ल्ला	-12.2371
र्नी	-12.2371
▁जीप	-12.2375
▁कंप	-12.2375
स्थानिक	-12.2376
▁एल्	-12.2377
▁प्रशिक्षकों	-12.2377
ाड़ियों	-12.2377
▁डोंग	-12.2378
वंत	-12.2381
पितृ	-12.2388
▁कॉर्	-12.2388
▁ढूँढन	-12.2391
िंद	-12.2404
▁अमरी	-12.2408
▁थूक	-12.2413
▁कीड़ों	-12.2413
▁ब्रांडों	-12.2414
▁समन्व	-12.2415
क्र	-12.2416
स्टिन	-12.2419
मौके	-12.2422
▁धड़कन	-12.2422
वर्ध	-12.2423
▁निगल	-12.2425
प्रेरित	-12.2426
ेली	-12.2434
जनित	-12.2435
▁फा	-12.2438
▁ढूंढन	-12.2442
▁नारा	-12.2442
▁इमर	-12.2442
▁आओ	-12.2444
डोर	-12.245
कारों	-12.2451
▁थका	-12.2454
भूम	-12.2457
▁बढ़ाई	-12.2459
लिपियों	-12.246
विरोध	-12.2465
परिवर्तनीय	-12.247
▁बृहत्	-12.2472
▁उपकल	-12.2476
मल्ला	-12.2478
▁कही	-12.2481
▁नौसिखिय	-12.2486
▁बैज	-12.2487
▁फला	-12.249
क्यो	-12.25
सुथर	-12.2501
इल	-12.2502
▁एर्ना	-12.2505
▁वोग	-12.2507
▁हरम	-12.251
ेक्शन	-12.2511
ैंगलोर	-12.2513
मजान	-12.2529
वेंट	-12.2533
▁कैनस	-12.254
▁टग	-12.254
▁तला	-12.255
ारे	-12.255
फोर्स	-12.255
▁अटक	-12.2553
मित	-12.2556
प्रा	-12.2557
...	-12.2559
हरा	-12.2561
ज़ान	-12.2563
▁फीड	-12.2567
▁सर्	-12.2572
रफेर	-12.2573
▁धमाक	-12.2574
विकसित	-12.2574
▁केबिन	-12.2575
ोद्धा	-12.2577
दायी	-12.2578
▁शोला	-12.2588
ढका	-12.259
रॉय	-12.2593
र्क	-12.26
▁मूवी	-12.26
▁मंगलम	-12.2603
▁दहन	-12.2605
विचार	-12.2607
केंद्र	-12.261
रेन	-12.2612
▁बारूद	-12.2613
▁बेक	-12.2614
▁ज्यो	-12.2622
▁संस्कृतिय	-12.2636
▁डू	-12.2639
▁पीर	-12.2639
▁पेट्र	-12.2644
▁पनामा	-12.2646
ाज़	-12.2647
▁तर्ज	-12.2648
▁मं	-12.2655
▁नाभि	-12.2655
▁फ़ि	-12.2655
शर्ते	-12.2663
दिल	-12.2668
शंकर	-12.2668
म्प्टन	-12.2672
रोध	-12.2675
▁शोथज	-12.2676
कल्प	-12.2676
▁यूके	-12.2677
▁बंग	-12.2678
बंध	-12.268
ुस	-12.2681
▁शॉ	-12.2682
▁बेहोश	-12.2682
▁बृहद	-12.2685
▁चांग	-12.2687
गाह	-12.2688
▁पर्	-12.2689
जनी	-12.2689
राइस	-12.269
▁बदनाम	-12.2692
समाप्ति	-12.2693
▁सुधा	-12.2693
▁नवाज	-12.2695
▁खोलें	-12.2696
▁रचन	-12.2697
धारित	-12.2702
▁द्वंद्व	-12.2706
ुवा	-12.2707
▁टकरान	-12.2707
ोलिश	-12.2709
▁शेफ	-12.2716
▁जिंद	-12.2717
िकरण	-12.2718
जुली	-12.2718
▁कैसल	-12.2719
▁पर्यवेक्ष	-12.272
कोर्ट	-12.2725
▁स्केल	-12.2725
▁मुआवज	-12.273
गेंद	-12.273
▁संचलन	-12.2731
▁निशा	-12.2736
कार्ट	-12.2739
▁मूर्ख	-12.2742
▁सुसंगत	-12.2743
ोदय	-12.2744
▁फिश	-12.2745
▁मार्को	-12.2746
लेनिन	-12.2749
ोरेंस	-12.2749
▁शत्रुता	-12.275
▁सांख्य	-12.275
▁आभ्यंतर	-12.2752
▁कासरगोड	-12.2752
▁खानाबदोश	-12.2752
▁बरमूडा	-12.2752
▁मंगेतर	-12.2752
▁मोतियाबिंद	-12.2752
▁विवर्तनिक	-12.2752
▁सभरवाल	-12.2752
▁एबरडीन	-12.2752
▁स्तब्ध	-12.2752
▁त्रिनिदाद	-12.2752
▁नैनीताल	-12.2752
▁बतूता	-12.2752
तार्किक	-12.2752
▁छायांकन	-12.2752
▁ब्रुकलिन	-12.2752
▁पूंछ	-12.2752
▁नवविवाहित	-12.2752
▁फीनिक्स	-12.2752
▁अब्दुल्ला	-12.2752
▁टैबलेट	-12.2752
▁सदाशिव	-12.2752
▁कुरुक्षेत्र	-12.2752
▁त्रिशूर	-12.2752
▁मनोभ्रंश	-12.2752
▁सुपरहीरो	-12.2752
▁अनानास	-12.2752
▁दीजिए	-12.2752
▁गुयाना	-12.2752
▁इंडियानापोलिस	-12.2752
▁कृष्णदेवराय	-12.2752
▁गिफ़्ट	-12.2752
▁बर्नार्ड	-12.2752
▁एरिजोना	-12.2752
▁अगत्ती	-12.2752
▁पंचोली	-12.2752
▁देशद्रोह	-12.2752
▁मेरठ	-12.2752
▁फ़ैशन	-12.2752
▁वानिकी	-12.2752
▁बागवानी	-12.2752
▁जलंधर	-12.2752
▁डैलस	-12.2753
▁बगदाद	-12.2753
▁विदिशा	-12.2753
▁बुज़ुर्ग	-12.2753
▁आइजोल	-12.2753
▁मालवाहक	-12.2753
▁पुरंदर	-12.2753
▁संरेख	-12.2754
▁शंख	-12.2754
▁अर्मेनियाई	-12.2754
▁एडवांस	-12.2754
▁मुबारक	-12.2754
कर्मियों	-12.2755
▁स्टॉर्म	-12.2755
▁अर्द्ध	-12.2755
▁बेलगाम	-12.2755
▁दूरबीन	-12.2755
▁धर्मशाला	-12.2755
▁वाइकिंग	-12.2755
▁मज़दूर	-12.2755
▁मुद्राएं	-12.2755
▁ईडन	-12.2756
▁स्प्रिंट	-12.2756
▁विस्टा	-12.2756
▁हरिदास	-12.2756
▁बिकीं	-12.2756
▁कजाकिस्तान	-12.2757
▁सारनाथ	-12.2757
▁आशुरा	-12.2758
▁अंतःशिरा	-12.2758
▁अपरिवर्तनीय	-12.2758
▁कट्टर	-12.2759
▁तराना	-12.2759
▁हैंडबॉल	-12.2759
▁रामपाल	-12.2759
▁पहेली	-12.276
▁शोभा	-12.276
▁पोलियो	-12.276
▁रखेंगे	-12.2761
▁समझौतों	-12.2761
▁हार्पर	-12.2761
उद्देश	-12.2761
रोज़गार	-12.2762
▁कूपर	-12.2762
▁अलीगढ़	-12.2762
▁आएंगे	-12.2762
▁एंड्रिया	-12.2762
▁डार्क	-12.2762
▁फगवा	-12.2762
▁मुखौटा	-12.2762
▁जीवनशैली	-12.2763
▁दुखद	-12.2763
▁तख्त	-12.2765
▁बेरहम	-12.2765
▁नेल्सन	-12.2765
▁उत्सुकता	-12.2766
▁रामचंद्र	-12.2766
▁चैरिटी	-12.2768
▁सुपरवाइज	-12.277
▁आरेख	-12.277
क्टर	-12.2774
▁पंचायतें	-12.2774
▁वर्जि	-12.2775
▁चीफ	-12.2775
▁डब	-12.2775
▁हथकड़	-12.2776
ापता	-12.2777
▁ख़त	-12.2777
▁नृत्त	-12.2778
▁ट्वीट	-12.2778
▁ग्रेनेड	-12.2779
▁प्रवीण	-12.2779
▁नैसकार	-12.2779
▁घुरि	-12.2779
▁उज्ज्वल	-12.2779
▁परिचारक	-12.2779
▁पर्चे	-12.2779
▁प्रतिबिम्बन	-12.278
▁पीपल	-12.278
▁विस्थापन	-12.278
▁मोहाली	-12.2781
पुड़ी	-12.2781
▁मनोचिकित्स	-12.2782
▁रजिस्टर	-12.2782
करा	-12.2783
▁विसर्ज	-12.2784
हिस्टामाइन	-12.2784
▁बरक	-12.2785
▁संग्राहक	-12.2786
▁पीपुल	-12.2786
▁राह	-12.2786
फ्लायर्स	-12.2787
▁क्षेत्राधिकार	-12.2788
▁आल	-12.2789
▁अजनबी	-12.279
ित्र	-12.279
पोस्ट	-12.279
▁प्रेषण	-12.2792
▁विसर्जन	-12.2794
▁धाराएँ	-12.2794
▁ग्रांडे	-12.2796
▁अकेल	-12.2797
▁गर्ल	-12.2797
▁आभासी	-12.2797
▁नस्लवाद	-12.2797
▁विसंगतिय	-12.2799
▁मोन	-12.28
▁चावला	-12.2801
▁कुचि	-12.2801
▁जमींदारों	-12.2801
▁हिंदु	-12.2803
पाड़ा	-12.2804
▁गोंड	-12.2806
▁बोर्डिंग	-12.2808
▁सहिष्णु	-12.2809
▁अनाथ	-12.2809
▁धोना	-12.2809
▁सामग्र	-12.281
▁आवश्यकताएँ	-12.2812
▁स्केट्स	-12.2812
▁महाप्रबंधक	-12.2812
▁अंतर्दृष्टि	-12.2813
▁ओलंपियाड	-12.2814
▁बैरल	-12.2815
▁परतें	-12.2815
डिया	-12.2816
▁कलेक्टर	-12.2816
प्रभा	-12.2817
▁सेंचुरी	-12.2818
▁नौकाएँ	-12.2819
शिविरों	-12.2819
▁आतिशबाज	-12.2822
गुरु	-12.2827
▁भेजकर	-12.2827
▁शिक्षाविद	-12.2831
▁खार	-12.2836
ैक्स	-12.2837
चने	-12.284
्टेक	-12.2841
▁बटर	-12.2841
▁बाण	-12.2841
ोवा	-12.2842
▁सेपाक	-12.2843
▁एथलीटों	-12.2843
▁मैट्रिक	-12.2843
ंदा	-12.2843
▁मूंगफली	-12.2845
▁एल्यूमीनियम	-12.2846
▁यथार्थवादी	-12.2847
▁अटकल	-12.2848
सि	-12.2849
भद्र	-12.285
▁सफा	-12.2851
दिसंबर	-12.2851
▁कॉम	-12.2853
ाबाई	-12.2854
▁मनोविकृति	-12.2857
▁मुड़े	-12.2859
▁निकोलस	-12.286
▁मीठी	-12.286
▁वसूली	-12.286
मार्क	-12.2868
▁लोकार्प	-12.2869
सितंबर	-12.287
▁असंगत	-12.2874
पॉलिश	-12.2875
▁मन्नार	-12.2875
▁ख़ु	-12.2876
▁स्टंट	-12.2877
▁आँध	-12.2879
▁अर्क	-12.2882
▁कार्बोनेट	-12.2883
▁फेल	-12.2886
▁हाव	-12.2887
▁चमड़ा	-12.2889
▁सहकर्म	-12.2889
▁बानो	-12.2889
▁अथ	-12.289
नंद	-12.2892
शियल	-12.2901
▁धु	-12.2904
झी	-12.2906
उनके	-12.2912
▁बख्त	-12.2912
▁पल्ल	-12.2913
▁परिसंच	-12.2913
मेरु	-12.2914
▁महत्वाकांक्षा	-12.2917
पीछे	-12.2917
▁मोमबत्त	-12.2918
▁गामा	-12.2919
▁राजतंत्र	-12.2923
लम	-12.2923
र्क्स	-12.2924
▁छुटक	-12.2926
▁डॉट	-12.2927
भंग	-12.2927
▁कालीन	-12.2928
▁पूर्णांक	-12.2934
मेला	-12.2935
नाथन	-12.2935
▁जातियाँ	-12.2936
बाड़ी	-12.2937
आपको	-12.2938
▁धनराशि	-12.2941
▁हैंड	-12.2943
▁चिल्ला	-12.2943
▁आएँ	-12.2944
कशेरुकी	-12.2946
▁जहर	-12.2947
▁सूप	-12.295
रिज़ोन	-12.2952
बंबई	-12.2952
गज़	-12.2959
र्जी	-12.2959
▁भ्रमण	-12.296
▁कल्कि	-12.2962
▁संगणक	-12.2963
▁क्यो	-12.2967
▁ट्रकों	-12.297
▁क्रूस	-12.2971
▁पत्तियों	-12.2972
िनो	-12.2976
▁भितर	-12.2979
प्राप्त	-12.2982
▁अपद	-12.2982
▁प्ल	-12.2986
▁ऑक्स	-12.2989
रबंद	-12.299
▁बोलता	-12.2996
▁हटन	-12.2997
▁ताओ	-12.3
वेद	-12.3004
नबर्ग	-12.3005
▁नट	-12.3008
ंडर	-12.3011
▁नॉट	-12.3012
ंज	-12.3013
▁फोटोग्राफर	-12.3014
▁बैठकर	-12.3018
नागरिक	-12.3018
▁युव	-12.302
ड़ला	-12.302
▁उपन्यासों	-12.3021
▁विल्स	-12.3022
कलाकार	-12.3022
▁दागे	-12.3026
रूथ	-12.3032
पेन	-12.3036
▁पिचर	-12.3037
▁अमीन	-12.3038
आर्य	-12.3039
फिगर	-12.304
▁मल्लिका	-12.3044
▁लेवी	-12.3049
सूर्य	-12.305
सुबह	-12.305
▁हत्थ	-12.3053
बीले	-12.3053
▁घुड़सवारी	-12.3055
▁पोर्टल	-12.306
र्मियों	-12.3062
▁फिसल	-12.3065
▁तिरुपत	-12.307
ल्ट	-12.307
मबर्ग	-12.3071
▁उँगल	-12.3071
फुल	-12.3078
▁ब्रेट	-12.308
▁सुहास	-12.3081
▁टाइट	-12.3084
▁इस्ता	-12.309
खान	-12.3094
▁कलन	-12.3095
▁राजसी	-12.3096
▁प्रत्यय	-12.3096
▁परहेज	-12.3099
रुआ	-12.31
▁दाई	-12.3101
छी	-12.3101
स्क्रीन	-12.3106
▁कास्ट	-12.3108
चालन	-12.3109
▁लिय	-12.311
▁छोड़ता	-12.3112
▁मशीनों	-12.3112
▁बॉ	-12.3117
▁पॉक	-12.3118
▁बरूथिय	-12.3118
इश	-12.312
ज्ञ	-12.312
▁एंड्र	-12.3122
देशों	-12.3128
▁रोथ	-12.313
▁जूड	-12.313
▁यूरेशिय	-12.3135
ब्रह्मपुत्र	-12.3136
▁राजाराज	-12.3138
▁ग्लास	-12.3144
ारियो	-12.3145
▁ऊँचाइय	-12.3145
सज्जा	-12.3146
▁बरतन	-12.315
आज़ादी	-12.3151
▁टेड	-12.3154
▁बुरुं	-12.3155
मुसलमानों	-12.3156
कास्ट	-12.3156
▁दफना	-12.3161
रियो	-12.3163
▁उत्प्रेर	-12.3163
▁उपा	-12.3165
▁मूर्तिकार	-12.3169
▁घनी	-12.3169
▁गोरे	-12.317
टूट	-12.317
पुनर्जनन	-12.3173
सौर	-12.3175
कार्बन	-12.3176
प्रेरक	-12.3177
लेज़र	-12.3177
चालित	-12.318
तिरोध	-12.3181
▁प्रॉप	-12.3182
▁शाद	-12.3182
▁बंधा	-12.3183
बरी	-12.3183
हरे	-12.3186
शीट	-12.3187
न्नूर	-12.3187
नदी	-12.3188
▁खरीददार	-12.3189
▁एला	-12.319
ब्रुक	-12.3194
▁माँगा	-12.3203
▁ग्राफिक	-12.3212
▁तिर्यक	-12.3212
ॉलिडे	-12.3214
र्डिन	-12.3215
मेनिया	-12.3217
सिक	-12.3222
जफ	-12.3224
▁चलन	-12.3224
▁द्वारका	-12.3224
कुरा	-12.3225
▁नर्तकी	-12.323
यंत्रों	-12.3232
ज़े	-12.3232
▁मंडला	-12.3234
▁हाइपर	-12.3235
वर्ल्ड	-12.3236
▁पेटा	-12.3236
▁दुर्ग	-12.3236
▁लाभा	-12.3237
िंघम	-12.3239
छ	-12.3239
▁कीं	-12.324
▁नकार	-12.3243
स्टॉक	-12.3245
्त्य	-12.3249
▁उँगलिय	-12.325
▁सोफिय	-12.3251
▁पुलों	-12.3252
▁फ़ुट	-12.3253
म्ब	-12.3257
फूला	-12.3258
▁कैसी	-12.3259
दड़	-12.3261
▁आइल	-12.3265
▁हारे	-12.3267
निष्ठ	-12.3269
▁पाकर	-12.3271
▁कट्टरपंथ	-12.3271
▁बीर	-12.3272
▁रूट	-12.3273
▁गोरी	-12.3274
▁गन	-12.3274
▁मैम	-12.328
▁सेठ	-12.3287
▁अधिकांशत	-12.329
▁ब्यू	-12.3293
▁बालन	-12.33
बु	-12.3305
▁फ़्लायर	-12.3305
ारिणी	-12.3306
▁लीं	-12.3308
ट्टुवन	-12.331
लुआ	-12.3312
निधि	-12.3312
ंत्रित	-12.3312
▁महानंद	-12.3314
▁नाला	-12.3321
▁जोन	-12.3323
निर्धार	-12.3325
माताओं	-12.3331
▁कहत	-12.3336
बस्टर	-12.334
▁टोप	-12.3348
डिंग	-12.3349
▁नस	-12.3356
▁महि	-12.3356
▁अखंड	-12.3357
▁मर्क	-12.337
▁चिता	-12.3372
जिसक	-12.3373
▁गतिविधिय	-12.3377
स्टिक	-12.3383
▁खिलाड	-12.3384
लहट	-12.3386
मोर	-12.3388
कुडी	-12.3392
बॉटन	-12.3394
▁फेल्	-12.3397
▁पाय	-12.34
▁सोर्स	-12.3401
लेख	-12.3402
▁ऑर्डरों	-12.3405
िंग्स	-12.3413
▁औषध	-12.3415
द्वीप	-12.3417
▁डिब्ब	-12.342
ेम	-12.3421
ाक	-12.3421
▁बहार	-12.3427
परिवार	-12.3429
रांव	-12.3431
▁जाऊँ	-12.3434
▁तालु	-12.3435
ुल्लू	-12.3438
▁काफू	-12.3443
▁झुका	-12.3445
▁अनिर्ण	-12.3453
▁कर्क	-12.3454
बड़ी	-12.3456
▁ठे	-12.3458
▁जागृत	-12.346
अधिक	-12.3468
ग्लोबिन	-12.3475
िकल	-12.3478
▁जलाए	-12.3478
▁हरिया	-12.3488
कॉर्न	-12.3492
चना	-12.3496
साइट	-12.3498
▁चिक	-12.3498
▁माली	-12.3499
▁रोमा	-12.3501
▁अज	-12.3501
▁पांडुलिपि	-12.3506
▁जेड	-12.3507
▁लिन	-12.3508
▁लाती	-12.351
▁डिक	-12.3514
▁लीज़	-12.3514
▁पदोन्नति	-12.3524
▁गगन	-12.3525
▁मस्त	-12.3526
बियन	-12.3528
▁नजदीक	-12.3529
बीन	-12.3532
टल्स	-12.3535
▁उभयचर	-12.3536
▁श्	-12.3538
ुलिन	-12.3538
त्रेय	-12.3539
▁बिर	-12.355
ंबुल	-12.3553
▁चाँद	-12.3557
▁भेष	-12.3558
कर्मी	-12.356
चेस्टर	-12.3562
▁रेतील	-12.3563
▁पिंट	-12.3564
▁लावा	-12.3565
▁हाफ	-12.3567
▁चिल्लात	-12.3567
ाड़	-12.3569
फेस	-12.357
▁रामनाथ	-12.3572
▁यज्ञोपवीत	-12.3572
त्सु	-12.3573
▁आज्ञा	-12.3573
▁चाक	-12.3575
▁सक्से	-12.3576
ोत्सव	-12.3577
▁स्को	-12.3579
▁इलेक्ट्रॉन	-12.358
▁अफ़ग़ान	-12.3585
▁अक्षतन्तु	-12.3585
▁पिरामिड	-12.3585
▁हिस्पैनिक	-12.3585
▁अंटार्कटिक	-12.3585
▁अभ्यारण्य	-12.3585
▁अल्ट्रासाउंड	-12.3585
▁एम्बुलेंस	-12.3585
▁कमिश्नर	-12.3585
▁कॉन्स्टेंटिनो	-12.3585
▁तदनुसार	-12.3585
▁तिरुनेलवेली	-12.3585
▁पार्षद	-12.3585
▁पालक्काड़	-12.3585
▁पिस्तौल	-12.3585
▁फ़ायरफ़ॉक्स	-12.3585
▁बर्मिंघम	-12.3585
▁बौछार	-12.3585
▁लिस्बन	-12.3585
▁विशाखापत्तनम	-12.3585
▁शैंकबोन	-12.3585
▁नुब्रा	-12.3585
▁फ्रैंकफर्ट	-12.3585
▁रात्रिभोज	-12.3585
▁व्यवधान	-12.3585
▁मुर्शिदाबाद	-12.3585
▁गर्भनिरोध	-12.3585
▁नोएडा	-12.3585
▁शीतपित्त	-12.3585
▁उबकाई	-12.3585
▁जीनप्ररूप	-12.3585
▁सब्जियाँ	-12.3585
▁विक्षोभ	-12.3585
▁कवरत्ती	-12.3585
▁प्लूटार्क	-12.3585
▁एंटीहिस्टामाइन	-12.3585
▁केंटुकी	-12.3585
▁कॉन्सर्ट	-12.3585
▁दुर्भावना	-12.3585
▁ऐशलैंड	-12.3585
▁ज़मोरिन	-12.3585
▁क्वॉलि	-12.3585
▁सैरगाह	-12.3585
▁पखवाड़	-12.3585
▁फ़िरोज़	-12.3585
▁संक्षेप	-12.3585
▁ओबामा	-12.3585
षभनाथ	-12.3585
▁हाउसबोट	-12.3585
डिपार्टमेंट	-12.3586
▁वैस्टर्न	-12.3586
▁उपराज्यपाल	-12.3586
▁अभिलेखागार	-12.3586
प्पड़	-12.3586
▁अस्वीकृति	-12.3586
▁प्रयागराज	-12.3586
▁आशीष	-12.3586
▁डिम्ब	-12.3586
▁चीतल	-12.3586
▁कैंसिल	-12.3586
▁बूढ़ा	-12.3586
▁एयरपोर्ट	-12.3586
▁क्लियर	-12.3586
▁हफ़्त	-12.3586
▁कसरत	-12.3586
▁ऑस्टिन	-12.3586
▁अपक्षय	-12.3586
▁अन्वेषण	-12.3587
▁लोटस	-12.3587
▁सैंटोस	-12.3587
▁वेलिंगटन	-12.3587
▁कल्पनाशील	-12.3587
▁पांडुलिपियों	-12.3587
▁आएँगे	-12.3587
▁नुस्ख	-12.3587
▁सब्जी	-12.3587
▁मयूर	-12.3587
▁सुपारी	-12.3588
▁चपटे	-12.3588
▁स्वशासन	-12.3588
▁मिडिल	-12.3588
▁ट्वेंटी	-12.3588
▁रिबन	-12.3588
ऑक्साइड	-12.3588
▁कोल्ट्स	-12.3589
▁स्टेजिंग	-12.3589
▁पक्षधर	-12.3589
▁समयावधि	-12.3589
▁हिसार	-12.3589
▁डिवाइस	-12.3589
▁मोनाको	-12.3589
▁भालू	-12.359
▁बटलर	-12.359
▁ट्रायल	-12.359
▁मिडलैंड	-12.359
▁बीबीसी	-12.359
▁उद्धरण	-12.359
▁दामाद	-12.359
▁कलनविधि	-12.3591
▁श्रीमती	-12.3591
▁जीनोम	-12.3592
▁बुल्गारिया	-12.3592
▁त्रिची	-12.3592
▁वास्को	-12.3592
▁पुष्प	-12.3592
▁क्लारा	-12.3593
▁एल्टन	-12.3593
▁मायूस	-12.3593
▁परवर	-12.3593
▁चन्द्र	-12.3594
▁वराह	-12.3594
▁मेहता	-12.3595
▁सदमा	-12.3595
▁पिंडली	-12.3595
▁चाची	-12.3595
▁त्यागराज	-12.3595
▁चिप्स	-12.3595
▁अपतटीय	-12.3595
▁आंधी	-12.3595
▁गैलन	-12.3595
▁आप्रवासन	-12.3596
मुवक्किल	-12.3596
▁बाल्टी	-12.3596
▁विश्वनाथ	-12.3596
न्सास	-12.3596
▁परिगल	-12.3597
▁घुमाया	-12.3597
▁कूड़े	-12.3597
▁मनोहर	-12.3597
पॉलिट	-12.3598
▁एडवर्ड्स	-12.3598
▁खजाना	-12.3598
▁छात्रवृत्ति	-12.36
▁प्रतिक्रियाएँ	-12.3602
▁रजनी	-12.3604
▁मैग्नस	-12.3605
अजेय	-12.3605
▁नोर्ड	-12.3605
▁नॉर्वेजिय	-12.3606
▁फेडर	-12.3606
▁प्राइवे	-12.3607
▁वंडर	-12.361
▁आनंदमय	-12.361
▁लहरें	-12.3612
▁लेआउट	-12.3612
▁वृंदा	-12.3613
▁क्षीण	-12.3614
▁पैसिफिक	-12.3614
▁श्रृंगार	-12.3614
▁कोयम्बटूर	-12.3614
▁फेस	-12.3614
▁गर्भधारण	-12.3615
▁चौकोर	-12.3615
▁मॉर्गन	-12.3615
▁आवर्धन	-12.3615
▁शयन	-12.3615
लियट	-12.3617
▁बक्से	-12.3617
▁लुटेर	-12.3618
▁कॉर्क	-12.3618
▁जींस	-12.3618
▁मुहर्रम	-12.3618
▁सृष्टि	-12.3619
▁जैक्स	-12.3619
▁टेलीग्राफ	-12.3619
▁ग्रिड	-12.362
▁आइवरी	-12.3621
▁उल्टा	-12.3621
▁कंबल	-12.3621
▁फ़िल्माया	-12.3622
▁सच्चा	-12.3623
▁स्याह	-12.3624
▁रेडर	-12.3624
▁गाँठ	-12.3625
▁वज्र	-12.3625
▁फोम	-12.3626
▁समुच्चय	-12.3626
ीति	-12.3626
▁बॉयज़	-12.3627
▁डुबो	-12.363
ग्रन्थि	-12.3631
▁उठती	-12.3631
▁बल्ब	-12.3632
▁बचाए	-12.3632
▁क्रि	-12.3635
▁पापुआ	-12.3636
▁खेलेगा	-12.3636
▁परमार	-12.3636
सीसी	-12.3637
▁सिलसिले	-12.3638
▁हाँ	-12.3638
▁गिलहर	-12.3638
▁कमाए	-12.3639
मादा	-12.3639
▁अनैतिक	-12.3639
▁रागा	-12.364
▁औजारों	-12.3641
बिल्डिंग	-12.3642
▁चँद्र	-12.3644
▁आवाज़ें	-12.3644
▁ईटा	-12.3645
▁क्रीज	-12.3645
▁ज़िप	-12.3649
▁डब्लू	-12.365
▁श्यामा	-12.365
▁दानव	-12.3651
▁प्राकृत	-12.3652
▁निर्गम	-12.3653
▁मुकुंद	-12.3653
▁जैकब	-12.3656
▁सौंपे	-12.3657
▁फ्राय	-12.3659
▁नौकरिय	-12.366
▁द्विभाषी	-12.366
▁चाओ	-12.3661
▁इंसानों	-12.3662
▁टकराया	-12.3663
▁परेशानियों	-12.3664
▁गिरना	-12.3664
▁मुँहास	-12.3664
ावी	-12.3664
पट	-12.3673
▁सारंग	-12.3674
▁बैक्ट्रिया	-12.3676
▁स्वप्न	-12.3677
गिर	-12.3679
▁स्प्रे	-12.3682
▁कूदने	-12.3682
▁सुनहरे	-12.3683
मार्च	-12.3683
भावी	-12.3684
▁आइरि	-12.3684
▁सांड	-12.3687
▁लिली	-12.3689
▁शुद्धता	-12.3692
▁आज़मा	-12.3692
▁सफ़ाई	-12.3693
मंत्रण	-12.3695
▁अल्मे	-12.3697
▁प्रभा	-12.3702
▁सोया	-12.3703
▁भट	-12.3706
टॉड	-12.3709
▁डरते	-12.3709
सेनाध्यक्ष	-12.3711
▁गवर्न	-12.3711
▁आशावाद	-12.3712
ंदी	-12.3713
▁स्तुति	-12.3714
▁हैम्बर्ग	-12.3714
▁खींचे	-12.3714
ोरर	-12.3714
▁स्पा	-12.3714
▁केशव	-12.3715
हू	-12.3718
▁माघी	-12.3718
▁मरीना	-12.3719
▁विनय	-12.3722
▁डेवलपमेंट	-12.3723
▁एयरो	-12.3725
▁ज़ा	-12.3727
अभिव्यंजक	-12.3729
लिकाओं	-12.3731
▁सुह	-12.3733
अप्रैल	-12.3739
▁निषेध	-12.3746
▁रुश	-12.3748
ेसर	-12.375
▁सिखाई	-12.3751
सांसदों	-12.3754
शर	-12.3756
▁मेसन	-12.3757
▁उदासी	-12.3757
▁पिया	-12.3757
▁मेघना	-12.3764
कोस	-12.3765
शियारा	-12.3766
फिट	-12.3766
▁कौल	-12.3768
▁चंडी	-12.3769
▁टिप्पणीकार	-12.378
▁सेक्टर	-12.3781
▁मौन	-12.3783
▁मलबा	-12.3785
▁शरीफ	-12.3788
जित्सु	-12.3793
▁आं	-12.3798
▁झलकी	-12.3799
हाई	-12.38
म्बल	-12.3801
▁हँस	-12.3802
▁एक्सप्ल	-12.3805
▁चक्रक	-12.3814
▁उम	-12.3814
▁रुके	-12.3815
हराई	-12.3816
▁खाम	-12.3816
▁गार्स	-12.3816
▁रचे	-12.3816
▁झूठी	-12.3817
मिलन	-12.3817
▁मेटा	-12.3818
▁ऑपरेटर	-12.3823
▁सारस	-12.3823
▁नियामक	-12.3824
ारण	-12.3824
▁उच्चत	-12.3825
भाषी	-12.3825
▁भट्टी	-12.3826
▁रगड़	-12.3827
थम	-12.383
▁समरूप	-12.383
▁मार्ज	-12.3833
▁खींची	-12.3834
बेल	-12.3834
▁क्रीड़ा	-12.3835
▁काठी	-12.3837
▁एड्रियान	-12.3838
▁रिपोर्टर	-12.384
ायी	-12.3842
सामाजिक	-12.3844
▁क्रिस्टीन	-12.3845
शो	-12.3848
▁तिर	-12.3854
▁जुए	-12.3854
▁कोंकणी	-12.3855
▁पिंक	-12.386
▁मोंटे	-12.3863
ुकी	-12.3863
रह	-12.3864
ुराई	-12.3866
समुद्र	-12.3866
▁डील	-12.3868
गिरि	-12.3868
घन	-12.387
राष्ट्रों	-12.387
दोषपूर्ण	-12.3877
▁बहा	-12.3882
पट्टिनम	-12.3882
▁चलो	-12.3882
शेष	-12.3885
▁मुर्ग	-12.3885
▁हाइ	-12.3888
▁शीतल	-12.3888
स्थायी	-12.3891
▁कैप्स	-12.3896
▁कालूग	-12.3901
▁खिंच	-12.3905
लोक	-12.3905
प्रमुख	-12.3906
ाथ	-12.3907
▁छतों	-12.3911
निर्देशक	-12.3914
स्सा	-12.3915
')	-12.3915
वेज़	-12.3916
▁प्राधिकार	-12.392
मुल्क	-12.3921
▁ओस	-12.3922
शीलता	-12.3925
ेब्रो	-12.3926
▁शिक	-12.3927
टिया	-12.3927
म्बर	-12.3939
▁मित्रों	-12.3948
ोलियो	-12.3948
▁साबर	-12.3949
▁आसिफ	-12.3952
▁जन्मी	-12.3954
▁ड्रैक	-12.3956
▁पुरातत्वविद	-12.3956
▁मंगोलिया	-12.3958
मोली	-12.3961
सफलताओं	-12.3962
▁वर्ड	-12.3962
▁ऑल्ट	-12.3967
▁गुजरत	-12.3969
▁होल	-12.3969
▁दशम	-12.3971
गायक	-12.3976
▁अमी	-12.398
अविश्वास	-12.3982
ैनिक	-12.3992
▁क्रूज़	-12.3993
▁चाप	-12.3997
ालू	-12.3997
वाइड	-12.3999
▁छप	-12.3999
ुषार	-12.4001
▁आर्या	-12.4005
▁क्रिटिक	-12.401
▁प्रभावश	-12.4011
मेड	-12.4015
▁तिरुव	-12.4015
ूतों	-12.4017
▁जज	-12.4022
मिला	-12.4024
शि	-12.4025
▁क्रोनो	-12.4029
सबर्ग	-12.4029
शनल	-12.4032
▁कैच	-12.4035
केवल	-12.4037
▁चंड	-12.4037
दौड़	-12.4038
▁एस्ट्रोज	-12.4039
▁नीम	-12.404
▁ऑनर	-12.4047
▁हैरिस	-12.4047
▁टाई	-12.406
्रोले	-12.4063
शुभ	-12.4064
▁कुट	-12.4066
▁बू	-12.4073
पॉकेट	-12.4075
प्रतिदिन	-12.4075
गुट्टा	-12.4075
गद्दी	-12.408
▁ग्राफ	-12.4081
ोम	-12.4081
ाएंगे	-12.4083
▁एस्बेस्ट	-12.4084
▁प्रबंधकों	-12.4084
▁अपर	-12.4087
▁प्रचल	-12.409
▁केसर	-12.4091
▁पुनर्स्थाप	-12.4092
कुंभ	-12.4094
▁खैर	-12.4097
सैनिक	-12.4102
▁छोड़ी	-12.4103
टोरिया	-12.4104
▁ऊब	-12.4104
ठी	-12.4105
▁जैस	-12.4107
▁संयम	-12.4107
▁चतुर्द	-12.4108
पत्तन	-12.4111
दत्त	-12.4112
▁इत्र	-12.4114
युग	-12.4115
▁हित	-12.4117
▁इलिय	-12.4118
गोंग	-12.4122
मोटे	-12.4123
बोर	-12.4125
खयाल	-12.4125
▁तीख	-12.4129
▁कांग	-12.413
बाहु	-12.4131
▁धुंध	-12.4131
▁देन	-12.4133
▁बार्ट	-12.4134
▁कुंडल	-12.4143
मना	-12.4144
▁आक्रमणकार	-12.4146
▁मच	-12.415
▁कूल	-12.4152
▁फ़िल्में	-12.4153
ोली	-12.4156
▁ब्रोकर	-12.4161
▁परिसरों	-12.4166
▁निका	-12.4168
दुर्ग	-12.4169
्राइम	-12.4171
▁निरा	-12.4172
▁रोज़म	-12.4173
बहनों	-12.4173
▁हैलो	-12.4173
सू	-12.4174
▁भीमा	-12.4175
▁मिड	-12.4176
डुम	-12.4178
▁जातीयता	-12.4178
लॉन्ग	-12.4181
र्टी	-12.4182
▁बेथ	-12.4183
लिंक	-12.4186
▁घंटी	-12.4186
▁डंड	-12.4187
ुरु	-12.4187
डेक्स	-12.4188
ीट्रिक	-12.4197
▁ग्रेग	-12.42
▁बेली	-12.4205
▁लेप	-12.4208
▁कल्ह	-12.421
कश	-12.4212
▁जलग्रह	-12.4212
▁वर्क	-12.4214
▁ख़रीदा	-12.4216
सिर	-12.4224
▁फुफ्फुस	-12.4226
श्ती	-12.4226
▁अहिंस	-12.4227
▁एस्प	-12.4231
माज़ी	-12.424
▁तुल	-12.424
शान	-12.4243
उन्होंने	-12.4243
ाश	-12.4246
▁समझे	-12.4247
ीढ़ियों	-12.4248
▁कैप	-12.4248
▁गुंडे	-12.4248
▁दांड	-12.425
▁प्रतिलिपि	-12.4253
जेल	-12.426
ांतक	-12.4261
धित	-12.4264
शंस	-12.4264
भरे	-12.4268
▁बायर	-12.427
▁टोल	-12.4272
▁गिरि	-12.4272
▁एस्ट	-12.4274
▁बेने	-12.4276
्वी	-12.4276
▁नंबरों	-12.4281
बूत	-12.4285
हिट	-12.4286
शॉट्स	-12.4288
▁ग्राहको	-12.429
ाइश	-12.4296
▁मोज़े	-12.4298
पोर्टफ	-12.4302
जागीरदारों	-12.4305
▁बर्ड	-12.4307
भ्रमण	-12.4307
▁एडि	-12.4308
वार्ड	-12.4309
▁खंडगिर	-12.4312
काली	-12.4317
लपुर	-12.4323
ग्राउंड	-12.4326
जोल	-12.4328
फिल	-12.433
ंबा	-12.4331
र्ज़	-12.4332
▁चेरी	-12.4334
▁शू	-12.434
वेल्ट	-12.434
कैट	-12.4341
रक्षकों	-12.4343
▁त्रिवे	-12.4344
▁चालन	-12.4349
▁डेट	-12.435
▁अन्तः	-12.4353
चालक	-12.4359
▁कॉलिन	-12.4361
▁धाग	-12.4362
अर	-12.4365
पु	-12.4367
टीम	-12.4369
मेश्वर	-12.437
जुल	-12.4371
▁क्षार	-12.4373
▁बटु	-12.4374
▁इंडस्ट्री	-12.4375
बोट	-12.4375
ुंड	-12.4377
▁अंजा	-12.4378
▁प्	-12.4383
ाधार	-12.4385
ुरत	-12.4387
▁सँभाल	-12.4399
▁प्रतिवाद	-12.4399
नन	-12.44
डोर्फ	-12.4401
▁गिना	-12.4404
टिस	-12.4405
कांड	-12.4411
▁अधो	-12.4417
फाइड	-12.442
▁उबल	-12.4422
▁स्ट्र	-12.4423
घा	-12.4424
▁चेतन	-12.4425
▁प्रोसेस	-12.4427
▁निकाली	-12.4428
▁बाराब	-12.443
▁फॉर्च्यून	-12.4433
▁बुंदेल	-12.4434
ाइमर	-12.4434
▁चाब	-12.4436
▁माधवरा	-12.4436
नामी	-12.4436
ज़र	-12.4438
▁इराद	-12.4439
▁बेचैन	-12.4442
▁जानकी	-12.4442
स्ट्रिक्ट	-12.4443
▁संस्मरण	-12.4445
िज़्म	-12.4448
▁शब्दांश	-12.4449
डल	-12.4453
▁बैट	-12.4455
लिटी	-12.4457
▁कियाः	-12.4457
▁नलसाज	-12.446
▁कुण	-12.4461
▁पुटिका	-12.4462
▁मेघ	-12.4464
▁मैग्	-12.4465
▁काश	-12.4467
▁जुर्मान	-12.4469
यस	-12.4472
▁नीरा	-12.4472
्रेस	-12.4473
▁असफलता	-12.4474
▁पियर्स	-12.448
▁अमेज़	-12.4481
▁एनीम	-12.4481
टाइन	-12.4483
▁शब	-12.4484
▁कारीगर	-12.4486
▁नॉर्थवेस्ट	-12.4488
ृहदांत्र	-12.4489
▁साधु	-12.4493
▁भगवद	-12.4493
▁अग्नाशय	-12.4494
▁मैक्रोफेज	-12.4494
मथिट्टा	-12.4494
▁अपेंडिक्स	-12.4494
▁आक्रोश	-12.4494
▁एलिज़ाबेथ	-12.4494
▁कर्मनाशा	-12.4494
▁कोहिनूर	-12.4494
▁जोगीघोपा	-12.4494
▁तपस्वियों	-12.4494
▁थॉम्पसन	-12.4494
▁नवागंतुक	-12.4494
▁पख्तूनख्वा	-12.4494
▁पेन्सिलवेनिया	-12.4494
▁फीताकृमि	-12.4494
▁लिथुआनिया	-12.4494
▁शिरस्त्राण	-12.4494
▁स्कैंडिनेविया	-12.4494
▁होशंगाबाद	-12.4494
▁इंटरएक्टिव	-12.4494
▁चुपचाप	-12.4494
▁डिज्नी	-12.4494
▁ताँबे	-12.4494
▁त्रिवेंद्रम	-12.4494
▁रैडक्लिफ	-12.4494
▁सावित्री	-12.4494
▁हामिद	-12.4494
▁गोंडवाना	-12.4494
▁लेक्सिंगटन	-12.4494
▁नींबू	-12.4494
▁वेलेंसिया	-12.4494
▁प्रणालियां	-12.4494
▁रेप्रज़ेन्टेटिव	-12.4494
▁गुरिल्ला	-12.4494
▁मनोविदल	-12.4494
▁कास्त्रो	-12.4494
▁कैलगरी	-12.4494
▁कोणार्क	-12.4494
▁तिरुचिरापल्ली	-12.4494
▁होंडुरास	-12.4494
▁रिचार्ज	-12.4494
▁सट्टेबाज	-12.4494
▁अल्पाहार	-12.4494
▁माणिक्य	-12.4494
▁शिमोगा	-12.4494
▁नीलगिरि	-12.4494
▁राजद्रोह	-12.4495
▁गिल्बर्ट	-12.4495
▁मोटवानी	-12.4495
▁मंथन	-12.4495
▁कबूतर	-12.4495
▁ठुकरा	-12.4495
षिकेश	-12.4495
▁किंवदंतियाँ	-12.4495
▁कुटीर	-12.4495
▁सुशांत	-12.4495
▁मदुराई	-12.4495
▁विज्ञप्ति	-12.4495
▁होशियार	-12.4495
▁अपग्रेड	-12.4495
▁फ़र्श	-12.4495
▁विंड	-12.4495
▁प्रतिध्वनि	-12.4495
▁क़ीमत	-12.4495
▁युवराज	-12.4495
▁प्रिंसिप	-12.4495
▁असेम्ब	-12.4495
▁विधायिका	-12.4496
▁मिसाइल	-12.4496
▁ऑडिट	-12.4496
▁एंटीवायरस	-12.4496
▁मोटरमार्ग	-12.4496
▁गरबा	-12.4496
▁मौलाना	-12.4496
रिम	-12.4496
▁चंद्रगिरि	-12.4496
▁स्विच	-12.4496
▁नूरजहां	-12.4496
▁अर्नेस्ट	-12.4497
▁रक्तपात	-12.4497
▁वेधशाला	-12.4497
▁प्रोडक्ट	-12.4497
▁बेंटन	-12.4497
▁त्रिकोणीय	-12.4497
अन्तर्वासी	-12.4498
▁प्लीहा	-12.4498
▁गज़ब	-12.4498
▁छपाई	-12.4498
▁पेचीद	-12.4498
▁विजयवाड़ा	-12.4498
▁नर्सिंग	-12.4498
▁गिलास	-12.4498
▁हिल्टन	-12.4499
▁कॉर्नर	-12.4499
▁साधुओं	-12.4499
ूंगा	-12.4499
▁भास्कर	-12.45
▁इसाबेल	-12.45
▁रेबेका	-12.45
▁अवीव	-12.45
सरण	-12.45
▁बेशक	-12.4501
▁बताएगा	-12.4501
▁बाजरा	-12.4501
▁रामनगर	-12.4502
▁गेर्स	-12.4502
▁रूचि	-12.4503
▁बिताई	-12.4503
▁आदिवासियों	-12.4503
▁स्पैम	-12.4503
लि	-12.4503
▁पासवर्ड	-12.4504
▁यकृत्	-12.4504
गुल	-12.4504
▁मुद्राएँ	-12.4505
▁भाड़	-12.4505
दयालु	-12.4505
बूटियाँ	-12.4505
▁उल्लू	-12.4505
▁स्क्रब	-12.4506
▁एसेक्स	-12.4507
▁साइबेरिया	-12.4508
म्मी	-12.4508
▁दादाजी	-12.4508
▁जाएंगी	-12.4508
▁मार्क्स	-12.4508
रोज़	-12.4509
▁संजीन	-12.4509
▁तहखाने	-12.4509
▁तमाशा	-12.4509
▁न्यूमैन	-12.4509
▁वेल्	-12.4511
▁मिरर	-12.4511
▁अप्रभावित	-12.4511
▁जागते	-12.4512
▁धोया	-12.4512
▁कहावत	-12.4512
▁फटकार	-12.4513
▁लॉरेन	-12.4513
▁सुजाता	-12.4513
▁कॉफ़ी	-12.4513
▁रखिए	-12.4514
ावलोकन	-12.4514
▁ओलंपियन	-12.4515
▁ढीला	-12.4515
▁रामकृष्ण	-12.4515
▁घूंसे	-12.4515
▁निशानेबाज़	-12.4516
▁धीरज	-12.4518
टॉमी	-12.4518
▁कबाब	-12.4519
शे	-12.4519
▁वादी	-12.4519
▁श्राप	-12.4519
▁मैसेडोनिया	-12.452
त्स	-12.452
▁उत्	-12.452
क्रियाओं	-12.452
▁दाउद	-12.4521
▁शैवाल	-12.4521
▁भुख	-12.4521
▁अलंकार	-12.4522
▁नारीवाद	-12.4523
▁वागड़	-12.4524
▁निरस्त्र	-12.4524
▁पाउडर	-12.4525
▁विश्लेषक	-12.4525
▁नाज़ुक	-12.4525
ड़ते	-12.4525
▁कम्युनिकेशंस	-12.4525
▁एडवेंचर	-12.4525
▁दुःख	-12.4526
▁मल्टीप्लेक्स	-12.4526
▁ज्वलनशील	-12.4526
▁तख़्त	-12.4526
▁विरोधाभास	-12.4526
▁सेबेस्टिय	-12.4526
▁अरण्य	-12.4526
▁पहनकर	-12.4526
▁प्रवचन	-12.4527
▁राजन	-12.4528
नवमी	-12.4529
▁उपन्यासकार	-12.453
ईं	-12.453
▁श्रमण	-12.4531
▁सममित	-12.4531
▁एंजाइम	-12.4531
हों	-12.4532
▁क्लीनिक	-12.4533
▁निषाद	-12.4533
▁बेंज	-12.4535
▁नेशन	-12.4535
हल्ली	-12.4535
▁निषेच	-12.4535
▁मुड़ने	-12.4536
▁पांडु	-12.4536
▁उल्ला	-12.4537
▁होलकर	-12.4537
मन्ना	-12.4538
▁ब्रश	-12.4538
▁दरकिनार	-12.4538
▁सिंधिया	-12.454
▁पुनर्प्राप्त	-12.4541
▁प्रसू	-12.4541
आधार	-12.4542
▁दर्शाई	-12.4544
▁नंदिनी	-12.4544
▁आयातित	-12.4545
▁आवाजें	-12.4547
ामाइन	-12.4549
राइट	-12.4549
▁सिम्बा	-12.4552
▁ईशा	-12.4554
▁एम्स	-12.4554
▁झेलम	-12.4555
▁पुकार	-12.4556
▁नजदीकी	-12.4557
ब्र	-12.4558
▁निंगथौ	-12.4559
वज्ञा	-12.456
▁टनल	-12.4561
▁कस्टम	-12.4561
▁पार्थि	-12.4562
▁मेसी	-12.4562
्मन	-12.4563
चारिक	-12.4563
▁डोन	-12.4564
▁बजाई	-12.4564
▁ओशन	-12.4564
ट्रिक्स	-12.4564
▁कुवैत	-12.4564
▁टैम्पा	-12.4564
▁पार्क्स	-12.4565
▁शिनजियांग	-12.4565
▁आर्कटिक	-12.4565
▁एवियन	-12.4567
▁हॉ	-12.4568
ैनियल	-12.4568
▁शॉन	-12.4571
▁हनुम	-12.4571
शब्बू	-12.4576
▁उपयोगिताओं	-12.4576
▁रेश	-12.4577
▁हत्यारे	-12.4579
▁जूत	-12.4579
▁शुक्ला	-12.4579
मोई	-12.458
गुची	-12.4581
▁आध्यात्मिकता	-12.4581
▁वेन	-12.4583
▁अलुपा	-12.4583
▁सीमाएं	-12.4583
िरुद्ध	-12.4585
▁बनें	-12.4589
▁वेधा	-12.4589
ूरे	-12.459
▁दं	-12.459
ंगथांग	-12.4594
▁विनी	-12.4595
▁प्रधानता	-12.4595
ेय	-12.4597
ोह	-12.4599
▁कीट	-12.4601
▁नुकील	-12.4601
किसी	-12.4601
लक्ष्य	-12.4606
▁लीवर	-12.4606
▁अन्तर्	-12.4606
▁कैंट	-12.4615
चाल	-12.4616
▁सॉस	-12.4617
▁स्टॉल	-12.4622
▁एल्डर	-12.4623
शिक्षक	-12.4626
कॉन	-12.4628
▁यमन	-12.4628
▁कांगो	-12.463
▁एरी	-12.4631
▁चिन्ना	-12.4633
कर्स	-12.4634
▁तालू	-12.4635
ल्फ़	-12.4636
उपश्रेणियों	-12.4639
▁मगर	-12.4639
▁मोड़ने	-12.4639
▁ऑफिसर	-12.464
▁तेरा	-12.4641
रुक	-12.4642
ागुआ	-12.4643
▁सहिष्णुता	-12.4645
▁अखबारों	-12.4647
▁ग्रेड	-12.4647
िविंग	-12.4649
वाएं	-12.4649
नार	-12.465
▁बैच	-12.465
रीना	-12.465
▁एंग	-12.4652
▁रत्ना	-12.4654
ाइल्स	-12.4655
रेमन	-12.4655
ोष्ण	-12.4656
फेन	-12.4657
परीक्षण	-12.4658
▁अन्याय	-12.4658
▁आरो	-12.4659
डोरस	-12.4663
बाधाएँ	-12.4664
▁बस्त	-12.4665
कैंडिडेट्स	-12.4666
▁पोंग	-12.4669
▁टॉक	-12.4673
▁पर्सन	-12.468
▁सेनाएँ	-12.4682
▁क्षय	-12.4688
▁सां	-12.4689
अन्य	-12.4693
नागा	-12.4694
▁अय	-12.4696
▁ढह	-12.4697
▁गीले	-12.4699
धाम	-12.47
्टर	-12.4701
▁पायल	-12.4701
▁कमाया	-12.4702
मर्श	-12.4703
▁सीम	-12.4704
रिंकू	-12.4704
▁बर्मी	-12.4705
▁दाता	-12.4706
▁कार्ला	-12.4707
▁टेक्नोलॉजी	-12.471
▁पायी	-12.471
▁नूतन	-12.4711
▁इम्यूनो	-12.4712
▁रेवेन्	-12.4713
▁संयोज	-12.4715
▁सोंग	-12.4715
▁सुर्खिय	-12.4717
ोनिक	-12.4718
▁एलेक्सा	-12.4721
▁कष्ट	-12.4724
▁डै	-12.4726
ाउंट	-12.4727
▁कलाबाज	-12.4731
▁नह	-12.4733
र्नर	-12.4734
▁कल्पित	-12.4737
जि	-12.4738
▁मित्रता	-12.4741
अच्छी	-12.4741
प्रो	-12.4743
▁टार्	-12.4748
▁धुँध	-12.4756
▁प्लेटों	-12.4756
व्य	-12.4761
ठीक	-12.4761
ेटिक	-12.4765
▁लैन	-12.4765
▁अफ	-12.4768
▁डीप	-12.4768
फ्री	-12.477
फरवरी	-12.477
▁भागव	-12.477
वहाँ	-12.4771
▁जठर	-12.4771
▁बिल्ड	-12.4772
तुम	-12.4773
▁ग्ल	-12.4774
▁वेगा	-12.4776
गेरी	-12.4778
▁पुत्री	-12.4779
▁मूड	-12.478
▁संयंत्रों	-12.478
साहे	-12.4781
प्रांत	-12.4782
▁आहुति	-12.4784
गले	-12.4792
▁कुट्टा	-12.4795
▁साइ	-12.4795
▁धर्मग्रंथ	-12.4795
टॉर्न	-12.4806
▁पच	-12.4808
दों	-12.4811
सिटी	-12.4813
रत्न	-12.4814
लगंड	-12.4816
▁पड़न	-12.4817
शांक	-12.4817
ंध	-12.4817
▁एश	-12.4818
हॉकी	-12.482
स्वास्थ्य	-12.482
▁भूखे	-12.4821
दृश्य	-12.4821
र्टन	-12.483
▁बं	-12.4832
▁कुकर	-12.4834
▁फिसलन	-12.484
राशि	-12.4843
▁फ़ोर्ट	-12.4846
लुगु	-12.4846
खाना	-12.4848
▁डेम	-12.4851
▁डेड	-12.4851
▁बर्कल	-12.4854
▁लिप	-12.4855
यूरोपीय	-12.4857
▁विल्	-12.4858
वाचक	-12.4859
▁स्लै	-12.4863
▁बीट	-12.4863
श्वर	-12.4864
▁तबला	-12.4865
ब्रिज	-12.4865
▁सुझाए	-12.4866
▁शिला	-12.4867
मुसलमान	-12.4871
▁खंब	-12.4872
ादी	-12.4873
ियु	-12.4874
ोटा	-12.4876
जैसा	-12.4878
ेन्स	-12.4882
▁गेल	-12.4883
▁पंचकु	-12.4886
बंधित	-12.4887
▁फाइव	-12.4889
ोसाय	-12.4891
षियों	-12.4892
▁प्लिन	-12.4893
▁फ्लाई	-12.4894
▁फ़्ल	-12.4894
ुए	-12.4899
▁रिप	-12.4903
शॉप	-12.4906
▁काजू	-12.4907
▁कुली	-12.4907
▁उत्पल	-12.4907
▁पपड़ी	-12.4907
▁इवे	-12.4908
लुंग	-12.4909
घट	-12.491
ंकेत	-12.4911
▁वॉली	-12.4911
फ़ोर्ड	-12.4914
चोल	-12.4916
फ़ा	-12.4917
द्वार	-12.4918
▁मोज़	-12.4919
हेब	-12.4922
डम	-12.4925
ोल्ड	-12.4925
▁उलझ	-12.4926
▁वोन	-12.4927
समें	-12.4929
सरी	-12.4938
अमेरिका	-12.4938
थो	-12.4939
▁मंज	-12.494
विजेता	-12.4942
ब्राह्मण	-12.4943
गुड़	-12.4943
▁पैं	-12.4944
िकाएँ	-12.4946
यात	-12.4947
▁लिपट	-12.495
संचालित	-12.495
पिन	-12.4951
▁आरोपी	-12.4951
▁धड़कने	-12.4951
टला	-12.4953
▁कोंडा	-12.4959
ख्त	-12.4962
्हें	-12.4966
धि	-12.4967
ैमूर	-12.497
▁असहिष्णु	-12.497
▁लेंट	-12.4971
सप्तमी	-12.4973
▁ताना	-12.4976
▁कांचा	-12.4977
ेटी	-12.4977
▁आयर	-12.4978
ष्ठी	-12.4981
▁दीप	-12.4984
▁मुस्कुरा	-12.4987
▁संपीड़	-12.4988
मणि	-12.499
▁हार्ब	-12.4996
▁ग्रेव	-12.5001
▁सेटर	-12.5004
▁अभिकल्प	-12.5005
▁ब्राह्मणवाद	-12.5005
▁अपहरणकर्ता	-12.5007
दाह	-12.5007
दु	-12.5011
सियन	-12.5017
▁मैप	-12.5021
तिक	-12.5023
प्रधान	-12.5024
▁उतरे	-12.5028
▁जन्य	-12.5033
▁मुनी	-12.5033
डाल	-12.5036
ोमा	-12.5037
▁रॉन	-12.504
स्ताद	-12.5043
आज	-12.5044
▁पांचवा	-12.5046
सलम	-12.5047
सेफ	-12.5048
▁पहुँचात	-12.5048
▁ओडि	-12.5051
ड्रामा	-12.5053
▁आसफ	-12.5056
मीडिया	-12.5059
▁विस	-12.5062
शर्ट	-12.5064
पतवार	-12.5065
ज्ञान	-12.5075
षा	-12.5076
▁लियोने	-12.5078
बबूल	-12.508
रते	-12.5083
फ्लाई	-12.5084
▁सैर	-12.5085
लिंगी	-12.5086
ार्किंग	-12.5087
मिस्त्री	-12.5091
▁ठिकाने	-12.5091
ाप	-12.5093
वली	-12.5096
▁साइट्र	-12.5096
रॉबिन	-12.5096
▁राज्यपालों	-12.5101
शु	-12.5102
▁महाम	-12.5103
लीन	-12.5107
ुलु	-12.5112
इसे	-12.5112
▁कॉम्प	-12.5113
▁गल	-12.5119
▁मंजु	-12.5122
निचला	-12.5125
▁प्राइमर	-12.5127
▁अह	-12.5129
क्कल	-12.5133
मारियो	-12.5142
ोलापुर	-12.5146
▁सबक	-12.5147
▁श्वास	-12.515
झ	-12.5151
लियों	-12.5151
▁परेश	-12.5158
▁पुट	-12.5159
▁कम्पन	-12.5159
▁कनेक्ट	-12.5162
ाएगा	-12.5162
▁ज़ि	-12.5163
चेरी	-12.5164
▁नग	-12.5166
▁दुर्र	-12.5168
▁मंचों	-12.517
▁कटि	-12.5172
खाँसी	-12.5172
▁अष्ट	-12.5173
लेखा	-12.5177
▁चलचित्रों	-12.5179
▁दमा	-12.518
साइक्लि	-12.5182
▁गलतिय	-12.5187
गोला	-12.519
▁नारी	-12.5193
▁पर्स	-12.5203
गैस	-12.5204
ऐ	-12.5205
कॉर्टिकोस्टेरॉइड	-12.5207
▁अंध	-12.5209
सूत्र	-12.5209
▁इमेज	-12.5213
▁वाट	-12.5215
▁छान	-12.5216
▁हेराक्ल	-12.5217
म्स	-12.5221
▁हाइड्रो	-12.5222
िपथ	-12.5223
▁मोजे	-12.5232
▁पार्थ	-12.5237
▁यो	-12.5237
▁लिव	-12.5239
रक्षा	-12.5241
विस	-12.5249
▁जटिलताए	-12.5256
़्ट	-12.5261
ड़ों	-12.5268
▁गॉड	-12.5269
▁टंक	-12.527
▁रमज	-12.527
▁सेल्स	-12.5271
▁डिस्को	-12.5275
▁कॉलिन्स	-12.5277
▁हमीद	-12.5279
▁पंत	-12.5279
▁मिर	-12.5279
गया	-12.5283
वेश	-12.5283
▁गुस्ता	-12.5286
▁आईटी	-12.5286
पेश	-12.529
नियन	-12.5294
रणों	-12.5309
▁लियो	-12.531
▁घोड़	-12.5312
▁अलंक	-12.5315
णिक	-12.5316
ेगी	-12.5319
मेरिट	-12.5325
▁ब्रैंड	-12.5326
▁जीना	-12.5327
▁मिश्र	-12.5331
ग्रेट	-12.5334
ंटो	-12.5336
य्या	-12.5344
हाल	-12.5346
ीपुरम	-12.5351
राह	-12.5351
▁मंड	-12.5351
्रम	-12.5353
▁कांटे	-12.5354
फ़ोर्स	-12.5364
▁हिरन	-12.5367
ेनी	-12.5367
▁नवा	-12.5368
▁हेरो	-12.537
▁लाओ	-12.537
ामल	-12.5372
मृदा	-12.5378
▁लचील	-12.538
विवाह	-12.5386
रिए	-12.539
ीसिया	-12.5393
कल्पना	-12.5394
अन	-12.5395
▁एकाधिक	-12.5397
रलैंड	-12.5399
▁क्रेन	-12.5401
▁भद्द	-12.5402
▁चश्म	-12.5404
दुनिया	-12.5405
▁मीरा	-12.5409
धावा	-12.541
फूर	-12.541
थवा	-12.5412
▁टांक	-12.5413
▁मोहल्ल	-12.5415
▁संकरी	-12.5416
▁इंटरन	-12.542
▁मांड	-12.542
्रिज	-12.5421
ादेशिक	-12.5421
फिया	-12.5423
हरण	-12.5428
▁तड़क	-12.543
▁अहंकार	-12.5431
▁सिलसिल	-12.5432
▁क्लो	-12.5435
सहमति	-12.5437
▁शब्दकोश	-12.5437
माई	-12.5438
▁कुन	-12.5438
▁स्पे	-12.5441
जय	-12.5442
जीवी	-12.5442
▁हत	-12.5444
▁आभास	-12.5444
▁टेरा	-12.545
▁विजयन	-12.5454
लेकिन	-12.5456
▁चट	-12.5456
▁फिल	-12.546
हारा	-12.5463
▁फॉरेन	-12.5465
▁परिषदों	-12.5468
न्ध्र	-12.547
▁दैव	-12.5475
▁टा	-12.5477
▁दाभाड	-12.5478
▁अंजन	-12.5478
▁सीडर	-12.5478
▁कीड़े	-12.5479
▁विध्वंस	-12.548
▁काँग	-12.5482
▁कृष	-12.5483
▁बेवकूफ	-12.5483
▁अधिग्रह	-12.5484
▁प्रोटो	-12.549
▁बंटवार	-12.5493
▁अदरक	-12.5494
▁स्नायु	-12.5494
▁रणथंभ	-12.5494
▁अखरोट	-12.5494
▁असोसिएशन	-12.5494
▁आख़िर	-12.5494
▁इक्वाडोर	-12.5494
▁इमोटिकॉन	-12.5494
▁एंजिलिस	-12.5494
▁एंजिलेस	-12.5494
▁कंपाइलर	-12.5494
▁चम्मच	-12.5494
▁चेकोस्लोवाक	-12.5494
▁डेट्रायट	-12.5494
▁तिल्लाना	-12.5494
▁पनडुब्ब	-12.5494
▁बावज़ूद	-12.5494
▁बोधिसत्व	-12.5494
▁वर्णपीतकाभ	-12.5494
▁वृक्षारोपण	-12.5494
▁हथौड़	-12.5494
▁हॉटस्पॉट	-12.5494
▁अलविदा	-12.5494
▁ऑरलैंडो	-12.5494
▁कॉरपोरेशन	-12.5494
▁जिब्राल्टर	-12.5494
▁परशुराम	-12.5494
▁पौष्टिक	-12.5494
▁बिरयानी	-12.5494
▁इंफोसिस	-12.5494
▁मलप्पुरम	-12.5494
▁विश्वकर्मा	-12.5494
▁शिहाबुद	-12.5494
▁त्रिशूल	-12.5494
▁दिक्कत	-12.5494
▁स्मरणोत्सव	-12.5494
▁कुट्टनाड	-12.5494
▁बांधवगढ़	-12.5494
▁दरभंगा	-12.5494
▁मवेशी	-12.5494
▁सेनगुप्ता	-12.5494
▁ग्रैंडमास्टर	-12.5494
▁फोगाट	-12.5494
▁ज़ाहिर	-12.5494
▁तब्दील	-12.5494
▁महासचिव	-12.5494
▁मापदंड	-12.5494
▁अफ़ीम	-12.5494
▁दरवाज़े	-12.5494
▁फ्रांसीसियों	-12.5494
▁बाइडन	-12.5494
▁लिथियम	-12.5494
▁इसराइल	-12.5494
▁लकवाग्रस्त	-12.5494
▁एकेडमी	-12.5494
▁भूगर्भ	-12.5495
▁नैंसी	-12.5495
▁सिलचर	-12.5495
▁फ्यूचर	-12.5495
▁स्पंज	-12.5495
▁साइंसेज	-12.5495
▁ढुलाई	-12.5495
▁अर्नोल्ड	-12.5495
▁माधुर्य	-12.5495
▁मैकमोहन	-12.5495
▁नटराज	-12.5495
▁स्प्रिंगफील्ड	-12.5495
▁कौशिक	-12.5495
▁छवियां	-12.5495
▁छिड़काव	-12.5495
▁द्वंद्वयुद्ध	-12.5495
▁प्रसुप्त	-12.5495
▁हेनरिक	-12.5495
▁महान्याय	-12.5495
▁सामंजस्यपूर्ण	-12.5495
▁जॉर्जटाउन	-12.5495
▁लीसेस्टर	-12.5495
▁राष्ट्रगान	-12.5495
▁हॉकिन्स	-12.5495
▁अल्वेस	-12.5495
▁हडसन	-12.5495
▁अतिशय	-12.5495
▁राजकोष	-12.5495
▁ग्रीनफील्ड	-12.5495
▁हुगली	-12.5495
▁स्टीवर्ट	-12.5496
▁गार्जियन	-12.5496
▁शिरोव	-12.5496
▁गेलफ	-12.5496
▁छड़ियाँ	-12.5496
▁मॉर्निंग	-12.5496
▁वीरतापूर्ण	-12.5496
▁पुष्य	-12.5496
▁घड़ियाँ	-12.5496
▁मालगुडी	-12.5496
▁हेलियो	-12.5496
▁दोआब	-12.5496
▁माइकोबैक्टीरिय	-12.5496
▁कुंडलिनी	-12.5496
▁पापनासम	-12.5496
▁त्रुटियाँ	-12.5496
▁चित्तौड़गढ़	-12.5496
▁ईसवी	-12.5496
▁ब्रूनो	-12.5496
▁जेवियर	-12.5496
▁रोइंग	-12.5497
▁मुखपृष्ठ	-12.5497
▁करूंगी	-12.5497
▁जलेबी	-12.5497
▁भत्ता	-12.5497
▁लार्वा	-12.5497
▁भरूच	-12.5497
▁शिराएँ	-12.5497
▁अनूपपुर	-12.5497
▁पिज़्ज़ा	-12.5497
ज्ञापन	-12.5498
▁कुरैशी	-12.5498
▁टिप्पणियां	-12.5498
ज़िया	-12.5498
▁गुरुग्राम	-12.5498
▁बैलेंस	-12.5498
▁गृहिणी	-12.5499
▁ग्राफिक्स	-12.5499
▁टप्पा	-12.5499
▁नुस	-12.5499
▁नागौर	-12.5499
▁नीतियाँ	-12.5499
▁भरतपुर	-12.5499
ैट्रिक	-12.5499
▁पंक्तियाँ	-12.55
▁वातानुकूलन	-12.55
▁सख़्त	-12.55
▁बधिर	-12.55
▁बंजर	-12.55
▁प्रबोध	-12.55
▁तटरेखा	-12.55
▁पराजय	-12.5501
▁मुल	-12.5501
▁दाढ़ी	-12.5501
▁असरानी	-12.5501
▁द्वेष	-12.5501
▁अभिमान	-12.5501
▁बाथर	-12.5502
शेक्सप	-12.5502
▁व्याप्ति	-12.5503
▁संसाध	-12.5503
▁सन्यास	-12.5504
▁अहसास	-12.5504
▁फहराया	-12.5504
▁कारवां	-12.5504
▁संघर्षरत	-12.5505
▁टाइगर्स	-12.5505
घोषणा	-12.5505
▁पावेल	-12.5505
▁पतल	-12.5506
ुत	-12.5506
▁चुम्बक	-12.5506
▁रोहतास	-12.5507
▁देउल	-12.5507
▁कुपोषण	-12.5507
▁ड्रोन	-12.5507
▁ड्रू	-12.5508
िशन	-12.5508
▁दुर्घटनाएँ	-12.5508
▁प्रणा	-12.5508
वू	-12.5508
ंट्स	-12.5509
▁उत्तरायण	-12.551
पॉजिट	-12.551
रोटेशन	-12.551
▁उठाएँ	-12.551
▁सर्वनाम	-12.551
स्वाल	-12.551
▁बुल्स	-12.5511
▁बॉलिंग	-12.5514
▁मैडम	-12.5514
▁फ्रंटियर	-12.5515
▁कैस	-12.5516
▁सियाम	-12.5516
▁जागरूक	-12.5519
▁प्रोफ़	-12.552
मेट्र	-12.5521
ेह	-12.5521
▁फॉल्ट	-12.5521
▁चिकित्सालय	-12.5522
▁मानस	-12.5524
▁जूट	-12.5525
▁अप्रवास	-12.5526
शहादत	-12.5526
मोहन	-12.5526
▁विल्हे	-12.5526
▁पढ़कर	-12.5527
▁घग्गर	-12.5528
▁क़ुतुब	-12.5528
▁नेवादा	-12.5528
▁अंडाशय	-12.5528
▁रोहिल्ला	-12.5528
▁ओरिएंट	-12.5528
▁फ़िनलैंड	-12.5528
▁पम्बा	-12.5528
▁विजयादशमी	-12.5528
▁फेलिक्स	-12.5528
▁जनसांख्यिकी	-12.5529
▁वृंदावन	-12.5529
▁प्रोफ़ाइल	-12.5529
▁बकरी	-12.5529
▁टिक	-12.5529
▁फ्रेंड्स	-12.5529
▁प्रबुद्ध	-12.5529
▁गुरुंग	-12.553
▁पवई	-12.553
▁स्मॉल	-12.553
लेवा	-12.553
▁सिंबा	-12.5531
▁कालक्रम	-12.5531
▁बालासो	-12.5532
▁साइकिलिंग	-12.5534
▁शहरयार	-12.5534
▁रफ़ी	-12.5534
▁सीज़र	-12.5534
▁दसवां	-12.5534
ट्टू	-12.5536
▁उपासक	-12.5538
▁प्रीमिय	-12.5539
▁स्टैटिन	-12.554
▁लॉरी	-12.5541
▁विराज	-12.5541
कन्या	-12.5543
▁हरिकेन	-12.5547
▁स्टंप	-12.5548
▁दोनो	-12.5549
▁मार्टी	-12.5549
▁चढ़ना	-12.555
▁भूरा	-12.555
▁उदासीन	-12.555
़्त	-12.5552
▁द्रुत	-12.5552
▁गेज	-12.5555
▁टोड	-12.5555
ूसर	-12.5555
लाप	-12.5556
▁खींचना	-12.5558
▁फ्रेंको	-12.5559
डिक्शन	-12.5559
▁घटाने	-12.5563
▁प्रस्तर	-12.5565
▁बाहुबल	-12.557
▁गुम्फा	-12.557
▁परम्परा	-12.557
▁फुकु	-12.5571
अकाउंटेंट	-12.5571
▁लेफ्ट	-12.5572
▁नब्बे	-12.5572
्ग	-12.5572
▁ईथर	-12.5572
▁जूलिया	-12.5572
माउंट	-12.5573
शैव	-12.5574
▁जलमार्गों	-12.5574
▁नाश्ता	-12.5575
▁वाक्	-12.5578
▁कदंबों	-12.5578
▁संबद्धता	-12.5579
▁वाल्ड	-12.5579
▁डोगरा	-12.558
▁साइज़	-12.5581
▁सुरक्ष	-12.5582
▁रैक	-12.5583
▁हाईवे	-12.5584
▁सुनते	-12.5586
▁गैरेज	-12.5586
लक्षित	-12.5587
▁गुज़रता	-12.5592
▁कुंवार	-12.5593
फोर	-12.5595
काई	-12.5596
▁समेकन	-12.5596
▁दादर	-12.5597
प्रचलित	-12.5598
▁ढल	-12.56
▁स्टैक	-12.5601
बर्ड	-12.5602
▁ड्रग	-12.5602
▁गमक	-12.5602
शोफ	-12.5604
▁रूपांकन	-12.5606
▁बांग्ला	-12.5611
▁जायंट	-12.5614
ंस्की	-12.5616
्खा	-12.5617
नु	-12.5618
▁जाफरी	-12.5618
▁मारवाड़ी	-12.5619
▁एनएच	-12.562
ेरो	-12.5621
▁सप्तम	-12.5621
▁तौ	-12.5621
▁दर्	-12.5625
▁पुरालेख	-12.5628
▁फुले	-12.5629
▁डेज़	-12.5629
▁वाहिनी	-12.5632
र्जियो	-12.5632
▁चेंग	-12.5633
▁एडी	-12.5635
ष्टाचार	-12.5635
▁झांग	-12.5636
▁क्वांट	-12.5637
▁होलो	-12.5643
▁एंग्लि	-12.5643
▁विद्वता	-12.5645
उच्च	-12.5649
पारियों	-12.5649
▁परिषदें	-12.5651
▁वृषभ	-12.5651
रोस	-12.5653
र्व	-12.5655
▁मिडल	-12.5655
▁वायर	-12.566
ंगलोर	-12.566
▁वाल्डन	-12.5661
▁घूर	-12.5661
ोइस	-12.5663
पहले	-12.5664
ीर	-12.5666
▁चिप्प	-12.5666
▁अलं	-12.5668
▁बीवी	-12.5671
▁तुर्कमेन	-12.5672
▁सहभागि	-12.5675
▁हॉक	-12.5676
▁सीसा	-12.5676
▁नरसिंहवर्म	-12.5676
▁वृक्क	-12.5677
▁गिनीज	-12.5678
▁रचनाकार	-12.5679
▁ऐनी	-12.5679
▁निर्देशिका	-12.5684
▁उगाय	-12.5685
ाक्षी	-12.5688
ोरल	-12.5688
▁कशेरुक	-12.5689
ॉल्ट	-12.569
▁सुत्त	-12.5691
▁बीजाणु	-12.5694
▁गोता	-12.5695
▁प्याल	-12.5697
रियों	-12.5699
यूने	-12.57
रवाद	-12.57
वर्नम	-12.5702
▁अर्टि	-12.5704
▁पाले	-12.5705
▁क्वालीफा	-12.5706
▁ऊष्मा	-12.5708
संबंधित	-12.5708
▁गिरजाघरों	-12.5708
▁नार	-12.5714
▁बिक्रीकर्ता	-12.5715
ोबेल	-12.5719
▁रॉड	-12.5724
पैर	-12.5725
▁कलम	-12.5729
▁प्लाट	-12.573
▁ब्लेक	-12.5731
▁मंडी	-12.5731
▁हिन्दी	-12.5732
▁साइक्लो	-12.5733
▁टिके	-12.5733
▁डॉक	-12.5733
▁अनाम	-12.5734
▁भात	-12.5736
▁परम	-12.5739
▁विनो	-12.5739
▁सार्व	-12.5739
▁अनुयायि	-12.574
▁बास्क	-12.5741
[...]
