.	105809
▁the	101690
,	87266
▁of	55015
▁	47421
▁and	46038
▁in	43737
▁to	37503
▁a	35485
▁is	27263
0	26891
1	26530
s	23283
▁The	20392
2	19014
▁was	17390
▁for	13862
9	13219
-	11934
▁with	11550
▁on	11499
▁by	11461
'	11253
▁as	11066
▁are	10574
▁that	10046
ing	9144
▁from	8663
ed	8321
5	7754
8	7161
▁at	7059
3	6911
▁or	6593
7	6536
▁In	6448
4	6440
6	6364
▁his	6301
▁be	6264
▁It	6178
▁you	6100
▁an	6036
▁it	6000
▁has	5542
▁also	5447
▁have	5403
▁were	4907
▁He	4797
▁which	4444
▁(	4362
▁India	4265
▁can	4236
▁he	4208
▁not	4187
▁I	4179
▁this	3961
▁their	3663
▁A	3658
▁one	3365
▁first	3291
▁had	3241
▁your	3236
▁"	3118
▁been	3080
▁who	3039
▁people	2901
▁but	2825
▁they	2819
▁This	2796
▁other	2719
ly	2647
)	2587
▁its	2505
▁after	2483
▁her	2455
▁state	2446
▁film	2440
▁when	2421
▁two	2413
▁more	2352
d	2351
▁Indian	2299
▁time	2290
▁into	2274
▁will	2266
y	2265
▁about	2224
▁may	2206
▁all	2159
▁most	2133
▁over	2102
e	2075
▁used	2062
th	2052
t	2051
▁many	1967
▁up	1936
▁out	1868
▁during	1850
▁some	1833
"	1832
▁such	1776
:	1747
▁him	1738
▁made	1737
▁only	1679
▁than	1667
a	1659
▁known	1646
al	1641
▁there	1624
▁them	1620
▁city	1568
▁They	1562
▁called	1521
▁She	1492
▁There	1487
▁years	1481
▁between	1467
▁team	1464
▁United	1453
▁where	1395
m	1378
▁she	1372
▁day	1364
▁played	1356
▁like	1329
n	1329
▁if	1327
▁these	1324
▁part	1300
▁year	1288
▁through	1286
▁so	1278
▁include	1271
i	1268
▁If	1266
▁three	1265
▁under	1251
▁then	1247
▁game	1236
▁became	1232
▁States	1222
▁new	1215
▁would	1201
▁make	1182
▁use	1174
▁being	1166
▁before	1139
▁well	1123
▁However	1113
▁while	1110
▁area	1100
▁died	1092
▁any	1092
▁get	1083
▁After	1071
▁my	1069
▁around	1059
▁each	1055
▁no	1050
▁As	1046
▁won	1037
;	1029
▁On	1026
▁often	1026
▁both	1022
▁very	1021
▁number	1019
▁century	1017
▁found	1005
▁world	1004
▁against	996
▁different	992
▁take	990
▁because	988
▁later	987
’	984
▁district	982
▁British	981
▁until	959
▁several	959
▁near	957
).	955
▁do	954
▁second	954
▁water	946
▁money	931
▁World	925
▁S	922
▁river	903
▁including	898
▁name	895
▁last	891
▁music	880
▁major	876
▁These	873
▁company	868
▁released	867
–	866
▁place	859
▁family	856
▁same	848
▁back	842
▁said	842
▁region	839
▁since	834
▁work	834
▁National	833
▁You	823
▁play	821
▁For	819
▁government	819
▁Tamil	815
▁form	815
▁Some	813
▁did	806
▁much	801
▁early	800
▁four	800
▁home	796
▁Delhi	795
▁usually	793
▁could	791
▁B	791
▁temple	788
▁along	787
▁high	787
),	784
st	780
".	779
▁New	777
▁important	776
▁'	773
▁age	773
%	769
▁located	769
o	765
▁popular	765
▁system	761
▁million	759
▁what	757
▁long	754
▁started	752
▁large	749
▁help	747
▁national	741
▁Hindu	739
▁period	735
ic	732
▁down	732
▁sport	728
▁held	726
▁now	725
▁life	725
▁When	724
re	723
▁small	719
▁me	717
▁players	716
▁how	716
▁due	716
▁common	715
▁days	714
▁town	709
▁women	699
▁set	697
▁should	696
▁country	692
▁At	692
▁way	685
er	681
▁His	677
▁every	672
▁death	670
▁end	668
▁main	663
▁person	663
r	662
ve	654
▁C	653
▁another	646
▁five	644
▁Pradesh	644
▁left	635
▁festival	635
▁ball	635
ok	632
▁based	628
▁South	628
▁games	626
▁son	625
!	623
▁need	623
▁population	621
able	621
▁countries	620
▁those	619
▁born	619
▁go	617
▁good	614
▁Dur	611
▁among	609
▁-	608
▁began	608
▁see	604
▁few	602
▁even	599
▁areas	597
▁named	596
▁season	595
▁find	593
▁children	590
▁power	590
▁built	590
▁River	589
▁movie	586
▁best	586
▁village	586
on	582
▁without	581
▁body	579
▁km	579
▁According	578
▁just	576
▁still	575
▁own	570
▁disease	570
▁January	567
▁March	566
▁off	565
▁player	563
▁states	561
▁American	558
▁become	556
▁role	553
▁T	551
▁Many	551
▁within	550
▁group	549
▁total	549
▁per	548
▁largest	548
▁next	548
▁Singh	546
▁local	542
▁Bengal	540
▁parts	539
▁men	537
▁North	536
▁example	535
▁great	533
▁language	532
▁times	531
▁E	531
▁goal	528
▁May	527
▁One	527
▁court	527
▁want	526
▁came	525
▁event	524
▁Jain	519
▁might	519
an	518
?	515
▁went	515
▁father	511
▁football	509
▁considered	509
▁received	508
▁films	507
▁Most	506
▁capital	506
▁un	506
▁public	501
▁Khan	500
▁using	499
▁December	499
▁University	495
▁November	493
▁match	493
in	492
▁result	492
▁M	490
▁head	487
▁April	485
▁cases	483
▁given	480
▁Kerala	480
▁An	479
▁does	479
▁food	477
▁making	476
▁various	475
▁Mughal	475
est	474
l	473
▁September	472
/	472
▁give	471
ll	471
▁again	471
▁created	470
▁line	470
▁side	469
▁fort	467
es	466
▁International	466
▁business	466
▁cause	464
▁October	461
▁put	461
▁D	460
▁away	459
▁June	458
▁am	457
▁means	456
▁$	456
▁international	456
▁house	453
▁married	452
▁third	452
▁top	449
▁month	448
▁teams	448
▁led	447
▁West	446
▁series	445
▁English	445
▁reported	444
▁police	444
▁control	443
▁highest	443
▁service	441
▁Shah	441
▁order	441
▁rules	438
▁Nadu	437
▁south	436
▁less	436
▁established	436
▁dance	436
▁school	435
▁members	433
▁August	432
▁others	431
▁lead	430
▁following	430
▁P	430
▁must	429
▁East	428
▁similar	427
▁history	427
▁lost	426
▁caused	425
▁scored	425
▁February	423
▁six	423
▁killed	423
gave	422
▁Hindi	422
▁don	422
▁League	421
▁able	420
▁show	420
▁across	420
▁County	418
▁car	418
▁level	416
▁written	416
▁present	412
▁north	411
▁low	411
▁Games	411
▁member	410
▁R	409
▁Empire	408
▁support	406
▁England	404
▁information	403
▁late	403
▁events	402
▁July	400
▁right	400
▁pay	399
▁start	399
▁old	398
▁non	398
▁All	396
▁half	396
▁traditional	395
▁sports	395
▁king	392
▁Sweden	390
▁ancient	390
▁real	389
▁case	389
▁U	388
▁war	388
▁list	385
▁modern	385
▁celebrated	384
▁rule	384
▁store	383
▁however	382
▁seen	382
▁term	381
▁blood	380
▁army	379
▁months	379
having	377
▁point	376
▁Other	376
▁community	376
▁especially	374
▁special	373
▁famous	373
▁playing	372
▁available	370
▁consist	370
▁full	370
▁temples	370
▁War	369
▁minutes	367
▁treatment	366
▁State	366
▁II	366
▁club	365
▁With	364
▁Whil	364
▁taken	362
▁By	361
▁financial	360
▁risk	360
▁free	358
▁amount	357
▁Kumar	357
▁know	357
u	357
▁de	356
▁run	356
▁People	355
."	355
▁short	355
▁But	353
▁too	352
▁come	351
▁Western	351
▁To	348
▁items	348
▁land	346
▁office	346
▁dynasty	346
▁general	346
▁developed	345
▁included	345
▁founded	345
▁type	345
▁Chinese	345
▁associated	344
▁forms	343
▁rock	343
▁Australia	343
▁Punjab	343
▁field	341
▁rivers	341
▁performance	340
▁former	340
▁story	340
▁re	338
▁account	338
▁open	338
▁Temple	338
▁song	338
▁political	337
▁man	337
▁F	336
en	335
▁career	335
▁site	335
▁living	334
▁together	334
▁Asia	333
▁Cup	333
▁southern	332
▁young	331
▁either	330
▁interest	329
▁our	329
▁social	329
▁rate	328
▁US	328
▁online	328
▁b	327
▁official	327
▁things	327
▁night	326
▁directed	326
▁makes	326
▁followed	326
▁thought	326
h	325
▁release	324
▁moved	324
▁seven	324
▁least	323
▁sure	323
▁cities	322
▁Pakistan	321
▁further	321
ä	320
Since	320
▁Olympic	320
▁human	320
▁mother	320
▁performed	320
▁we	319
▁going	319
or	318
▁London	318
▁bank	318
▁final	317
▁done	317
▁change	316
▁K	316
▁President	316
▁style	316
▁got	316
▁China	316
▁symptoms	316
▁military	314
▁record	314
▁development	314
▁live	314
▁today	314
▁hit	313
▁V	313
▁formed	313
▁Fort	312
▁keep	312
▁Award	312
▁Muslim	311
▁produced	311
▁wife	310
▁northern	310
▁King	310
▁possible	308
▁week	307
S	306
▁sent	306
▁religious	305
▁defeated	305
▁art	305
▁City	305
▁songs	305
▁Maharashtra	305
▁addition	305
▁species	304
▁CE	304
▁Gujarat	304
▁score	303
é	303
▁announced	303
ar	303
▁love	303
▁believed	302
▁Japan	302
▁hand	301
▁shot	301
▁certain	301
▁problems	300
▁sometimes	299
▁served	298
▁range	298
▁hours	297
▁Fro	297
C	296
▁cancer	295
▁shopping	294
▁higher	294
typically	294
▁N	293
▁lake	293
▁health	293
▁never	293
▁trade	292
▁Canada	292
▁average	292
▁better	292
▁introduced	292
▁services	292
▁mostly	292
us	292
▁close	291
▁child	291
▁places	290
▁goals	290
▁throughout	290
▁once	290
▁Congress	290
▁station	290
▁Minister	289
▁though	288
▁wear	287
▁always	286
▁almo	286
▁generally	286
▁Mumbai	285
▁central	284
▁composed	284
▁lower	282
▁provide	282
▁computer	282
▁feel	281
▁companies	281
▁Asian	281
▁professional	281
▁likely	280
▁television	279
▁Europe	279
▁single	278
▁specific	278
▁G	278
▁competition	277
▁skin	277
▁stars	277
▁title	276
▁director	276
▁appeared	276
▁Ali	275
▁groups	275
▁himself	275
▁types	275
ach	275
▁towards	275
▁win	274
▁hard	274
▁saw	274
▁income	274
▁tradition	274
▁debut	273
▁schools	273
▁stores	272
▁Iowa	272
▁look	272
▁tournament	271
▁believe	271
▁municipality	271
▁party	271
▁continued	270
▁lot	270
▁arts	270
▁Gandhi	270
▁ask	270
▁daughter	269
▁works	269
▁road	269
▁above	269
▁tell	268
▁western	268
▁Association	268
▁offer	268
▁Film	267
ary	266
▁District	266
▁item	265
▁features	265
▁Germany	265
▁significant	264
day	263
the	263
▁forces	263
▁worked	263
▁receive	262
ers	262
▁gold	262
▁although	262
▁here	261
▁Its	261
▁European	260
▁past	260
▁instead	260
▁outside	259
₹	259
▁spread	259
▁York	258
▁products	258
▁H	258
▁mainly	258
▁date	258
▁center	258
▁according	258
▁culture	258
▁comes	258
▁virus	258
▁successful	257
▁joined	257
▁box	256
▁east	256
▁empire	255
ir	255
te	255
▁idea	255
▁French	255
▁languages	254
▁word	254
▁original	254
▁eye	254
▁France	254
▁version	254
▁Day	253
▁current	253
▁already	253
▁Krishna	252
▁Olympics	252
▁little	252
▁particularly	252
▁Government	252
▁points	252
▁leading	251
▁position	251
▁kingdom	250
▁process	250
to	250
▁evidence	250
▁shows	250
▁return	250
▁attack	250
▁Central	250
▁taking	250
▁industry	249
▁contact	249
▁working	248
▁–	248
▁inside	247
▁eight	247
▁Championship	247
▁Sri	247
▁heart	247
▁runs	246
c	246
ya	246
▁increased	245
▁infection	245
▁changes	245
se	245
▁Park	245
▁brother	245
▁project	245
▁Best	245
rought	244
▁reach	244
year	244
ther	244
▁something	244
▁regions	244
▁front	243
▁video	243
▁sea	242
▁Madhya	242
▁eastern	242
man	242
▁province	242
▁reign	241
▁matches	241
▁actor	240
▁Odisha	240
▁friends	239
▁census	239
▁feet	239
▁m	239
▁allow	238
▁territory	238
▁post	238
▁Later	238
▁sold	238
▁media	237
▁market	237
▁education	237
▁hockey	236
k	236
▁wide	236
▁plays	236
▁pre	235
▁classical	235
▁fever	235
▁condition	235
▁affected	235
▁chess	235
▁ten	235
▁locality	234
▁face	234
▁price	234
▁card	234
▁situated	234
▁Municipality	233
▁female	233
▁allowed	233
▁think	233
▁light	233
▁far	233
▁That	233
▁stage	232
▁goes	232
▁president	232
▁reached	232
▁aged	232
▁Kingdom	231
▁cost	231
▁fire	230
▁big	230
▁Kashmir	230
▁prevent	230
▁causes	230
▁occur	229
▁elected	229
▁source	229
▁ruled	229
▁Shiva	229
▁woman	229
▁described	227
▁getting	227
▁natural	227
▁smaller	227
▁asked	227
▁website	227
▁strong	227
▁plan	226
▁yoga	226
▁training	226
▁character	226
▁Vishnu	225
▁movement	225
▁medal	225
▁Another	225
▁Uttar	225
▁experience	224
▁weeks	224
▁Rajasthan	223
▁annual	223
▁centre	222
▁production	222
▁earlier	222
▁west	222
▁data	222
▁park	222
▁levels	222
▁Then	221
▁enough	221
▁extend	221
▁someone	221
▁Ram	221
▁Kho	220
▁try	220
▁America	220
▁themselves	220
▁Maratha	220
▁historical	220
▁rest	219
▁budget	219
▁wrote	219
▁recorded	219
▁cells	218
▁John	218
▁tax	218
▁success	218
▁martial	217
▁law	217
▁holiday	217
▁Buddhist	216
▁stroke	216
▁say	216
▁Although	216
▁decided	216
▁Great	215
▁Federation	215
▁building	215
▁variety	215
▁probabl	215
▁heavy	214
▁falls	214
▁air	213
▁fall	213
▁Before	213
▁refer	213
▁cannot	213
▁move	213
▁districts	213
▁behind	213
▁lived	213
▁cut	213
side	213
▁ice	212
▁entire	212
▁loss	212
▁centuries	212
▁stay	212
ies	212
▁increase	211
▁separate	211
▁medical	211
▁California	211
▁join	210
▁bring	210
▁affect	210
▁album	210
▁W	210
▁leave	209
▁Court	209
▁race	209
▁buy	209
▁severe	209
▁potential	208
▁mi	208
▁shown	208
▁expenses	208
▁value	207
▁compar	207
▁currently	207
▁Her	207
▁code	206
▁care	206
▁Union	206
▁returned	206
▁told	205
▁No	205
▁lack	205
▁marriage	205
▁deal	205
▁Prague	205
ation	204
▁forest	204
▁couple	204
▁create	204
▁visit	204
▁below	202
▁spend	202
▁required	202
▁published	202
▁O	202
▁multiple	202
▁regular	201
▁soon	201
▁rich	201
▁particular	201
▁call	201
▁majority	201
▁Karnataka	201
▁wanted	201
▁cricket	201
▁expected	200
▁personal	200
▁related	199
▁Telugu	199
▁urban	199
▁border	199
▁commonly	199
▁Anand	198
▁Sultan	198
▁ground	198
▁records	198
▁track	198
▁election	198
▁Party	198
°	198
▁victory	197
▁names	197
▁Dev	197
▁summer	197
▁Chola	197
▁Awards	197
▁job	197
▁provided	197
—	197
am	197
▁School	196
▁Africa	196
▁p	196
ta	196
▁red	195
▁says	195
▁occurs	195
▁Also	195
▁program	195
▁damage	195
▁meet	195
▁Lake	195
▁results	194
▁added	194
▁winter	194
▁product	194
▁model	194
▁birth	194
▁study	194
▁helped	194
▁future	194
▁parents	194
▁longer	193
▁opened	193
▁Sever	193
▁declared	193
▁independence	193
referred	193
▁ceremony	193
▁Akbar	193
▁Hindus	193
▁brain	193
▁railway	193
▁Australian	193
▁primary	192
▁changed	192
▁action	192
▁practice	192
▁systems	192
▁appointed	192
▁software	192
▁complete	192
▁kilometres	192
▁Ray	191
▁force	191
▁private	191
▁board	191
▁research	190
▁yellow	190
▁consider	190
▁book	189
▁Ladakh	189
▁caves	189
▁Chennai	189
▁search	189
▁students	189
▁college	189
▁terms	188
▁active	188
▁mid	188
▁Company	188
▁upon	187
▁German	187
▁length	187
▁rice	187
▁High	186
▁fast	186
▁hands	186
▁check	186
▁economic	186
▁Bangladesh	186
▁hill	186
▁looking	186
▁conditions	185
▁architecture	185
▁Muslims	185
▁College	185
▁worldwide	185
▁news	185
▁fighting	185
▁Illinois	185
▁larger	185
▁finished	184
▁white	184
▁course	184
▁size	184
▁fourth	184
ial	184
▁additional	184
▁depend	183
▁widely	183
▁storm	183
▁league	183
▁literature	183
▁positive	183
▁divided	183
▁Windows	183
▁Kapoor	182
▁rights	182
▁room	182
▁Both	182
ite	182
▁battle	182
▁movies	182
▁governor	182
▁dedicat	182
▁shooting	182
na	181
▁Rao	180
▁cave	180
▁add	180
▁felt	180
▁Al	180
▁individual	180
▁Be	179
▁ended	179
▁lies	179
▁Army	179
▁musical	179
▁uses	179
▁physical	179
▁involve	179
▁protect	178
▁investment	178
▁St	178
$	178
▁reduce	178
▁poor	178
▁sub	177
▁island	177
▁credit	177
▁animals	177
▁bad	177
▁involved	177
▁beginning	177
▁Lord	177
▁syndrome	176
▁replaced	176
▁Ashoka	176
▁islands	176
▁issues	175
▁penalty	175
▁mentioned	175
▁Airport	175
▁extra	175
▁phone	175
time	175
▁cultural	175
▁Hills	175
old	175
▁Sen	175
▁test	174
▁flows	174
▁pass	174
▁sources	174
▁We	174
▁oldest	174
▁whe	174
▁page	173
▁difficult	173
▁access	173
▁placed	173
▁forests	173
“	172
▁act	172
▁sites	172
▁independent	172
rd	172
▁yourself	172
▁self	172
▁quickly	172
▁roles	171
▁construction	171
▁band	171
▁awarded	171
▁follow	171
▁appears	171
▁category	171
▁ruler	171
▁location	171
▁origin	171
”	170
based	170
▁Assam	170
▁remains	170
▁books	170
▁cash	170
▁shop	170
▁championship	170
▁manager	170
▁needed	169
like	169
▁BCE	169
▁report	169
▁thus	169
▁limited	169
▁Prime	169
forced	168
▁save	168
▁characters	168
▁J	168
▁signed	168
▁drug	168
▁needs	168
▁activities	167
▁studies	167
▁meaning	167
▁Raj	167
▁Two	167
▁effects	167
▁closed	167
▁hospital	167
▁let	167
▁Ka	167
▁unique	167
▁quality	167
▁turn	167
▁avoid	166
▁etc	166
▁valley	166
▁injury	166
▁black	166
▁develop	166
▁paid	166
▁stop	166
▁begins	166
▁kind	166
▁lives	165
▁villages	165
▁produce	165
▁accounts	165
▁network	165
▁feeling	165
▁text	165
▁era	165
▁starts	165
▁commercial	165
▁rulers	165
▁clear	165
▁administration	165
▁effect	165
▁winning	165
▁pain	164
▁officials	164
▁giving	164
▁Manipur	164
▁minister	164
▁break	164
▁confirmed	164
ive	164
▁status	164
▁decide	163
▁running	163
▁Bihar	163
▁completed	163
▁enter	163
▁polo	163
▁whole	163
▁ways	163
▁co	163
▁walk	163
ion	162
▁dry	162
▁attempt	162
less	162
▁launched	162
▁monsoon	162
▁Texas	162
▁friend	162
▁Friday	162
▁situation	162
▁Council	161
▁coast	161
▁bandy	161
▁Japanese	161
la	161
▁soldiers	161
▁numerous	161
▁Test	161
▁lines	161
▁morning	160
▁claimed	160
▁God	160
▁growth	160
▁kill	160
▁coach	160
▁Today	160
▁itself	160
▁foreign	160
▁managed	160
▁meeting	160
▁basic	160
▁designed	160
▁ever	159
▁numbers	159
▁insurance	159
ni	159
&	159
▁purchase	159
▁yet	159
▁influence	159
▁attention	159
▁problem	159
▁climbing	159
as	159
▁remained	159
▁covered	159
▁responsible	159
▁mention	158
tic	158
▁male	158
▁perform	158
▁rather	158
▁L	158
▁estimated	157
▁Britain	157
▁met	157
▁debt	157
▁recent	157
▁TV	157
▁complex	157
g	157
▁exist	157
▁vary	157
up	157
▁focus	157
is	156
▁rainfall	156
▁charge	156
▁legal	156
▁My	156
▁flow	156
▁Summer	156
▁acting	156
▁trying	156
▁raised	156
▁earliest	156
▁reason	156
▁opposite	155
▁airport	155
ness	155
▁arrested	155
▁observed	155
ka	155
▁Sanskrit	155
▁humans	155
▁inscription	155
▁Microsoft	155
▁Act	155
▁worth	155
▁Google	155
▁plant	154
▁hills	154
▁middle	154
▁offered	154
▁via	154
▁sales	154
▁sense	154
▁Greek	154
▁connect	154
▁space	154
▁stopped	154
▁Sikkim	154
▁Women	154
▁So	153
▁round	153
▁quit	153
▁traditions	153
▁stated	153
▁directly	153
turned	153
▁passed	153
▁cross	152
▁provides	152
▁basin	152
▁San	152
▁response	152
ra	152
▁tour	152
▁prominent	152
▁singer	152
▁actress	152
▁feature	151
▁popularity	151
▁letter	151
▁royal	151
nd	151
▁speed	151
▁husband	151
▁decision	151
▁rare	151
▁fight	151
▁approximately	151
▁Andhra	151
▁Republic	151
▁share	151
▁completely	151
▁organized	150
▁doing	150
▁Deccan	150
▁treated	150
▁hold	150
▁sell	150
▁Police	150
▁styles	150
▁ends	150
▁becomes	149
▁notes	149
▁send	149
▁Eastern	149
▁subcontinent	149
▁vitamin	149
▁kings	149
▁girl	149
▁scoring	149
▁appear	149
▁Division	148
▁deaths	148
▁savings	148
▁words	148
▁sister	148
▁opening	148
▁structure	148
▁performances	148
▁rain	148
▁Bollywood	148
▁award	148
▁°	148
▁extreme	148
▁finally	148
A	147
▁injuries	147
▁god	147
▁Red	147
▁stone	147
▁houses	147
▁net	147
▁distance	147
▁direct	146
▁House	146
▁Alauddin	146
I	146
▁families	146
▁troops	146
▁captured	146
▁noted	146
▁stick	146
▁festivals	146
▁Chess	146
▁constructed	146
▁Buddhism	145
▁Carnatic	145
▁script	145
▁Nehru	145
▁Raja	145
▁banks	145
▁fell	145
â€	145
▁starting	145
▁contains	145
▁minor	144
▁represent	144
ne	144
▁Devi	144
▁continue	144
▁pressure	144
▁Aurangzeb	144
▁mind	144
▁why	144
▁chief	144
▁marked	144
▁alone	144
▁Kannada	144
ous	144
▁featur	144
most	144
le	143
▁fact	143
▁stories	143
▁leader	143
▁Assembly	143
▁rural	143
▁customer	143
▁coming	143
▁leaves	143
▁officers	143
▁relationship	143
▁listed	142
▁studied	142
▁nine	142
▁artists	142
▁Re	142
▁temperatures	142
▁issue	142
▁oil	141
▁plans	141
▁eventually	141
▁drama	141
▁percent	141
▁Bhima	141
▁Filmfare	141
▁costs	141
▁elections	141
▁Even	141
▁square	141
▁Indo	141
▁Championships	140
▁mountain	140
▁Sea	140
▁individuals	140
▁tried	140
▁security	140
▁read	140
▁supported	140
▁simple	140
▁celebrate	140
▁occurred	140
▁Once	140
▁General	140
▁writing	140
▁coins	140
▁towns	139
▁programs	139
▁transport	139
▁loan	139
▁kept	139
▁convert	139
▁ordered	139
▁recently	139
▁First	139
▁territories	139
▁allows	139
▁standard	139
▁Bank	138
▁Malayalam	138
▁effective	138
▁us	138
▁plants	138
▁eyes	138
▁biggest	138
▁reports	138
▁bus	138
▁texts	138
▁birds	138
century	138
▁Goa	137
▁represented	137
▁Group	137
▁department	137
▁highly	137
▁partner	137
▁Bengali	137
▁previous	137
▁Governor	137
▁rates	137
▁begin	137
▁communities	137
▁Holi	136
▁fish	136
▁Football	136
▁competitions	136
▁stock	136
▁sexual	136
▁design	136
▁minute	136
▁gift	136
ity	136
▁Festival	136
▁table	136
▁positions	135
▁Not	135
▁discovered	135
▁religion	135
▁class	135
▁Academy	135
▁Chand	135
▁normal	135
▁emergency	135
▁Dutch	135
▁dead	135
ji	135
▁incident	135
▁train	135
▁Hockey	135
▁Muhammad	135
nt	134
▁degree	134
▁claim	134
▁campaign	134
▁build	134
▁powerful	134
ry	134
▁hair	133
▁Un	133
▁Indus	133
pur	133
▁gross	133
▁younger	133
▁nearby	133
▁carried	133
▁negative	133
▁Bay	132
▁tree	132
▁attend	132
▁Tripura	132
▁Hyderabad	132
F	132
▁customers	132
▁ago	132
▁Bombay	132
▁Hall	132
▁write	132
▁key	132
▁ability	132
acted	132
▁animal	132
▁activity	132
▁officer	132
▁Ma	132
▁payment	131
▁Meghalaya	131
▁Islamic	131
▁protection	131
▁techniques	131
▁base	131
▁tournaments	131
ecause	131
▁section	131
▁comedy	131
▁celebration	130
▁equipment	130
▁worship	130
▁silver	130
and	130
▁figure	130
▁star	130
▁weight	130
▁management	130
▁Zealand	130
▁Sometimes	130
▁buying	130
▁Sun	130
▁previously	130
▁More	130
▁Vedic	130
▁simply	130
▁beat	130
▁primari	130
▁races	130
▁opponent	129
▁calendar	129
▁snow	129
▁metres	129
▁headquarters	129
▁initially	129
▁Desp	129
▁choose	129
▁Don	129
▁easily	129
▁orders	129
▁upper	129
▁domestic	128
▁multi	128
▁patients	128
▁surgery	128
▁screen	128
▁saying	128
▁leaving	128
▁remain	128
▁accepted	128
line	128
▁Jammu	128
▁deep	128
▁bought	128
▁Times	128
▁computers	128
▁visited	127
▁travel	127
▁huge	127
▁Up	127
▁Over	127
▁hour	127
▁roads	127
▁hot	127
▁Persian	127
▁Vijay	127
▁civil	127
▁Northern	127
▁Island	127
▁presence	127
▁drugs	127
▁mouth	127
▁Make	127
▁lacrosse	127
▁cast	127
notable	127
▁supply	127
▁Russia	127
▁spending	126
▁despi	126
▁Sports	126
▁Haryana	126
▁Oklahoma	126
▁older	126
▁gas	125
▁fought	125
▁failed	125
▁eat	125
ur	125
▁require	125
▁Do	125
▁Road	125
▁Brazil	125
▁shift	125
▁cinema	125
▁connected	125
▁refused	125
▁economy	125
▁regional	125
▁immediately	125
▁bacteria	124
▁selected	124
▁view	124
round	124
▁brothers	124
▁thousands	124
▁Guru	124
▁Battle	124
▁kilometers	124
▁operating	124
▁ft	124
▁winds	124
▁cover	124
▁reviews	124
▁Look	123
▁monthly	123
▁honour	123
▁watch	123
Â	123
▁factors	123
▁method	123
▁nature	123
▁prices	123
▁resulted	123
▁Internet	123
▁Highway	123
▁Shri	123
▁Mughals	123
▁efforts	123
▁learn	123
▁billion	123
▁Go	123
▁causing	123
▁union	123
▁forward	123
▁spent	122
▁finish	122
▁fine	122
▁Islam	122
▁green	122
▁baby	122
▁maintain	122
▁happened	122
▁nerve	122
ism	122
á	122
▁Marathas	121
▁subsequent	121
▁seek	121
▁About	121
▁native	121
▁paper	121
▁throne	121
▁serious	121
▁rank	121
▁Sunday	121
▁speak	121
▁Paris	121
▁Among	121
▁attacks	121
▁route	121
▁driving	121
▁exchange	121
▁weather	121
▁Hinduism	120
▁miles	120
▁tests	120
▁entered	120
▁temperature	120
▁gained	120
▁property	120
▁Chandigarh	120
▁delta	120
▁initial	120
▁brand	120
▁cold	120
▁Le	120
▁awards	120
▁energy	120
▁audience	119
▁climate	119
▁combined	119
▁Church	119
▁Valley	119
▁sung	119
▁staff	119
▁influenced	119
▁division	119
▁users	119
▁AD	119
▁Iran	119
▁file	119
▁content	118
ia	118
▁subject	118
▁Telangana	118
▁manage	118
x	118
▁alcohol	118
▁association	118
[	118
▁vision	118
▁grew	118
▁delivery	118
▁semi	118
▁failure	118
▁happy	117
▁tourist	117
▁frequently	117
▁Sabha	117
▁Mexico	117
▁becoming	117
▁champion	117
▁organization	117
▁sound	117
▁Three	116
▁destroyed	116
▁owned	116
▁issued	116
▁weapons	116
▁stand	116
▁irrigation	116
▁doctor	116
▁cards	116
▁therapy	116
ment	116
▁daily	116
▁removed	116
▁true	116
▁sons	115
▁Wikipedia	115
▁clothes	115
▁Due	115
▁lose	115
▁advantage	115
▁purpose	115
▁mixed	115
▁twice	115
▁except	115
▁ritual	115
▁mean	115
▁society	115
ever	115
▁movements	115
▁tropical	114
▁cell	114
▁Switzerland	114
▁Black	114
▁paying	114
el	114
▁county	114
▁step	114
▁Committee	114
▁Under	114
▁leaders	114
D	114
▁Your	114
▁ran	114
▁Rama	114
it	114
▁And	114
▁Parliament	114
▁seasons	114
▁BC	114
▁Dr	114
▁respectively	114
▁Institute	113
▁serve	113
▁necessary	113
▁Hyder	113
▁starr	113
▁hosted	113
▁suggested	113
▁finds	113
▁review	113
▁suffered	113
▁marks	113
▁contract	113
▁Emperor	113
▁infected	113
▁helps	113
▁Shivaji	113
▁USA	113
▁dates	113
▁trees	113
]	113
▁Portuguese	113
▁easy	113
eval	113
▁Uttarakhand	113
▁actually	113
▁distinct	113
▁folk	113
▁bodies	113
▁taxes	113
▁Department	113
▁Board	113
▁sides	113
▁Russian	113
▁expect	112
▁Club	112
▁emperor	112
▁Afghanistan	112
▁Easter	112
▁assist	112
▁Cricket	112
▁peace	112
▁residents	112
▁anything	112
um	112
out	112
▁carry	112
The	112
▁Italian	112
▁increasing	112
▁homes	112
▁Pulakeshin	112
▁piece	112
▁wall	112
▁appeal	111
▁Bandy	111
▁recommended	111
▁clothing	111
▁Mizoram	111
▁address	111
▁Korea	111
▁officially	111
▁chance	111
▁walls	111
▁dam	111
▁growing	111
▁attacked	111
▁La	111
▁images	111
▁adopted	111
▁Major	111
▁identified	110
▁Stadium	110
▁honor	110
▁lyrics	110
▁singing	110
▁height	110
▁driver	110
▁buildings	110
▁improve	110
▁bride	110
▁Canadian	110
▁Apple	110
▁enjoy	110
▁Corporation	110
▁Follow	110
▁inscriptions	110
▁reasons	110
▁scale	110
▁Chief	110
▁authorities	110
▁successfully	109
▁developing	109
▁Islands	109
▁wealth	109
▁image	109
▁crops	109
▁else	109
▁UK	109
▁versions	109
▁reduced	109
▁moving	109
▁organised	109
▁grown	109
▁Grand	109
ma	109
▁scholars	109
▁retirement	109
▁girls	109
▁scheduled	108
▁inter	108
z	108
▁importance	108
▁Narayan	108
da	108
▁agriculture	108
▁direction	108
▁mobile	108
▁policy	108
▁George	108
▁talk	108
▁sets	108
▁foot	108
▁abuse	108
▁basketball	108
▁typical	108
▁Ganges	108
▁remaining	108
▁vote	108
ri	108
▁safety	108
▁host	108
▁conducted	107
▁derived	107
▁protected	107
▁Children	107
í	107
▁Center	107
▁impact	107
▁Los	107
▁whom	107
▁useful	107
▁Meanwhile	107
▁Nepal	107
▁De	107
▁operate	107
▁al	107
▁critics	107
▁material	107
ü	107
▁contain	107
▁bit	107
▁rise	107
▁defeat	107
▁violence	107
▁Buddha	106
▁spring	106
▁vaccine	106
å	106
▁surface	106
▁pieces	106
▁seat	106
▁Florida	106
▁muscle	106
▁deficiency	106
▁till	106
▁Research	106
ce	106
▁journey	106
▁sex	106
▁Yakshagana	106
▁touch	106
▁article	106
▁Idaho	106
▁Kabaddi	105
▁sale	105
▁principal	105
▁Middle	105
▁mass	105
▁note	105
▁color	105
▁offers	105
▁injured	105
▁leads	105
▁Marathi	105
▁didn	105
▁facilities	105
▁meters	105
▁northeast	105
▁originally	105
▁Jahan	105
▁Only	105
▁administrative	104
▁Italy	104
▁spoken	104
▁laws	104
▁c	104
▁radio	104
▁arrived	104
▁spot	104
▁options	104
▁Man	104
▁continues	104
▁sign	104
▁appearance	104
▁Rani	104
▁sacred	104
▁Ghats	104
▁Sir	104
▁branch	104
▁scene	104
▁tend	104
▁Mr	104
▁wins	104
▁Roman	103
▁establish	103
▁explain	103
▁Turner	103
▁Sikh	103
▁Netherlands	103
▁What	103
▁Second	103
▁drinking	103
▁ideas	103
▁ahead	103
▁Chhattisgarh	103
▁colour	103
▁elements	103
▁nominated	103
▁wrestling	103
▁founder	103
▁Washington	103
▁raga	103
▁Super	103
▁global	103
▁Railway	103
▁cycle	103
▁hotel	102
▁Air	102
▁skills	102
▁formation	102
▁Gupta	102
▁combat	102
▁determine	102
TM	102
ul	101
▁channel	101
▁Tipu	101
language	101
▁tribes	101
▁African	101
▁option	101
▁categories	101
▁wedding	101
▁diseases	101
▁stations	101
▁Of	101
ie	101
N	101
ally	101
▁Himalayas	101
▁covers	101
▁port	101
▁Spain	101
▁clubs	101
▁double	101
b	101
▁seem	100
▁Ki	100
▁fifth	100
▁racing	100
▁Christian	100
▁James	100
▁command	100
▁Humayun	100
▁learning	100
▁palace	100
▁Sringeri	100
▁relatively	100
▁crew	100
▁annually	100
▁prince	100
▁Falls	100
▁zone	100
▁Nagaland	100
▁payments	99
▁collected	99
▁strength	99
▁recognized	99
governing	99
▁goddess	99
▁holds	99
▁compete	99
▁broke	99
▁gifts	99
▁Caves	99
▁soil	99
▁Music	99
▁digital	99
▁unit	99
▁Periyar	99
▁Mysore	99
▁Himalaya	99
▁student	98
▁clean	98
ti	98
▁trial	98
f	98
▁Gavaskar	98
▁wind	98
▁limit	98
▁Saturday	98
▁peak	98
▁traditionally	98
▁Winter	98
▁disorder	98
▁function	98
▁sentence	98
▁indicate	98
▁producer	97
▁earned	97
▁everything	97
▁agricultural	97
▁bill	97
▁actors	97
▁captain	97
▁conflict	97
▁planned	97
▁expensive	97
▁wood	97
cut	97
▁Monday	97
▁meets	97
▁pull	97
▁Sultanate	97
%.	97
▁plains	97
▁periods	97
▁Lanka	97
▁leagues	96
▁pages	96
▁Polo	96
▁mark	96
▁largely	96
▁kingdoms	96
US	96
▁seconds	96
▁grow	96
▁Lok	96
▁Bachchan	96
▁display	96
▁ensure	96
▁Punjabi	96
▁Singapore	96
▁winner	96
▁Padma	96
▁therefore	96
▁treat	96
▁ranges	96
▁evening	96
▁planning	96
▁X	96
▁Pandya	96
▁medi	96
▁beyond	96
▁politics	95
▁Ambedkar	95
▁overall	95
▁Chandragupta	95
▁kite	95
▁legend	95
▁apply	95
▁hundreds	95
▁emerged	95
▁march	95
▁maximum	95
▁stadium	95
▁traffic	95
▁classified	95
▁background	95
▁agreed	95
▁ones	95
▁Haasan	95
▁heard	95
▁decline	95
▁Naga	95
minute	94
▁females	94
▁faced	94
▁milk	94
▁Good	94
▁Malaysia	94
▁leadership	94
▁calls	94
▁Angeles	94
▁application	94
▁businesses	94
▁knowledge	94
▁setting	94
▁collection	94
▁cars	94
▁caught	94
▁everyone	94
▁controlled	94
▁identify	94
▁tourists	93
p	93
▁flat	93
▁regarded	93
")	93
▁safe	93
▁blue	93
▁schedule	93
▁widespread	93
▁capacity	93
▁Though	93
▁press	93
▁difference	93
▁employees	93
▁parties	93
▁shares	93
▁anti	93
▁understand	93
▁split	93
▁workers	92
▁govern	92
▁portion	92
▁Rajput	92
▁mountains	92
▁promoted	92
▁infections	92
▁Z	92
▁fresh	92
▁aspects	92
▁wants	92
▁teacher	92
▁Pune	92
▁web	92
▁suggest	92
▁unknown	92
▁revealed	92
km	92
▁pitch	92
▁looks	92
▁coastal	92
▁fixed	92
▁originated	92
▁diagnosis	92
▁drive	92
▁youth	91
▁soundtrack	91
▁writer	91
▁supporting	91
▁participated	91
▁doesn	91
▁commune	91
▁greater	91
▁t	91
▁pilgrimage	91
▁southwest	91
▁latter	91
▁prime	91
▁happen	91
▁ship	91
▁Spanish	91
▁wrong	91
ical	91
▁showed	91
▁illness	91
▁effort	91
▁gain	91
▁Bangalore	90
▁retired	90
▁sector	90
▁resources	90
▁taught	90
▁agreement	90
▁Development	90
▁adults	90
▁projects	90
▁Chopra	90
▁expanded	90
▁twenty	90
▁filled	90
age	90
▁earn	90
▁conquered	90
▁colours	90
▁exact	90
▁Christmas	90
▁exercise	90
▁boy	90
▁figures	90
▁flag	90
▁pick	89
▁technology	89
▁accident	89
▁Patel	89
▁spiritual	89
▁holy	89
ty	89
▁newspaper	89
▁Royal	89
▁celebrations	89
▁kites	89
of	89
▁boat	89
▁sixth	89
land	89
▁prison	89
▁Dam	89
▁Star	89
▁protest	89
▁tissue	89
▁Tokyo	89
▁pair	88
▁industries	88
▁brief	88
▁eating	88
▁units	88
off	88
▁voice	88
▁holding	88
▁fees	88
▁mental	88
▁composition	88
▁Chicago	88
▁patient	88
▁losing	88
▁joint	88
▁author	88
▁Jainism	88
▁Indians	88
▁shape	88
▁balance	88
▁restaurant	88
▁essential	88
▁commission	88
▁Kolkata	88
▁describes	88
▁client	88
▁charges	88
one	88
▁damaged	88
▁actual	88
▁articles	88
by	87
▁Heritage	87
▁Premier	87
▁victims	87
▁Narmada	87
▁missing	87
▁Every	87
▁respect	87
▁combination	87
▁Just	87
outhern	87
▁instruments	87
▁floor	87
▁linked	87
▁colonial	87
▁normally	87
▁bid	87
▁proposed	87
▁participate	87
▁Mela	87
▁Like	87
▁goods	87
▁kick	87
▁anyone	87
▁titles	87
▁Instacart	87
▁carv	87
▁killing	87
▁Su	86
▁origins	86
▁internet	86
▁practices	86
▁equal	86
▁trip	86
ha	86
▁suicide	86
▁syphilis	86
▁materials	86
▁hearing	86
▁provid	86
▁rope	86
▁Open	86
▁matter	86
▁theatre	86
▁nation	86
▁granted	86
▁theory	86
▁seems	86
ro	86
▁surrounding	86
▁easier	86
▁details	86
▁flight	86
▁Players	85
▁Ganga	85
▁heat	85
▁looked	85
▁bronze	85
▁Sharma	85
▁accept	85
▁goalkeeper	85
▁nations	85
▁Hill	85
▁creat	85
▁funds	85
▁generation	85
▁tributary	85
▁wild	85
▁meant	85
▁claims	85
▁medals	85
▁finding	85
▁household	85
▁inspired	85
▁championships	85
▁fields	85
▁Republican	85
▁invasion	84
▁Na	84
▁Sanctuary	84
▁decades	84
▁dated	84
▁request	84
▁revenue	84
▁examples	84
li	84
▁requires	84
M	84
▁Service	84
▁Czech	84
▁fear	84
▁charged	84
▁Belgian	84
▁prepared	84
▁corner	84
▁aid	84
▁courts	84
▁Paul	84
▁Game	84
▁collect	84
▁rains	84
▁acquired	84
▁Office	84
▁murder	83
▁Virginia	83
men	83
▁Dutt	83
▁White	83
▁presented	83
▁Series	83
▁questions	83
▁tries	83
▁object	83
garh	83
▁policies	83
▁Sanjay	83
▁Ireland	83
▁critical	83
▁senior	83
▁follows	83
▁dancers	83
▁diagnosed	83
▁shipping	83
▁university	83
▁chronic	83
no	82
▁innings	82
▁FC	82
▁shots	82
▁documents	82
ian	82
▁experienced	82
▁Ontario	82
▁Manipuri	82
▁flooding	82
▁trace	82
▁liver	82
▁organizations	82
▁instance	82
ized	82
▁Lacrosse	82
▁owner	82
▁asking	82
▁Province	82
▁phase	82
▁chain	82
▁pool	82
▁entry	82
▁bills	82
▁deity	82
▁News	82
▁suggests	82
▁serves	81
▁choice	81
▁extensive	81
▁beautiful	81
▁seventh	81
▁Mir	81
▁aim	81
▁balls	81
▁occasion	81
ton	81
▁locations	81
▁passing	81
▁advice	81
▁Ravi	81
▁Now	81
▁Chalukya	81
▁Men	81
▁advance	81
▁thing	81
▁actions	81
▁southeast	81
G	81
▁camera	81
▁farmers	81
▁opponents	81
▁Such	81
▁minimum	80
▁Victoria	80
cumbe	80
▁Son	80
▁escape	80
▁Georgia	80
▁Thus	80
▁Jai	80
▁dangerous	80
▁pregnancy	80
▁memory	80
▁button	80
▁weekend	80
▁belong	80
▁Commonwealth	80
▁firm	80
▁secondary	80
▁Instead	80
▁promote	80
▁Old	80
▁methods	80
▁opportunity	80
▁Queen	80
▁waterfall	80
▁Jesus	80
▁Werkudara	80
▁factor	80
▁flowers	80
▁sugar	79
▁referee	79
ance	79
▁exposure	79
▁onto	79
▁chosen	79
▁devices	79
▁shared	79
▁n	79
▁succeeded	79
▁bridge	79
▁artist	79
▁lagoon	79
▁hire	79
▁praised	79
▁science	79
▁List	79
▁Pala	79
▁sought	79
▁sweet	79
▁slow	79
▁rating	79
▁tributaries	79
▁Mount	79
ó	79
▁fun	79
▁signs	79
▁defensive	79
▁seats	79
▁cent	78
▁overseas	78
▁males	78
▁Alexander	78
putting	78
▁council	78
▁hosts	78
ch	78
▁hero	78
▁Sambhaji	78
▁Area	78
▁applied	78
▁newly	78
▁historic	78
▁measures	78
▁distribution	78
▁appropriate	78
▁Catholic	78
▁Early	78
▁metal	78
▁Senate	78
▁Christians	78
▁basis	78
▁crore	78
▁harvest	78
▁Soviet	78
▁demand	78
▁Jahangir	78
▁reflect	77
▁tourism	77
▁thriller	77
▁athletes	77
▁rituals	77
▁machine	77
▁Tuesday	77
▁hear	77
▁Mirza	77
▁acid	77
▁target	77
▁William	77
▁originates	77
▁kinds	77
▁screens	77
▁tuberculosis	77
com	77
▁disorders	77
▁indigenous	77
▁contemporar	77
▁participants	77
▁photo	77
▁achieved	77
▁medicine	77
▁Si	77
▁FIFA	77
▁websites	77
▁conduct	77
▁David	77
▁outbreak	77
▁twelve	77
▁coffee	77
▁Health	77
▁ready	77
▁device	77
hi	76
▁statement	76
▁industrial	76
▁ethnic	76
ak	76
▁Argentina	76
▁tea	76
▁fighters	76
▁institutions	76
▁receiving	76
▁door	76
▁neighbour	76
Supreme	76
▁happens	76
▁Port	76
▁sing	76
▁distributed	76
▁transfer	76
▁Srinivas	76
▁TB	76
▁Interstate	76
ng	76
▁occupie	76
▁followers	76
▁hundred	76
▁Green	76
ala	76
ist	76
▁message	76
▁clinical	76
▁longest	76
▁elephants	76
▁advanced	76
▁attract	76
▁permanent	76
▁reading	76
▁Takraw	76
▁fully	76
▁Prince	75
▁Nawab	75
go	75
▁flying	75
▁fair	75
▁describe	75
▁borders	75
▁Prithviraj	75
known	75
▁illegal	75
▁flood	75
▁Dynasty	75
▁technical	75
▁Try	75
▁Pa	75
▁III	75
▁block	75
▁advisor	75
▁DS	75
di	75
▁deals	75
▁Co	75
▁arrang	75
▁installed	75
▁Tendulkar	75
▁Sepak	75
▁attached	75
▁Charles	75
▁chairman	75
▁watching	74
▁pigs	74
▁Brahmaputra	74
▁federal	74
▁Range	74
▁monuments	74
▁achieve	74
▁Sikhs	74
▁Free	74
▁floods	74
▁musicians	74
▁Thailand	74
led	74
ud	74
▁Lakshadweep	74
▁Mahabharata	74
▁purposes	74
▁concert	74
▁contribut	74
▁die	74
▁Durga	74
▁sun	74
▁Fame	74
▁package	74
ate	74
▁amounts	74
▁moves	74
▁Public	74
▁cord	74
▁offices	74
▁poet	74
▁progress	74
▁Metro	74
hose	74
▁Arabian	73
dominated	73
▁competed	73
son	73
▁attempts	73
▁Michael	73
▁entertainment	73
▁destination	73
▁testing	73
▁saved	73
▁Madras	73
▁Rafi	73
▁maintained	73
▁Usually	73
▁wait	73
▁Thai	73
▁question	73
▁selling	73
▁administer	73
▁Bill	73
▁frequent	73
▁cotton	73
▁adult	73
▁religions	73
▁determined	73
▁defeating	73
▁vehicle	73
▁Mu	73
▁connection	73
▁Pakistani	73
▁operations	72
▁Team	72
▁Vikram	72
▁prepare	72
▁ending	72
▁Archaeological	72
▁operation	72
▁contest	72
▁street	72
▁expand	72
▁genetic	72
▁Michigan	72
▁heavily	72
▁merged	72
▁Karan	72
▁electricity	72
▁Alam	72
▁Sher	72
▁rescue	72
▁dances	72
▁horror	72
▁fund	72
▁passes	72
▁afraid	72
▁statue	72
▁rebellion	72
▁finger	72
▁counter	72
▁annuity	72
▁warm	72
▁significantly	72
▁Zika	72
▁crowd	72
▁assembly	72
▁models	72
▁Director	72
▁hurricane	72
▁Mark	72
▁flora	72
▁Indonesia	71
▁faster	71
rao	71
▁drop	71
▁visiting	71
▁Americans	71
▁Secretary	71
▁walking	71
▁provinces	71
▁dark	71
ting	71
ki	71
▁standing	71
▁dog	71
▁leg	71
▁speech	71
T	71
▁spirit	71
▁muscles	71
▁radiation	71
▁covering	71
▁candidate	71
▁Netball	71
▁Hindustani	71
▁church	71
▁starring	71
▁concerns	71
▁copper	71
▁auto	71
▁Lahore	71
▁broken	71
▁shoot	71
▁locally	71
▁ragas	71
▁credited	71
lal	71
▁foods	71
▁tribal	71
▁crime	70
▁Toronto	70
il	70
▁Express	70
▁offering	70
▁infrastructure	70
▁protein	70
▁sculptures	70
▁Ku	70
▁environment	70
▁protests	70
▁tall	70
▁suit	70
▁CEO	70
▁salt	70
▁diverse	70
▁Calcutta	70
▁fee	70
▁catch	70
▁possibl	70
▁vast	70
related	70
▁extent	70
▁alleged	70
▁variations	70
▁employee	70
ana	70
▁creation	70
▁begun	70
▁investigation	70
▁centres	70
▁boxing	70
▁lawyer	70
▁Jaipur	70
â€“	70
▁designat	70
▁rail	70
▁communication	70
▁boys	70
▁drawn	70
▁colitis	70
▁Satavahana	70
▁transmission	69
▁renam	69
▁label	69
▁Adi	69
▁defined	69
▁usual	69
▁serving	69
▁stands	69
▁Sam	69
▁arm	69
▁dis	69
▁committed	69
▁sleep	69
▁channels	69
▁banned	69
▁camp	69
▁Massachusetts	69
▁worn	69
▁freedom	69
eastern	69
▁Amar	69
▁supposed	69
▁stream	69
▁fewer	69
▁format	69
▁bottom	69
▁Brahmin	69
▁engine	69
▁drink	69
▁Peter	69
▁jobs	69
▁deliver	69
▁Kathak	69
▁Often	69
▁Yoga	69
▁handle	69
▁learned	69
▁Entertainment	69
▁Bahadur	69
▁reveal	69
▁tribe	69
▁jail	69
ball	69
▁specifically	69
▁Shankar	69
containing	69
▁possession	68
▁rent	68
▁strike	68
▁hurt	68
j	68
▁attempted	68
▁lung	68
▁legs	68
ley	68
▁fishing	68
▁powers	68
▁entirely	68
▁sand	68
▁app	68
▁bleeding	68
▁yesterday	68
▁quarter	68
▁Chera	68
▁Along	68
▁internal	68
▁Kumbh	68
▁alive	68
▁represents	68
un	68
▁mild	68
▁compositions	68
▁Human	68
▁vehicles	68
▁Actor	68
▁remember	68
▁Peshwa	68
▁bigger	68
▁Rajendra	68
▁crop	68
▁registered	68
▁responsibility	68
▁horses	68
▁airline	68
▁newspapers	68
▁steps	68
▁birthday	67
▁server	67
▁struck	67
▁turns	67
▁Malik	67
▁keeping	67
▁Latin	67
▁discuss	67
term	67
▁Pongal	67
▁benefit	67
▁apart	67
▁legends	67
▁Democratic	67
▁Vijayanagara	67
▁regularly	67
▁expressed	67
▁enters	67
▁depict	67
etween	67
▁moon	67
▁pro	67
▁formal	67
▁returns	67
▁Pandavas	67
▁Coast	67
▁accompani	67
▁switch	67
▁sticks	67
▁immune	67
▁container	67
▁practiced	67
▁encouraged	67
▁diet	66
os	66
▁narrow	66
▁Foundation	66
▁surrounded	66
▁Census	66
over	66
▁Da	66
▁assistance	66
▁sustain	66
▁armies	66
▁fashion	66
▁Christianity	66
▁foundation	66
▁defense	66
▁invited	66
▁acute	66
▁membership	66
▁link	66
▁gods	66
▁earth	66
either	66
▁Soon	66
▁storage	66
▁trading	66
▁delivered	66
ish	66
▁closely	66
▁Puri	66
▁assum	66
▁remove	66
▁Agra	66
▁rapid	66
▁dropped	66
▁Pallava	66
▁opposition	66
▁Finland	66
▁spinal	66
▁Alabama	66
▁Why	66
▁remake	65
▁classes	65
▁highway	65
▁citizens	65
▁approach	65
▁authority	65
▁jump	65
▁interested	65
▁iron	65
▁saving	65
▁Indira	65
▁childhood	65
que	65
ted	65
▁Southeast	65
▁romantic	65
▁characteriz	65
▁select	65
▁dating	65
▁Ga	65
▁battles	65
▁ring	65
▁Palace	65
▁Nizam	65
▁raid	65
▁Arkansas	65
▁tiger	65
▁depends	65
▁Andaman	65
▁shops	65
▁Egypt	65
▁cultures	65
▁thousand	65
▁assistant	65
▁interview	65
▁controversial	65
▁Jan	65
▁Miss	64
▁window	64
▁wildlife	64
▁structures	64
▁user	64
▁fans	64
▁elephant	64
▁woode	64
▁waters	64
▁Israel	64
▁reaches	64
▁picture	64
▁waiting	64
▁Cave	64
▁resistance	64
▁Here	64
▁Kamal	64
▁Museum	64
▁dancer	64
▁Wales	64
▁roller	64
▁FIDE	64
▁dollars	64
▁Hi	64
▁constitute	64
▁nothing	64
▁executed	64
▁showing	64
▁Kishore	64
▁attributed	64
▁Apart	64
▁trains	64
▁Keep	64
▁concerned	64
▁herself	64
▁medications	63
▁medium	63
▁settled	63
▁slightly	63
▁enjoyed	63
▁fruit	63
▁visible	63
▁arrest	63
▁trouble	63
▁competing	63
▁Education	63
▁dancing	63
▁teachers	63
▁sick	63
▁strategy	63
▁evolved	63
▁symbol	63
▁delayed	63
▁otherwise	63
▁layer	63
▁platform	63
▁influenza	63
▁concept	63
▁quick	63
▁northwest	63
ster	63
▁Goddess	63
▁scenes	63
▁Kochi	63
▁Rock	63
▁worshipped	63
▁expansion	63
▁relations	63
▁experiences	63
▁performing	63
▁agent	63
▁namely	63
▁Louis	63
▁benefits	63
▁comfortable	63
▁priest	63
▁protective	63
▁contrast	63
▁copy	63
▁Golden	63
▁Limited	63
▁separated	63
▁reserve	63
▁deities	63
▁inches	63
▁programming	63
▁Bavaria	63
▁existed	63
▁changing	63
▁Ocean	62
▁oral	62
▁Survey	62
▁ultimately	62
esh	62
▁belief	62
K	62
▁Revolution	62
▁variant	62
▁broad	62
▁opposed	62
▁unusual	62
▁retain	62
▁novel	62
▁Time	62
▁Leh	62
▁reference	62
▁prior	62
▁Scotland	62
▁differences	62
▁Cholas	62
▁stayed	62
▁streets	62
▁Earth	62
▁tennis	62
▁strict	62
ization	62
at	62
▁Commission	62
▁Reserve	62
▁bird	62
▁Swedish	62
▁Prize	62
▁bow	62
▁proper	62
▁immediate	62
▁guide	62
▁oppos	62
▁passengers	62
lying	62
▁Chalukyas	62
▁Line	62
▁typhoid	62
▁declined	62
▁Anglo	62
▁Thursday	62
▁regarding	62
▁draft	61
▁scores	61
▁fasting	61
▁Malabar	61
▁Urdu	61
▁Ganesh	61
▁fit	61
▁gone	61
▁Sa	61
▁kickboxing	61
▁tribute	61
▁meat	61
▁flights	61
▁Year	61
▁draw	61
▁derby	61
▁gradually	61
▁environmental	61
▁Chandra	61
▁mph	61
▁transportation	61
▁classification	61
▁Puducherry	61
▁universities	61
▁Ra	61
▁beauty	61
▁Martin	61
▁Thomas	61
▁nervous	61
▁Ke	61
▁Di	61
▁yaws	61
▁executive	61
▁doctors	61
▁BBC	61
▁floorball	61
▁Lal	61
▁consecutive	61
▁Nicobar	61
▁arms	61
▁ticket	61
▁genre	61
▁identity	61
▁routes	61
▁cows	61
▁Amit	61
▁Gold	61
▁Airlines	61
▁bar	61
▁campaigns	61
▁divorced	61
▁substance	61
▁missed	61
▁comprise	60
▁perfect	60
▁Additional	60
▁canoe	60
▁Gwalior	60
▁approached	60
▁Lee	60
▁representative	60
▁dish	60
▁contribute	60
▁Detroit	60
▁graduated	60
B	60
▁Us	60
▁Local	60
▁Li	60
▁commander	60
▁titled	60
▁Plateau	60
▁magazine	60
▁Manekshaw	60
▁glass	60
ca	60
▁edition	60
▁indoor	60
▁gathered	60
▁aspect	60
▁abandoned	60
▁pure	60
▁Tulasi	60
▁relatives	60
▁clients	60
▁bare	60
▁existence	60
▁Legislati	60
▁governments	60
ised	60
▁sword	60
▁absence	60
▁inflammation	60
▁falling	60
▁Purana	60
▁raise	59
▁flu	59
▁prayers	59
▁Sankranti	59
▁favorite	59
▁moment	59
▁cuisine	59
▁Smith	59
▁pictures	59
▁markets	59
kar	59
▁filming	59
id	59
▁Support	59
▁guilty	59
▁Therefore	59
▁Kalinga	59
▁hits	59
▁focused	59
▁element	59
▁Pictures	59
▁chose	59
▁Tibetan	59
back	59
▁Mahal	59
▁champions	59
▁cleaning	59
▁ratio	59
▁presents	59
▁soul	59
▁scientific	59
▁Water	59
▁Hospital	59
▁plain	59
▁investments	59
▁Films	59
▁empty	59
▁Jharkhand	59
▁Life	59
▁seeing	59
▁survived	58
▁cool	58
▁motor	58
▁debts	58
▁Carolina	58
▁disaster	58
▁Computer	58
style	58
▁NFL	58
▁recognised	58
▁Madrid	58
▁Hav	58
▁colleges	58
▁obtain	58
▁tied	58
▁sang	58
▁Nations	58
▁Pennsylvania	58
▁Pro	58
▁guard	58
▁portray	58
▁vaccines	58
▁Kar	58
▁Trophy	58
▁suffer	58
▁Dal	58
▁g	58
▁spots	58
▁invest	58
▁Jack	58
▁tools	58
▁duration	58
▁endemic	58
facial	58
▁angry	58
▁emotional	58
▁nor	58
ncient	58
▁Kentucky	58
▁Arts	58
▁imperial	58
stra	58
▁weapon	58
formally	58
▁studio	58
▁treaty	58
▁settlement	58
▁Korean	58
▁purchased	58
▁Nur	58
▁wish	58
▁marketing	58
▁fauna	58
▁heritage	58
▁Th	58
▁literacy	58
▁groom	58
▁aircraft	58
▁divisions	57
▁Four	57
▁Maurya	57
▁rose	57
▁HIV	57
▁Tughlaq	57
▁analysis	57
▁edge	57
▁civilian	57
▁painting	57
▁understanding	57
v	57
▁crown	57
▁complications	57
▁Check	57
▁Nanda	57
▁Radio	57
▁bone	57
▁Brazilian	57
▁historians	57
▁devotees	57
▁bamboo	57
▁cooking	57
▁solid	57
▁composer	57
▁Project	57
▁Post	57
▁Arab	57
berg	57
▁criminal	57
▁Balaji	57
▁Jersey	57
▁mail	57
▁detail	57
▁hope	57
▁requested	57
▁idol	57
▁prayer	57
▁supplies	57
▁persons	57
▁accused	57
armed	57
▁treatments	57
▁files	57
▁wave	57
▁Badami	57
▁belonging	57
gross	57
▁Pacific	57
▁codes	57
▁attracted	56
▁siege	56
ant	56
▁eighth	56
▁Representatives	56
▁estate	56
▁Mauryan	56
▁eleven	56
▁ban	56
▁Nagar	56
▁bed	56
▁kitchen	56
▁grass	56
▁Puja	56
▁seasonal	56
▁increases	56
▁UNESCO	56
▁greatly	56
▁appearances	56
▁excess	56
▁invaded	56
▁marry	56
ba	56
▁recipient	56
▁notably	56
▁visitors	56
▁reservoir	56
▁successor	56
▁sending	56
▁decade	56
▁Lucknow	56
▁Inter	56
▁horse	56
E	56
▁Records	56
▁Ohio	56
mi	56
▁constant	56
▁boats	56
▁cough	56
▁suspected	56
▁copies	56
▁massive	56
▁Lakshmi	56
▁clearly	56
▁Forest	56
▁Ho	56
▁fill	56
▁ill	56
▁Poland	56
▁decorated	56
▁episode	56
▁evil	56
▁preferred	56
▁museum	56
▁tie	56
▁Jewish	56
▁manner	56
▁themes	56
▁translated	55
▁Hanuman	55
▁functions	55
▁swine	55
▁Blue	55
ham	55
▁metro	55
▁wars	55
▁trained	55
▁inform	55
▁skill	55
▁Kansas	55
ble	55
▁khyal	55
▁remote	55
▁favor	55
▁elsewhere	55
▁occasions	55
▁compound	55
▁regain	55
▁instructions	55
▁ex	55
▁Force	55
▁Eid	55
▁competitive	55
▁correct	55
▁plastic	55
▁literary	55
▁cm	55
▁royalty	55
▁path	55
▁core	55
▁Professional	55
▁mm	55
▁throwing	55
▁Norway	55
▁depression	55
▁yards	55
▁fired	55
▁truck	55
▁Inc	55
▁solo	55
▁capture	55
▁count	55
general	55
▁How	55
▁Further	55
▁lands	55
▁relief	55
▁dishes	55
▁currency	55
▁thinking	55
▁Rahman	55
▁Pittsburgh	54
▁incorporat	54
▁rarely	54
▁filmed	54
▁shorter	54
▁Srinagar	54
▁Dharma	54
▁bull	54
▁vegetation	54
▁plane	54
▁stages	54
▁Medical	54
▁penalties	54
▁costumes	54
£	54
▁dream	54
▁attraction	54
▁bringing	54
▁worst	54
▁slowly	54
▁execution	54
▁feelings	54
sh	54
▁measure	54
▁realize	54
▁Parvati	54
▁poverty	54
▁Currently	54
▁vaccination	54
▁Maharaja	54
▁ports	54
▁neck	54
▁controversy	54
▁willing	54
▁exercises	54
▁differ	54
▁reality	54
▁worried	54
▁squash	54
▁afford	54
▁Gautam	54
▁letters	54
▁breaks	54
▁offensive	54
▁threat	54
▁substantial	54
▁singers	54
▁pocket	54
▁viruses	54
▁exists	54
▁visual	54
▁replace	54
▁picked	54
▁lungs	54
rs	54
▁carrying	54
▁fluid	54
▁Iranian	54
▁patronage	54
▁rapidly	54
▁Penguins	53
▁faces	53
▁Purnima	53
▁earning	53
▁artificial	53
▁plateau	53
▁employed	53
▁sq	53
▁tool	53
▁Wednesday	53
▁eggs	53
▁secret	53
▁Odissi	53
▁intended	53
▁variation	53
ville	53
▁degrees	53
▁reduc	53
▁unsuccessful	53
▁populations	53
law	53
▁Pandyas	53
▁lights	53
▁mosquito	53
▁Android	53
▁Tour	53
if	53
▁fellow	53
▁philosophy	53
▁Maha	53
▁buses	53
ful	53
▁qualified	53
▁Par	53
▁agree	53
▁relative	53
▁restored	53
▁Anna	53
volving	53
▁geographical	53
iya	53
▁alliance	53
▁branches	53
▁subjects	53
▁northeastern	53
▁architectural	53
▁poetry	53
▁strikes	53
▁tracks	53
▁approved	53
▁Rudra	53
▁Robert	53
▁Justice	53
▁nose	53
▁Ronnie	53
▁ulcerati	53
▁tank	53
war	53
▁rocks	53
▁farm	53
▁Sydney	53
▁attacking	52
▁epic	52
▁revolt	52
▁master	52
▁examination	52
▁("	52
▁k	52
born	52
▁pace	52
▁Hurricane	52
▁calling	52
▁stocks	52
▁Oh	52
▁arrives	52
▁duty	52
▁centers	52
et	52
▁broadcast	52
▁beside	52
▁Or	52
▁Madurai	52
▁bag	52
▁difficulty	52
▁dro	52
▁inhabitants	52
▁pet	52
▁straight	52
▁Amritsar	52
▁dress	52
▁effectively	52
▁Leela	52
▁Vi	52
▁electronic	52
▁silk	52
▁upset	52
▁Columbia	52
va	52
▁boundary	52
▁Navaratri	52
▁Rai	52
▁aren	52
▁Big	52
ram	52
▁suffering	52
▁Khanna	52
▁Facebook	52
▁mining	52
▁finals	52
▁proved	52
▁breast	52
▁Territory	52
▁discount	52
▁Vani	52
▁arrive	52
▁Berlin	52
▁ships	52
▁Bhansali	52
▁Afghan	52
▁Salim	52
▁Rome	52
▁saint	52
▁volleyball	52
raj	52
▁diversity	52
▁cycling	52
▁varies	52
▁sitting	52
▁decisions	52
▁Jo	52
▁Hai	52
▁electrical	52
hand	52
▁influential	52
▁twin	52
▁row	52
▁caste	52
▁sit	52
▁amateur	52
▁notice	52
largest	51
ability	51
▁circle	51
▁snooker	51
▁Snooker	51
▁facing	51
▁checking	51
▁Roy	51
▁dominant	51
▁parks	51
▁Belgium	51
▁improved	51
▁ordinary	51
▁knew	51
▁gather	51
▁Ko	51
▁crores	51
▁Mary	51
▁busy	51
▁Native	51
▁holidays	51
▁forts	51
▁Boston	51
▁Gujarati	51
▁succession	51
cious	51
▁expression	51
▁objects	51
▁committee	51
▁fertile	51
▁agencies	51
▁Twitter	51
▁netball	51
ory	51
▁latest	51
▁frequency	51
▁discontinued	51
▁teach	51
▁Much	51
▁waste	51
▁strokes	51
class	51
▁venue	51
▁Town	51
▁filed	51
▁IV	51
▁loans	51
▁transmitted	51
▁mud	51
▁Allahabad	51
▁Sahib	51
▁observe	51
lu	51
▁Initially	51
▁temporary	51
free	51
co	51
▁Raya	51
▁technique	51
▁submitt	51
▁percentage	51
▁witnessed	51
▁passenger	51
▁micro	51
▁literally	51
X	51
▁varied	51
▁tasks	51
▁recovery	50
▁feels	50
▁Kong	50
▁foul	50
▁cattle	50
▁anniversary	50
▁map	50
▁symbols	50
▁stretch	50
▁Muvattupuzha	50
▁possibility	50
▁devotion	50
▁praise	50
▁prefer	50
▁Richard	50
▁Treatment	50
▁Constitution	50
▁varieties	50
▁mix	50
▁Samaj	50
▁acts	50
▁stood	50
▁substitute	50
▁relationships	50
▁talking	50
▁recovered	50
▁document	50
way	50
▁concern	50
▁patterns	50
▁purchases	50
▁vir	50
▁Tibet	50
▁spoke	50
▁launch	50
▁references	50
▁lakes	50
▁farming	50
▁Tiger	50
▁Surya	50
▁dogs	50
▁Swiss	50
har	50
▁Bijapur	50
▁antibiotics	50
w	50
▁rhythmic	50
▁intra	50
▁Home	50
▁predominantly	50
▁cutting	50
▁isolated	50
▁pregnant	50
▁blind	50
▁watched	50
▁pilgrims	50
▁laid	50
▁residence	50
▁transferred	50
▁Centre	50
▁Third	50
▁retinol	50
▁chemical	50
▁stress	50
▁establishment	50
▁returning	50
▁Christ	50
▁prize	50
▁passage	50
▁tetanus	50
▁Radha	49
▁sailing	49
▁buried	49
▁exposed	49
▁knee	49
ja	49
▁Philippines	49
▁fruits	49
▁designs	49
board	49
▁applications	49
▁ideal	49
▁harm	49
eliance	49
▁Use	49
▁arrival	49
rated	49
▁surname	49
▁permitted	49
▁helping	49
▁joy	49
▁Das	49
▁Special	49
▁dependent	49
▁Bowl	49
▁components	49
▁seriously	49
▁baseball	49
▁meal	49
▁defending	49
▁hectares	49
wan	49
▁surrender	49
▁criticized	49
▁venture	49
▁selection	49
▁circumstances	49
▁Sholay	49
▁assault	49
▁NHL	49
uz	49
▁Caribbean	49
▁detailed	49
▁ruling	49
▁wound	49
▁legendary	49
Ä	49
▁millions	49
▁Street	49
▁owners	49
▁lie	49
▁shrine	49
▁precipitation	49
▁resigned	49
▁villagers	49
▁proceed	49
▁respond	49
▁drain	49
▁taste	49
▁hop	49
▁invented	49
▁Austria	49
▁Gulf	49
▁worse	49
▁favourite	49
▁rejected	49
▁See	49
▁roughly	49
▁Iraq	49
giri	49
▁Korfball	48
▁climbers	48
▁Wildlife	48
▁Hong	48
▁motion	48
▁Sub	48
▁advised	48
▁restricted	48
▁IOC	48
▁Bhopal	48
▁spices	48
▁pot	48
▁soft	48
cy	48
▁trauma	48
▁promise	48
ities	48
▁concerts	48
▁Ba	48
▁universal	48
▁practised	48
▁Art	48
▁impressed	48
▁stones	48
▁Jana	48
▁fiction	48
▁behavior	48
▁cow	48
▁rising	48
▁coin	48
▁streams	48
▁Amazon	48
▁sequel	48
▁Euro	48
wa	48
adi	48
▁crash	48
▁losses	48
▁obtained	48
▁consumption	48
▁vegetables	48
▁belt	48
▁trigger	48
creasingly	48
▁wheat	48
▁cat	48
▁beach	48
▁pray	48
▁musician	48
▁vessels	48
▁repeated	48
▁cup	48
▁writers	48
▁significance	48
sa	48
▁doubles	48
▁views	48
▁ocean	48
▁influences	48
ina	48
▁Studios	48
▁fix	48
▁organisation	48
▁alternative	48
▁email	48
▁poets	48
▁modified	48
▁healthy	48
▁attorney	48
▁Roller	48
▁toward	48
▁trials	48
▁Business	48
▁guests	48
▁ranking	48
▁truly	47
▁pattern	47
▁Independence	47
▁proteins	47
▁toys	47
▁tip	47
+	47
coming	47
▁Barcelona	47
▁Are	47
▁Kartik	47
▁anywhere	47
▁Democrat	47
▁demands	47
▁Gayatri	47
▁Henry	47
▁Five	47
▁complaint	47
▁educational	47
▁shut	47
▁canton	47
hitting	47
▁attain	47
▁talam	47
▁queen	47
▁cloth	47
▁session	47
▁blow	47
shaped	47
▁blocks	47
▁belonged	47
▁reform	47
▁treating	47
▁trust	47
▁Bhubaneswar	47
P	47
▁tested	47
▁programme	47
▁properly	47
▁mistake	47
▁prove	47
▁helpful	47
▁infectious	47
▁suddenly	47
▁Melbourne	47
▁mission	47
▁municipal	47
▁Sindh	47
▁Santa	47
▁Har	47
▁dies	47
▁Begum	47
▁personality	47
▁concentrate	47
▁Power	47
▁Ministry	47
▁recruit	47
▁tenth	47
▁trailer	47
▁Depend	47
▁stable	47
▁Organization	47
▁standards	47
▁warning	47
▁junior	47
▁Turkey	47
▁clock	47
▁Kutch	47
▁mount	47
▁Alex	47
▁Costco	47
▁Stanley	47
▁partition	47
▁grand	47
▁manufacturing	47
▁archaeological	47
▁colors	47
▁recognition	46
▁synthesis	46
▁challenge	46
▁flowing	46
▁procession	46
▁steal	46
tha	46
▁forming	46
▁Lohri	46
▁Manchester	46
▁gun	46
▁meditation	46
▁operates	46
▁Social	46
▁Ek	46
he	46
do	46
▁encounter	46
ol	46
▁Professor	46
▁contested	46
▁opportunities	46
▁interests	46
▁iPhone	46
▁housing	46
▁Champions	46
▁Khurram	46
▁onset	46
▁Tennessee	46
▁Actress	46
▁Hollywood	46
▁Young	46
▁paintings	46
▁IT	46
▁frame	46
▁autism	46
▁thrown	46
▁drinks	46
▁Deva	46
▁Saraswati	46
▁suburb	46
▁struggle	46
▁valleys	46
▁violent	46
▁Ve	46
▁cooked	46
▁rival	46
▁Kali	46
▁Babur	46
▁oxygen	46
▁Deput	46
▁Dhoni	46
▁gender	46
▁coal	46
▁Prem	46
▁shocked	46
▁legislati	46
▁lesions	46
▁fifteen	46
▁Vietnam	46
▁rebels	46
▁string	46
▁auspicious	46
inflammatory	46
▁Out	46
▁Bar	46
▁recognize	46
‘	46
▁Philadelphia	46
▁Beach	45
▁writes	45
▁daughters	45
▁Jalaluddin	45
▁demon	45
▁parallel	45
▁Civil	45
▁continuous	45
▁Edward	45
ine	45
▁investing	45
▁Meitei	45
▁Khalji	45
▁agency	45
▁preparation	45
▁Mizo	45
▁Turkish	45
▁bond	45
▁chest	45
▁Society	45
▁waterfalls	45
▁encourage	45
ts	45
▁experiment	45
▁guns	45
▁pushed	45
▁arena	45
▁coverage	45
ai	45
▁ceremonies	45
▁engage	45
bsolutely	45
ore	45
▁Missouri	45
▁rental	45
▁outdoor	45
▁monks	45
▁sight	45
▁threatened	45
▁weekly	45
▁SCI	45
▁task	45
▁Vajpayee	45
▁print	45
▁alternate	45
▁Sameer	45
▁loved	45
▁Rana	45
▁settlements	45
▁cap	45
▁Hari	45
▁unlike	45
▁engineering	45
▁employ	45
▁bright	45
▁Ask	45
▁listen	45
▁crossed	45
long	45
▁Malwa	45
▁offense	45
▁networks	45
▁cavalry	45
▁professionals	45
▁Age	45
▁Bridge	45
▁Bose	45
▁minority	45
▁decreased	45
▁WHO	45
▁hives	45
▁Traditionally	45
▁flower	45
▁smell	45
▁equivalent	45
▁Queensland	45
made	44
▁hunting	44
▁toilet	44
ler	44
▁nobles	44
▁recreational	44
▁professor	44
▁drawing	44
▁scared	44
▁sw	44
▁Per	44
▁Kargil	44
▁artistic	44
▁Ha	44
▁apartment	44
▁retained	44
▁throw	44
▁Rs	44
▁ancestors	44
▁Kathakali	44
▁faith	44
▁behaviour	44
▁couldn	44
▁Besides	44
▁expense	44
▁nuclear	44
▁owns	44
▁refuses	44
▁Cross	44
▁lun	44
▁storms	44
▁Kozhikode	44
▁celebrates	44
▁internationally	44
▁treadmill	44
▁Commissioner	44
▁parliament	44
▁fled	44
▁sounds	44
▁restaurants	44
▁occupation	44
▁reaction	44
▁kicks	44
▁Little	44
▁cultivation	44
▁pack	44
▁sections	44
▁elder	44
▁producing	44
▁Darjeeling	44
▁prisoners	44
▁restore	44
▁lists	44
▁Rishi	44
▁finances	44
pa	44
▁Conference	44
▁Pri	44
▁defender	44
▁none	44
▁Sangam	44
▁moderate	44
▁fly	44
▁fights	44
▁scientists	44
▁artillery	44
▁enemy	44
▁grant	44
▁pleased	44
▁external	44
▁license	44
per	44
▁theme	44
▁Network	44
▁Different	44
L	44
▁Atlantic	44
▁Shopper	43
▁elderly	43
▁festivities	43
▁express	43
▁wives	43
▁viewed	43
▁Se	43
▁Six	43
▁merchants	43
▁Oxford	43
chi	43
▁raids	43
▁adjust	43
▁deer	43
▁corruption	43
⁄	43
▁extensively	43
▁Others	43
▁bike	43
▁Bharatanatyam	43
▁shortly	43
▁Johnson	43
▁Francisco	43
▁warrior	43
▁Ahmad	43
▁elaborate	43
▁painted	43
body	43
▁Finally	43
▁procedure	43
▁Ni	43
▁promot	43
▁exile	43
ese	43
▁Kings	43
▁retailers	43
▁purchasing	43
▁Onam	43
▁diabetes	43
▁gang	43
▁mood	43
▁printed	43
R	43
▁detect	43
▁crisis	43
▁grocer	43
▁investors	43
▁dams	43
▁sacrifice	43
▁residential	43
▁replacement	43
▁compris	43
▁adj	43
acent	43
▁carbon	43
▁gear	43
▁altitude	43
▁Part	43
▁Box	43
▁lots	43
▁ownership	43
▁festive	43
▁Holy	43
▁Lower	43
▁steel	43
▁gloves	43
▁Karam	43
▁Nord	43
om	43
▁maintenance	43
▁requirements	43
▁permissi	43
▁historian	43
▁franchise	43
▁golf	43
▁please	43
red	43
ñ	43
▁recording	43
▁kabaddi	43
▁melody	43
▁politicians	43
▁explained	43
ov	43
field	43
angetic	43
▁Remember	43
▁affiliat	43
▁repair	43
▁admitted	43
nath	43
▁Top	43
▁links	43
istic	43
▁rhythm	43
▁parish	43
third	43
▁valuable	43
▁decrease	43
▁Linux	43
▁dust	43
▁desert	43
▁Kuchipudi	43
▁communicate	43
▁bomb	43
▁sole	42
▁Ta	42
▁anemia	42
▁values	42
▁defend	42
▁Beijing	42
▁Anita	42
▁occasionally	42
▁virtual	42
▁sisters	42
▁burning	42
▁Davis	42
uddin	42
▁sponsor	42
▁waves	42
be	42
(	42
▁implemented	42
ong	42
▁perhaps	42
▁escaped	42
▁Find	42
ari	42
ntil	42
▁Dance	42
▁mortality	42
▁rugby	42
▁Ban	42
▁judges	42
▁kids	42
▁sequence	42
▁nomination	42
▁invasions	42
▁badly	42
▁prepar	42
▁retail	42
▁Greece	42
▁recommend	42
▁judge	42
▁Jains	42
▁coconut	42
▁Bell	42
▁thick	42
▁Wow	42
▁Jean	42
▁Law	42
▁Vice	42
lowest	42
▁sufficient	42
▁exactly	42
▁context	42
▁clan	42
▁amaz	42
▁Bharati	42
▁deeply	42
water	42
▁retinal	42
▁Hindustan	42
▁swimming	42
▁affairs	42
▁sepoys	42
▁melod	42
▁Minnesota	42
▁breath	42
▁Saint	42
▁hence	42
▁relevant	42
wood	42
▁grains	42
▁ta	42
▁ranks	42
▁organisations	42
▁mayor	42
▁apps	42
aimed	42
▁Ratan	42
▁lay	42
▁Shiv	42
▁El	42
▁drainage	42
▁defence	42
▁provinc	42
▁assigned	42
ini	42
▁unclear	42
den	42
ship	42
▁refund	42
▁cheaper	42
abh	42
▁Mani	42
▁nights	41
▁Ramadan	41
▁deem	41
▁Kaveri	41
▁guards	41
▁DNA	41
▁assets	41
em	41
▁solution	41
▁penn	41
level	41
▁Formula	41
politan	41
▁Himachal	41
▁banner	41
▁responded	41
▁eligible	41
▁denied	41
▁accountant	41
▁Modern	41
▁Daily	41
▁creates	41
▁Hussain	41
▁Jews	41
▁genes	41
ah	41
▁feedback	41
▁automatically	41
▁strain	41
▁Göt	41
▁transform	41
▁Portugal	41
run	41
▁Command	41
▁acknowledg	41
▁introduction	41
▁Jassi	41
▁participation	41
▁ride	41
▁booking	41
▁suspended	41
▁Clive	41
▁accurate	41
▁Consider	41
▁Trump	41
▁throws	41
▁Bai	41
▁lit	41
▁engines	41
▁highways	41
▁mall	41
▁municipalities	41
▁annoyed	41
▁mutual	41
▁rankings	41
▁Kan	41
▁surprise	41
▁Station	41
▁mistakes	41
▁beliefs	41
▁Desai	41
shi	41
▁favour	41
▁associations	41
▁Arunachal	41
▁Pope	41
▁classic	41
▁Ganesha	41
▁visits	41
ç	41
▁carrier	41
▁beats	41
▁Mayor	41
▁Book	41
▁karate	41
▁findings	41
▁politician	41
▁incidence	41
▁mon	41
▁Services	41
▁flourished	41
▁sort	41
▁shoes	41
▁Start	41
▁involvement	41
▁roots	41
▁PlayStation	41
▁compare	41
▁Near	41
▁Tom	41
▁destruction	41
▁cylinder	41
▁database	41
▁stating	41
▁YouTube	41
▁Ten	41
▁aware	41
▁register	40
▁Ahmedabad	40
▁Nepali	40
▁discharge	40
▁estimate	40
▁talent	40
▁churches	40
▁educated	40
▁jewellery	40
▁rises	40
▁performers	40
▁cancelled	40
▁seized	40
▁stored	40
▁fictional	40
▁Wings	40
▁audio	40
▁hall	40
▁Jose	40
▁posts	40
▁exception	40
▁Please	40
ft	40
▁Mike	40
▁prominence	40
▁Mahi	40
▁Mukherjee	40
▁warfare	40
▁integr	40
▁Mar	40
▁Nintendo	40
▁golden	40
▁Generally	40
▁Press	40
▁Give	40
▁sharing	40
▁grandfather	40
▁tanks	40
▁climb	40
O	40
▁Last	40
▁salary	40
▁promotion	40
▁airports	40
▁survey	40
▁Mother	40
▁promised	40
▁personally	40
▁Kandahar	40
▁solar	40
▁publicly	40
▁weak	40
▁push	40
▁inner	40
▁depressed	40
▁Govinda	40
▁Narasimha	40
▁unexpected	40
▁Kohima	40
▁hospitals	40
▁banana	40
▁Chi	40
▁certificate	40
▁Java	40
▁di	40
▁eliminated	40
▁mainland	40
▁renowned	40
▁diplomat	40
▁Kim	40
▁Jaya	40
▁Mohan	40
▁withdrawal	40
▁scabies	40
▁charity	40
▁generated	40
isation	40
▁Burma	40
▁qualify	40
▁Van	40
▁dynasties	40
▁Speedway	40
▁arrow	40
▁Example	40
▁Master	40
▁MP	40
▁Rajya	40
▁anxiety	40
▁pollution	40
sha	40
▁dressed	40
▁rites	40
▁documentary	40
▁temporarily	40
▁Century	40
▁Kashmiri	40
▁shelter	40
▁leather	40
▁instrumental	40
▁Jönköping	39
rat	39
▁supporters	39
▁videos	39
▁instrument	39
▁Nokia	39
▁criticised	39
▁awareness	39
▁fortress	39
▁orange	39
▁Mukesh	39
▁strategic	39
▁atmosphere	39
▁completion	39
▁demanded	39
è	39
▁screening	39
▁properties	39
▁overtime	39
▁engaged	39
▁Kites	39
de	39
▁Doctor	39
▁discovery	39
▁v	39
▁tenure	39
▁super	39
▁Love	39
▁bear	39
▁reduction	39
▁Ro	39
▁demonstration	39
▁reserves	39
▁mythology	39
▁aside	39
▁stomach	39
▁Subsequent	39
▁cousin	39
▁Disney	39
▁fat	39
▁Common	39
▁competitors	39
▁tap	39
▁sovereign	39
▁submit	39
▁NCAA	39
▁Hu	39
din	39
▁afternoon	39
▁Sony	39
▁Indies	39
▁Swami	39
▁USD	39
▁Traditional	39
▁la	39
▁Chittor	39
▁Yadav	39
▁Pallavas	39
ent	39
▁Jackson	39
▁migration	39
▁ascend	39
▁Travancore	39
▁Transport	39
▁retreat	39
▁tension	39
▁Ken	39
▁complicated	39
▁lineage	39
▁preced	39
▁upload	39
▁Mexican	39
▁manag	39
▁furious	39
▁Sinha	39
▁statements	39
▁Shia	39
▁drivers	39
▁ruins	39
▁replacing	39
▁argued	39
▁Me	39
▁Basketball	39
▁frustrated	39
▁uniform	39
urthermore	39
Greek	39
▁eldest	39
▁surgical	39
▁toll	39
▁surviving	39
▁heir	39
aj	39
▁directions	39
▁Aihole	39
io	39
▁invested	38
▁princess	38
▁dialect	38
▁economics	38
▁banking	38
▁Rio	38
▁skating	38
▁secured	38
W	38
▁equally	38
▁NH	38
▁critically	38
for	38
▁abdominal	38
▁comments	38
▁Mac	38
TMs	38
nal	38
▁Bharat	38
▁dollar	38
▁prevented	38
▁crucial	38
▁Duryodhana	38
▁striker	38
ists	38
▁tables	38
▁Motorsports	38
▁fatal	38
▁swaram	38
▁Play	38
▁Brahmins	38
▁climber	38
▁slopes	38
▁Any	38
▁challenges	38
▁Squash	38
▁fouls	38
▁enable	38
▁pioneer	38
▁Lieutenant	38
▁Chile	38
▁celebrating	38
▁Vancouver	38
▁dense	38
▁liked	38
▁producers	38
▁secure	38
▁thyroid	38
▁debate	38
▁trans	38
▁satellite	38
▁drives	38
▁Taj	38
▁MW	38
aland	38
▁Imperial	38
▁thank	38
▁Brahma	38
▁Mal	38
▁Cha	38
▁platforms	38
▁Sagar	38
▁interior	38
ā	38
▁Williams	38
cited	38
▁meetings	38
▁Aditya	38
▁duo	38
▁Va	38
▁grandson	38
▁Shetty	38
▁Munich	38
▁infantry	38
▁Cuba	38
▁neighbor	38
▁Arena	38
▁dispute	38
▁Abu	38
▁Veda	38
▁assume	38
▁Ekadashi	38
▁informed	38
▁extension	38
▁delay	38
▁wine	38
▁partners	38
reby	38
▁constitution	38
▁northwestern	38
bo	38
▁output	38
house	38
▁veins	38
▁essentially	38
▁intense	38
▁Satavahanas	38
▁Varanasi	38
▁Mandir	38
▁Louisiana	38
▁chiefs	38
▁acres	38
aka	38
▁holes	38
▁cake	37
▁mode	37
▁exclusively	37
▁Jat	37
▁Small	37
▁organize	37
han	37
▁Swaminathan	37
▁integrate	37
ner	37
▁Prakash	37
▁Arabic	37
▁terrain	37
▁Dallas	37
▁contribution	37
▁estimates	37
▁archery	37
▁Live	37
play	37
▁fan	37
▁root	37
▁canals	37
▁pandemic	37
▁exceed	37
endra	37
▁Indore	37
▁argue	37
▁Karwa	37
▁wet	37
▁reliable	37
▁divide	37
▁zones	37
▁click	37
▁Scott	37
▁guest	37
▁dozen	37
▁Land	37
▁slave	37
▁breathing	37
▁guidelines	37
▁Max	37
▁survive	37
scale	37
▁Pali	37
▁Scientists	37
▁define	37
▁Saudi	37
▁Houston	37
Indian	37
me	37
▁Field	37
▁mammals	37
▁collections	37
▁breaking	37
▁withdrew	37
▁con	37
▁Typically	37
▁Bhatt	37
▁tears	37
▁infants	37
▁Paralympics	37
▁indicated	37
▁Take	37
▁Gita	37
game	37
ors	37
▁Shillong	37
ś	37
▁Pandey	37
▁arose	37
▁Jawahar	37
▁Desert	37
▁Hum	37
▁Coimbatore	37
▁shoulder	37
▁shock	37
▁Bush	37
▁concluded	37
▁bands	37
▁gharana	37
▁Set	37
▁improvisation	37
▁requests	37
▁Tri	37
▁Ashok	37
▁ninth	37
▁telling	37
▁Irish	37
iate	37
▁cable	37
▁reforms	37
▁respective	37
▁consolidated	37
▁grain	37
▁Karna	37
▁vocal	37
▁fail	37
▁craft	37
▁stability	37
▁seller	37
▁Nagpur	37
▁ingredients	37
▁votes	37
▁Physic	37
ological	37
▁factory	37
▁saves	37
▁bananas	37
▁theatres	36
▁Karachi	36
▁releases	36
▁backwaters	36
▁united	36
▁seeds	36
▁Yamuna	36
▁da	36
▁Non	36
▁Ne	36
▁distinguish	36
▁uncle	36
ept	36
▁bat	36
▁Dean	36
▁failing	36
▁formations	36
▁costume	36
▁Ex	36
▁epidemic	36
▁taluk	36
▁Padukone	36
▁shoppers	36
▁Sita	36
▁Om	36
ay	36
▁Economic	36
▁doubt	36
▁closing	36
▁presentation	36
▁gardens	36
▁accessible	36
▁colony	36
▁customs	36
▁robbery	36
▁index	36
▁cure	36
▁regard	36
▁heads	36
▁confirm	36
▁approval	36
also	36
▁strains	36
ver	36
▁Rajputs	36
▁comment	36
▁lying	36
ons	36
capturing	36
▁Male	36
▁slaves	36
▁casting	36
▁bin	36
▁Rajesh	36
▁Presidency	36
▁bicycle	36
tan	36
▁Montreal	36
▁activist	36
ilitary	36
▁narrative	36
end	36
▁critic	36
▁Pooja	36
▁Fox	36
▁Bus	36
▁comparison	36
▁puja	36
▁autonomous	36
▁weakened	36
▁Captain	36
▁offerings	36
▁Saahil	36
▁birthplace	36
▁para	36
▁parent	36
▁risks	36
▁mosquitoes	36
▁humid	36
▁Kush	36
▁sharp	36
▁parking	36
▁conversation	36
▁monasteries	36
▁finance	36
▁Idukki	36
▁Car	36
▁library	36
▁courses	36
▁cancel	36
▁Prab	36
▁adopt	36
▁Municipal	36
▁shoots	36
▁lieutenant	36
ford	36
▁broker	36
▁furniture	36
▁Mewar	36
▁lawsuit	36
▁fails	36
▁Eventually	36
ang	36
▁personnel	36
▁collapse	36
▁instructor	36
▁elevation	36
point	36
making	36
yard	36
called	36
▁petition	36
▁regulation	36
▁Maya	36
▁miss	35
▁lift	35
▁Bhim	35
▁commit	35
▁Godavari	35
▁rounds	35
▁learnt	35
▁Avni	35
▁Agriculture	35
▁jury	35
▁bowler	35
▁secretary	35
▁Jones	35
▁disappointed	35
▁Sangeet	35
▁Site	35
▁Tim	35
▁concentration	35
▁journalist	35
gaining	35
▁displays	35
▁en	35
▁drops	35
▁Wali	35
▁Rugby	35
▁populous	35
▁stopping	35
▁Sciences	35
▁shirt	35
▁rely	35
▁monsoons	35
▁associate	35
▁hanging	35
▁Arthur	35
▁brown	35
▁plus	35
▁closer	35
▁Joseph	35
▁monument	35
▁discussion	35
▁Ph	35
llied	35
▁qualification	35
▁conference	35
▁Real	35
▁Authority	35
▁Media	35
▁confluence	35
▁Mississippi	35
▁steep	35
▁Executive	35
▁custom	35
▁tickets	35
▁torn	35
▁succeed	35
▁regulations	35
▁Jayanti	35
▁practical	35
▁Makar	35
▁defended	35
▁scan	35
▁corporate	35
▁searching	35
▁reputation	35
▁Khasi	35
▁conflicts	35
▁Song	35
oli	35
▁realized	35
▁aggressive	35
▁aired	35
▁UEFA	35
▁Mua	35
▁buffalo	35
▁Kala	35
▁Quebec	35
▁lifestyle	35
▁prohibited	35
▁Modi	35
▁Surat	35
ey	35
▁tug	35
▁forget	35
Based	35
▁Let	35
▁vice	35
▁blocked	35
▁wounded	35
?"	35
▁feed	35
▁electric	35
▁demonstrated	35
▁situations	35
▁designer	35
▁Ar	35
▁objective	35
▁deposit	35
▁Moscow	35
▁Peninsula	35
▁expedition	35
▁infect	35
▁Patna	35
▁Joe	35
▁Bad	35
▁bowling	35
▁beta	35
varman	35
west	35
▁Ab	35
▁plot	35
▁weekends	35
▁dealer	35
▁strongly	35
▁defects	35
▁barrier	35
▁imprisoned	35
▁noise	35
▁neighbourhood	35
▁traveling	35
▁shopper	35
▁destinations	35
▁mechanism	35
▁settle	35
▁Thanjavur	35
versus	35
▁Alaska	35
▁fuel	35
▁strengthen	35
▁Originally	35
▁creative	35
▁korfball	35
IKF	35
▁Tony	35
▁throat	35
▁Las	35
▁Financial	35
▁yield	35
▁nominations	35
▁Order	34
▁removal	34
▁hub	34
▁clay	34
▁sanctuary	34
▁contained	34
▁Persia	34
▁Goan	34
▁convention	34
ge	34
▁circulation	34
▁prevention	34
▁undergo	34
▁Padmini	34
▁spirits	34
▁owe	34
▁Our	34
▁Bag	34
ara	34
▁speaking	34
▁appoint	34
▁Pratap	34
▁rainy	34
▁Category	34
▁chemicals	34
▁Jabalpur	34
▁organs	34
▁Dhrupad	34
▁prevalent	34
▁halves	34
▁Kabir	34
ã	34
▁phones	34
H	34
▁organ	34
▁pleasure	34
▁honey	34
ck	34
▁Bible	34
▁Ben	34
▁acclaimed	34
▁Joshi	34
▁eyelid	34
▁descendants	34
▁commercially	34
▁representatives	34
▁difficulties	34
▁directors	34
▁hopes	34
▁independently	34
▁cream	34
▁updated	34
▁relay	34
▁bathing	34
fairly	34
▁Boy	34
▁episodes	34
▁haven	34
▁appearing	34
▁Bhutan	34
▁psychological	34
▁bags	34
▁researchers	34
▁ma	34
▁funding	34
▁Imphal	34
▁consumed	34
▁conversion	34
▁capita	34
▁afterwards	34
speaking	34
▁entrance	34
▁winters	34
▁institution	34
▁cuts	34
▁fame	34
▁turning	34
▁excessive	34
▁Franklin	34
▁hat	34
▁traders	34
▁sixteen	34
▁expert	34
▁wickets	34
▁carvings	34
▁dinner	34
▁popularly	34
▁ragam	34
▁jewelry	34
▁Crown	34
▁summit	34
▁Natya	34
▁ridge	34
▁specializ	34
▁Ajay	34
▁combine	34
▁download	34
▁initiated	34
▁Myanmar	34
ko	34
▁urge	34
▁scholar	34
▁statues	34
▁Community	34
▁emotions	34
▁medicinal	34
vital	34
▁System	34
▁false	34
▁Sethi	34
▁Mahatma	34
▁Dangal	34
▁Cambridge	34
▁teeth	34
▁Atlanta	34
king	34
▁Kanji	34
▁priests	34
▁bulk	34
▁Through	34
▁Colorado	34
▁Blood	34
▁somewhat	34
▁Ri	34
▁Fire	34
▁reward	34
▁regardless	34
▁continental	34
▁Puranas	34
▁UC	34
▁agents	34
▁uncommon	34
▁poems	34
▁shall	34
▁Trust	34
▁downstream	34
▁antibodies	34
▁clerk	34
▁travell	34
▁impos	34
▁endangered	34
▁handled	34
▁castle	34
▁icon	34
▁chase	34
▁prolonged	34
▁supervisor	34
▁subtropical	34
▁babies	34
▁truth	34
▁divin	34
▁Speaker	34
▁Kasparov	34
▁cavity	34
▁bath	34
▁Wars	34
▁rooms	34
▁ear	34
▁verses	34
▁Technology	33
▁progressive	33
▁cheap	33
▁cubic	33
▁engagement	33
▁Ramayana	33
▁Chris	33
▁participating	33
▁Symptom	33
ber	33
▁Dara	33
▁nice	33
▁nephew	33
ling	33
▁humidity	33
▁draws	33
▁witness	33
▁Ahom	33
▁Uday	33
▁Americas	33
▁editor	33
▁Nee	33
▁creator	33
▁invite	33
▁bars	33
▁Pe	33
▁mainstream	33
▁x	33
▁Brown	33
▁prevalence	33
▁loud	33
▁develops	33
▁Vaishnava	33
▁helicopter	33
▁Ages	33
▁Orthodox	33
▁Get	33
▁tactics	33
quality	33
▁Palakkad	33
▁athlete	33
▁Agartala	33
eri	33
▁accounting	33
▁victim	33
▁matters	33
ō	33
▁receiver	33
▁friendship	33
▁reservoirs	33
▁Indiana	33
lam	33
▁bones	33
▁Agency	33
▁hyper	33
cal	33
▁widow	33
▁Kelly	33
drew	33
▁happening	33
▁Main	33
ī	33
▁Prix	33
▁Sachin	33
▁experiencing	33
▁Chelsea	33
▁garden	33
▁severely	33
▁funeral	33
▁justice	33
▁measured	33
▁react	33
owned	33
▁Scottish	33
▁Bri	33
▁Mo	33
▁Kushan	33
ad	33
▁hidden	33
cha	33
▁withdraw	33
▁Convention	33
▁medicines	33
▁cabinet	33
▁considering	33
▁Mahavir	33
▁talks	33
▁exhibit	33
▁ischemic	33
▁surprised	33
▁fed	33
▁counties	33
▁piano	33
door	33
▁originat	33
▁indicat	33
▁Capital	33
▁Emergency	33
▁abroad	33
ulmon	33
▁annexed	33
▁conquest	33
▁fitness	33
▁demanding	33
▁planner	33
▁foothills	33
▁brick	33
▁batter	33
▁Diwali	33
▁discipline	33
▁Bhushan	33
▁Europeans	33
▁cyclone	33
▁blessed	33
▁transition	33
▁ages	33
▁vitiligo	33
▁teaching	33
▁dialects	33
linking	33
▁knowing	33
▁remembered	33
era	33
▁resolution	32
▁functional	32
ier	32
▁photos	32
▁attendance	32
▁Orissa	32
ston	32
▁Oregon	32
▁elite	32
▁Down	32
▁discussed	32
▁interact	32
du	32
▁portions	32
▁Think	32
▁calculated	32
▁Tulsi	32
▁Ice	32
▁Miami	32
▁allergic	32
▁accidentally	32
▁recession	32
▁Warangal	32
ali	32
▁noticed	32
▁nett	32
▁duties	32
▁occurring	32
▁Market	32
▁adapted	32
▁neighborhood	32
▁Ahmed	32
▁grounds	32
▁symptom	32
▁scheme	32
▁predict	32
▁Ujjain	32
▁generations	32
▁merchant	32
▁blocking	32
▁Note	32
▁Bindusara	32
▁Janmashtami	32
▁pop	32
▁Studies	32
▁familiar	32
tra	32
▁derive	32
▁Suri	32
▁Dil	32
▁habitat	32
▁populated	32
▁efficient	32
▁respirator	32
▁screenplay	32
▁hole	32
▁nerves	32
▁crimes	32
▁ID	32
▁Castle	32
ney	32
▁domain	32
▁gene	32
▁Light	32
▁albums	32
▁arrangement	32
▁severity	32
▁rebel	32
▁Arabia	32
▁friendly	32
▁revenge	32
▁Wood	32
▁Yatra	32
▁constantly	32
▁stolen	32
▁sudden	32
▁Han	32
▁Nikhil	32
▁commemorate	32
▁Jos	32
▁Long	32
▁teenage	32
▁Productions	32
▁raw	32
▁error	32
▁cleared	32
owing	32
▁portfolio	32
puri	32
▁Dhyan	32
▁containers	32
▁Gu	32
▁athletics	32
▁Chaturthi	32
▁superior	32
▁Polish	32
▁congenital	32
Gregorian	32
▁exhibition	32
▁casualties	32
▁Satakarni	32
▁feast	32
▁emphasis	32
▁murdered	32
▁colonies	32
▁recall	32
▁knock	32
▁pads	32
▁Derby	32
▁Region	32
▁smallest	32
▁sacked	32
▁impressive	32
▁plague	32
▁tomorrow	32
▁chanting	32
▁elevated	32
▁stops	32
▁improving	32
▁accessories	32
▁Vitamin	32
▁Rice	32
ative	32
▁territorial	32
▁telephone	32
nga	32
gar	32
▁Similarly	32
▁biodiversity	32
▁advisors	32
▁Hendrick	32
▁lifetime	32
itis	32
▁immunity	32
▁fake	32
▁Wisconsin	32
▁destroy	32
▁characteristic	32
▁Galing	31
▁hang	31
▁everywhere	31
▁membrane	31
▁sensitive	31
▁elders	31
▁Garhwal	31
▁famine	31
▁canoeing	31
▁Sk	31
▁Mountain	31
▁description	31
▁painful	31
Ś	31
▁corporation	31
▁Late	31
▁welfare	31
▁grade	31
▁controls	31
▁wonder	31
tu	31
ke	31
▁spaces	31
▁SARS	31
▁Hal	31
▁burst	31
▁Control	31
▁accommodate	31
▁jar	31
▁axon	31
▁Shakti	31
▁mess	31
▁discounts	31
▁inaugura	31
▁Tai	31
▁Seattle	31
▁cheer	31
▁seated	31
▁bacterium	31
▁Milan	31
▁Nobel	31
▁marble	31
star	31
▁tobacco	31
▁addiction	31
▁Family	31
▁remind	31
▁helmet	31
▁Laxmi	31
▁sa	31
bar	31
▁Yellow	31
eshwar	31
▁sugarcane	31
▁powder	31
▁coupons	31
▁Ratha	31
▁proposal	31
▁taxi	31
▁soldier	31
▁prompt	31
▁tape	31
▁medication	31
▁emerge	31
▁Members	31
▁idols	31
▁complet	31
▁descent	31
▁rite	31
imated	31
▁sizes	31
▁trachoma	31
▁gymnastics	31
▁pneumonia	31
▁victories	31
▁Connecticut	31
▁Din	31
Din	31
▁erosion	31
▁conquests	31
▁characteristics	31
▁meals	31
▁facility	31
▁Know	31
▁Federal	31
▁panchayat	31
▁Arm	31
▁principles	31
▁enhance	31
▁Tourism	31
▁merge	31
▁tract	31
▁footage	31
!"	31
▁mantras	31
dhar	31
▁winners	31
▁Am	31
▁giant	31
▁f	31
▁prestigious	31
▁Sunil	31
▁intake	31
▁Nashik	31
▁fastest	31
▁pink	31
▁bearing	31
▁routine	31
kin	31
▁Sat	31
▁Will	31
▁Did	31
▁Earlier	31
▁tired	31
▁tower	31
▁Indra	31
▁audiences	31
▁ongoing	31
▁delight	31
▁Bo	31
▁Nigeria	31
▁lunch	31
▁dismissed	31
▁Timur	31
▁thin	31
▁differently	31
▁Pan	31
▁predominant	31
▁recover	31
▁arrange	31
▁aback	31
▁travels	31
▁BJP	31
▁knows	31
▁filing	31
▁symbolic	31
▁consciousness	31
▁correspond	31
▁confused	31
▁sky	31
▁calm	31
▁vows	31
▁Kaur	30
▁disappeared	30
▁Vaishn	30
▁Swa	30
▁lakh	30
▁generals	30
▁opera	30
▁calculate	30
▁Raghu	30
▁gate	30
▁suspicion	30
▁wicket	30
▁freestyle	30
deep	30
▁Y	30
▁Konkan	30
▁Mathura	30
▁thalassemia	30
▁Operation	30
▁driven	30
▁hoped	30
▁rubber	30
▁forty	30
▁Sha	30
▁sample	30
▁interesting	30
▁fabric	30
▁Urban	30
mu	30
▁Bara	30
▁thirteen	30
▁eliminate	30
▁cue	30
dium	30
gan	30
▁Maryland	30
▁sail	30
▁soccer	30
▁Memorial	30
▁intervention	30
▁Kal	30
▁parade	30
ex	30
▁Railways	30
▁Affairs	30
▁receptors	30
▁paycheck	30
▁jammer	30
▁representation	30
some	30
▁boss	30
ez	30
▁marine	30
▁eaten	30
▁Cheras	30
▁Rahul	30
▁Mohammed	30
▁Steve	30
▁Nile	30
▁serial	30
▁Pataliputra	30
▁epics	30
▁Varun	30
▁editing	30
▁courier	30
▁sessions	30
▁Plan	30
▁nationalist	30
ology	30
▁Assamese	30
▁spectrum	30
▁Avinash	30
▁thirty	30
▁photography	30
▁ties	30
▁labour	30
ek	30
ize	30
▁chances	30
▁midfielder	30
▁composers	30
▁ballet	30
▁Arya	30
▁blindness	30
▁Denmark	30
▁r	30
▁poorly	30
▁blame	30
▁guitar	30
▁shore	30
▁Lankan	30
▁speakers	30
ware	30
mala	30
▁rude	30
▁Padmavati	30
▁hilly	30
▁fraud	30
▁mixture	30
▁erected	30
▁mortgage	30
▁treasure	30
▁servers	30
▁Taiwan	30
▁theatrical	30
▁announcement	30
▁referees	30
▁sanction	30
▁riding	30
▁span	30
▁dialogue	30
▁Treat	30
▁listing	30
▁frog	30
ru	30
▁Stock	30
▁identification	30
Ö	30
▁governance	30
▁Pat	30
▁conclusion	30
▁octave	30
sized	30
▁Recently	30
▁rehabilitation	30
▁Menander	30
▁Upp	30
▁Buddhists	30
▁Floorball	30
▁developments	30
▁volume	30
▁Johnny	30
▁Global	30
▁Jodhpur	30
▁corrupt	30
▁pertussis	30
▁vomiting	30
▁connections	30
▁Fiji	30
ab	30
▁Mah	30
▁Haveli	30
▁serum	30
▁width	30
▁Egyptian	30
van	30
▁Ajit	30
▁fires	30
▁Odia	30
mal	30
▁appreciated	30
▁Sanjeev	30
▁lasting	30
▁Ran	30
▁Lamborghini	30
▁ecosystem	30
▁outbreaks	30
ries	30
▁Jolly	30
▁Mahabali	30
▁Diagnosi	30
▁exam	30
▁colon	30
▁hunt	30
▁touched	30
▁irregular	30
▁Science	30
š	30
ao	30
▁borrower	30
▁Panchami	30
washed	29
▁beaches	29
▁Watch	29
▁Zamorin	29
−	29
▁Anderson	29
▁brands	29
▁kidney	29
▁premiered	29
▁jumping	29
▁partially	29
▁deciduous	29
▁Andrew	29
▁Ross	29
▁collapsed	29
▁somewhere	29
▁sweets	29
▁crafts	29
▁trick	29
yl	29
vik	29
▁skilled	29
▁democracy	29
iyar	29
▁limits	29
▁thermal	29
▁recordings	29
▁Durrani	29
▁victorious	29
▁gathering	29
▁verse	29
▁signing	29
ns	29
▁achievements	29
▁healthcare	29
▁carrie	29
▁dirty	29
▁Dan	29
▁resist	29
▁laptop	29
ze	29
▁Motor	29
▁Marshall	29
▁degeneration	29
▁Mishra	29
▁carefully	29
▁Baba	29
▁jurisdiction	29
▁mis	29
▁Kickboxing	29
mon	29
pati	29
▁Movement	29
Leela	29
▁vulnerable	29
▁performer	29
▁GDP	29
▁trends	29
▁unhappy	29
ating	29
▁partnership	29
▁liquid	29
▁realise	29
erial	29
▁singles	29
▁monastery	29
▁Reddy	29
▁Hence	29
▁circuit	29
▁Jagannath	29
▁fourteen	29
▁Iltutmish	29
▁Yash	29
▁investigate	29
▁Week	29
▁Below	29
▁Simon	29
▁Dubai	29
▁disk	29
▁pretend	29
▁Amir	29
mann	29
▁silent	29
▁Bhave	29
▁passion	29
▁guru	29
pe	29
▁tag	29
▁accomplished	29
▁Airbus	29
Customer	29
▁Paralympic	29
▁Iron	29
▁ministers	29
▁rough	29
▁engineer	29
▁lady	29
▁flash	29
mati	29
▁plate	29
▁Tughluq	29
▁concrete	29
▁Ratna	29
▁Prasad	29
▁batt	29
hara	29
▁memorial	29
▁Pre	29
▁bowl	29
▁auction	29
▁Garo	29
▁Theatre	29
▁descend	29
▁Spirit	29
▁inland	29
▁Q	29
▁necessarily	29
▁filmmaker	29
▁Ayesha	29
▁Tug	29
▁diameter	29
▁urticaria	29
rich	29
▁Elizabeth	29
▁Bali	29
▁susceptib	29
▁valid	29
▁Bobby	29
▁suspect	29
▁Mediterranean	29
▁Kama	29
▁plantations	29
▁coloured	29
▁Bur	29
▁happiness	29
nnual	29
▁Maria	29
▁debris	29
▁rink	29
ping	29
▁answer	29
▁strings	29
▁Junior	29
▁Holkar	29
▁handling	29
▁busi	29
▁Similar	29
▁camps	29
▁Arjun	29
national	29
▁inspiration	29
▁consequence	29
ants	29
month	29
pura	29
▁swelling	29
▁Amsterdam	29
▁businessman	29
▁orchestra	29
▁Fair	29
▁Sabres	29
▁bottle	29
%)	29
▁silicosis	29
▁Murugan	29
▁socio	28
▁loses	28
▁Ju	28
▁gilli	28
▁Delta	28
▁Honor	28
head	28
▁basins	28
▁lifted	28
▁Shahi	28
▁Damodar	28
▁sad	28
▁routines	28
▁protesters	28
▁Chairman	28
▁crashed	28
▁Exchange	28
▁Seven	28
▁separately	28
▁strip	28
▁counts	28
▁Plate	28
stern	28
▁bishop	28
▁Certain	28
▁Tournament	28
▁Opera	28
▁expectations	28
▁cane	28
revived	28
▁harder	28
▁bonfire	28
meter	28
▁thrill	28
vascular	28
▁washing	28
▁gym	28
▁Mag	28
eshwara	28
▁quarters	28
▁veteran	28
ani	28
▁roof	28
ties	28
▁reasonable	28
▁sect	28
▁Lady	28
tya	28
▁shoulders	28
▁Security	28
▁legislature	28
▁toxic	28
das	28
▁Kabul	28
▁experts	28
▁alert	28
▁Rajaraja	28
▁mineral	28
β	28
▁Madan	28
▁heterochromia	28
▁limestone	28
but	28
▁summers	28
contact	28
▁messages	28
▁butter	28
▁Born	28
▁hide	28
▁vow	28
▁Next	28
▁Maine	28
▁beaten	28
▁Pay	28
▁sleeping	28
▁viceroy	28
▁Holland	28
▁Akaash	28
▁challenged	28
▁revival	28
ū	28
▁criminals	28
▁Tagore	28
descending	28
▁Kollam	28
▁Dravidian	28
▁migrat	28
▁preserve	28
▁pen	28
▁sum	28
▁Mak	28
ash	28
hroughout	28
▁outer	28
▁seed	28
▁Buffalo	28
▁Sheikh	28
▁samples	28
▁laboratory	28
▁tigers	28
ori	28
▁Greeks	28
▁Akshay	28
▁declining	28
im	28
▁partly	28
▁Gi	28
▁NASCAR	28
qui	28
▁activists	28
▁Lion	28
▁catchment	28
▁grows	28
▁excellent	28
▁zero	28
▁Miller	28
▁Bengaluru	28
▁attitude	28
state	28
▁Zee	28
▁carriers	28
▁divorce	28
▁van	28
▁Rajiv	28
▁mites	28
▁programmes	28
▁o	28
ook	28
▁salesperson	28
▁groceries	28
▁generate	28
▁shrines	28
▁Hampshire	28
▁Chittagong	28
▁gains	28
▁reverse	28
▁palaces	28
▁Navy	28
▁pursue	28
▁Costa	28
▁asthma	28
▁Salt	28
▁depicted	28
▁peninsula	28
▁comic	28
▁Pra	28
▁sorry	28
▁smoking	28
▁negotiate	28
▁ghost	28
▁Nevertheless	28
handed	28
▁Dimapur	28
▁enact	28
▁confin	28
▁stead	28
▁Tropic	28
▁Malaysian	28
▁Wushu	28
ducted	28
▁Baseball	28
paired	28
▁navy	28
▁canal	28
▁Karak	28
▁continuing	28
▁striking	28
▁Cannes	28
▁Arjuna	28
▁Pandit	28
▁pottery	28
▁panic	28
▁ceremonial	28
▁Mahanadi	28
▁distinguished	28
▁resort	28
▁Indonesian	27
▁Pal	27
▁sewage	27
▁Ship	27
▁vegetarian	27
▁Where	27
▁pushing	27
▁tone	27
▁conservative	27
▁Vindhya	27
▁UN	27
▁joints	27
▁Politic	27
▁uncertain	27
▁riots	27
▁Shop	27
▁revolution	27
▁Jordan	27
▁Azerbaijan	27
▁Classic	27
▁palm	27
▁dose	27
▁poll	27
▁lessons	27
▁du	27
▁warriors	27
▁App	27
▁Alliance	27
▁syllables	27
dubb	27
▁Shuja	27
▁failures	27
▁Commons	27
▁Critics	27
rew	27
▁myself	27
▁spell	27
▁booked	27
▁Varma	27
▁Rail	27
▁quiet	27
▁LDL	27
▁tough	27
▁Albert	27
▁Pass	27
ula	27
▁crowds	27
▁Con	27
▁Diu	27
▁absorbed	27
▁suburbs	27
▁citizen	27
▁Roshni	27
▁Historically	27
▁bases	27
▁resolve	27
▁struggling	27
▁Po	27
▁Newcomb	27
▁worry	27
▁seal	27
puzha	27
▁Guwahati	27
▁ulcers	27
▁writings	27
▁Attorney	27
▁granite	27
▁calculation	27
▁Ranaut	27
▁discover	27
oji	27
▁naval	27
▁danger	27
▁smile	27
▁Write	27
▁ads	27
▁divert	27
▁Shahu	27
▁Popula	27
▁shell	27
▁Dad	27
▁arise	27
▁navigation	27
▁Locat	27
▁Kangra	27
▁fault	27
hour	27
▁dreams	27
▁phrases	27
▁Sport	27
▁Kenya	27
▁Abdul	27
▁Bishop	27
▁threaten	27
▁Satara	27
▁Goldman	27
▁Qutb	27
▁History	27
convinced	27
▁oversee	27
▁suzerainty	27
▁focuse	27
▁alphabet	27
▁Tap	27
▁Priya	27
▁imprisonment	27
▁communal	27
▁Sar	27
being	27
▁cerebr	27
▁Shivaratri	27
▁loyal	27
puram	27
▁signal	27
thi	27
▁earthquake	27
▁Mor	27
▁Ford	27
▁Gowda	27
▁thereafter	27
▁Mahavira	27
▁imported	27
▁intelligence	27
work	27
▁Band	27
▁displayed	27
▁badminton	27
▁herbs	27
▁Thar	27
▁Video	27
▁magic	27
▁rāgam	27
▁filter	27
▁Gordon	27
▁Bayern	27
▁bite	27
▁neurologic	27
▁Gothic	27
▁peaceful	27
▁assess	27
▁insult	27
▁bowel	27
▁varnam	27
▁Deepti	27
▁Ambassador	27
▁simultaneously	27
▁patron	27
ped	27
▁Frank	27
▁moments	27
▁Syria	27
▁Tha	27
Austrian	27
▁bridegroom	27
▁masses	27
▁Chambal	27
▁SMI	27
▁intellectual	27
nagar	27
▁Laws	27
▁initiative	27
▁Lewis	27
▁Deep	27
▁Shekhar	27
▁conjunctiva	27
▁variants	27
izz	27
▁prone	27
▁tens	27
▁healing	27
▁Sunny	27
▁maternal	27
▁Rangers	27
▁wishes	27
▁networking	27
▁Ukraine	27
▁arrests	27
▁fingers	27
▁batsman	27
▁laugh	27
mar	27
▁bound	27
top	27
▁ruined	27
▁Cinema	27
▁bread	27
▁Junction	27
▁Member	27
▁Hot	27
▁depth	27
▁Review	27
▁conservation	27
▁Ryan	27
▁financially	27
▁Channel	27
▁studying	27
▁floating	27
▁avatar	27
▁Bi	27
▁repeatedly	27
▁Br	27
▁percussion	27
ga	27
▁universe	27
▁indoors	27
▁hormone	27
▁chains	27
▁Rohi	27
▁pivotal	26
▁improvement	26
▁Harry	26
▁preserved	26
▁scriptures	26
▁sacrifices	26
▁camping	26
▁dialogues	26
▁beds	26
▁Tata	26
▁Wikimedia	26
▁Bull	26
▁Bureau	26
▁stunned	26
▁adventure	26
▁Mahendra	26
▁Nanak	26
▁Mongol	26
▁Desi	26
▁Kunal	26
▁lett	26
▁Chhatrapati	26
▁alike	26
▁Corps	26
ndi	26
▁glad	26
▁scientist	26
▁junction	26
▁Awadh	26
▁restrictions	26
▁Palm	26
▁cardio	26
▁cholesterol	26
▁scatter	26
▁Lata	26
▁Bala	26
▁Tang	26
gi	26
▁Taliban	26
▁hail	26
▁arrondissement	26
▁conductor	26
▁fusion	26
▁Ye	26
▁Together	26
▁excited	26
▁administrator	26
che	26
▁Haridwar	26
wala	26
▁resembles	26
▁Bel	26
▁Food	26
carotene	26
▁republic	26
▁donate	26
▁successors	26
▁Margaret	26
▁elect	26
▁anxious	26
▁Hawaii	26
supplied	26
▁umpire	26
▁Right	26
▁careful	26
▁bi	26
▁animation	26
▁spark	26
▁Chamber	26
▁criticism	26
▁vagina	26
▁mangrove	26
▁errors	26
▁Administration	26
well	26
▁ODI	26
▁chicken	26
▁flour	26
▁authors	26
▁inherited	26
▁mosques	26
▁unnecessary	26
▁Bir	26
▁Still	26
▁organizers	26
▁usage	26
▁overnight	26
▁Jag	26
▁Chauth	26
▁lighting	26
▁mirror	26
▁dying	26
▁Hassan	26
▁Bharti	26
▁ensemble	26
▁Arvari	26
▁hosting	26
▁understood	26
▁Sudan	26
▁DVD	26
▁fate	26
▁volunteers	26
▁Khusrau	26
▁cultivated	26
▁Veera	26
▁shootout	26
▁coaches	26
▁Jamaica	26
▁refuge	26
▁Benjamin	26
sen	26
▁chamber	26
down	26
▁sanitation	26
▁Jafar	26
▁Bohemia	26
Person	26
▁fifty	26
▁swarams	26
▁globe	26
burn	26
▁providers	26
▁enroll	26
▁Mata	26
veer	26
tland	26
▁defenders	26
▁introduce	26
▁Nikki	26
▁noble	26
▁Mein	26
▁Kanchipuram	26
▁rolling	26
▁Rajasthani	26
▁Raman	26
▁proportion	26
▁Danish	26
▁accord	26
▁genres	26
▁receipt	26
▁chromosome	26
▁shield	26
▁Baji	26
▁catches	26
▁runners	26
▁midnight	26
▁yard	26
▁Meetei	26
▁minimal	26
▁Principal	26
▁loose	26
▁Ti	26
▁surgeon	26
▁drought	26
▁Ajmer	26
▁Who	26
▁Communist	26
▁relieved	26
▁bonds	26
▁governors	26
▁impossible	26
▁rockets	26
dietary	26
ice	26
▁profit	26
▁Heavy	26
▁diagnos	26
▁density	26
▁mines	26
▁boards	26
▁automatic	26
▁reactions	26
gam	26
▁Ministers	26
▁Salman	26
▁terminal	26
▁teachings	26
▁install	26
▁Vedas	26
▁Rose	26
▁Adobe	26
can	26
▁sparring	26
▁Online	26
ev	26
▁folklore	26
▁boundaries	26
▁thoughts	26
▁tissues	26
▁vi	26
▁puck	26
za	26
▁pile	26
▁decorate	26
▁sal	26
▁rowing	26
▁Raga	26
▁Taluk	26
▁advertising	26
▁trips	26
▁Put	26
▁default	25
▁untreated	25
▁ferry	25
▁troupes	25
▁blast	25
▁evacuated	25
▁Iraqi	25
▁Article	25
▁Head	25
▁theories	25
▁onwards	25
▁Var	25
▁PC	25
▁imaging	25
▁opens	25
▁input	25
▁Screen	25
▁thread	25
▁incorporate	25
▁intricate	25
▁malaria	25
▁Very	25
▁Tests	25
▁mallet	25
▁operator	25
▁Peace	25
▁corporations	25
funded	25
▁fierce	25
▁incomplete	25
▁Zafar	25
anoj	25
▁Dum	25
▁supplementation	25
uch	25
V	25
▁gangster	25
▁mere	25
▁RNA	25
▁disputed	25
rang	25
▁rape	25
▁discrimination	25
▁passive	25
▁Dortmund	25
▁Bundesliga	25
▁crushed	25
▁tight	25
▁definition	25
▁rivalry	25
▁Omar	25
▁monarch	25
ode	25
▁ski	25
▁earthen	25
▁halls	25
▁Honey	25
▁symbolize	25
▁layout	25
▁flew	25
▁translation	25
▁Advance	25
▁possesse	25
pan	25
▁imagine	25
▁suspects	25
▁Jal	25
▁Shopp	25
▁alcoholic	25
▁outcome	25
▁polite	25
▁bulls	25
▁Stockholm	25
foot	25
▁flown	25
▁Ottoman	25
▁landslides	25
▁excuse	25
▁lesser	25
▁synthe	25
▁assert	25
pparently	25
▁jallikattu	25
▁Electric	25
▁freshwater	25
▁firms	25
▁Bob	25
▁portrayal	25
▁realis	25
▁prosperity	25
original	25
▁variables	25
▁judici	25
▁Jaidev	25
ious	25
▁tons	25
▁utilities	25
▁counterfeit	25
▁enemies	25
▁cult	25
▁Large	25
▁tracking	25
▁excavated	25
▁rush	25
put	25
▁horns	25
▁arrows	25
▁naturally	25
▁Bruce	25
▁isolation	25
yam	25
▁Moore	25
▁wore	25
▁Emirates	25
so	25
▁Ja	25
▁rais	25
▁Boat	25
▁snowfall	25
▁Rawal	25
▁fleet	25
▁bass	25
▁experimental	25
▁terrorist	25
▁gates	25
▁attending	25
ular	25
▁handed	25
▁Sunni	25
▁seals	25
▁tear	25
▁Nancy	25
▁Anthony	25
▁swords	25
▁stuck	25
▁mango	25
▁empires	25
▁sits	25
▁revolve	25
▁McCartney	25
▁devotee	25
▁LLC	25
▁Thereafter	25
▁adaptation	25
pala	25
▁hotels	25
▁Standard	25
▁mosque	25
▁beer	25
▁Shoot	25
▁Harvard	25
bhai	25
▁concentrations	25
▁composite	25
▁Narendra	25
▁Wilson	25
▁respected	25
▁arthritis	25
▁commented	25
▁Para	25
▁Kanpur	25
▁incidents	25
▁timing	25
India	25
transl	25
▁farms	25
▁denote	25
▁substances	25
▁consistent	25
▁explosion	25
ural	25
▁Malaya	25
▁deposits	25
▁Ara	25
▁passages	25
▁castes	25
▁Chakraborty	25
▁successes	25
▁Hy	25
▁Dadr	25
▁soils	25
▁Krishnan	25
▁agrees	25
▁neuro	25
▁Chauhan	25
▁dried	25
▁CBS	25
▁pleasant	25
▁wake	25
▁Provinces	25
▁asset	25
▁elbow	25
▁RV	25
▁Ashura	25
▁consumer	25
▁Multan	25
▁avoided	25
▁desire	25
▁spreading	25
▁institute	25
▁processions	25
gen	25
▁Suraj	25
ola	25
▁cart	25
▁stronger	25
▁Nagori	25
▁lesion	24
▁Officer	24
them	24
▁commerce	24
▁argument	24
▁burnt	24
▁UP	24
▁Hamilton	24
▁Norr	24
chal	24
tak	24
▁CT	24
▁Ridge	24
▁Industries	24
▁Denver	24
▁Vaishnavism	24
▁streak	24
▁requir	24
▁smoke	24
rland	24
▁subsidiary	24
▁Senator	24
▁maps	24
▁households	24
ff	24
▁Brothers	24
▁prey	24
▁Thank	24
▁nominee	24
▁Rick	24
▁Israeli	24
▁Search	24
▁indeed	24
▁legacy	24
▁utility	24
▁Palestine	24
▁rebelled	24
▁pilgrim	24
▁steadily	24
▁dump	24
▁cancers	24
▁Sundarbans	24
▁negotiated	24
▁Karl	24
▁legally	24
▁Have	24
▁Verma	24
▁dawn	24
▁mountainous	24
key	24
▁Jha	24
▁Satpura	24
▁diamond	24
▁export	24
▁questioned	24
▁Kafur	24
▁landing	24
▁tri	24
▁Dharmapala	24
▁Rashtrakuta	24
▁spann	24
▁copyright	24
hat	24
▁developers	24
▁Val	24
▁Hans	24
held	24
▁stem	24
▁proof	24
▁complaints	24
lang	24
▁capitals	24
▁investor	24
▁spectators	24
▁employment	24
▁tongue	24
▁submerged	24
▁illnesses	24
▁embark	24
▁Kushans	24
▁headquarter	24
▁Sid	24
▁villain	24
▁Palas	24
▁Mann	24
▁Youth	24
▁rear	24
▁burned	24
▁Space	24
▁chip	24
▁colourful	24
▁Ayala	24
▁Aryan	24
▁Sutras	24
evergreen	24
▁Natural	24
▁fossil	24
▁wushu	24
▁gaming	24
▁Satbir	24
▁spouse	24
▁ghosts	24
▁keeper	24
▁Devils	24
▁Gobind	24
net	24
▁Tell	24
▁Nader	24
▁advertisements	24
▁Du	24
▁explore	24
▁convince	24
▁constitutional	24
▁wrestlers	24
▁receptor	24
▁Shastra	24
▁ecological	24
▁Daniel	24
▁resorts	24
▁regret	24
▁topic	24
▁shelters	24
▁theft	24
▁paint	24
vi	24
ians	24
▁stays	24
▁migrator	24
▁Bird	24
▁Messi	24
▁Chase	24
▁Nick	24
▁romance	24
▁Mc	24
▁Twenty	24
▁kiss	24
▁spectacular	24
▁publications	24
▁informal	24
▁socially	24
▁Dhaka	24
went	24
▁scholarship	24
▁Ghana	24
▁excavation	24
▁Temperature	24
▁gland	24
▁bombs	24
▁Graves	24
▁structural	24
▁interface	24
▁squad	24
▁honest	24
▁ka	24
▁secular	24
▁peripheral	24
▁Sp	24
kara	24
▁Yama	24
▁strategies	24
▁Parshvanatha	24
▁cats	24
▁employer	24
▁spit	24
▁evident	24
▁monkey	24
▁Kay	24
▁suspicious	24
hit	24
▁doses	24
▁patches	24
▁Donald	24
▁yearly	24
▁Nag	24
▁expressions	24
▁Hungary	24
▁Netflix	24
▁lenses	24
▁heading	24
▁labor	24
organic	24
▁flags	24
▁exceptional	24
government	24
▁Basin	24
▁Vaikuntha	24
▁Jhansi	24
▁stance	24
▁Rediff	24
▁Mitra	24
▁beneficial	24
▁Sufi	24
▁blend	24
▁struggles	24
▁Thakur	24
place	24
▁siblings	24
▁trophy	24
▁bathroom	24
wal	24
▁Turkic	24
▁binding	24
▁condemned	24
▁bore	24
▁specified	24
▁doubled	24
▁underground	24
▁keyboard	24
▁disks	24
oid	24
abad	24
▁sultanate	24
▁Kurien	24
▁Gabbar	24
▁preparations	24
▁crack	24
▁Flyers	24
▁bridges	24
▁Monika	24
der	24
definitely	24
▁Digital	24
▁anymore	24
▁load	24
▁imp	24
oram	24
▁relation	24
▁documented	24
▁Storm	24
▁attractions	24
▁targeted	24
▁inquiry	24
▁Jim	24
▁Labour	24
▁Class	24
▁Matt	24
▁borrow	24
▁Antwerp	24
scribed	24
▁Udaipur	24
▁adverse	24
▁rewards	24
▁Sardar	24
▁confusion	24
▁Achievement	24
▁tumor	24
▁angle	23
▁manual	23
▁Shoppers	23
▁emphasiz	23
▁fu	23
▁sequences	23
▁bestow	23
▁Village	23
▁choreograph	23
▁behalf	23
▁Gopi	23
▁Mohammad	23
▁Schedule	23
▁pepper	23
▁Cold	23
▁ascending	23
▁tala	23
▁trekking	23
▁Ji	23
▁Senior	23
▁leaf	23
▁tube	23
▁laser	23
▁opinion	23
▁textiles	23
▁decisive	23
▁publication	23
▁compromise	23
▁Rajaram	23
▁Chat	23
▁Spring	23
▁speeds	23
▁describ	23
▁coalition	23
▁solve	23
▁USB	23
▁Hind	23
▁Manhattan	23
hu	23
▁profile	23
▁caps	23
▁abundant	23
▁effectiveness	23
▁landscape	23
▁Mad	23
▁disciple	23
▁bonus	23
ification	23
mm	23
▁suggestions	23
▁Mari	23
▁manufacture	23
▁Challenge	23
▁predecessor	23
▁accuracy	23
▁Adam	23
▁BSNL	23
▁paste	23
▁organiz	23
▁batteries	23
▁knockout	23
▁iOS	23
▁Francis	23
▁scripts	23
▁cop	23
▁Higher	23
▁instant	23
▁Citr	23
▁narrate	23
▁roll	23
▁chair	23
▁hunger	23
▁ease	23
▁Sites	23
▁Cro	23
▁Lawrence	23
▁Cuttack	23
▁sari	23
▁novels	23
▁Mariam	23
▁Char	23
▁peaks	23
▁Trisha	23
▁judo	23
▁boost	23
▁voting	23
▁Airway	23
▁pursued	23
▁distant	23
▁knees	23
▁audition	23
▁Babu	23
▁stepp	23
▁ICC	23
▁fishermen	23
▁Khande	23
▁Kennedy	23
▁diaspora	23
▁racquet	23
▁rotation	23
▁Lo	23
air	23
▁meter	23
▁Kalm	23
▁Shortly	23
▁Frontier	23
▁actresses	23
▁Overall	23
▁poly	23
▁Foreign	23
▁remainder	23
▁Vikramaditya	23
▁assists	23
▁hiding	23
▁Infantry	23
▁settings	23
▁Hero	23
eminent	23
▁frustrating	23
▁Mickey	23
▁unveiled	23
▁jungle	23
▁punishment	23
▁RA	23
▁Mission	23
▁resembl	23
▁Web	23
▁Kishan	23
▁Vijaya	23
▁shake	23
▁deputy	23
▁Argentine	23
▁Defense	23
fighting	23
▁nuts	23
▁departments	23
▁drum	23
ibn	23
▁Net	23
▁Mangalore	23
▁mad	23
▁naked	23
▁kg	23
▁skate	23
▁ancestor	23
az	23
var	23
ci	23
▁nominal	23
▁Tara	23
▁chariot	23
▁crystal	23
▁Economics	23
▁Neha	23
▁rocky	23
▁manuscripts	23
▁Chanakya	23
wide	23
▁facto	23
▁checked	23
▁tapp	23
tion	23
▁sculpture	23
▁wing	23
▁millennium	23
▁federation	23
▁spokesman	23
▁graduating	23
▁ashram	23
ô	23
▁Anupam	23
▁Kher	23
▁weigh	23
asa	23
▁manufactured	23
▁choices	23
▁Anant	23
▁contributions	23
▁goalie	23
▁dhrupad	23
oo	23
▁lid	23
▁disrupt	23
▁Yaw	23
▁Martial	23
▁Com	23
▁availability	23
▁lighter	23
▁Shaolin	23
finals	23
▁optic	23
▁induced	23
▁proximity	23
▁donations	23
▁recite	23
▁Ch	23
▁Nana	23
▁Sutlej	23
▁readers	23
▁civilians	23
▁COVID	23
▁survival	23
▁Vegas	23
▁shuttlecock	23
▁staple	23
lo	23
▁headache	23
▁operational	23
▁Adams	23
▁disputes	23
▁armour	23
▁pillars	23
▁Arizona	23
▁Dutta	23
▁Bhakti	23
▁signals	23
▁mini	23
▁wrapped	23
▁rang	23
port	23
▁disability	23
▁casual	23
▁disheartening	23
▁warned	23
▁factories	23
▁accompany	23
▁similarities	23
▁machines	23
▁reside	23
▁foster	23
▁ulcer	23
▁Mat	23
▁Temples	23
▁merger	23
▁antagonist	23
▁legislation	23
▁printing	23
▁spreads	23
▁Cao	22
▁commemorat	22
▁Movie	22
player	22
▁Everyone	22
▁crosses	22
▁poem	22
ied	22
topped	22
▁dip	22
▁concepts	22
▁mantra	22
▁Seleucus	22
▁Thousand	22
▁Liverpool	22
▁princes	22
▁Orchestra	22
with	22
▁identical	22
▁assassination	22
▁Students	22
▁na	22
▁cornea	22
▁Kapil	22
sk	22
▁waist	22
▁instituted	22
jo	22
ens	22
▁cloud	22
▁hook	22
▁breathe	22
▁unemployment	22
chand	22
▁Baltimore	22
▁clip	22
▁adhere	22
▁strange	22
▁evolution	22
▁Jallikattu	22
tam	22
▁campus	22
▁layers	22
▁tehsil	22
▁persist	22
▁Direct	22
▁ponds	22
▁mystery	22
▁neighbours	22
▁rid	22
▁Sikhism	22
▁Outside	22
▁arrangements	22
▁Ana	22
▁brutal	22
▁Carlo	22
plus	22
▁travelled	22
▁Revenue	22
▁overlook	22
▁insects	22
▁Catholics	22
▁devot	22
▁militia	22
▁windows	22
▁Colombia	22
▁sat	22
▁oils	22
pro	22
ky	22
▁Viceroy	22
▁Bharata	22
▁penance	22
▁Kota	22
▁Form	22
▁breach	22
▁Ponnani	22
▁remark	22
▁considerably	22
▁refugees	22
▁Mauritius	22
▁induce	22
▁chat	22
Friend	22
▁accidents	22
▁transit	22
▁Marine	22
▁Magadha	22
pat	22
▁negotiations	22
nda	22
▁deploy	22
ot	22
▁emergencies	22
▁characteris	22
▁quantities	22
▁pilot	22
now	22
▁bitter	22
▁Carl	22
▁fatigue	22
▁affair	22
▁Kannur	22
▁Tarabai	22
▁blog	22
▁Gharana	22
person	22
een	22
Mysore	22
▁Stars	22
▁occasional	22
▁Yuvaan	22
▁Um	22
▁keys	22
▁drunk	22
▁Basu	22
▁migrants	22
▁candy	22
▁locals	22
▁confidence	22
gaon	22
▁Arabs	22
▁Kathmandu	22
▁Count	22
▁Hirani	22
▁qualifying	22
responsibilities	22
▁councils	22
▁lamps	22
▁Kanha	22
dev	22
▁bits	22
▁regime	22
▁Dhan	22
▁dissolved	22
▁Howe	22
▁silence	22
▁Manu	22
▁tactic	22
▁embrace	22
▁Gill	22
▁protector	22
▁bicycles	22
▁hardware	22
▁slower	22
▁battery	22
▁interpreted	22
▁Sattriya	22
▁menu	22
▁sponsorship	22
▁goddesses	22
▁Lu	22
▁Fe	22
▁Abbott	22
▁absorb	22
▁Qu	22
▁eyelids	22
▁Nagas	22
▁tackle	22
▁lion	22
▁ears	22
▁Aravalli	22
▁heights	22
▁sage	22
▁Maple	22
▁grammar	22
▁framework	22
▁Classical	22
▁autonomy	22
▁custody	22
▁Jakarta	22
▁Cochin	22
▁Former	22
▁affordable	22
▁remarkable	22
standing	22
▁Individual	22
▁secretly	22
▁swaras	22
▁quantity	22
▁Final	22
’’	22
▁judgment	22
▁devastated	22
▁lovers	22
▁Puerto	22
eda	22
▁advocat	22
▁Siliguri	22
▁Holika	22
▁Nar	22
▁nausea	22
▁Beckham	22
▁cysticercosis	22
we	22
▁papers	22
▁habits	22
▁Weather	22
▁Lumpur	22
▁Nav	22
▁sometime	22
▁Era	22
▁subdu	22
▁applicable	22
▁luck	22
▁haul	22
▁buttons	22
▁spine	22
▁infant	22
▁sectors	22
▁Banana	22
▁grandmother	22
east	22
▁adjoin	22
▁Software	22
▁numbered	22
▁Dilip	22
▁anger	22
▁pork	22
▁outstanding	22
▁garage	22
▁potassium	22
asaheb	22
iruvananthapuram	22
▁coincide	22
▁achiev	22
▁incarnation	22
▁Schwan	22
▁dolphin	22
▁Athens	22
▁convey	22
▁cha	22
▁envelope	22
square	22
▁Bal	22
▁Tirthankara	22
highest	22
▁urine	22
▁hometown	22
▁Sukh	22
ć	22
ski	22
▁hospitalized	22
▁smooth	22
▁Ge	22
▁Rivers	22
pal	22
▁Bengalis	22
▁Romania	22
▁Chal	22
▁grants	22
▁Cash	22
sex	22
▁LG	22
▁wallet	22
▁Blair	22
▁harsh	22
▁jute	22
▁Northwest	22
▁traveled	22
▁steroids	22
▁Work	22
▁Berkeley	22
▁genus	22
▁CD	22
jit	22
▁venues	22
▁graphics	22
▁implementation	22
▁Kumari	22
▁Vishwaroopam	22
▁Wrestling	22
drama	22
▁iTunes	22
▁Vishu	22
▁Hitler	22
▁colleagues	22
▁vessel	22
▁Monica	22
▁halftime	22
▁WWE	22
▁Matthew	22
▁complexity	22
▁Rabindra	22
▁minerals	22
▁forested	22
▁flexibility	22
▁Allah	22
▁promising	22
▁Ranjit	22
▁Call	22
▁Kanishka	22
▁barcode	22
▁appreciate	22
▁Front	22
▁Shukla	22
ika	22
▁provider	22
▁thrift	22
metre	22
▁Arsenal	22
▁Visakhapatnam	22
screen	22
▁entities	22
▁applies	22
▁Kara	22
▁Partition	22
▁fractures	22
▁realistic	22
▁Jabing	21
▁Basic	21
▁earns	21
▁ignore	21
▁postures	21
▁Multiple	21
▁silt	21
▁edit	21
ata	21
▁Finnish	21
▁Rathore	21
▁Prefecture	21
▁Gor	21
▁Ad	21
▁ultraviolet	21
▁bail	21
▁prescribed	21
▁Antonio	21
diac	21
▁processing	21
▁ho	21
▁eighteen	21
▁Throwball	21
au	21
anna	21
ile	21
four	21
▁myelin	21
▁laghu	21
▁dimension	21
▁topical	21
▁pigment	21
▁parliamentar	21
▁Short	21
▁Palk	21
▁conquer	21
▁planet	21
▁Wikinews	21
▁Plant	21
▁revive	21
▁Qasim	21
▁Schools	21
▁ruin	21
▁Bu	21
▁FH	21
▁approaches	21
▁professionally	21
all	21
▁Siva	21
▁commanders	21
▁sunset	21
▁profession	21
▁seating	21
▁perfectly	21
▁recreation	21
▁predicted	21
▁consequences	21
▁Peri	21
▁radical	21
▁continents	21
lands	21
▁fighter	21
▁lamp	21
▁Cardamom	21
▁Bharathappuzha	21
▁latent	21
▁Veer	21
▁pride	21
▁sensitivity	21
▁terrible	21
▁Season	21
▁suppress	21
▁weakness	21
▁sandstone	21
▁freezing	21
tel	21
▁te	21
▁dominance	21
▁reptiles	21
malai	21
▁Regiment	21
Zamani	21
▁Mongols	21
▁comeback	21
▁spike	21
▁rupture	21
▁spontaneous	21
▁Hotel	21
▁assembled	21
▁Che	21
▁embass	21
▁privacy	21
▁clinch	21
▁touchdown	21
exist	21
ily	21
▁bowled	21
▁Rich	21
▁eBay	21
▁variable	21
▁Back	21
▁resource	21
▁modula	21
▁conferr	21
▁Tripuri	21
▁rows	21
▁lens	21
▁blades	21
▁Show	21
▁escort	21
▁Shinde	21
▁Place	21
▁Ranji	21
people	21
▁homeless	21
▁shorts	21
▁Baldev	21
▁Uzbekistan	21
▁Fa	21
▁Sino	21
▁egg	21
▁Kalugumalai	21
▁southwestern	21
▁Mangalesha	21
▁umpires	21
▁beef	21
▁juice	21
▁Senators	21
▁revered	21
▁choos	21
▁Aur	21
▁Nor	21
▁disguise	21
▁shirts	21
▁coinage	21
▁cricketer	21
▁riders	21
▁Dakota	21
▁disturbances	21
▁publisher	21
▁Boys	21
▁Hard	21
▁backdrop	21
▁cognitive	21
▁poster	21
▁Rebellion	21
▁Management	21
▁compiled	21
▁sells	21
▁allies	21
▁Vino	21
▁consort	21
▁specialist	21
▁glands	21
such	21
▁WNV	21
▁demonstrate	21
▁raider	21
▁irrigated	21
▁nationwide	21
▁besieg	21
▁collective	21
‘‘	21
▁transformation	21
▁Plain	21
▁abandon	21
▁adorn	21
attu	21
▁magnific	21
▁assessment	21
▁Fast	21
▁contracts	21
uri	21
blew	21
▁bats	21
▁pit	21
▁wears	21
Pa	21
▁disappointing	21
ter	21
▁neutral	21
▁persuade	21
▁Nazi	21
▁Adelaide	21
▁Pi	21
▁autumn	21
▁globally	21
▁skiing	21
▁heal	21
stein	21
▁tiny	21
care	21
▁restrict	21
▁postponed	21
▁boxer	21
mer	21
▁Philip	21
▁investigated	21
▁wetlands	21
▁Upanayana	21
ring	21
▁Smriti	21
▁Approximately	21
▁academic	21
▁Sign	21
▁occurrence	21
▁ch	21
▁outdoors	21
▁Shan	21
▁planted	21
ii	21
▁Oceania	21
▁patrons	21
▁User	21
▁remade	21
▁Gopala	21
▁donation	21
▁wage	21
▁insight	21
▁Carter	21
nia	21
▁Estonia	21
▁vaccinated	21
▁Mon	21
▁Athletic	21
▁cameras	21
▁burn	21
▁pockets	21
▁Vienna	21
▁Shaivism	21
▁expecting	21
▁pan	21
▁flooded	21
▁Multi	21
▁Nath	21
▁groundwater	21
▁Shunga	21
▁Croatian	21
▁concerning	21
▁appendix	21
▁amid	21
▁thigh	21
▁Tel	21
▁Rajkumar	21
▁pole	21
▁saints	21
▁von	21
▁fridge	21
▁rackets	21
▁genuine	21
▁flexible	21
mpress	21
▁staging	21
▁Nair	21
▁priority	21
▁rings	21
▁mice	21
ites	21
▁ministry	21
▁Dun	21
▁blade	21
▁questioning	21
▁Dew	21
▁Jami	21
▁preliminar	21
▁lotus	21
▁Beas	21
▁Maharan	21
▁Motion	21
▁quoted	21
▁tail	21
▁Satya	21
It	21
▁Sh	21
▁thieves	21
▁guidance	21
▁component	21
▁physically	21
▁threatening	21
ora	21
ran	21
▁displaced	21
▁blamed	21
▁Menon	21
▁Upanishads	21
ita	21
▁froze	21
▁colorful	21
▁Bagh	21
▁Fran	21
▁overcome	21
▁Orange	21
▁forever	21
▁fluids	21
▁proclaimed	21
Y	20
▁descendant	20
▁Calicut	20
▁Kent	20
▁toxin	20
▁notation	20
▁invaders	20
▁Makara	20
▁Gaon	20
▁farmer	20
▁Kumaon	20
▁Vilas	20
▁chart	20
▁certainly	20
arious	20
▁magnet	20
▁escapes	20
▁Kite	20
▁blessings	20
▁absent	20
▁Luxembourg	20
▁Player	20
▁masks	20
▁smart	20
▁Taylor	20
▁aids	20
▁Campbell	20
▁swor	20
▁Garden	20
▁grip	20
▁Karate	20
▁des	20
▁candidates	20
▁Johar	20
▁Akhtar	20
▁girlfriend	20
▁reporter	20
▁sciences	20
▁chips	20
▁introduc	20
▁tumors	20
▁Mass	20
▁explanation	20
▁Robinson	20
▁possibilities	20
▁minorities	20
▁Silver	20
▁traumatic	20
▁Tan	20
▁pawn	20
dustrial	20
▁implementing	20
▁mela	20
▁tonnes	20
▁stranded	20
▁Digambara	20
▁Khar	20
▁Poor	20
▁Arun	20
▁licensed	20
▁Medi	20
▁Udayagiri	20
▁ammunition	20
▁Unicode	20
▁debated	20
burg	20
▁extinct	20
▁Chu	20
▁threats	20
▁patronis	20
▁Daman	20
▁FM	20
▁implement	20
▁evaluation	20
▁Ol	20
ju	20
▁marketplace	20
▁prostitution	20
▁defect	20
▁IF	20
▁dominion	20
▁Planning	20
▁Bahl	20
▁regulated	20
▁ignor	20
▁spa	20
▁Nirupama	20
▁Ganguly	20
▁Row	20
ocular	20
▁hillock	20
▁manufacturer	20
▁civilization	20
▁spear	20
holm	20
▁Bajrang	20
▁Harappan	20
▁functioning	20
▁advances	20
ova	20
▁kidnapped	20
ress	20
▁Bhai	20
▁Northeast	20
osis	20
▁Sardaar	20
▁Anshul	20
▁Kevin	20
▁vassals	20
▁gateway	20
▁Masjid	20
▁highlights	20
▁everyday	20
▁predecessors	20
▁hygiene	20
▁Engineering	20
▁Peru	20
▁compensate	20
▁gay	20
▁Yu	20
▁Ltd	20
▁IP	20
▁Nandi	20
▁skeletons	20
▁Madhav	20
▁refusing	20
▁Kannauj	20
▁update	20
▁wounds	20
▁demons	20
▁sovereignty	20
▁whil	20
more	20
▁Sanga	20
▁downtown	20
▁gambling	20
▁Seenu	20
▁premiere	20
▁advantages	20
▁Lincoln	20
▁registration	20
▁ki	20
▁Zone	20
▁architect	20
▁repairs	20
▁Jaintia	20
▁seas	20
▁reception	20
▁shallow	20
▁array	20
▁Gaekwad	20
▁burden	20
▁metre	20
▁sanctuaries	20
avarman	20
▁Sundara	20
▁Seoul	20
▁Sky	20
▁delays	20
▁philosophic	20
ny	20
▁supermodel	20
▁nutrition	20
▁acclaim	20
▁Race	20
▁Rather	20
▁prescription	20
▁Programme	20
▁primates	20
pad	20
▁Viz	20
▁heartbroken	20
▁battlefield	20
▁Ayodhya	20
▁collector	20
▁surrendered	20
▁hierarchy	20
ung	20
▁masters	20
▁Yuvi	20
▁successive	20
▁Sur	20
▁disgusting	20
▁opium	20
▁Nebraska	20
▁complication	20
▁stupa	20
▁pawns	20
▁Store	20
▁combinations	20
▁apologize	20
▁particles	20
▁certified	20
▁sunrise	20
▁addressed	20
▁thanks	20
▁odd	20
▁kicked	20
tal	20
▁assassinated	20
▁accommodation	20
▁Far	20
▁Kya	20
▁Princeton	20
▁terrace	20
▁Route	20
League	20
▁En	20
▁licenses	20
▁fundamental	20
▁panchayats	20
ST	20
▁somebody	20
▁Mahesh	20
▁circles	20
▁Shankaracharya	20
▁par	20
▁kayaking	20
▁Ronaldo	20
▁Peshawar	20
▁controller	20
▁Croatia	20
▁firmly	20
▁Nritya	20
▁breed	20
▁artery	20
▁UTC	20
fan	20
tolerant	20
▁grey	20
ral	20
ban	20
▁Mi	20
▁burns	20
▁superstar	20
▁Douglas	20
ray	20
jeev	20
▁Normal	20
maybe	20
▁Boeing	20
bai	20
mitra	20
▁exchanged	20
▁scarring	20
▁Chan	20
▁Latvia	20
▁outlets	20
▁feudal	20
▁enclaves	20
▁vicinity	20
season	20
We	20
▁dominate	20
▁Des	20
Aryan	20
uki	20
▁abnormal	20
▁VI	20
five	20
▁crowded	20
▁Full	20
▁signifie	20
▁Kiran	20
▁Cyprus	20
▁plunder	20
▁pursuit	20
▁consensus	20
▁hymns	20
▁Khy	20
▁Renaissance	20
incorporat	20
▁Venezuela	20
▁Jeff	20
▁verify	20
▁exploded	20
▁Liberal	20
▁motivation	20
▁Fif	20
BT	20
▁emotion	20
only	20
▁interaction	20
▁wrestler	20
oor	20
▁controll	20
▁disappearance	20
▁plates	20
▁Maldives	20
▁Ward	20
▁partial	20
▁entitled	20
▁Kai	20
▁Leafs	20
▁dysfunction	20
▁unarm	20
▁bounds	20
▁Stop	20
▁aggression	20
▁disabled	20
▁pond	20
▁Te	20
▁monkeys	20
▁artifacts	20
▁lanes	20
▁clans	20
▁Richards	20
▁Utah	20
▁remnant	20
▁coughing	20
▁signify	20
▁Kolhapur	20
▁wanting	20
▁belts	20
▁sellers	20
▁Norfolk	20
opher	20
▁updates	20
▁Kakatiya	20
▁dealers	20
shima	20
▁Energy	20
▁admit	20
▁physician	20
▁Annie	20
▁Dainik	20
▁Cho	20
town	20
▁magazines	20
▁Help	20
wari	20
▁Bas	20
▁filling	20
▁tender	20
▁compounded	20
▁Ghat	20
high	20
▁Kazakhstan	20
po	20
▁sulfur	20
▁Bhonsle	20
guard	20
▁Ever	19
▁accumulat	19
▁CPU	19
▁Bahrain	19
▁adapt	19
▁doors	19
ions	19
▁posture	19
▁lime	19
dental	19
▁Sound	19
▁gestures	19
▁firing	19
▁Defence	19
▁surfaces	19
▁rift	19
▁philosopher	19
▁Racing	19
▁cervical	19
▁Nimmi	19
dha	19
darsh	19
▁Rights	19
▁maiden	19
▁limitations	19
▁rides	19
▁execut	19
▁uniforms	19
▁Record	19
▁productivity	19
▁continu	19
ectomy	19
▁Trinity	19
▁appalled	19
▁Include	19
▁Timurid	19
▁Boss	19
▁Days	19
▁Ball	19
▁Fr	19
▁suspension	19
▁sling	19
▁Paulo	19
▁equipp	19
▁imagination	19
▁vegetable	19
▁Regional	19
▁Night	19
▁premier	19
▁Anil	19
tri	19
▁Subarnarekha	19
▁WFTDA	19
fold	19
▁indicator	19
▁MRI	19
▁Labor	19
prakash	19
▁Gopal	19
▁mutations	19
▁random	19
▁Talk	19
ona	19
▁Xuanzang	19
skar	19
▁appointment	19
nce	19
▁spokesperson	19
▁Administrative	19
▁bold	19
▁regiments	19
▁Inside	19
▁promotions	19
▁Fear	19
▁retrieve	19
▁uprising	19
▁hemorrhagic	19
▁Bhagavathar	19
▁ordering	19
▁draining	19
▁Giri	19
▁Rajputana	19
▁cooperative	19
▁caution	19
▁Prayag	19
▁Roger	19
▁Cu	19
ise	19
▁sunlight	19
▁resident	19
▁constituted	19
▁distress	19
▁template	19
▁Quran	19
▁unlikely	19
▁weaving	19
yo	19
▁Can	19
▁grave	19
▁ghee	19
▁desktop	19
▁exploration	19
▁liability	19
▁marking	19
▁dread	19
▁Inspector	19
▁climatic	19
kal	19
▁triple	19
▁bargain	19
▁persisten	19
▁Ukrainian	19
▁Khal	19
▁scandal	19
away	19
▁phenomenon	19
▁Jagat	19
▁Gang	19
▁replied	19
▁Rajas	19
▁Hellenist	19
▁transferr	19
▁malls	19
▁Veeru	19
▁subjugated	19
▁Agni	19
▁patroniz	19
▁checks	19
lon	19
hua	19
▁satisfied	19
▁impression	19
▁rebuilt	19
▁torture	19
▁Bima	19
▁Romance	19
▁Double	19
▁Language	19
▁compress	19
▁preference	19
jan	19
▁Romans	19
▁uneasy	19
▁Patiala	19
▁pipe	19
▁Information	19
▁undertaken	19
▁tremendous	19
▁Ann	19
▁dai	19
▁depiction	19
olithic	19
▁safely	19
▁consulting	19
▁alliances	19
▁precise	19
▁attachment	19
▁competitor	19
established	19
inhabited	19
sagar	19
▁Vedanta	19
▁pounds	19
sisted	19
dejected	19
▁coincid	19
▁rode	19
intestin	19
▁NBC	19
▁Deputies	19
je	19
č	19
▁digging	19
▁Bagmati	19
dust	19
▁drums	19
▁Busch	19
▁frames	19
▁tsunami	19
▁bolts	19
▁sphere	19
court	19
▁fertility	19
▁impairment	19
▁alpha	19
▁eu	19
light	19
▁cemetery	19
sky	19
lock	19
▁spur	19
▁puberty	19
▁heaven	19
▁translate	19
▁Canal	19
▁WPBSA	19
▁Mand	19
▁Patrick	19
▁shed	19
▁distances	19
Flanders	19
▁mechanical	19
▁Hope	19
▁silica	19
▁accepts	19
▁Norman	19
▁IFF	19
specific	19
▁iPod	19
▁powerboat	19
▁Medal	19
▁Sindhi	19
▁Hundred	19
▁lord	19
vid	19
produced	19
cast	19
▁heroine	19
▁welcomed	19
human	19
▁Sal	19
▁condoms	19
▁surpass	19
ew	19
▁assisting	19
▁underneath	19
▁waited	19
MD	19
▁bench	19
▁investigating	19
▁improvements	19
lash	19
▁crews	19
▁intact	19
▁agrarian	19
ium	19
▁Canadians	19
▁admir	19
▁Afterwards	19
▁formats	19
▁Meena	19
▁artisans	19
▁Fourth	19
▁childbirth	19
▁triggers	19
▁elevations	19
▁Appeal	19
▁substitution	19
▁Mera	19
▁Draupadi	19
▁fence	19
▁manually	19
▁instruction	19
▁Sara	19
▁accompaniment	19
▁attackers	19
▁judged	19
▁Less	19
▁Haiti	19
▁ambassador	19
divided	19
▁deliberate	19
hn	19
▁decreases	19
▁Orleans	19
▁Well	19
▁procedures	19
▁machinery	19
▁Narada	19
▁repulsive	19
▁ascetic	19
▁pupil	19
▁satyagraha	19
▁Companies	19
deva	19
▁Stephen	19
▁Howard	19
▁Death	19
▁inaugurated	19
▁directorial	19
bu	19
▁monitor	19
▁Cemetery	19
▁nest	19
▁immigrants	19
▁Uruguay	19
▁sensation	19
▁decid	19
▁Columbus	19
▁guilds	19
▁discovers	19
▁Yuga	19
▁Mountains	19
▁mandate	19
▁marriages	19
▁democratic	19
▁softball	19
▁Ground	19
▁bout	19
▁Mala	19
▁Champion	19
▁Cor	19
▁gauge	19
▁fetus	19
▁suppressed	19
▁specialize	19
▁Koch	19
▁desired	19
▁Villa	19
▁Husayn	19
▁Gha	19
▁Ibrahim	19
ac	19
▁tracts	19
▁crust	19
▁altered	19
▁corneal	19
▁Mauryas	19
immune	19
▁Tennis	19
▁slavery	19
▁watches	19
▁blockbuster	19
▁diverge	19
▁Gumpha	19
▁remission	19
▁relapse	19
▁Bhadra	19
▁dispatched	19
▁rap	19
▁rectangular	19
▁Money	19
▁anchors	19
▁lend	19
▁Wait	19
▁latitude	19
ois	19
ela	19
▁Subhash	19
▁Ru	19
▁Khyal	19
▁basically	19
▁mistaken	19
▁Earl	19
ith	19
▁fortification	19
▁Legend	19
▁mile	19
▁Trade	19
oka	19
▁nam	19
▁circular	19
▁lightning	19
dia	19
▁disciplines	19
▁repeat	19
sjö	19
▁approaching	19
▁trainer	19
▁Kam	19
▁forgiveness	19
▁Television	19
▁processes	19
▁HA	19
▁frustration	19
▁Saka	19
▁Ladakhi	19
▁Angel	18
▁scanner	18
▁moist	18
▁insulin	18
▁Ilaiah	18
▁scorer	18
▁calculations	18
▁Confederation	18
▁promotional	18
▁Amer	18
▁resumed	18
▁mast	18
tro	18
▁dentin	18
▁Tapti	18
▁Marwar	18
▁initiatives	18
▁bladder	18
▁Hegde	18
▁STIs	18
▁sink	18
▁Kottayam	18
▁drained	18
▁Nuakhai	18
▁reporting	18
▁Hebrew	18
▁attest	18
▁safer	18
▁Dream	18
member	18
▁borough	18
▁Points	18
▁breakdown	18
▁Janeiro	18
▁dividend	18
lly	18
▁retino	18
▁compounds	18
▁ultrasound	18
▁Gund	18
▁obvious	18
▁Eight	18
▁wash	18
▁resolved	18
▁navigate	18
▁consume	18
▁Liber	18
▁anthology	18
▁intercourse	18
▁Meh	18
dale	18
▁Feluda	18
▁Kadamba	18
▁Bangkok	18
▁renovated	18
▁cysts	18
▁dependence	18
▁Preeti	18
▁Chha	18
▁Kunti	18
▁Norwegian	18
uk	18
due	18
▁Vira	18
▁denies	18
▁Bheem	18
▁shrubs	18
▁Customer	18
▁Junagadh	18
▁Kei	18
▁ap	18
▁spy	18
▁jam	18
▁formula	18
▁refusal	18
▁sympathetic	18
▁equation	18
▁AK	18
ans	18
▁listening	18
▁Katha	18
▁Cooper	18
▁dual	18
▁Samsung	18
▁Vir	18
▁technologies	18
▁Vaishnavite	18
▁Marriage	18
▁stunt	18
μ	18
▁ghats	18
▁observation	18
▁Bandhan	18
yar	18
▁bouts	18
▁limbs	18
bn	18
▁Cape	18
▁Graham	18
▁palsy	18
▁annexation	18
▁immigration	18
▁pillar	18
ṇ	18
▁dug	18
▁Taran	18
▁Cham	18
▁chaos	18
▁Solomon	18
▁Shahaji	18
▁columns	18
▁Protestant	18
▁rupees	18
▁Tosham	18
▁garbage	18
▁urgent	18
▁Salzburg	18
▁tertiary	18
▁Fish	18
tical	18
ganj	18
▁Gada	18
▁immense	18
released	18
▁momentum	18
▁cultivate	18
▁bikes	18
▁Creek	18
▁genome	18
hal	18
▁societies	18
▁abortion	18
▁evacuation	18
▁doctorate	18
▁mothers	18
▁Mecca	18
▁Priyan	18
▁shooter	18
▁ab	18
▁Manjunath	18
▁Guard	18
▁rust	18
▁acquire	18
amous	18
▁Topalov	18
▁Manager	18
▁Bat	18
▁cook	18
▁vacation	18
▁conclude	18
▁interpretation	18
▁tale	18
ow	18
▁lacking	18
▁unaware	18
yan	18
▁ethics	18
▁challenging	18
▁emblem	18
▁Chhota	18
Greeks	18
▁Trans	18
▁Milk	18
▁penis	18
▁Pil	18
▁Northwestern	18
▁Tower	18
sar	18
▁Animal	18
▁innovations	18
▁vein	18
▁trunk	18
▁landslide	18
▁complain	18
ward	18
▁Wyoming	18
▁Serbia	18
▁merchandise	18
▁cater	18
▁leap	18
▁Baa	18
▁Studio	18
▁skull	18
▁Guinea	18
▁duet	18
▁pronounced	18
▁rally	18
▁Mobile	18
▁mine	18
▁Gangtok	18
▁missionaries	18
▁mat	18
▁Diamond	18
▁commence	18
tant	18
▁coaching	18
▁Square	18
▁necessities	18
▁gradual	18
▁dividing	18
▁viewing	18
▁happily	18
vadi	18
▁warnings	18
▁construct	18
▁fur	18
▁Antony	18
▁twentie	18
▁supermarket	18
▁chant	18
▁pin	18
▁massacre	18
▁dramatic	18
▁impaired	18
▁Qatar	18
▁Penn	18
▁Ghor	18
ern	18
▁extract	18
▁Rush	18
▁Sena	18
▁Lag	18
▁playoffs	18
▁Simmba	18
▁teammates	18
▁Ghurid	18
▁judiciary	18
▁doll	18
▁communications	18
▁cameo	18
▁Vembanad	18
▁frown	18
▁warming	18
▁loyalty	18
▁broadcasting	18
▁releas	18
dding	18
▁Geneva	18
▁Marc	18
tified	18
▁diary	18
▁Murder	18
▁Asaf	18
▁abilities	18
▁desires	18
▁distribute	18
▁Forbes	18
gun	18
▁hate	18
▁consolidate	18
▁plent	18
▁teak	18
▁droughts	18
▁Raju	18
▁Kuki	18
▁coronavirus	18
▁Gaya	18
▁lifelong	18
▁Syed	18
▁Model	18
▁Oscars	18
▁monarchy	18
▁Robo	18
▁resignation	18
▁positioned	18
▁Rajpal	18
▁patch	18
▁sue	18
ery	18
▁Thrissur	18
▁Mini	18
▁slight	18
seven	18
▁Chot	18
▁liberation	18
▁Diego	18
▁Vasant	18
▁Raas	18
▁Brussels	18
▁cosmetics	18
▁Bruins	18
▁volcano	18
▁Action	18
▁Commod	18
▁zenith	18
▁trek	18
▁hyperthyroidism	18
▁monk	18
▁enforcement	18
▁dramas	18
▁Libya	18
▁similarly	18
▁uterus	18
▁Teresa	18
▁wheel	18
▁prizes	18
▁pulling	18
▁crease	18
▁categorized	18
▁charging	18
▁stool	18
▁confront	18
▁Elliott	18
▁varicose	18
▁retreated	18
kov	18
▁glaciers	18
▁cruel	18
▁highlands	18
▁edited	18
book	18
▁Period	18
range	18
▁Index	18
▁Kol	18
▁Camp	18
▁Kauravas	18
▁EU	18
▁CNN	18
▁discusse	18
▁outlined	18
▁Karpov	18
▁automat	18
▁achievement	18
▁Naushad	18
▁Celtic	18
▁privately	18
▁Whe	18
▁bind	18
▁spice	18
▁Nikita	18
bearing	18
breaking	18
gal	18
▁touches	18
▁detected	18
▁Lebanon	18
▁chemistry	18
Patient	18
▁contests	18
▁Rob	18
▁tunnel	18
▁vector	18
▁fulfill	18
▁convenience	18
▁cricketers	18
pre	18
▁ornaments	18
▁Present	18
▁Satraps	18
uta	18
▁Pur	18
▁labels	18
▁voices	18
▁fond	18
▁stupas	18
▁Rhea	18
▁Gul	18
▁Buy	18
▁Karthik	18
▁backwater	18
▁cruise	18
▁luxury	18
▁Flood	18
▁worker	18
▁Abraham	18
▁Jr	18
▁Gram	18
▁batch	18
▁loop	18
▁supporter	18
▁Forces	18
▁RAM	18
▁Qa	18
▁Tak	18
▁retire	18
▁Tax	18
▁Delaware	18
▁Drama	18
▁Garh	18
▁footwork	18
▁feeds	18
while	18
▁constituency	18
▁Culture	18
▁intestine	17
▁faiths	17
▁molecules	17
▁consult	17
▁Karishma	17
▁boarding	17
▁surplus	17
▁console	17
datory	17
▁stretching	17
▁marathon	17
▁Anne	17
▁travelers	17
▁Monument	17
winning	17
▁Low	17
▁Sanda	17
▁Gora	17
▁Chowk	17
▁habit	17
▁Naja	17
ila	17
▁Code	17
▁Reed	17
▁makers	17
▁Fred	17
▁emerg	17
▁Price	17
▁principle	17
▁couples	17
ista	17
▁federations	17
▁substitutes	17
€	17
▁Mandal	17
▁continent	17
ible	17
▁rivals	17
▁interrupted	17
▁welcome	17
▁benign	17
cle	17
▁underworld	17
▁freely	17
▁Saajan	17
▁bottles	17
▁responses	17
▁Roop	17
▁anesthesia	17
▁authentic	17
▁counsel	17
▁consistently	17
▁proven	17
▁eradicati	17
▁supervision	17
▁reli	17
▁Tawa	17
ura	17
ched	17
bal	17
▁fi	17
▁AFC	17
▁toss	17
▁Hungama	17
▁smartphone	17
▁Paksha	17
▁restart	17
▁discounted	17
▁Shi	17
▁trait	17
gue	17
American	17
▁entrepreneur	17
▁solstice	17
gate	17
▁hereditary	17
▁abolished	17
▁Algeria	17
▁killings	17
▁Nara	17
from	17
▁Allen	17
▁assignment	17
▁Boxing	17
aternal	17
mran	17
▁submission	17
▁Melas	17
▁Dakshina	17
▁Kulothunga	17
rohi	17
set	17
▁Bhavan	17
▁clash	17
▁Zanskar	17
bro	17
▁chapters	17
▁AIDS	17
▁Yet	17
▁fantasy	17
▁answers	17
TB	17
ub	17
▁pricing	17
▁logo	17
▁fortnight	17
▁Gary	17
▁quarterback	17
mateur	17
▁Angad	17
▁Geeta	17
▁abode	17
▁viewers	17
▁abdomen	17
▁Lloyd	17
▁mentor	17
▁ecoregion	17
appa	17
▁serials	17
kulam	17
▁Abhishek	17
▁contents	17
▁sheep	17
▁summary	17
▁Liga	17
▁ca	17
▁Previously	17
▁Wendy	17
▁Pir	17
rvi	17
▁garrison	17
▁regent	17
▁Kri	17
borg	17
▁supreme	17
▁intervals	17
▁Elephant	17
▁bay	17
ipah	17
pani	17
▁Golconda	17
▁hiking	17
▁ragams	17
▁garland	17
▁individually	17
▁bombing	17
▁Lotus	17
ess	17
IP	17
▁Chronicle	17
▁Cook	17
▁Gates	17
▁maker	17
▁twins	17
▁Luis	17
vara	17
iness	17
▁witnesses	17
▁trousers	17
▁wraps	17
▁Match	17
▁Batra	17
▁Guatemala	17
▁Por	17
▁compensation	17
▁palate	17
ua	17
▁Theseus	17
▁XI	17
▁Cardinal	17
▁immers	17
▁grief	17
▁Mall	17
ee	17
▁Tarun	17
▁Parks	17
▁Rann	17
▁Stone	17
▁aviation	17
▁absorption	17
▁goaltender	17
▁DC	17
▁electro	17
PS	17
▁faction	17
▁Rang	17
▁feeding	17
▁resign	17
▁disregard	17
▁Baraba	17
▁particle	17
▁pathogen	17
▁finishes	17
reserved	17
▁Py	17
▁bumps	17
J	17
▁prosperous	17
pitch	17
▁complained	17
▁Perumal	17
ichi	17
▁posterior	17
▁Hain	17
▁Rickettsia	17
Muslim	17
▁Jaso	17
▁sixty	17
▁Khel	17
▁rushed	17
▁Amaravati	17
fending	17
uberculosis	17
▁compulsory	17
noid	17
▁Nan	17
ette	17
▁Arora	17
▁Aurangabad	17
▁swara	17
sta	17
▁Lach	17
▁coldest	17
▁Anandpur	17
ut	17
▁Vista	17
▁cheque	17
▁Ghosh	17
▁adoption	17
▁Bhairav	17
▁Important	17
▁phrase	17
▁Irr	17
▁margin	17
▁retinopathy	17
▁prosecution	17
▁forehead	17
hiring	17
use	17
▁fiber	17
▁Chaitra	17
TV	17
▁frontier	17
▁antiquity	17
cia	17
▁Whit	17
▁Jerusalem	17
oriented	17
▁Spin	17
▁rupee	17
▁sued	17
▁searches	17
▁Bahu	17
▁Walk	17
▁explored	17
▁Jimm	17
▁perennial	17
▁Lai	17
▁footballer	17
▁Billu	17
▁administrators	17
▁intensity	17
▁provoked	17
▁expressive	17
▁Mesopotamia	17
▁drummer	17
yama	17
▁panels	17
▁Charter	17
▁motorway	17
▁efficacy	17
▁absolute	17
▁possess	17
▁automobile	17
▁Kor	17
▁amazing	17
▁miners	17
▁abstract	17
▁reunite	17
▁expertise	17
▁mint	17
▁Pu	17
▁relate	17
▁poured	17
▁Moon	17
▁nutrients	17
▁stature	17
▁ankle	17
TO	17
▁schooling	17
▁Vishal	17
▁leisure	17
▁carving	17
▁histamine	17
western	17
General	17
▁cheat	17
▁unions	17
▁augment	17
▁directing	17
▁Lang	17
▁Pierre	17
▁Virgin	17
▁skates	17
▁dresses	17
▁scurvy	17
▁bombings	17
▁purple	17
▁prais	17
▁narrated	17
▁dementia	17
▁Sanju	17
▁Kun	17
▁electronics	17
▁Insurance	17
▁Cas	17
Maratha	17
cell	17
gricultural	17
▁Airtel	17
▁trail	17
▁cellula	17
▁rage	17
lternately	17
▁Representative	17
▁detection	17
▁warranty	17
▁schizophrenia	17
▁gymnast	17
▁gap	17
▁Chen	17
▁Jah	17
▁Event	17
▁portrait	17
▁supplier	17
▁Oman	17
▁pig	17
▁consideration	17
▁bedroom	17
▁correction	17
▁Wilkins	17
lit	17
▁Azad	17
▁regiment	17
hia	17
▁sophisticated	17
▁placing	17
▁dividends	17
▁advising	17
▁teammate	17
▁photograph	17
▁mythical	17
▁scare	17
▁decreas	17
ida	17
ë	17
clusion	17
▁Os	17
▁Ed	17
▁flee	17
elfare	17
grade	17
▁nobility	17
▁collaboration	17
kha	17
hood	17
▁verdict	17
▁rash	17
▁Walmart	17
▁Girls	17
▁Total	17
▁Basant	17
▁Tiwari	17
▁Barbados	17
▁journalists	17
▁Universe	17
▁astonish	17
Great	17
▁flank	17
▁jazz	17
▁Fisher	17
▁excitement	17
▁recommendation	17
▁Jung	17
▁Areas	17
▁okay	17
▁emphasize	17
▁Brad	17
▁minimize	17
▁wrist	17
▁breeding	17
▁Shroff	17
▁Udupi	17
▁influx	17
wang	17
▁generat	17
▁objectives	17
▁Pun	17
▁Pathanamthitta	17
▁SD	17
Qaeda	17
▁Roth	17
col	17
▁watershed	17
▁Meeta	17
▁troupe	17
val	17
rez	17
▁Mili	17
ility	17
▁Yesterday	17
akshi	17
▁Phone	17
▁Pain	17
▁Saints	17
▁Mosque	17
▁Pamba	17
▁Namgyal	17
▁Risk	17
▁cooler	17
▁paralysis	17
▁Uppsala	17
▁journal	17
▁militants	17
▁rumours	17
▁pm	17
▁swing	17
▁snap	17
▁cannabis	17
box	17
▁dot	17
▁Mau	17
▁Read	17
▁MV	17
see	17
▁Hand	17
▁conditioning	17
▁encountered	17
▁Sel	17
▁unbeat	17
▁Justin	17
▁disappear	17
▁appendicitis	17
▁Ep	17
▁heated	17
ID	17
▁Petersburg	17
▁presid	17
▁overflow	17
▁NA	17
yoga	17
▁rocket	17
▁undert	17
▁Kshetra	17
▁Col	16
▁Morocco	16
▁penicillin	16
▁Batman	16
hail	16
▁fibre	16
▁warmer	16
▁treats	16
▁Nation	16
▁Ca	16
▁Thaipusam	16
▁engaging	16
ukhna	16
▁cinematography	16
▁DH	16
vati	16
▁Reagan	16
▁terrorists	16
▁j	16
bott	16
▁Siddha	16
▁productive	16
▁injection	16
▁virtue	16
▁Sahni	16
▁ceased	16
▁decisively	16
eolithic	16
▁cel	16
▁regulate	16
▁MG	16
▁Berg	16
▁photographer	16
▁Mei	16
▁iPad	16
▁Ring	16
▁shaking	16
▁shortened	16
▁Leader	16
tty	16
▁provision	16
▁decorati	16
▁Kashyap	16
▁relics	16
▁mutineers	16
▁Radhika	16
▁facts	16
▁wireless	16
▁bandish	16
▁proposals	16
▁Buxar	16
sport	16
▁damag	16
▁Salem	16
▁inconsistent	16
▁Matha	16
▁Yang	16
▁Jin	16
citing	16
▁Polynesia	16
▁Duniya	16
▁practic	16
▁cyclones	16
▁Mehra	16
▁Khandwa	16
▁fits	16
▁Domestic	16
▁experiments	16
▁Malhotra	16
▁fa	16
▁betray	16
▁Mith	16
▁Vicky	16
narayan	16
inder	16
▁missionar	16
alaxy	16
▁hypertension	16
▁physics	16
▁Fischer	16
▁Grammy	16
▁ascetics	16
▁Kshatriya	16
avi	16
▁hemorrhage	16
▁coupon	16
▁Zindagi	16
▁Dalarna	16
▁Associat	16
▁Dominica	16
▁essen	16
▁strive	16
presumed	16
▁cache	16
▁Vyasa	16
▁oar	16
written	16
▁Papanasa	16
▁courtyard	16
▁Safari	16
▁Add	16
▁breeds	16
ax	16
▁vibrant	16
▁sealed	16
▁ensu	16
▁imply	16
▁bio	16
▁texture	16
▁whistle	16
worth	16
▁Save	16
polar	16
▁Cleveland	16
▁liquor	16
▁Mun	16
gram	16
▁Nashville	16
▁poisoning	16
▁desperate	16
▁Flash	16
yogic	16
▁adequate	16
▁Had	16
▁grasslands	16
bank	16
▁visually	16
▁painter	16
▁Journal	16
▁Sham	16
▁landmark	16
▁topics	16
▁convicted	16
▁terminology	16
▁enzyme	16
▁anterior	16
▁dismissal	16
▁trend	16
▁editors	16
three	16
▁Khajuraho	16
▁macula	16
dar	16
▁perspective	16
▁Prevention	16
non	16
▁Female	16
six	16
▁Manish	16
▁Years	16
▁Ernakulam	16
ho	16
gad	16
▁Puli	16
kali	16
▁spotted	16
▁Ahilya	16
▁maid	16
▁culminat	16
▁brass	16
▁employers	16
▁Steel	16
▁Smart	16
▁organisms	16
▁Gandhara	16
▁folded	16
▁gastro	16
▁plumber	16
▁cleaner	16
sson	16
hen	16
Fitr	16
▁Kramnik	16
▁altogether	16
▁saddle	16
▁prisoner	16
▁conjuncti	16
pade	16
classical	16
▁Samoa	16
▁scrub	16
▁oath	16
office	16
▁prints	16
▁Glasgow	16
▁processor	16
▁Officials	16
▁UV	16
▁deliberately	16
▁Gods	16
▁interim	16
▁Gurjara	16
▁Micro	16
▁pitches	16
▁Pirates	16
ron	16
▁Sambalpur	16
▁Zurich	16
▁Wii	16
▁Suresh	16
▁borrowed	16
▁Directors	16
▁Alia	16
▁Digambar	16
▁separat	16
▁clearance	16
▁locked	16
ick	16
▁calculator	16
▁civi	16
▁compose	16
▁developer	16
▁cal	16
▁intention	16
▁coordination	16
▁comfort	16
▁parasites	16
▁arch	16
▁cargo	16
▁traits	16
▁packages	16
▁subdivision	16
▁antibiotic	16
▁boycott	16
▁unofficial	16
▁awake	16
▁Industry	16
▁indirect	16
▁Sikri	16
▁advent	16
▁confident	16
▁policeman	16
▁Deepika	16
▁Infosys	16
▁saliva	16
▁workplace	16
▁Nani	16
▁Vikas	16
▁brilliant	16
▁trochlea	16
▁Riya	16
▁Yale	16
ker	16
▁Shivani	16
▁Vellore	16
▁artefacts	16
▁paddy	16
▁lavish	16
▁breastfeeding	16
▁Sylhet	16
▁manifest	16
ify	16
▁harmony	16
mus	16
▁alpine	16
▁algorithm	16
▁Bulgaria	16
▁researched	16
stad	16
▁occupy	16
▁Westminster	16
▁allegations	16
▁Bin	16
▁Gr	16
ius	16
▁honours	16
Muslims	16
▁attendees	16
▁outcomes	16
ap	16
▁stadiums	16
▁Yorkshire	16
▁Ragam	16
▁Tanam	16
▁incision	16
▁emotionally	16
▁corpse	16
▁Mere	16
▁commissions	16
rin	16
▁Globe	16
utham	16
▁Maharaj	16
▁Library	16
▁Tea	16
▁exhausted	16
▁Sala	16
upaka	16
▁continuously	16
▁funny	16
▁Budapest	16
▁Pool	16
ake	16
▁contaminated	16
▁reject	16
ell	16
▁steam	16
▁plundered	16
heim	16
▁reader	16
▁Wide	16
▁Jazeera	16
enormous	16
match	16
▁saris	16
▁Carlsen	16
▁Tal	16
▁cleanliness	16
ls	16
▁Den	16
▁impacts	16
▁relaxed	16
▁toilets	16
▁clearing	16
▁Fan	16
▁charts	16
▁Devgn	16
▁subdivisions	16
▁toxicity	16
▁motive	16
▁permanently	16
▁wheelchair	16
dari	16
▁apparent	16
▁equality	16
▁Select	16
▁Vivek	16
▁bullet	16
▁Russians	16
▁Oil	16
▁Minor	16
▁Bart	16
white	16
▁ATP	16
▁Judi	16
▁NDTV	16
▁Dham	16
▁targets	16
▁sperm	16
▁Napoleon	16
bir	16
▁alluvial	16
▁Knight	16
▁Canberra	16
iosphere	16
▁risen	16
hr	16
▁recipes	16
▁mechanisms	16
▁afterward	16
▁Fairfield	16
▁Acharya	16
▁Za	16
▁acceptance	16
▁Cambodia	16
▁Mumtaz	16
▁Bhagavata	16
▁closure	16
▁shortage	16
▁Dehradun	16
▁Hey	16
▁coronation	16
▁committ	16
▁meningitis	16
▁Stupa	16
▁Samrat	16
▁Gil	16
tier	16
▁insufficient	16
▁manipulate	16
▁deceased	16
▁decimal	16
▁exhibits	16
FC	16
hanam	16
tur	16
playing	16
▁violation	16
▁Reservoir	16
▁curriculum	16
▁Tun	16
▁Chin	16
▁Unfortunately	16
▁Penang	16
▁curl	16
▁potato	16
▁repertoire	16
rushes	16
▁debit	16
▁planes	16
▁Siraj	16
▁Patanjali	16
▁garment	16
▁Bazar	16
▁math	16
▁Works	16
lan	16
▁Kir	16
▁Thu	16
rani	16
▁Chang	16
▁assignments	16
▁delicacies	16
▁hip	16
▁spectator	16
▁sins	16
▁Aamir	16
▁northward	16
▁interval	16
ten	16
▁glacier	16
▁Heart	16
▁Data	16
▁Mountbatten	16
▁Seth	16
▁Birla	16
▁worshiped	16
â€”	16
▁initiate	16
▁bells	16
fall	16
▁sermon	16
fors	16
▁credits	16
▁Lithuania	16
ú	16
▁commercials	16
▁Horn	16
▁cabin	16
▁popularis	16
anda	16
▁counterparts	16
▁Golf	16
▁Chet	16
▁Ajanta	16
▁Instagram	16
▁Kanchi	16
▁Chevrolet	16
▁Chor	16
▁Bhojpuri	16
▁premises	16
▁Srivijaya	16
▁Fund	16
▁lockdown	16
dham	16
▁Colonel	16
▁sentences	16
▁Bada	16
▁prospect	15
row	15
economic	15
▁hemoglobin	15
▁Cultur	15
▁encyclopedia	15
▁neo	15
tonic	15
fa	15
▁gentle	15
▁cinemas	15
form	15
professional	15
including	15
▁Depression	15
who	15
▁storyline	15
hatha	15
▁equity	15
erhaps	15
▁biological	15
▁bliss	15
▁Phelps	15
▁audit	15
▁Gra	15
▁Ashwin	15
▁confronted	15
▁repelle	15
▁Walter	15
▁Bil	15
▁Steven	15
▁saline	15
▁despair	15
▁Candidates	15
▁conjunctivitis	15
▁lowered	15
▁wages	15
▁Turks	15
▁addresses	15
▁disagreement	15
▁apartments	15
▁Nus	15
▁Cathedral	15
▁Zoya	15
▁Anurag	15
rey	15
▁neuron	15
▁Ambani	15
▁decent	15
▁museums	15
which	15
rom	15
▁bra	15
▁Virat	15
chan	15
▁spasms	15
▁acquisition	15
iv	15
▁Gers	15
▁Lepcha	15
▁captive	15
▁Kumaar	15
▁Tehran	15
▁mudslides	15
aikal	15
▁lawyers	15
▁Wayanad	15
▁Baira	15
▁certification	15
▁exquisite	15
▁Arrondissement	15
▁thoroughly	15
▁contributor	15
▁mathematics	15
▁twist	15
▁Yuezhi	15
▁Baro	15
▁Shimla	15
▁anime	15
▁possessions	15
▁anticipate	15
mile	15
▁knocked	15
▁shadow	15
▁Elsewhere	15
▁modification	15
▁essays	15
▁counseling	15
▁conferences	15
▁tiles	15
▁ratings	15
▁Greco	15
▁visitor	15
ography	15
▁talented	15
▁Ber	15
▁comprehensive	15
▁supernatural	15
▁statehood	15
▁springs	15
▁periodic	15
▁Kung	15
▁Yudhishthira	15
▁boast	15
▁renewed	15
deo	15
▁Yi	15
af	15
▁buys	15
▁darker	15
▁Romeo	15
▁advise	15
▁subtypes	15
▁disturbed	15
▁Ash	15
after	15
▁adventures	15
▁Kanh	15
▁discussions	15
urna	15
▁confesse	15
▁therapist	15
▁convenient	15
▁Walt	15
▁ADHD	15
▁blockers	15
▁goons	15
▁floors	15
▁le	15
▁duel	15
▁foundations	15
▁Dick	15
PA	15
▁lane	15
▁Holiday	15
▁ultimate	15
▁Vel	15
▁Hiran	15
▁GSDP	15
▁Sting	15
▁Siege	15
▁Brand	15
October	15
▁vandalism	15
▁wonderful	15
▁Ayan	15
▁warrant	15
▁penetrat	15
▁mace	15
gu	15
▁enraged	15
▁retailer	15
▁accelerat	15
▁Mou	15
link	15
▁talked	15
▁terror	15
▁Lyric	15
▁Rohan	15
▁mutation	15
▁kilometre	15
▁prominently	15
▁Wright	15
▁cables	15
▁picking	15
▁Jalandhar	15
▁Seringapatam	15
let	15
▁hydrogen	15
eligious	15
▁Lunch	15
▁Nigam	15
▁Tanjore	15
▁repetitive	15
▁preach	15
▁groin	15
▁Building	15
▁dengue	15
▁interviewed	15
▁torrent	15
▁accolades	15
▁communist	15
▁upgraded	15
▁stressed	15
▁wield	15
▁Track	15
▁jaggery	15
▁et	15
laying	15
graduate	15
▁Sangh	15
▁Wall	15
▁manifestation	15
▁profitable	15
▁Gauhar	15
▁vacuum	15
▁eager	15
▁NS	15
▁Production	15
▁retina	15
▁Bhagavad	15
▁dedication	15
▁harmful	15
my	15
pada	15
▁tires	15
▁dynamic	15
▁Contemporar	15
▁petrol	15
ota	15
neath	15
▁Prakrit	15
▁typhus	15
▁Iqbal	15
hypersensitivity	15
▁curious	15
▁treatise	15
terstate	15
▁freed	15
▁Miri	15
▁Brett	15
OT	15
▁Roshan	15
▁tit	15
rama	15
▁Palak	15
▁Shraddha	15
▁Boo	15
▁Dar	15
▁Med	15
▁Dha	15
▁Sali	15
▁livelihood	15
▁Oberoi	15
▁Yugoslavia	15
▁consent	15
▁deck	15
▁Badminton	15
▁maximize	15
▁drift	15
▁Basadi	15
ough	15
▁surveillance	15
▁Friends	15
▁symptomatic	15
▁likelihood	15
▁Madhubala	15
▁smiling	15
▁Millennium	15
▁enlarged	15
▁Dayanand	15
especially	15
▁Kut	15
▁Minicoy	15
▁Visit	15
active	15
▁barber	15
▁breakthrough	15
▁gatherings	15
▁cannons	15
▁Larry	15
▁hydroelectric	15
▁swimmer	15
▁airlines	15
▁Dilli	15
▁dimensions	15
▁convincing	15
▁stabb	15
ige	15
final	15
▁Aizawl	15
wards	15
▁phases	15
▁spill	15
▁Lund	15
▁Terry	15
▁Susan	15
▁CNS	15
▁Volleyball	15
umerous	15
▁retiring	15
▁explosions	15
▁resistant	15
▁affection	15
▁bribes	15
▁presenter	15
▁bowlers	15
▁Too	15
▁cooperation	15
▁Bhardwaj	15
▁inventor	15
▁consequent	15
▁jet	15
▁Baby	15
▁exot	15
ý	15
▁Devas	15
▁Waterfall	15
wicket	15
ena	15
▁helmets	15
▁extensions	15
▁captaincy	15
▁recaptured	15
▁scripture	15
▁Nayak	15
▁sorted	15
▁Inner	15
▁Flag	15
▁Advani	15
monsoon	15
▁Environment	15
▁surroundings	15
▁mature	15
▁halted	15
▁prophet	15
▁signature	15
▁Pear	15
CoV	15
▁shapes	15
▁oneself	15
▁firearms	15
ional	15
▁definitive	15
▁marijuana	15
▁disgusted	15
▁averages	15
▁Ultimate	15
▁corn	15
ane	15
▁hanged	15
▁ra	15
▁originate	15
▁til	15
▁Left	15
▁Suddenly	15
▁disobedience	15
▁Monuments	15
▁Gandharva	15
▁Wonder	15
▁Ottawa	15
▁advocate	15
▁token	15
▁expelled	15
▁printer	15
▁commemoration	15
MA	15
▁questionnaire	15
▁Examination	15
▁Vamana	15
▁ensured	15
▁presidency	15
ups	15
▁Montana	15
▁Plymouth	15
ardent	15
▁greet	15
▁Mangeshkar	15
▁Beyon	15
▁Laxman	15
▁improvised	15
▁Typical	15
▁dispos	15
▁hoist	15
▁der	15
▁Tapi	15
▁Personal	15
▁designation	15
▁lip	15
maker	15
▁makeup	15
ž	15
▁aftermath	15
▁Anu	15
▁observ	15
▁excellence	15
▁Kanyakumari	15
▁extraction	15
▁baker	15
▁tips	15
▁Perth	15
▁nuclei	15
▁Aibak	15
▁Travel	15
ret	15
▁neglect	15
▁recitation	15
▁Sector	15
ř	15
▁Table	15
▁Kang	15
▁celebrities	15
▁Badshah	15
▁larvae	15
▁Glacier	15
▁Eve	15
▁athletic	15
▁controversies	15
▁cancellation	15
cum	15
▁Hola	15
▁invitation	15
▁spare	15
▁Qila	15
▁electora	15
anmohan	15
▁supplements	15
▁Socialist	15
▁expenditures	15
▁marrying	15
lived	15
▁descriptions	15
▁seventy	15
▁productions	15
▁Pana	15
▁Daud	15
▁Single	15
▁surge	15
April	15
isha	15
▁Side	15
▁antique	15
▁ordinance	15
▁authoriz	15
▁Shastri	15
▁leprosy	15
chandra	15
▁timber	15
▁Sarika	15
ington	15
▁Brahman	15
▁saffron	15
▁Watson	15
▁Bosnia	15
▁Sanchi	15
▁Lightning	15
▁Kund	15
▁pleaded	15
▁Jon	15
▁pyre	15
▁kho	15
▁mimic	15
▁Petr	15
▁Hungarian	15
▁congregation	15
▁Homer	15
▁Rules	15
NGC	15
▁barr	15
▁Tirumala	15
▁guided	15
▁render	15
▁Baghdad	15
▁Istanbul	15
▁innocent	15
▁hepatitis	15
▁Darwin	15
▁Parker	15
▁dye	15
▁insist	15
▁Narayana	15
▁Michel	15
▁committees	15
▁forecast	15
▁institutes	15
▁Cycle	15
▁Divya	15
▁barrage	15
▁Frankfurt	15
mo	15
▁cardamom	15
▁emails	15
▁Kashi	15
▁marsh	15
▁Bhat	15
▁Yon	15
▁Gan	15
▁exchanges	15
▁heroin	15
▁grad	15
▁mourning	15
▁Jur	15
religious	15
▁basket	15
op	15
▁poles	15
▁tours	15
▁Nayaka	15
▁Aires	15
ø	15
▁murders	15
▁Warner	15
▁Behar	15
▁planting	15
▁gunshot	15
shire	15
▁Parish	15
▁Madhur	15
glia	15
▁thy	15
▁disabilities	15
dam	15
▁Ayush	15
▁managers	15
▁chieftains	15
▁Coo	15
inch	15
lifting	15
▁Bhavani	15
▁relie	15
▁protocol	15
▁compassion	15
▁log	15
▁kid	15
▁breakfast	15
▁Ant	15
▁sicken	15
rant	15
▁Sreedharan	15
▁FA	15
ḍ	15
scope	15
anga	15
▁abduct	15
▁Siri	15
▁rectum	15
▁LLB	15
arach	15
▁Bhitar	15
anika	15
▁cyber	15
▁Competition	15
bounded	15
▁Kath	15
▁Amber	15
▁Jasper	15
▁sanctum	15
uga	15
▁progression	15
▁pooja	15
▁Electora	15
▁Vikramjeet	15
▁stack	15
▁Khamba	15
▁Simha	15
mmediately	15
▁trucks	15
week	15
eal	15
▁Tomar	15
▁Greenville	15
▁cheese	15
sena	15
onsequently	15
▁sero	15
▁Shaikh	15
▁simpler	15
▁picks	14
▁publishe	14
▁exclusive	14
▁Rain	14
▁Monaco	14
▁inexpensive	14
▁proceedings	14
▁Pushkar	14
evotees	14
▁kung	14
▁scratch	14
▁deposited	14
▁Nadi	14
▁preservation	14
▁Safety	14
▁bhakti	14
▁inject	14
▁Seleucid	14
▁Shree	14
▁Vidya	14
▁Koreans	14
▁Grey	14
▁Sons	14
▁determin	14
▁estates	14
raja	14
▁Maravarman	14
ib	14
▁Moksha	14
▁epitheli	14
▁rook	14
▁wrapping	14
▁pastime	14
▁cluster	14
Mongol	14
▁appreciation	14
▁frogs	14
aw	14
▁Create	14
▁cafe	14
▁tornado	14
▁Nasir	14
▁Communications	14
▁Nargis	14
▁Karla	14
▁loving	14
▁manuscript	14
name	14
▁Syphili	14
▁assumption	14
▁literal	14
fficiency	14
▁virtues	14
▁Waterfalls	14
▁renovation	14
▁Govind	14
▁Solar	14
▁Plus	14
wing	14
▁diving	14
▁punk	14
▁Pav	14
▁forc	14
▁showcase	14
controlled	14
▁memories	14
▁Mahipala	14
▁Montgomery	14
▁newest	14
▁pants	14
▁academy	14
▁commitment	14
▁asleep	14
▁Dover	14
face	14
▁freedoms	14
▁Fly	14
▁noticeable	14
eja	14
▁stronghold	14
▁Pitru	14
▁participant	14
▁mor	14
ix	14
▁fairs	14
▁sponsors	14
▁fears	14
▁garner	14
▁openings	14
▁Leonard	14
▁commissioner	14
▁hostage	14
▁integrity	14
Pakistan	14
▁slay	14
yang	14
▁Baer	14
▁aunt	14
▁Except	14
▁processed	14
▁brakes	14
U	14
▁broadcasts	14
▁Madho	14
▁Authorities	14
▁fatalities	14
are	14
▁crying	14
▁Alwar	14
▁Ven	14
▁outline	14
▁Rashtra	14
▁Jam	14
great	14
▁oval	14
▁Warsaw	14
independence	14
▁extinction	14
▁Oliver	14
▁Sada	14
▁Banda	14
▁Khalsa	14
▁FDA	14
▁livestock	14
▁pets	14
▁Springs	14
▁recognizable	14
▁traveller	14
▁teenagers	14
▁slope	14
▁antihistamines	14
solution	14
▁towers	14
▁senses	14
▁Charlotte	14
▁dragon	14
▁vendor	14
▁Emma	14
▁Sati	14
▁intend	14
▁declare	14
▁permits	14
▁luggage	14
▁Primar	14
Q	14
▁correspondence	14
▁Bros	14
▁hover	14
▁generic	14
▁impairments	14
▁commenced	14
▁looted	14
East	14
▁Portland	14
▁hormones	14
▁axe	14
▁Patal	14
▁elbows	14
▁companions	14
▁Corbusier	14
▁Jane	14
▁Nearby	14
▁intermittent	14
▁Nine	14
amine	14
▁Malini	14
hop	14
▁Kirk	14
▁enabled	14
▁Catalonia	14
▁Hunter	14
▁Kadambas	14
▁acknowledge	14
▁neur	14
▁hydro	14
▁limb	14
▁throwball	14
▁Jalal	14
▁liberal	14
otten	14
▁metabolism	14
▁eras	14
▁Dari	14
▁ESPN	14
▁closes	14
our	14
▁speculated	14
▁Gar	14
▁commands	14
▁Vega	14
gs	14
yr	14
not	14
▁locate	14
▁tragedy	14
tta	14
▁metric	14
▁Snow	14
▁realm	14
▁tales	14
▁Archery	14
▁nineteen	14
▁aegypti	14
▁transmit	14
▁MS	14
▁Grover	14
▁Amrita	14
▁Siddharth	14
▁publish	14
sey	14
aq	14
ero	14
▁choreographer	14
▁Paleolithic	14
▁Construction	14
▁sprinkle	14
▁recurrence	14
▁Resident	14
resistant	14
devi	14
▁shortages	14
▁Edicts	14
▁Sukhi	14
▁Baroda	14
▁Cups	14
hoose	14
▁oppose	14
▁Drive	14
▁glasses	14
ates	14
about	14
built	14
▁INC	14
▁recharge	14
▁Craig	14
▁earthquakes	14
▁damm	14
▁Taipei	14
▁Pack	14
▁chooses	14
▁boxes	14
▁psychiatr	14
writer	14
ternal	14
ionizing	14
▁Pondicherry	14
▁electorate	14
▁assured	14
▁Masters	14
▁harbour	14
fi	14
Series	14
▁cosm	14
▁Princes	14
▁Jhum	14
▁seizures	14
▁Gate	14
▁plaster	14
▁oars	14
▁pale	14
=	14
▁photographs	14
▁baked	14
▁cakes	14
▁teaches	14
▁Kurash	14
▁disciples	14
▁BBB	14
▁chin	14
▁Calendar	14
lean	14
▁AM	14
▁Client	14
▁relax	14
▁Muazzam	14
▁trapped	14
▁Jay	14
▁Julian	14
▁Guardian	14
▁snacks	14
▁lipid	14
March	14
▁turmeric	14
▁Subhas	14
▁jumps	14
▁illustrat	14
▁glaucoma	14
▁struggled	14
▁Sch	14
▁Feroz	14
stop	14
▁Shore	14
wn	14
▁endure	14
▁forgotten	14
▁coordinate	14
▁legitimate	14
profile	14
▁Efforts	14
▁Vayu	14
▁eleventh	14
▁pairing	14
▁slide	14
▁Rico	14
hari	14
productive	14
▁resemble	14
·	14
▁Ramesh	14
West	14
▁authenticity	14
▁Sastri	14
▁genotype	14
▁postage	14
▁Ceylon	14
▁rubb	14
▁therapies	14
▁Germans	14
▁survivors	14
▁tolerance	14
▁streaming	14
▁improves	14
▁abnormalities	14
▁Advaita	14
▁Gajapati	14
▁chocolate	14
▁overthrow	14
coated	14
▁cuisines	14
▁reverence	14
▁palanquin	14
▁oblique	14
▁orbit	14
▁Fat	14
▁referendum	14
gh	14
▁Dennis	14
▁upgrade	14
▁Fi	14
▁carbonate	14
▁adolescents	14
▁mason	14
▁bloom	14
June	14
▁deadline	14
▁disqualified	14
▁RAID	14
▁cooperatives	14
▁Ahmednagar	14
▁Colts	14
▁vertical	14
▁urina	14
Day	14
▁specify	14
▁intent	14
rai	14
▁Wang	14
▁Jet	14
▁batters	14
▁Zo	14
▁Hasan	14
▁Nisha	14
▁wax	14
▁codifi	14
▁practitioners	14
iest	14
▁Avenue	14
▁Oscar	14
▁unmarried	14
▁Iyer	14
▁Ranga	14
▁Hare	14
▁Directorate	14
▁gram	14
▁Braj	14
▁Runn	14
▁gur	14
▁analyze	14
▁Karma	14
▁violin	14
▁currencies	14
enburg	14
▁Venice	14
fort	14
trick	14
voluntary	14
▁arid	14
▁arriv	14
▁Chad	14
▁Beatles	14
▁transgender	14
lai	14
▁Dhar	14
▁boot	14
▁Student	14
▁Eden	14
▁servants	14
▁ovari	14
▁dolls	14
▁outlet	14
▁Chatur	14
▁courage	14
▁Xbox	14
▁Sochi	14
▁Vrinda	14
▁reclaim	14
▁crude	14
▁Andrea	14
room	14
▁Writing	14
paid	14
▁heavier	14
▁Lyon	14
▁slam	14
had	14
▁Eye	14
sara	14
▁mobility	14
▁mock	14
▁receipts	14
▁degradation	14
▁racket	14
▁evolve	14
▁Atari	14
second	14
▁Civilisation	14
▁exercising	14
wei	14
▁measuring	14
▁distracted	14
▁Turco	14
▁perception	14
▁overspend	14
▁pa	14
▁inhal	14
▁Norton	14
purpose	14
▁surgeries	14
▁ensur	14
▁keen	14
▁Phalke	14
▁bagg	14
mani	14
▁worshipp	14
vari	14
▁entity	14
lain	14
▁barley	14
▁Jud	14
▁niece	14
▁landfall	14
▁Mas	14
ering	14
▁hu	14
▁angered	14
▁pledg	14
▁tab	14
posed	14
lin	14
▁Kon	14
ij	14
▁contacts	14
▁headgear	14
▁treasury	14
▁operators	14
wind	14
▁responding	14
▁chili	14
▁Divas	14
▁imagined	14
▁departure	14
▁Sharif	14
▁Byzanti	14
hard	14
▁Athletics	14
▁indication	14
▁exports	14
▁Yes	14
▁enthusiasm	14
▁nicknamed	14
▁customar	14
▁pathway	14
▁eventual	14
▁peso	14
▁Gulab	14
▁Mariners	14
▁Panipat	14
▁mask	14
▁enclosed	14
▁fe	14
▁Chak	14
▁Bhattacharya	14
▁deposition	14
â	14
▁guitarist	14
▁unsure	14
▁Commerce	14
nai	14
▁Sig	14
▁Child	14
▁remov	14
uru	14
lecommunications	14
▁sultan	14
▁Tirupati	14
enberg	14
▁basement	14
▁unexpectedly	14
iye	14
▁coastline	14
▁Pallavi	14
▁evolving	14
▁column	14
▁Sai	14
▁profits	14
▁Cat	14
don	14
▁GNU	14
▁transplant	14
▁Taking	14
▁scen	14
ovi	14
▁resided	14
▁Baltistan	14
▁Broadcasting	14
▁Kumbakonam	14
No	14
▁cured	14
▁Dussehra	14
▁dominions	14
▁Murthy	14
nar	14
finity	14
▁Ruth	14
▁Universal	14
▁Mach	14
▁Rapid	14
▁Mao	14
▁Buen	14
▁Future	14
▁regionally	14
mates	14
Pakistani	14
▁vascular	14
▁Ger	14
▁loot	14
▁Saxony	14
▁nude	14
▁Arnold	14
▁needle	14
▁leak	14
▁calcium	14
▁exams	14
▁Jiv	14
▁crest	14
▁danda	14
▁modifications	14
▁Roberts	14
▁Reports	14
▁BASIC	14
▁creativity	14
▁Maa	14
▁constituencies	14
▁forbidden	14
▁pots	14
▁servant	14
▁copied	14
▁Systems	14
▁Karuna	14
▁unstable	14
▁Brooklyn	14
▁Russell	14
▁emergenc	14
▁Ajatashatru	14
▁clouds	14
▁Chakma	14
▁provisions	14
fifth	14
▁Luv	14
▁Pink	14
▁inadequate	14
▁proto	14
▁Jacob	14
▁anchor	14
▁Oslo	14
▁mari	14
type	14
Ehsaan	14
▁dining	14
▁Sree	14
▁scales	14
▁Vibhushan	14
É	14
▁curse	14
▁Monte	14
▁Case	14
▁orientation	14
▁tomb	14
▁Hughes	14
around	14
▁backward	14
▁anticipated	14
▁Dabhade	14
▁mercy	14
▁corresponds	14
par	14
▁behave	14
▁ascension	14
▁dioxide	14
▁Design	14
▁correctly	14
▁taluka	14
first	14
▁Geographic	14
▁Hariharan	14
ator	13
▁Nim	13
life	13
▁Sansar	13
▁Delivery	13
▁peri	13
ated	13
▁subcategories	13
▁Billiards	13
▁warns	13
▁karma	13
▁Macedonian	13
nch	13
▁corticosteroids	13
utonomous	13
▁canceled	13
▁notification	13
kai	13
▁garlands	13
▁treaties	13
▁inviting	13
▁freshly	13
▁Hoysala	13
▁sustainable	13
▁Dead	13
▁foam	13
▁Bigg	13
▁Run	13
▁examinations	13
▁Zaman	13
▁gig	13
▁justify	13
▁forcibl	13
dharma	13
▁obstacles	13
Daula	13
▁boom	13
▁Agatti	13
▁differs	13
▁thou	13
▁crocodiles	13
▁neglected	13
▁Tetanus	13
▁Juan	13
▁evacuate	13
leading	13
▁Cancer	13
▁Vivaan	13
▁endurance	13
▁circulated	13
dy	13
▁admiration	13
▁ornamental	13
▁vocalist	13
▁scenario	13
▁MRF	13
▁punt	13
▁biography	13
▁annoying	13
ld	13
▁Cole	13
▁Gauda	13
▁paragraph	13
▁Conservative	13
▁Judaism	13
▁fisheries	13
▁bachelor	13
▁criteria	13
▁defeats	13
▁Koimoi	13
▁Duke	13
▁sibling	13
▁clinic	13
▁Avoid	13
▁settl	13
▁climbs	13
zhi	13
▁attributes	13
▁Til	13
▁vs	13
sco	13
▁solving	13
▁posthumously	13
answered	13
▁solemn	13
▁unity	13
▁alarm	13
▁appalling	13
▁bounce	13
▁Ranvir	13
▁Enter	13
▁eliminat	13
gina	13
▁Kharavela	13
▁rebellions	13
hole	13
TA	13
▁locker	13
▁Medicine	13
▁Mahl	13
brother	13
defense	13
▁lawsuits	13
▁compact	13
uf	13
▁seeker	13
▁icons	13
▁Sometime	13
▁Ila	13
▁Drug	13
▁hilltop	13
▁Osaka	13
tti	13
▁perceived	13
▁nurse	13
▁Belle	13
▁ecsta	13
▁Santosh	13
▁prolif	13
▁outrage	13
vidence	13
▁Folkard	13
▁Bath	13
▁Harris	13
▁Hamid	13
ologist	13
▁fraction	13
▁exaggerated	13
▁sensory	13
▁Trivandrum	13
▁tense	13
▁stimulate	13
▁warehouse	13
▁undefeated	13
▁suits	13
discretionary	13
▁Hema	13
priced	13
▁peasants	13
▁impose	13
▁weddings	13
▁thesis	13
▁morality	13
▁Canadiens	13
▁Aarya	13
▁Mongolia	13
▁Sandhu	13
▁Alexandria	13
▁linguistic	13
▁installation	13
▁tortured	13
▁entries	13
▁crater	13
▁overwhelming	13
▁monopol	13
mandir	13
▁Chap	13
▁spreadsheet	13
cis	13
▁Mahada	13
uke	13
▁Training	13
▁statu	13
▁Staff	13
▁adjustment	13
▁Muni	13
▁allocated	13
▁personalities	13
▁Guild	13
▁milestone	13
▁highlighted	13
▁Dubey	13
▁walks	13
iocese	13
▁Motors	13
Ã	13
mela	13
gas	13
▁Auckland	13
▁harass	13
car	13
▁Independent	13
▁deadly	13
▁Assistant	13
▁Valencia	13
▁Nowadays	13
▁unpleasant	13
▁accumulate	13
▁Say	13
▁interfere	13
wall	13
aja	13
▁missions	13
▁atrocities	13
▁Was	13
▁Lisa	13
▁Lucas	13
▁Aberdeen	13
▁Ugr	13
▁Iceland	13
list	13
▁transaction	13
cus	13
CP	13
space	13
▁taller	13
▁antivir	13
▁superhero	13
rad	13
▁multiply	13
▁generalized	13
des	13
▁Harper	13
Z	13
▁brothel	13
▁miscarriage	13
▁Fu	13
sia	13
▁pad	13
▁conspiracy	13
▁Santiago	13
▁Ankur	13
▁turbulen	13
▁spin	13
▁spokeswoman	13
▁robo	13
aria	13
Traffic	13
▁midfield	13
▁playground	13
▁wings	13
▁Carroll	13
▁nursing	13
▁talas	13
▁hinder	13
▁asymptomatic	13
▁Nalanda	13
▁Nainital	13
▁Country	13
▁mu	13
▁intermedia	13
▁Herald	13
▁drowned	13
▁chieftain	13
▁diarrhea	13
▁Benedict	13
▁campers	13
aro	13
ě	13
▁accountants	13
▁presidents	13
▁Sales	13
sis	13
unt	13
▁sings	13
▁kritis	13
colleg	13
▁orthodox	13
▁respects	13
▁Thanksgiving	13
induced	13
▁Nepalese	13
▁finalised	13
▁grasses	13
▁maize	13
▁programmer	13
▁kidnap	13
▁bows	13
▁pirates	13
▁attendants	13
▁routinely	13
▁Nat	13
▁Armenian	13
thological	13
▁consumers	13
▁Kum	13
▁Ya	13
▁policemen	13
▁counselor	13
ino	13
▁Jaisalmer	13
▁Tele	13
▁swamp	13
▁epithelium	13
▁millimetres	13
▁yields	13
▁Rogers	13
usually	13
▁astronomical	13
▁microscope	13
▁dice	13
▁Credit	13
▁Belgaum	13
▁marrow	13
▁Gallery	13
▁Arch	13
▁Rajagopalachari	13
▁peacefully	13
▁observance	13
▁whip	13
numer	13
tics	13
ade	13
▁Indianapolis	13
rebro	13
▁feat	13
▁inspection	13
▁permit	13
▁Vaga	13
nese	13
▁Pathan	13
▁Jyothi	13
tax	13
▁attacker	13
▁Malayali	13
▁consolidation	13
▁Wi	13
▁fo	13
▁Rica	13
zen	13
▁wished	13
aki	13
▁exit	13
▁Kuwait	13
▁dropping	13
▁intersection	13
aina	13
▁notorious	13
▁scarce	13
▁renew	13
▁nationally	13
fully	13
▁helicopters	13
▁connectivity	13
▁mysterious	13
▁unacceptable	13
stone	13
▁killer	13
▁advancing	13
▁Ragini	13
▁supplement	13
▁Paschal	13
ocytes	13
▁Performance	13
▁Mega	13
▁Pancholi	13
▁consultation	13
▁collision	13
jathi	13
▁alter	13
▁checkout	13
▁statistical	13
Miaow	13
▁Point	13
▁Chatterjee	13
▁Yaksha	13
ivity	13
▁qualit	13
▁knives	13
trade	13
abi	13
▁apology	13
▁Judge	13
▁volcan	13
▁genital	13
med	13
etary	13
▁Satyagraha	13
▁hassle	13
▁redirect	13
▁NBA	13
▁ATM	13
▁modes	13
▁inheritance	13
▁Link	13
▁upwards	13
▁Civilization	13
▁viz	13
▁Dixit	13
▁transcription	13
▁restrain	13
▁Lahiri	13
intensive	13
▁obesity	13
unny	13
▁Surgery	13
▁fibers	13
▁ancestr	13
▁Feature	13
▁immortality	13
▁Gir	13
CT	13
▁abolish	13
▁lining	13
▁tackling	13
▁unfortunate	13
▁modelling	13
▁pitcher	13
▁lian	13
▁Honda	13
dden	13
▁kit	13
▁examine	13
▁psychology	13
▁Bavarian	13
usthi	13
▁wa	13
▁Lohara	13
▁habitats	13
▁concord	13
▁bricks	13
▁balanced	13
▁Satyajit	13
▁militant	13
▁ashes	13
▁Rekha	13
▁Javed	13
▁Mantra	13
▁Haider	13
▁edges	13
▁mighty	13
▁Scabies	13
▁signatures	13
▁ancestry	13
▁moral	13
ending	13
▁flavors	13
▁Bronze	13
▁Tech	13
▁repayment	13
▁slipp	13
flowing	13
▁Beer	13
▁exciting	13
▁import	13
▁goalkeepers	13
ock	13
▁clinics	13
▁gharanas	13
▁culturally	13
▁Sayyid	13
▁propagat	13
▁Sanam	13
▁rheumat	13
▁houseboats	13
▁Animat	13
▁Nidhi	13
▁rifle	13
▁edicts	13
▁anthrax	13
▁mutiny	13
▁panel	13
▁tin	13
▁Gregory	13
▁socks	13
▁Jinnah	13
▁Alfred	13
▁Sacr	13
▁moisture	13
▁Samuel	13
▁deserve	13
▁scarf	13
▁Linga	13
▁Terai	13
▁terrorism	13
▁pancreatic	13
▁Patt	13
▁magnitude	13
▁Zaki	13
▁outskirts	13
▁flies	13
▁bungalow	13
▁instances	13
▁purse	13
▁encompasse	13
▁monitoring	13
iri	13
dara	13
▁Olympiad	13
▁shower	13
▁NT	13
▁Nas	13
▁fitting	13
Vedic	13
▁shipped	13
▁Swimming	13
▁fungi	13
▁analog	13
▁progressed	13
ranga	13
▁civilisation	13
▁Contact	13
action	13
▁Hos	13
▁Suman	13
▁Bahamas	13
▁infuriating	13
bri	13
▁airways	13
▁Irani	13
▁Recent	13
hem	13
▁pizza	13
▁IRA	13
▁Silchar	13
▁intravenous	13
▁wouldn	13
▁Chandela	13
▁Jerry	13
▁Archbishop	13
▁disappointment	13
▁sheet	13
▁faithful	13
▁Mora	13
les	13
▁aversion	13
▁Dyer	13
▁impulse	13
▁fortifications	13
▁personalize	13
▁wetland	13
▁Ashland	13
▁bolt	13
▁trusted	13
▁Pull	13
shift	13
▁gravity	13
▁Wu	13
▁Govern	13
▁cremated	13
▁edema	13
▁Samudragupta	13
lung	13
▁referr	13
▁unite	13
▁CC	13
dah	13
▁sin	13
▁conviction	13
bad	13
▁shame	13
rule	13
▁organise	13
▁Alpha	13
▁essay	13
zo	13
natal	13
▁Mahabir	13
▁Rad	13
▁holi	13
▁magistrate	13
▁Nelson	13
▁dailies	13
▁nickname	13
genic	13
▁macrophages	13
▁indirectly	13
▁rider	13
▁Linda	13
▁Joan	13
▁Tiruchirappalli	13
▁im	13
▁reunited	13
▁countryside	13
▁Puran	13
▁GB	13
hostile	13
▁Jesse	13
ase	13
onic	13
▁intercept	13
mund	13
▁Section	13
▁deficient	13
otti	13
pin	13
▁delicious	13
AIDS	13
▁Chandi	13
▁plug	13
▁Devagiri	13
▁owed	13
▁beans	13
▁Khil	13
▁Rigveda	13
▁explicitly	13
▁Mix	13
pressure	13
▁interference	13
▁persecut	13
▁Muran	13
▁membranes	13
▁biosphere	13
▁ginger	13
▁holder	13
▁mob	13
▁announce	13
▁Taxila	13
revolutionary	13
▁asbestos	13
▁tentative	13
orussia	13
▁Andre	13
▁Bever	13
driven	13
lways	13
▁Wills	13
▁Kancha	13
▁exterior	13
▁sandy	13
▁triumph	13
▁Hira	13
▁drawings	13
▁encourag	13
slated	13
▁duets	13
▁Lakes	13
▁ransacked	13
▁grab	13
▁homocysteine	13
▁woven	13
▁locks	13
▁pony	13
▁decorations	13
▁discretionary	13
▁Groups	13
▁Dec	13
▁scold	13
▁smash	13
▁chronicle	13
erst	13
agraha	13
▁Maaz	13
▁reflection	13
fed	13
▁arteries	13
venous	13
▁conceal	13
overty	13
tropical	12
▁Chawla	12
▁Ag	12
▁wherein	12
▁Hayden	12
listed	12
▁voter	12
▁ASI	12
▁infrequent	12
▁bushes	12
▁differentiate	12
▁embroidery	12
▁bug	12
▁dots	12
▁deficit	12
robin	12
▁Meerut	12
Mumbai	12
▁Presently	12
▁aspirin	12
▁trademark	12
basin	12
▁Lent	12
▁sauce	12
ning	12
▁luni	12
solar	12
▁Luna	12
▁PM	12
IAS	12
eb	12
abita	12
▁mercury	12
yn	12
▁coined	12
▁Kamath	12
▁segment	12
▁pouch	12
▁Tirthankaras	12
neurotransmitter	12
sel	12
▁sailors	12
Sasanian	12
▁Page	12
▁Dagar	12
▁Path	12
▁shaft	12
▁thumb	12
▁imaginative	12
▁detained	12
achi	12
â‚	12
▁routed	12
▁geography	12
▁RIL	12
matic	12
▁utilize	12
▁Obama	12
tar	12
▁Stevens	12
▁Panchkula	12
▁Sau	12
▁cork	12
▁leopard	12
▁embryo	12
TF	12
▁bann	12
▁End	12
▁Kids	12
▁racial	12
eswar	12
▁padd	12
▁buffer	12
▁nurses	12
▁arenas	12
▁diplomacy	12
▁scar	12
ATA	12
▁Steelers	12
▁deliveries	12
▁chalk	12
▁acids	12
▁eighty	12
▁abundance	12
▁Softball	12
dsvall	12
ē	12
▁neighborhoods	12
▁identifie	12
▁ropes	12
▁Ravens	12
▁Dhank	12
▁supremacy	12
▁Lod	12
▁backing	12
▁crocodile	12
▁Album	12
▁manga	12
▁theaters	12
▁escalate	12
▁Solo	12
▁climax	12
▁Bod	12
▁Yamada	12
atory	12
▁evaluate	12
▁turmoil	12
▁excluded	12
DS	12
▁Murshidabad	12
▁expectancy	12
▁graphic	12
hockey	12
▁simplifie	12
▁Baptist	12
nja	12
▁Roll	12
▁moo	12
▁astronomy	12
▁Wizam	12
▁feasible	12
▁demonstrations	12
▁preserving	12
▁Raksha	12
▁Pizza	12
▁Horror	12
▁Konkani	12
▁emit	12
▁horn	12
▁offset	12
▁Regular	12
thic	12
▁Parshwanath	12
▁stake	12
▁founders	12
▁Austin	12
▁Grande	12
▁collateral	12
▁Siberia	12
zu	12
▁shy	12
▁Demetrius	12
▁Barbara	12
▁mountaineering	12
▁temper	12
▁widen	12
▁publicity	12
▁Doordarshan	12
▁Alan	12
▁attach	12
▁snake	12
▁standardise	12
▁Ritup	12
SA	12
▁Pant	12
▁clause	12
▁sheer	12
▁kickboxers	12
▁Khandagiri	12
▁Headquarters	12
▁mindful	12
▁deeper	12
▁positively	12
▁nourish	12
▁nineteenth	12
▁Kurukshetra	12
▁resent	12
▁Pilate	12
plate	12
▁relat	12
▁toothpaste	12
▁Bikaner	12
▁testifie	12
eng	12
English	12
rays	12
▁databases	12
▁Dhara	12
▁metaboli	12
▁journalism	12
▁Jhunku	12
▁uncertaint	12
▁Edw	12
▁pistol	12
▁etymolog	12
▁bless	12
▁Shash	12
▁Virata	12
▁Sus	12
▁soup	12
tended	12
sale	12
vle	12
ndu	12
▁guess	12
▁shiver	12
▁Alberta	12
▁guarantee	12
sterb	12
▁Moh	12
▁soap	12
▁operas	12
▁pending	12
ega	12
▁scary	12
▁artwork	12
▁matched	12
▁cleft	12
▁closet	12
▁Wilhelm	12
▁Bern	12
▁Prataprao	12
▁Shuddh	12
▁gallery	12
▁disco	12
▁Way	12
▁Sheffield	12
tin	12
▁noisy	12
nic	12
▁Parantaka	12
▁alcoholism	12
▁atoms	12
▁emigrat	12
▁Eurasia	12
ger	12
▁Finals	12
▁autobiography	12
▁Ashram	12
▁Biden	12
▁Islanders	12
▁discouraged	12
▁clarity	12
▁Nawaz	12
▁Siddiqui	12
▁Shankbone	12
▁nut	12
▁Cyclone	12
▁contend	12
▁Phase	12
▁Bre	12
▁Agreement	12
▁chapter	12
lli	12
▁insurgency	12
says	12
▁Worldwide	12
▁Del	12
▁harem	12
▁Mozilla	12
▁gymnasts	12
▁Min	12
▁Border	12
lis	12
▁Malay	12
▁retaliation	12
▁downed	12
▁Jaan	12
▁dwarf	12
uni	12
yer	12
▁Kavi	12
▁Canoe	12
▁Harsha	12
▁Shar	12
▁Manuel	12
road	12
▁wrists	12
▁pallavi	12
▁avian	12
▁excis	12
▁slaughter	12
AM	12
ripping	12
▁schemes	12
▁Bibl	12
▁reservation	12
▁Debut	12
▁Malla	12
▁northwards	12
▁worsen	12
pul	12
▁ne	12
▁flute	12
▁Manuli	12
▁irritation	12
▁Mubarak	12
omplications	12
▁Dost	12
▁archers	12
▁travellers	12
▁Produc	12
▁Pancha	12
▁Pit	12
▁invade	12
▁Lisbon	12
▁hash	12
▁Cruz	12
▁Armenia	12
▁acne	12
▁Ivory	12
▁cleaned	12
skeletal	12
has	12
▁batches	12
bra	12
▁anomalies	12
▁Sarnath	12
▁NGO	12
nation	12
▁belly	12
▁gunmen	12
▁Krishnadevaraya	12
▁dunes	12
▁careers	12
▁underwater	12
▁ba	12
sto	12
▁Lin	12
▁punch	12
▁Mell	12
▁Pattadakal	12
▁Mohali	12
▁currents	12
▁Newton	12
▁sync	12
▁surfaced	12
▁Guinness	12
▁billiards	12
December	12
▁severed	12
▁detective	12
▁Word	12
▁Divine	12
▁Baka	12
September	12
▁verbal	12
▁backup	12
▁utiliz	12
spiring	12
▁Peshwas	12
avada	12
▁Pathak	12
▁dormant	12
▁manipulation	12
▁browser	12
▁defin	12
▁AFL	12
▁Thodupuzha	12
▁ramp	12
▁revis	12
NLL	12
▁rumour	12
▁invad	12
▁stamp	12
mended	12
▁hobby	12
ander	12
▁Bong	12
▁norms	12
▁Songs	12
rick	12
▁rejection	12
▁paddle	12
▁Rumi	12
band	12
▁diocese	12
nad	12
▁kata	12
▁horizontal	12
▁azithromycin	12
phone	12
▁SC	12
she	12
▁overthr	12
▁exported	12
▁bloodstream	12
▁randomly	12
▁cookies	12
akraw	12
▁Decid	12
▁reddish	12
▁anyway	12
▁childcare	12
▁BDD	12
▁Feel	12
▁violated	12
▁Amendment	12
▁Collins	12
▁disclosed	12
▁Arang	12
▁Chinna	12
▁dull	12
pouring	12
▁marshes	12
▁Mannar	12
▁overwhelmed	12
▁Isle	12
▁Markha	12
▁Breast	12
▁injections	12
rni	12
▁investigators	12
▁Az	12
▁Salvador	12
ssel	12
▁Deutsche	12
▁jaw	12
▁browse	12
▁Hung	12
▁resurrection	12
▁runner	12
literally	12
▁Luke	12
▁Naomi	12
▁implies	12
▁subscribers	12
▁jan	12
▁wander	12
▁farewell	12
▁ceiling	12
▁Ob	12
▁apprehensive	12
ikram	12
▁hurricanes	12
▁Gali	12
▁Anti	12
▁Protection	12
▁spelling	12
con	12
▁tackles	12
▁Tyagi	12
▁relaxing	12
▁Leone	12
▁MMS	12
▁rub	12
▁humour	12
▁merging	12
▁combin	12
yuddha	12
▁Kolan	12
▁Apa	12
▁ph	12
▁Mara	12
▁enrich	12
school	12
rak	12
▁Tala	12
▁reporters	12
▁porn	12
▁Finance	12
▁Sym	12
phony	12
▁gifting	12
▁h	12
▁inspector	12
▁upstream	12
jeet	12
vo	12
▁privileged	12
mail	12
▁mouse	12
▁median	12
▁Magnus	12
▁invocat	12
▁lymph	12
▁Situat	12
▁Banswara	12
▁dhrutam	12
▁syntax	12
▁ambulance	12
▁Yew	12
▁periphery	12
▁Olympia	12
▁Netaji	12
kumar	12
▁markers	12
▁paths	12
▁Ala	12
▁turban	12
▁Remov	12
wanted	12
▁honors	12
nagaram	12
▁jujutsu	12
▁boiled	12
▁Lib	12
▁commuters	12
▁Substance	12
▁Barak	12
▁charter	12
bol	12
▁Ertiga	12
▁purity	12
▁recommendations	12
generation	12
hausen	12
▁phenomena	12
▁drag	12
▁header	12
bagh	12
▁grace	12
kas	12
▁Ghod	12
ganga	12
▁hornbill	12
▁gravel	12
▁Franco	12
▁anal	12
▁Eleven	12
▁queue	12
tory	12
▁resume	12
▁topography	12
▁socialist	12
▁Congo	12
▁Skanda	12
caste	12
▁Rule	12
right	12
▁adopting	12
▁Interest	12
▁rapper	12
ces	12
sana	12
▁Abdullah	12
▁Vijayan	12
▁Gas	12
▁boyfriend	12
▁stretched	12
▁systematic	12
▁delicac	12
▁Nubra	12
▁rays	12
▁Nature	12
▁skaters	12
▁Nala	12
▁sculptural	12
▁emperors	12
▁Bring	12
▁diversified	12
ph	12
▁Trees	12
good	12
▁hike	12
▁serene	12
lush	12
▁corps	12
▁conceive	12
▁tier	12
vy	12
▁splitting	12
▁prostate	12
▁shawls	12
▁wool	12
ipped	12
▁Rukh	12
▁Disease	12
▁Navajo	12
▁separation	12
▁aka	12
▁pathways	12
▁Tirunelveli	12
▁agreements	12
▁drill	12
▁Geographical	12
uel	12
▁Gangas	12
ria	12
▁meditati	12
▁stamps	12
▁motivated	12
▁Server	12
▁exceptions	12
▁semen	12
▁ambitio	12
▁Firefox	12
▁judgement	12
juries	12
▁clever	12
Hindi	12
▁shouldn	12
▁Kotla	12
▁matri	12
▁eve	12
mara	12
▁Hus	12
▁Trinidad	12
▁Bela	12
▁unfair	12
▁snakes	12
▁contagious	12
▁Queens	12
▁browsing	12
▁exploitation	12
▁Democrats	12
▁Guy	12
piece	12
▁Vidisha	12
globin	12
▁Progressi	12
▁Kh	12
▁Ahoi	12
sai	12
▁Dhir	12
▁ladies	12
▁quicker	12
▁Trichy	12
▁fold	12
▁Brain	12
▁tablet	12
▁MTV	12
▁Platform	12
▁cremation	12
▁Garuda	12
▁Mansion	12
ets	12
▁closures	12
▁harbor	12
▁Karen	12
▁Picture	12
▁circa	12
▁youngsters	12
▁Malappuram	12
noor	12
▁Zoo	12
▁erotic	12
▁reliefs	12
child	12
▁compression	12
▁abid	12
▁Kane	12
▁blues	12
▁Ismail	12
crani	12
▁Aligarh	12
▁Pr	12
▁liberat	12
▁Kate	12
▁waterways	12
▁neurons	12
▁Bharuch	12
▁Living	12
▁ineffective	12
▁Evans	12
▁unconscious	12
▁Task	12
▁Dandi	12
▁Eric	12
▁Click	12
chu	12
▁Manikya	12
▁entertain	12
▁reluctant	12
starrer	12
▁Tantric	12
▁Alves	12
▁thrice	12
▁lump	12
▁Pank	12
▁Pac	12
▁hamper	12
vir	12
▁Slam	12
▁gener	12
▁Morris	12
▁craftsmen	12
▁Mars	12
▁Dann	12
▁Neu	12
▁shareholders	12
▁complement	12
▁anus	12
▁Mention	12
▁nowadays	12
quet	12
▁Kyoto	12
ple	12
digenous	12
ules	12
▁Beta	12
▁editions	12
▁Dublin	12
nyone	12
nu	12
▁sesame	12
▁IRS	12
▁sp	12
yellow	12
▁emulat	12
▁Jun	12
tten	12
ep	12
▁XP	12
▁carpet	12
hri	12
▁Uganda	12
▁battled	12
▁Roma	12
▁harvesting	12
▁Deshmukh	12
full	12
▁guy	12
▁paksha	12
▁hell	12
eeti	12
yat	12
▁execute	12
▁hitters	12
▁freelance	12
▁Wa	12
▁antibody	12
▁ru	12
▁homosexual	12
▁Kick	12
▁Em	12
▁Hello	12
▁colleg	12
▁wisdom	12
▁sickening	12
▁packing	12
pet	12
▁teenager	12
▁Ranjan	12
▁meanwhile	12
▁deforestation	12
▁baggage	12
▁Pillar	12
▁yarn	12
▁Guide	12
▁Mario	12
▁cupboard	12
▁decree	12
▁Lowe	12
▁Sadashiv	12
▁Tip	12
▁Excel	12
▁standardiz	12
▁Walker	12
▁Interactive	12
▁Vasudevan	12
▁burial	12
▁newborns	12
▁apples	12
▁darshan	12
▁Protect	12
▁atmospher	12
▁Climb	12
▁Disha	12
▁Rebecca	12
▁Bos	12
▁Hof	12
▁attitudes	12
▁labourers	12
▁Bro	12
▁lyric	12
▁Occasionally	12
▁canopy	12
▁Round	12
▁virtuous	12
▁Circuit	12
▁quadrant	12
▁stab	12
▁spawn	12
▁Rocky	12
▁Shanghai	12
▁Brihad	12
▁appliances	12
▁Aliya	12
▁Woman	12
▁anchored	12
▁embedd	12
▁Domi	12
▁economically	12
▁bell	12
▁Prithviraja	12
▁Charit	12
friendly	12
▁dumps	12
Loy	12
▁Birmingham	12
nan	12
bhadra	12
▁mania	12
gone	12
lee	12
▁smoothly	12
▁Kalki	12
▁Vengi	12
▁Mehta	12
▁Ranbir	12
▁nail	12
▁contestants	12
verge	12
▁Gavi	12
▁airborne	11
▁digits	11
sand	11
▁illustrate	11
▁exempt	11
▁Lines	11
▁edible	11
▁erupted	11
▁Sil	11
laws	11
▁instability	11
thal	11
anam	11
▁Jogighopa	11
present	11
▁mangroves	11
▁multiplied	11
▁Munda	11
▁Bactria	11
asana	11
rail	11
logged	11
ceded	11
▁outlook	11
▁threads	11
▁flick	11
▁Anuppur	11
dose	11
▁testify	11
▁consultant	11
eco	11
Roman	11
▁Jauhar	11
▁acquir	11
▁Mane	11
gged	11
▁Gett	11
▁prospects	11
▁breaststroke	11
▁intrinsic	11
▁formulated	11
arm	11
▁Mattu	11
▁Unit	11
▁halt	11
▁Iqta	11
woman	11
▁Garc	11
▁puzzle	11
▁Gross	11
▁requirement	11
▁knight	11
▁enlisted	11
▁heroic	11
▁trafficking	11
▁Colors	11
▁dhoti	11
▁Matches	11
▁dumb	11
▁Simrit	11
▁Keynes	11
▁Kavaratti	11
▁insurgent	11
ride	11
▁lakhs	11
▁Warre	11
▁Has	11
▁passwords	11
cluded	11
▁cum	11
▁Calgary	11
▁Flames	11
▁Kalyan	11
▁PETA	11
▁choreography	11
▁exploits	11
▁restoration	11
▁Animals	11
▁guaranteed	11
▁linear	11
▁Bori	11
▁turtle	11
▁fixing	11
two	11
▁hardest	11
▁Alton	11
ure	11
▁Hoshangabad	11
power	11
▁pav	11
huang	11
▁metaphor	11
▁nowhere	11
▁blurred	11
▁Name	11
▁shout	11
▁Kullu	11
▁spra	11
▁biology	11
▁Erythrae	11
▁peers	11
kot	11
▁satisfaction	11
▁pupils	11
▁depressing	11
▁Rajkot	11
rshad	11
▁meanings	11
▁Clinton	11
▁flees	11
▁helm	11
▁vitr	11
▁prospered	11
▁qui	11
▁lu	11
▁leaked	11
lv	11
▁Datta	11
eeta	11
▁confess	11
▁poi	11
wi	11
▁illegally	11
bara	11
sea	11
emia	11
▁unfinished	11
ide	11
mount	11
▁Invest	11
kari	11
▁sediments	11
▁Dasa	11
▁Loi	11
▁Ok	11
▁Ranthamb	11
AP	11
▁theater	11
▁capabilities	11
▁Cabinet	11
▁Batar	11
▁Mato	11
▁Yavana	11
▁objection	11
▁Clark	11
akesh	11
▁inappropriate	11
▁crani	11
▁Bene	11
▁broadcaster	11
▁ash	11
▁safeguard	11
▁strengthening	11
iva	11
▁Holocaust	11
▁prohibition	11
▁allowance	11
▁Private	11
▁Advisor	11
▁interpretations	11
▁scent	11
▁interpret	11
▁robbed	11
▁Districts	11
udi	11
▁narrat	11
▁cushion	11
▁monitored	11
▁salaries	11
DC	11
▁reputed	11
▁Dragon	11
▁cage	11
▁rendered	11
▁conceptual	11
▁Constantinople	11
▁Moirang	11
▁Meet	11
▁cliffs	11
heimer	11
ainfall	11
▁Fal	11
ollen	11
▁showers	11
▁Karkota	11
▁irritated	11
▁Laksh	11
▁Neil	11
▁Suba	11
▁Balti	11
▁Anshu	11
▁usurp	11
▁speaks	11
▁mono	11
▁Sharm	11
▁Saa	11
▁Ronald	11
▁mammal	11
▁timeout	11
▁churn	11
▁thickness	11
▁interviews	11
▁wasted	11
tt	11
▁Clear	11
length	11
▁Ghaziabad	11
▁Account	11
▁Hir	11
▁Marina	11
tia	11
▁Bega	11
▁mosaic	11
▁spoon	11
▁Vasco	11
▁Ether	11
▁notified	11
▁Pong	11
▁Kati	11
▁synthesize	11
hed	11
▁ransom	11
ere	11
▁Bulls	11
▁whites	11
ITC	11
trans	11
▁colleague	11
▁Ghulam	11
▁Dashboard	11
arji	11
▁daytime	11
▁Banaras	11
BP	11
▁Hol	11
▁shin	11
▁Quit	11
▁cigarettes	11
▁Suffolk	11
▁Wells	11
▁medley	11
▁Sudha	11
▁Ayurveda	11
▁vaginal	11
▁reopened	11
▁rigorous	11
▁Raaz	11
▁workshops	11
▁Rajan	11
▁Clare	11
▁Meteorology	11
EE	11
▁lo	11
▁Basil	11
▁Manitoba	11
page	11
▁Aakash	11
▁mot	11
▁neighbors	11
▁debates	11
▁bullock	11
nny	11
▁Ramon	11
▁fishes	11
▁Punjabis	11
▁instalment	11
▁pine	11
▁dock	11
▁rakhi	11
Saharan	11
building	11
magneti	11
▁cement	11
▁discoveries	11
▁Nam	11
lap	11
▁Pudukkottai	11
ş	11
▁Variation	11
▁Ron	11
tzer	11
▁indic	11
▁deadli	11
▁tornadoes	11
▁spu	11
cu	11
▁Charan	11
▁repay	11
▁township	11
▁Mis	11
▁Otherwise	11
▁Feast	11
▁Madhu	11
ig	11
▁skeptical	11
▁supervise	11
▁ISTAF	11
▁poisoned	11
▁energies	11
▁landlords	11
olu	11
▁mo	11
▁Kalhana	11
▁teaser	11
guru	11
′	11
▁jhum	11
▁cigarette	11
▁Figure	11
▁punished	11
▁drastically	11
▁Harappa	11
▁eastward	11
ren	11
▁mater	11
▁Bol	11
▁gunman	11
▁Statistic	11
▁Marie	11
▁bullets	11
ystery	11
▁Jyoti	11
▁daring	11
bab	11
▁litter	11
ratri	11
▁br	11
▁approve	11
▁spears	11
▁substantially	11
▁cyclists	11
▁Corridor	11
▁antara	11
▁Tunisia	11
▁Vil	11
▁Shaiva	11
▁sandalwood	11
▁Sorry	11
▁acrobatic	11
▁exploit	11
▁Jonathan	11
▁revulsi	11
▁creeks	11
▁daycare	11
▁GPS	11
▁damages	11
▁intervened	11
weight	11
▁Tyson	11
▁CDC	11
▁cursed	11
patitis	11
▁solutions	11
▁Nilgiri	11
▁lords	11
▁Average	11
▁None	11
▁CCTV	11
▁citadel	11
▁handloom	11
▁Bor	11
▁Sonali	11
▁collaborated	11
Queen	11
▁Badrinath	11
▁spoil	11
▁Hamburg	11
wadi	11
▁Certificate	11
▁mechanic	11
▁everybody	11
▁punches	11
▁Auto	11
▁jealous	11
boo	11
▁Mohalla	11
▁Bhati	11
stock	11
▁Honduras	11
catastrophic	11
▁acceptable	11
▁grinding	11
▁causati	11
▁Jhelum	11
▁uncovered	11
▁Maghi	11
▁inherent	11
▁sweat	11
▁Patta	11
▁Dong	11
▁Nicol	11
▁pedestal	11
▁enthusiasts	11
▁poses	11
▁entrepreneurs	11
▁chariots	11
▁Wild	11
▁Again	11
▁serologic	11
▁gut	11
etti	11
ben	11
▁shade	11
▁Bard	11
▁Khmer	11
▁sorrow	11
▁Emperors	11
▁Karim	11
▁metals	11
▁scramble	11
▁Persians	11
standard	11
▁pup	11
▁iris	11
▁Bahr	11
kanya	11
▁cinematographer	11
longest	11
▁spared	11
▁Helen	11
▁extraordinar	11
▁biograph	11
▁Stein	11
▁precede	11
▁provoke	11
mp	11
▁Panama	11
▁advertisement	11
▁Thompson	11
▁antigen	11
▁interactions	11
▁polish	11
▁nevertheless	11
angi	11
▁bites	11
▁Kurdis	11
may	11
ient	11
▁Bha	11
▁Train	11
▁Clemen	11
▁hung	11
▁undertake	11
▁Devan	11
▁delicate	11
▁popcorn	11
▁Poo	11
▁Tiruvannamalai	11
▁Lara	11
▁oust	11
▁Tribe	11
▁Confederacy	11
▁Ramsar	11
ṃ	11
store	11
▁scans	11
▁hungry	11
▁synonymous	11
ifying	11
▁industrialized	11
▁centraliz	11
▁speculation	11
▁Talbot	11
▁rendition	11
▁trilogy	11
▁snack	11
dri	11
▁Kerr	11
▁denominations	11
ethnic	11
▁profound	11
▁disagreed	11
▁replicati	11
▁Rig	11
▁basalt	11
▁creatures	11
▁Knights	11
ight	11
▁Sultanates	11
lugu	11
chak	11
▁Mil	11
▁unprecedented	11
▁sank	11
▁Singa	11
▁dramatically	11
▁hollow	11
▁Murad	11
Police	11
▁Raipur	11
size	11
▁obey	11
▁Raisen	11
inus	11
▁gurus	11
▁Bajirao	11
▁comply	11
▁Pran	11
▁Ernest	11
▁Naismith	11
▁raped	11
▁balcony	11
▁Santos	11
▁buyers	11
nte	11
▁grouped	11
▁Kunda	11
▁Noida	11
▁Outlook	11
▁Gaye	11
▁Sand	11
para	11
▁guardian	11
▁Simpson	11
▁Tigers	11
▁Mysorean	11
▁Vogue	11
▁Ras	11
▁Gondwana	11
▁prioritize	11
▁homeland	11
▁palms	11
ikewise	11
▁Colleg	11
▁Yavanas	11
▁lethal	11
▁offshoot	11
▁bribe	11
▁Stewart	11
Ma	11
▁fireworks	11
▁appetite	11
▁Bhoj	11
▁Eli	11
▁blessing	11
omo	11
ees	11
▁Vizi	11
▁Broad	11
▁Meteorolog	11
▁Veena	11
▁fancy	11
lternatively	11
▁franchises	11
▁Phoenix	11
stroke	11
▁Nagara	11
▁allegiance	11
sville	11
▁chairperson	11
▁SUV	11
▁Mahavamsa	11
SL	11
father	11
▁wipe	11
▁Python	11
▁Nazis	11
cial	11
▁railways	11
▁replicate	11
Ž	11
Brahmaputra	11
▁Ros	11
▁Phogat	11
▁Beginning	11
▁inhabit	11
▁architects	11
▁Kaushal	11
▁timekeeper	11
▁tending	11
▁Powai	11
▁amblyopia	11
▁discomfort	11
▁tombs	11
▁bears	11
▁Grow	11
historic	11
▁Sega	11
▁Vari	11
▁Math	11
▁illiterate	11
cos	11
▁meditat	11
▁libraries	11
▁Edwards	11
▁Aviv	11
▁uncomfortable	11
▁Taluka	11
bandy	11
▁Cuban	11
▁flavor	11
▁Rampal	11
▁Comed	11
zai	11
titis	11
Adha	11
▁NASA	11
▁Farm	11
▁Arlington	11
▁surround	11
▁Gal	11
iyara	11
▁penetration	11
rie	11
▁shelf	11
▁grosser	11
avan	11
▁Firoz	11
▁horsemen	11
▁Panchali	11
▁forgiven	11
▁Shin	11
▁ri	11
▁gada	11
▁repris	11
nine	11
umbria	11
▁baskets	11
▁cu	11
▁Morgan	11
▁trio	11
▁Neena	11
▁popp	11
▁rugged	11
▁Shaba	11
▁integration	11
▁publishing	11
▁ISI	11
▁Avi	11
▁enforce	11
mate	11
▁chi	11
▁viewership	11
▁offspring	11
▁Baja	11
▁surveys	11
▁lodge	11
chased	11
▁Ladki	11
▁dive	11
▁Kos	11
Ḥ	11
usayn	11
▁unreliable	11
ks	11
▁Tungabhadra	11
alam	11
▁precision	11
▁constellation	11
▁Brahmi	11
▁vari	11
Reorganisation	11
TP	11
▁Springfield	11
▁Fac	11
▁definite	11
▁mentally	11
fast	11
▁Uma	11
▁periodical	11
▁kitchens	11
▁dharma	11
pocket	11
▁gameplay	11
▁Hart	11
▁Adil	11
▁commentator	11
▁Continent	11
▁fats	11
bury	11
lew	11
▁petroleum	11
▁Infection	11
▁plunge	11
▁Gymnastics	11
▁violating	11
▁Mahanand	11
▁hides	11
▁MPs	11
▁triangle	11
▁Corne	11
▁Ustad	11
▁Strait	11
▁reigns	11
▁pursu	11
▁subsid	11
▁fla	11
▁ratified	11
▁handicrafts	11
▁melt	11
lyn	11
▁malicious	11
ef	11
▁Yog	11
▁mite	11
▁workout	11
▁Harsa	11
▁Kalolsavam	11
▁Sharks	11
▁earnings	11
▁relieve	11
▁Bio	11
▁Tor	11
▁Custom	11
▁Clara	11
▁Tula	11
▁Yo	11
lum	11
Rotten	11
▁mill	11
▁Carr	11
▁Jar	11
BI	11
▁downgrade	11
patti	11
▁modell	11
▁distinction	11
▁charit	11
▁Nila	11
▁commodities	11
▁chef	11
▁Tu	11
▁retake	11
▁Focus	11
▁utter	11
▁PNS	11
cer	11
▁stuff	11
▁Operations	11
asi	11
ege	11
▁Benton	11
▁Institutes	11
▁rep	11
nam	11
▁Chik	11
▁Prahlada	11
▁reminder	11
▁reversed	11
▁Shams	11
ved	11
▁Teacher	11
▁gorge	11
▁donors	11
▁Pandu	11
mond	11
▁Radcliffe	11
▁scripting	11
▁pressed	11
▁Turkmenistan	11
▁Castro	11
tes	11
▁hybrid	11
▁Gore	11
▁revenues	11
▁manufacturers	11
▁Cur	11
▁Namakkal	11
▁Tree	11
▁Parin	11
▁equestrian	11
▁psychiatrist	11
▁scouts	11
▁delightful	11
▁Print	11
▁Rita	11
▁precinct	11
▁reinvest	11
#	11
▁cliff	11
▁Elo	11
▁secur	11
▁Nucle	11
raon	11
▁Bhavnagar	11
▁Alt	11
▁Cal	11
▁amenities	11
▁Lea	11
▁Magistrate	11
▁Raigad	11
char	11
▁Rachel	11
▁grandchildren	11
▁builders	11
▁bathe	11
ample	11
▁displace	11
▁printers	11
film	11
▁subtle	11
▁sh	11
ux	11
▁del	11
▁Kurt	11
▁attire	11
force	11
▁Nevada	11
▁Brun	11
▁persisted	11
ṣ	11
▁transient	11
▁setters	11
▁pope	11
▁mafia	11
European	11
▁impair	11
ł	11
muscular	11
▁Panthers	11
▁Rut	11
tus	11
▁Copa	11
▁Bermuda	11
▁nodes	11
▁grassland	11
▁ret	11
ppa	11
▁Patan	11
▁pardon	11
awa	11
▁vigil	11
▁coir	11
mod	11
▁skirt	11
▁templates	11
▁nas	11
▁paperwork	11
▁Wagner	11
▁Jacques	11
chief	11
▁eternal	11
▁Musical	11
▁recitals	11
▁anonymous	11
▁Spend	11
▁Bhu	11
▁acquitted	11
▁bump	11
▁Script	11
▁Manila	11
svāmin	11
▁twenties	11
▁blossom	11
uti	11
▁Teachers	11
▁notices	11
▁RSS	11
fer	11
▁displeased	11
▁instantly	11
determined	11
ica	11
asala	11
▁Utrecht	11
▁Hispanic	11
▁Organisation	11
▁fragments	11
▁allergy	11
▁Ramachandra	11
▁Wald	11
▁expresse	11
▁Tutu	11
▁Liberty	11
▁Dalit	11
▁kidneys	11
ual	11
▁Sadarang	11
sense	11
▁alternatives	11
▁alcoholics	11
▁stunning	11
▁alap	11
▁highlight	11
▁pigments	11
▁Hilton	11
▁Pok	11
▁adulthood	11
rine	11
▁Deo	11
▁Daulatabad	11
danda	11
▁faculty	11
▁persecution	11
▁inequality	11
▁longitude	11
▁Leicester	11
▁Asthana	11
▁documentaries	11
selling	11
▁bookseller	11
wil	11
▁injected	11
▁counted	11
▁Number	11
▁prevail	11
▁Sarai	11
▁Senapati	11
▁packs	11
▁sincere	11
▁Virus	11
▁Gulzar	11
low	11
▁promo	11
khai	11
▁Belize	11
▁indications	11
▁finale	11
▁Sikandar	11
ama	11
▁tempo	11
▁Edinburgh	11
▁Ferdinand	11
▁PARS	11
▁Polytechnic	11
▁riot	11
▁Zi	11
▁laughing	11
▁crane	11
▁packets	11
▁Shikharji	11
▁Pet	11
▁discontent	11
▁resonate	11
▁Schaffhausen	11
▁elicit	11
gus	11
▁sympath	11
▁suicides	11
▁molecule	11
▁centimeters	10
▁Isha	10
▁Balaram	10
Best	10
▁arguments	10
▁chasing	10
bourne	10
▁flattened	10
▁Vedha	10
▁heel	10
▁punish	10
▁creep	10
▁vertebrate	10
▁Abbey	10
▁Panchayat	10
▁tantri	10
▁Ker	10
▁Jahanara	10
▁Vision	10
▁handheld	10
▁resonance	10
▁Historians	10
▁Councils	10
▁Kill	10
▁Quadri	10
▁Maitreya	10
▁butterfly	10
▁wrestle	10
gul	10
▁Parents	10
▁Worship	10
▁perfection	10
▁Weapons	10
▁Passenger	10
▁Kulasek	10
▁melanin	10
▁decorating	10
▁Chair	10
efors	10
▁activat	10
▁Parva	10
▁blunt	10
shamn	10
▁foreigners	10
▁Soccer	10
▁migrate	10
▁logistical	10
▁steroid	10
mesh	10
▁pressures	10
otted	10
▁Andheri	10
▁hangs	10
antic	10
▁Complex	10
▁Gur	10
▁surprising	10
▁Avalanche	10
▁Shonku	10
shastra	10
▁Initial	10
ctor	10
front	10
oma	10
▁suffix	10
In	10
RP	10
▁Censor	10
▁householder	10
▁Malhar	10
▁Abdali	10
vak	10
annan	10
Do	10
▁Plutarch	10
▁upright	10
▁discharged	10
▁Gana	10
▁Sav	10
▁hyphema	10
▁Monsoon	10
▁Yogi	10
lateral	10
▁quest	10
▁nails	10
▁File	10
egree	10
▁Maharashtrian	10
▁motorsport	10
▁Bhabha	10
checkout	10
nge	10
liable	10
▁Shahryar	10
tāmbara	10
▁stole	10
▁Towns	10
▁Bra	10
▁domination	10
▁exponent	10
▁puppet	10
▁lecture	10
▁academics	10
ving	10
▁pe	10
SDAT	10
bound	10
▁Jayan	10
▁asphalt	10
log	10
▁monitors	10
▁weaken	10
▁Rup	10
▁expired	10
source	10
▁Historical	10
▁monsters	10
▁Megha	10
▁numerical	10
▁Asif	10
▁Factor	10
▁crypto	10
▁middlegame	10
▁secrets	10
▁Ambika	10
▁Kila	10
▁Colombian	10
▁Territories	10
▁geometric	10
▁Lucia	10
▁UAE	10
▁computation	10
▁Bowling	10
▁localized	10
▁pledge	10
▁Arctic	10
▁mascot	10
▁Safavid	10
▁Card	10
▁Cyber	10
▁accus	10
omed	10
▁weights	10
▁Vincent	10
▁Ulug	10
▁Tirthankar	10
▁stint	10
hall	10
bird	10
ency	10
▁Shepherd	10
▁textile	10
▁facilitat	10
▁galleries	10
▁bother	10
▁averag	10
▁infraction	10
▁knowledgeable	10
▁premiership	10
▁insured	10
onetheless	10
▁Plassey	10
▁ha	10
▁airway	10
▁novelist	10
▁Magha	10
February	10
▁Gurung	10
▁Upanishad	10
▁exploring	10
▁Dollar	10
▁unrest	10
▁prescribe	10
wen	10
▁Konda	10
eza	10
▁Prayagraj	10
▁Bernard	10
kg	10
▁Ralph	10
▁capability	10
▁interventions	10
▁presentations	10
kund	10
▁cannon	10
vada	10
▁Hay	10
▁enshrine	10
ranking	10
▁Merit	10
▁Gopa	10
▁sledge	10
▁Hull	10
▁Tanisha	10
▁amus	10
▁perpetua	10
▁startup	10
▁avenge	10
▁Fir	10
▁famines	10
▁preferabl	10
yen	10
▁Gunn	10
▁Jen	10
▁sam	10
defined	10
▁Rap	10
▁aristocrat	10
▁Pang	10
▁password	10
▁Randhawa	10
swag	10
▁Konark	10
cellula	10
▁obsolete	10
▁Banu	10
▁amino	10
flying	10
▁Edgar	10
▁Externa	10
▁prevailed	10
▁lodges	10
▁gangsters	10
▁che	10
▁lyricist	10
▁Karzai	10
uter	10
▁Panaji	10
▁Mumba	10
▁Cities	10
▁flame	10
his	10
▁hostilities	10
▁visibility	10
▁handcuff	10
▁roam	10
▁epigraphic	10
▁forthcoming	10
world	10
▁Rinku	10
▁Pervez	10
▁Musharraf	10
▁possum	10
▁storytelling	10
▁downhill	10
▁Commander	10
▁deteriorati	10
▁garments	10
▁Yam	10
▁heating	10
▁tooth	10
▁commentary	10
▁Actors	10
undin	10
▁byte	10
pm	10
▁scroll	10
▁Jubilee	10
city	10
▁Asrani	10
▁Cedar	10
▁Titans	10
modern	10
▁Rishabhanatha	10
▁Sato	10
▁innovation	10
▁aggravat	10
break	10
▁Shir	10
▁retin	10
▁wire	10
▁spirituality	10
nik	10
▁Fun	10
▁Lancashire	10
▁Key	10
▁Cornwall	10
▁gastr	10
▁bids	10
▁Bow	10
▁Ham	10
̃	10
▁Muharram	10
▁anybody	10
▁husbands	10
falsely	10
filled	10
▁handball	10
▁Yar	10
▁IPC	10
▁Skiing	10
▁refuse	10
nversely	10
▁Wallace	10
▁ventures	10
bridge	10
▁Jessica	10
▁Griffith	10
▁Vallabh	10
▁Arn	10
cio	10
nes	10
▁Develop	10
▁towels	10
▁distributors	10
▁Taois	10
▁theatrically	10
▁Rohtas	10
▁Bass	10
▁volumes	10
▁havoc	10
▁Mahā	10
▁marker	10
▁Som	10
▁Samar	10
▁myths	10
▁Papua	10
▁estrogen	10
▁cooling	10
▁Howrah	10
CA	10
▁humanitarian	10
▁Sahara	10
ahitya	10
▁dys	10
▁sthayi	10
▁Bharatpur	10
▁hottest	10
▁Mot	10
majority	10
carbon	10
▁Copenhagen	10
financed	10
▁directory	10
bari	10
▁Murti	10
▁gusts	10
November	10
▁wholesale	10
▁basics	10
▁Glen	10
▁Gurugram	10
▁Beau	10
military	10
▁exposition	10
▁Aakruti	10
▁intern	10
violent	10
▁Wal	10
▁Dras	10
▁Stick	10
▁hijack	10
▁Wave	10
▁Jeet	10
▁Hein	10
▁McMahon	10
▁glimpse	10
▁miserable	10
▁Bhi	10
▁quotes	10
▁Adinatha	10
▁Plaza	10
▁Gaza	10
▁Cawnpore	10
▁Dow	10
▁Gospel	10
▁swings	10
▁invention	10
▁Vis	10
cher	10
▁Wiki	10
▁GHz	10
▁Officers	10
▁Vanga	10
▁laborers	10
▁Pantic	10
▁nauseating	10
▁intentionally	10
▁fortune	10
▁Plin	10
▁compile	10
▁Term	10
▁entrust	10
atia	10
▁interchange	10
▁Gorkha	10
▁Chadda	10
▁nritya	10
▁reinforce	10
▁crossbar	10
cross	10
▁Karmanasa	10
▁Jacque	10
▁mirrors	10
▁SV	10
▁frightened	10
swami	10
▁disc	10
▁Siam	10
▁Folk	10
▁Ner	10
▁Technologies	10
thu	10
▁slip	10
▁Ach	10
▁coronaviruses	10
Sikh	10
▁flamingo	10
▁Kundal	10
▁juniors	10
▁salute	10
▁samadhi	10
▁unavailable	10
padi	10
▁Hercules	10
▁orphanage	10
▁Tur	10
▁Kaim	10
lei	10
▁fracture	10
tor	10
▁Dravida	10
▁creators	10
New	10
IG	10
ira	10
▁beverage	10
▁Photo	10
interest	10
▁laterite	10
▁Admiral	10
▁Hyphema	10
▁downturn	10
▁inception	10
▁computing	10
▁crabs	10
▁Muzaffar	10
▁Singhal	10
erg	10
agha	10
▁admission	10
▁offsides	10
part	10
half	10
▁awful	10
▁versa	10
ava	10
▁Bhosle	10
▁Hangrai	10
▁hypo	10
▁san	10
▁offenses	10
▁deteriorated	10
ethical	10
atta	10
▁insect	10
▁Slav	10
▁Gardens	10
▁Oudh	10
▁Svetambara	10
arried	10
▁Mizos	10
rabant	10
mb	10
▁Paa	10
▁Bundelkhand	10
▁handmade	10
▁opener	10
walk	10
▁Paraguay	10
▁Ramakrishna	10
▁charm	10
▁voiced	10
▁swift	10
win	10
▁Antara	10
▁Theodor	10
▁Lexington	10
▁aggregator	10
▁Level	10
▁Till	10
▁rifles	10
▁chronology	10
▁Vinayak	10
▁Cos	10
▁Sivan	10
idney	10
ration	10
Bank	10
▁Certification	10
▁ambitions	10
▁meantime	10
▁Amy	10
▁seizure	10
▁broadly	10
▁incensed	10
▁Pani	10
▁semifinals	10
▁Antioch	10
▁coordinates	10
▁recital	10
▁Mint	10
▁Burmese	10
▁remix	10
▁Underground	10
▁occupies	10
▁Soo	10
▁Vijayadashami	10
▁Coffee	10
▁Eisenhower	10
▁Rare	10
ros	10
▁elegan	10
▁Butler	10
▁fried	10
ardhan	10
▁Meghna	10
▁Commonly	10
▁threshold	10
ogue	10
▁cite	10
▁marketed	10
▁drying	10
vad	10
▁Zain	10
▁Essex	10
▁Tirth	10
▁issuer	10
▁handy	10
possessing	10
▁Vishnukundina	10
▁bulb	10
▁geographic	10
▁Saxena	10
▁Fine	10
▁Mirror	10
▁dilapidated	10
▁lovely	10
▁Lane	10
▁Australians	10
▁argu	10
▁Jio	10
▁herd	10
▁dosage	10
uria	10
▁GP	10
ompound	10
▁Lam	10
▁ethnicity	10
▁realms	10
▁humor	10
▁Hold	10
bur	10
▁equinox	10
▁Usman	10
▁sentiments	10
▁believ	10
▁stirr	10
▁inundated	10
NZ	10
▁reconstruction	10
eus	10
▁onward	10
▁Nok	10
▁damp	10
▁climates	10
▁Suhasini	10
▁fet	10
▁Garrett	10
▁Bappi	10
▁Pakhtunkhwa	10
▁Asians	10
▁posting	10
▁Kangana	10
Ho	10
▁Original	10
tally	10
▁facilitate	10
▁Carey	10
▁Gun	10
▁Changes	10
▁contingent	10
fish	10
▁haemorrhage	10
average	10
▁Dracula	10
▁disruption	10
▁Mod	10
▁banknote	10
▁loudly	10
▁Jind	10
▁hammer	10
▁Genesis	10
▁baseline	10
▁indefinitely	10
▁shatter	10
▁messaging	10
▁repaired	10
▁Econom	10
▁Markandeswar	10
▁Sabar	10
▁Bhagwan	10
▁su	10
▁Pyaar	10
▁Kark	10
▁Kalash	10
▁memoir	10
▁Fall	10
▁Rican	10
▁digesti	10
▁fluent	10
▁Asura	10
▁impart	10
▁Kalyana	10
▁Mont	10
▁Gibraltar	10
act	10
▁freezer	10
▁chapel	10
▁detention	10
▁Nasik	10
▁Testament	10
▁dictated	10
ea	10
▁initiation	10
▁Ramna	10
▁Shakespeare	10
▁bracket	10
▁AEK	10
▁namespace	10
▁hotspot	10
▁Edo	10
▁Op	10
▁Herat	10
▁browsers	10
ada	10
▁shifts	10
α	10
▁punched	10
▁chemotherapy	10
▁Marty	10
fire	10
▁poach	10
▁castling	10
▁interrogation	10
ulu	10
achen	10
vis	10
sham	10
kh	10
▁mined	10
▁astound	10
▁Photos	10
llah	10
▁curved	10
▁Animation	10
▁forwards	10
▁declar	10
▁censored	10
nne	10
▁Fatehpur	10
▁passer	10
▁fragmented	10
▁peaked	10
▁enabl	10
▁peel	10
dh	10
▁Chutia	10
▁specimen	10
▁Block	10
▁jagir	10
▁embodi	10
▁Prayer	10
▁pageant	10
▁coral	10
▁rigid	10
▁lightweight	10
▁Praja	10
▁Namchi	10
▁Bluetooth	10
▁showcas	10
▁Kolar	10
▁scarcity	10
iam	10
▁mucus	10
▁Chancellor	10
▁Bride	10
▁dear	10
▁Uzbek	10
▁recited	10
▁Alupas	10
ndum	10
dependent	10
▁stationary	10
mark	10
rim	10
▁devil	10
▁Goals	10
▁Chenab	10
▁Tera	10
bani	10
▁elimination	10
marked	10
▁Lunchbox	10
ou	10
graphical	10
▁pelvi	10
▁Fraser	10
Brahmin	10
▁curb	10
▁Peer	10
▁Seema	10
▁Tampa	10
▁Hugh	10
▁Ashish	10
▁Sarnia	10
▁JavaScript	10
ain	10
▁Klein	10
▁watery	10
▁Greg	10
▁Turing	10
▁Vale	10
▁Tulu	10
▁Aditi	10
lane	10
▁Specific	10
▁Twelve	10
▁seafood	10
▁contestant	10
▁smartphones	10
▁Kabhi	10
▁circulat	10
▁Elementary	10
▁Sab	10
▁Karbala	10
▁Ele	10
▁clusters	10
jam	10
▁Bale	10
▁prostitutes	10
▁Oral	10
▁Sittan	10
▁Come	10
▁wette	10
▁cardinal	10
▁publishers	10
stage	10
▁galaxy	10
▁rebate	10
▁lock	10
divisions	10
▁flavour	10
ancy	10
cock	10
lender	10
▁Bed	10
▁comedian	10
▁Brahm	10
▁Kanya	10
▁sweating	10
▁Gosthani	10
▁mucosa	10
▁corridor	10
kaya	10
▁heavi	10
▁Ming	10
▁Gray	10
▁Gautamiputra	10
▁Magh	10
▁Husain	10
amniotic	10
▁sac	10
▁demise	10
oca	10
▁Estate	10
ado	10
▁qi	10
▁bronchitis	10
▁suspend	10
▁bilingual	10
▁entrances	10
▁Orlando	10
▁Cameroon	10
▁Kuttanad	10
▁pulse	10
arid	10
▁Jats	10
▁Broncos	10
▁Father	10
▁Chit	10
shooting	10
▁Solapur	10
▁Bit	10
▁sediment	10
▁Tomatoes	10
▁Xinjiang	10
▁poisonous	10
▁silambam	10
▁researching	10
Krishna	10
▁Je	10
▁Pilgrims	10
▁Sale	10
▁conventional	10
▁coron	10
▁Georgetown	10
▁nationalism	10
gon	10
illa	10
▁Raghav	10
ters	10
▁accidental	10
▁hostages	10
▁Silk	10
▁weighed	10
LL	10
▁Amavasya	10
ficial	10
▁Varman	10
%–	10
Man	10
▁revers	10
that	10
▁symbolism	10
▁Haida	10
▁advertise	10
▁Bhuj	10
▁observations	10
agi	10
▁Rath	10
▁Mago	10
▁Slave	10
pas	10
▁biopic	10
▁outright	10
▁picnic	10
▁jeans	10
▁duct	10
▁Manohar	10
ager	10
▁Swaraj	10
▁Shubh	10
ssa	10
▁Jill	10
atorium	10
▁Cox	10
▁violently	10
▁Tira	10
erry	10
▁cr	10
▁Ecuador	10
▁Bachelor	10
▁reinforcements	10
▁Mali	10
▁sneak	10
▁addicted	10
▁relic	10
▁Waller	10
▁transfers	10
▁Kuru	10
ele	10
▁Banks	10
▁Blues	10
▁battalion	10
▁substitutions	10
▁frowned	10
▁Nova	10
▁sailboat	10
▁Bury	10
▁poison	10
▁builder	10
▁Declaration	10
▁Mog	10
▁Benson	10
▁conventions	10
▁Vadodara	10
skinned	10
▁shields	10
▁Mulla	10
litz	10
▁polluted	10
▁glu	10
▁Administrator	10
▁Bandhavgarh	10
▁Quarter	10
▁fatalit	10
▁somehow	10
▁lance	10
▁Shirov	10
dolf	10
▁Vajra	10
▁boiling	10
▁pulp	10
anjay	10
▁protectorate	10
▁anthem	10
▁zamindar	10
altitude	10
▁Alexa	10
▁Mid	10
tle	10
▁lesson	10
▁quarantine	10
▁encouragement	10
▁improvise	10
▁sharply	10
tute	10
▁Greenfield	10
▁Sippy	10
mma	10
▁Vijayawada	10
▁contractor	10
tham	10
uwa	10
▁Telegraph	10
▁Vrindavan	10
Citizen	10
▁Pushya	10
▁XL	10
▁Institution	10
▁Coins	10
▁tonight	10
▁Subarnapur	10
▁peppers	10
imal	10
ferred	10
▁Ap	10
▁backgrounds	10
▁fol	10
▁Study	10
▁deny	10
▁Sahi	10
▁pairs	10
▁Bid	10
▁Leeds	10
▁demolished	10
▁meaningful	10
ska	10
▁torch	10
▁Artha	10
▁margins	10
▁tablets	10
ras	10
amount	10
▁seventeen	10
▁hotspots	10
This	10
ano	10
▁Sahyadri	10
▁Abhi	10
rica	10
▁slides	10
▁Meenak	10
▁Noth	10
▁protagonist	10
▁Tourist	10
▁periodicals	10
▁studios	10
▁Davidson	10
proof	10
IS	10
▁Kempty	10
▁traveler	10
▁Kia	10
ARM	10
▁Viacom	10
▁Gendamal	10
av	10
▁Phule	10
▁stoppages	10
dog	10
▁Ver	10
hold	10
▁Huss	10
▁aluminium	10
million	10
boats	10
▁condom	10
▁pulses	10
▁amusement	10
▁intentions	10
▁charities	10
▁fines	10
▁vault	10
▁skipp	10
▁Pampa	10
▁Thoothukudi	10
▁Vy	10
▁Bhaskar	10
▁replenish	10
▁Saga	10
▁Ducks	10
las	10
▁handful	10
▁graduation	10
bearers	10
▁Chandragiri	10
dan	10
▁revolting	10
▁Lauren	10
▁specialists	10
▁inventory	10
▁Touch	10
▁Producer	10
tanque	10
dhini	10
▁mustard	10
meaning	10
▁trap	10
eldom	10
asha	10
▁Kha	10
rtistic	10
ste	10
▁Pachmarhi	10
▁Faro	10
feld	10
▁Jobs	10
▁Bhau	10
▁Viktor	10
▁blocker	10
▁virgin	10
▁Trunk	10
▁Ugadi	10
▁Halifax	10
▁Vats	10
shot	10
lik	10
yi	10
ima	10
▁inserted	10
▁Edition	10
▁loath	10
▁Deol	10
▁quote	10
▁Wetland	10
▁hy	10
ged	10
▁void	10
▁se	10
flicted	10
ṭ	10
rawa	10
▁budd	10
dwar	10
▁encompass	10
▁Darbhanga	10
▁Sangita	10
▁uplift	10
▁Literature	10
▁flourish	10
▁Guyana	10
▁westward	10
▁Forests	10
▁documentation	10
▁bastion	10
▁reproduction	10
▁Highways	10
▁Found	10
GB	10
▁hunted	10
▁Ragh	10
▁Relations	10
▁airplanes	10
▁dagger	10
▁carotenoids	10
▁plasma	10
▁clinically	10
▁endanger	10
▁Lalitaditya	10
ferment	10
▁Foster	10
eller	10
abini	10
▁chronicles	10
mes	10
ei	10
▁evade	10
▁incorrect	10
hy	10
▁thorough	10
▁geese	10
▁gunpowder	10
▁Bhawan	10
▁headphones	10
vasal	10
▁Volk	10
pp	10
▁pl	10
▁licence	10
▁NIT	10
▁explorer	10
▁Fen	10
▁manumitted	10
▁Barry	10
▁Ananta	10
▁Erik	9
▁Marian	9
▁Turn	9
urgical	9
▁debutant	9
▁Tarik	9
▁pilots	9
▁desserts	9
▁Minecraft	9
▁shells	9
▁solf	9
▁posing	9
gy	9
▁boating	9
▁pyramid	9
▁accordingly	9
▁va	9
▁Hur	9
▁rolls	9
▁Manas	9
▁flashback	9
▁Udai	9
▁plantation	9
stan	9
▁contingents	9
nand	9
▁boots	9
nana	9
▁racism	9
▁Philharmonic	9
▁Ple	9
was	9
▁scann	9
▁diagnose	9
▁converts	9
▁fog	9
▁Alme	9
khar	9
▁Brunei	9
Demand	9
▁subspecies	9
▁Maidan	9
▁Narain	9
▁goat	9
cor	9
▁Carol	9
ik	9
▁Natak	9
▁flare	9
▁Hyundai	9
▁Aug	9
▁lips	9
cap	9
▁subtype	9
▁massage	9
▁confrontation	9
▁Amin	9
▁Cop	9
▁Opposition	9
▁franc	9
▁delegates	9
▁vendors	9
▁binary	9
▁Malgudi	9
▁dungeon	9
▁Vivi	9
bet	9
bbed	9
▁tweet	9
▁Federations	9
ination	9
▁crushing	9
▁wo	9
▁sle	9
▁reset	9
▁mastery	9
▁colonialism	9
pi	9
▁Mukh	9
▁Manali	9
▁belay	9
▁Mammootty	9
▁helper	9
▁chaitya	9
▁Hawkins	9
▁Selva	9
▁Ancestry	9
▁Gabriel	9
▁stepping	9
▁sprint	9
inson	9
▁tranquility	9
▁Shabb	9
▁Goal	9
▁outfit	9
hama	9
▁prosecutors	9
▁Yadava	9
▁overthrown	9
▁demographic	9
▁charming	9
▁protocols	9
▁Shak	9
▁kits	9
▁Welsh	9
▁tunes	9
▁Rach	9
▁crazy	9
▁Broadband	9
▁olive	9
▁Nung	9
▁Vaishnavas	9
vin	9
centric	9
scal	9
kbor	9
▁Pulicat	9
▁succumb	9
▁Memphis	9
▁Groningen	9
▁diagnoses	9
▁rectal	9
▁Jog	9
▁Jesu	9
▁fade	9
▁Dee	9
▁Cliff	9
▁Viswanathan	9
zi	9
▁Hemu	9
▁Legal	9
▁compromised	9
▁Does	9
▁nationalists	9
▁slaughtered	9
▁preferences	9
rk	9
▁Ellis	9
▁Morning	9
▁tricks	9
▁detachment	9
▁detest	9
▁Colin	9
▁emptie	9
▁Clean	9
▁agitation	9
▁Zang	9
powered	9
▁efficiently	9
▁Yaj	9
▁Ghiya	9
▁Forum	9
▁Frederick	9
▁canvas	9
▁Freedom	9
▁Screenplay	9
▁Bhaduri	9
▁readi	9
▁beforehand	9
▁Hudson	9
mouth	9
▁harassment	9
▁Gap	9
▁blows	9
pra	9
▁Janjira	9
▁dal	9
▁Leo	9
app	9
▁Mama	9
village	9
▁psychologist	9
arini	9
January	9
▁tightly	9
▁Amrit	9
▁Dhawan	9
▁vex	9
▁Bhoja	9
▁Girnar	9
▁Gandhinagar	9
▁glove	9
▁Regu	9
▁Adriano	9
▁initiat	9
▁SK	9
▁inspect	9
anti	9
Employee	9
▁forgot	9
▁Sulaiman	9
▁Orchha	9
▁fixture	9
sent	9
▁Bhuvaneshwar	9
▁sweeps	9
▁Franz	9
▁offences	9
▁treatises	9
▁Semi	9
oise	9
▁Siddhant	9
▁remed	9
▁prognosis	9
arma	9
▁Banavasi	9
▁consecrated	9
▁Doab	9
▁cathedral	9
fen	9
▁Slowly	9
▁genetics	9
▁Panchal	9
▁Santiniketan	9
▁Shuttle	9
▁Deal	9
▁Subah	9
▁flooring	9
▁volunteer	9
▁Pak	9
▁Suc	9
▁Dewa	9
▁songwriter	9
▁Diet	9
▁unused	9
▁breez	9
▁fortunes	9
▁balloons	9
ished	9
▁Chahamana	9
▁Marathon	9
▁histories	9
rogator	9
▁Tuk	9
▁Gargi	9
▁Uttam	9
▁Buckinghamshire	9
▁Ashokavadana	9
▁Urmi	9
▁journals	9
▁Borphukan	9
▁Celsius	9
▁Chrome	9
▁observers	9
▁declaration	9
▁accessory	9
▁unification	9
▁oz	9
▁Shreya	9
saw	9
▁Amma	9
▁Banc	9
▁Okinawa	9
▁bloodshed	9
▁aggregate	9
▁PayPal	9
boat	9
▁ga	9
▁Lul	9
▁Ashu	9
ave	9
▁Kohli	9
▁Fazal	9
rgen	9
▁knuckle	9
▁economies	9
▁Skardu	9
chin	9
▁Construct	9
fair	9
▁forgive	9
haiva	9
▁ester	9
▁Baz	9
▁Kalyani	9
▁wiki	9
▁outward	9
South	9
dome	9
-$	9
▁Confederate	9
unda	9
▁Aslam	9
▁magnify	9
AX	9
sive	9
▁whitewater	9
▁groves	9
sensitive	9
▁BMX	9
à	9
▁coconuts	9
▁tirth	9
▁Kas	9
▁Products	9
▁myth	9
▁organism	9
▁knife	9
▁Dell	9
ging	9
▁Englishman	9
ag	9
upper	9
acharya	9
▁Fernandes	9
muni	9
▁weightlifting	9
▁empowered	9
▁Tomm	9
▁Juda	9
▁Dharmendra	9
▁Romantic	9
▁officiate	9
▁blogs	9
▁cymbals	9
seema	9
▁Marvel	9
▁Scholars	9
▁Af	9
ING	9
▁Yajnavalkya	9
▁Marl	9
homa	9
▁Kunwar	9
▁Ghori	9
pho	9
▁coma	9
▁Orders	9
▁tectonic	9
▁dragged	9
▁wedd	9
▁Sak	9
▁Murray	9
▁Frei	9
pith	9
▁Jenkins	9
▁Reyes	9
▁melakart	9
eight	9
▁liabilities	9
▁Balasore	9
▁NAD	9
▁Palmer	9
rum	9
▁Gurdwara	9
▁Saptami	9
ema	9
▁Honour	9
atic	9
▁candida	9
▁prosecutor	9
speed	9
▁Dedicate	9
▁chloramphenicol	9
▁Architecture	9
▁revolts	9
▁Nige	9
▁videotape	9
▁Minneapolis	9
▁Wind	9
▁brush	9
▁combatant	9
▁idiom	9
▁vomit	9
▁volatile	9
owski	9
rague	9
▁Explain	9
▁Krono	9
▁tempt	9
▁archer	9
▁impro	9
▁incredible	9
▁Diwas	9
▁nylon	9
▁rod	9
▁AI	9
▁Bung	9
▁uninhabited	9
▁Parma	9
▁recogniz	9
▁Dis	9
▁reviewing	9
▁Meera	9
▁populace	9
▁Gothenburg	9
▁Ranchi	9
▁Hear	9
▁Mandla	9
void	9
pit	9
lier	9
▁handicraft	9
▁lowland	9
▁Charleston	9
sura	9
▁Levi	9
▁Bhad	9
▁interrupt	9
▁Zimbabwe	9
▁comics	9
▁Noor	9
▁boon	9
▁Edd	9
▁Sengupta	9
▁Abhimanyu	9
▁expeditions	9
▁mist	9
▁companion	9
mas	9
▁worshiping	9
▁accent	9
▁etiquette	9
▁Hives	9
▁citizenship	9
asket	9
folding	9
rod	9
▁Hat	9
▁Silambam	9
▁Damascus	9
▁bankruptcy	9
āl	9
bil	9
▁masonry	9
▁poultry	9
▁cru	9
▁Ayurved	9
▁Flight	9
▁intimate	9
▁opined	9
▁misdiagnosed	9
lead	9
▁regeneration	9
ett	9
oni	9
▁shouted	9
▁Kat	9
▁modest	9
▁Khat	9
▁Afghans	9
wani	9
▁isolate	9
▁Helena	9
hee	9
▁restroom	9
▁Asperger	9
▁feasts	9
▁Groom	9
▁tetracycline	9
▁Cell	9
▁Apu	9
▁lateral	9
bach	9
▁portrayals	9
▁Half	9
developed	9
▁Win	9
▁Surma	9
▁rebuild	9
▁promoter	9
▁positioning	9
▁GI	9
dike	9
▁haunting	9
commerce	9
▁hut	9
▁Kannadi	9
▁Bolivia	9
▁rookie	9
▁births	9
▁Balochistan	9
▁terracotta	9
▁Vrishabhavathi	9
withstand	9
▁harness	9
▁atheist	9
▁pump	9
▁Battalion	9
▁unaffected	9
▁grid	9
▁estuary	9
▁Push	9
yal	9
▁Chemical	9
▁Panj	9
▁squadron	9
OS	9
▁decay	9
▁UPA	9
▁Adventure	9
▁inferior	9
ogge	9
▁Est	9
▁discs	9
▁Nedum	9
▁Bach	9
▁primate	9
riyan	9
▁Albania	9
▁logistics	9
▁respectful	9
▁Junnar	9
▁Nu	9
▁mansion	9
▁Roch	9
▁sewer	9
▁shuttle	9
▁Sm	9
▁cottage	9
cl	9
▁Tod	9
bha	9
▁conserve	9
nate	9
▁USSR	9
▁placement	9
▁enforced	9
▁Ume	9
minded	9
▁MLA	9
▁Vivah	9
▁Singham	9
▁Fre	9
spired	9
▁caretaker	9
▁portal	9
▁dinar	9
▁Oak	9
▁encamp	9
itch	9
bas	9
▁pushe	9
▁avail	9
▁brake	9
▁symbolical	9
▁Banga	9
▁Koe	9
▁Lovely	9
▁cute	9
▁satir	9
▁Release	9
▁Base	9
▁Face	9
▁CIA	9
▁Blake	9
▁gray	9
tempted	9
▁Pepper	9
▁Tarain	9
▁Extra	9
▁Drona	9
▁Ny	9
▁wadis	9
▁softer	9
▁Necro	9
▁maj	9
estic	9
▁Ludhiana	9
▁accelerate	9
▁servicing	9
▁Fortun	9
scoring	9
NET	9
▁Paryushan	9
▁merit	9
▁bankrupt	9
▁Josef	9
▁Primarily	9
▁Megasthenes	9
▁BMI	9
▁Gen	9
▁mortar	9
estial	9
amura	9
▁volley	9
▁lumbar	9
▁polls	9
personal	9
▁Lit	9
tava	9
▁programmers	9
▁transparent	9
▁Canar	9
▁Levant	9
▁pipes	9
▁Explorer	9
▁misconduct	9
▁Audio	9
▁Mel	9
▁slash	9
▁pasture	9
▁Ganjam	9
▁fringe	9
▁redness	9
▁Seg	9
▁AutoI	9
Sepak	9
min	9
▁Typ	9
▁lunches	9
wad	9
▁Ramanathan	9
▁supportive	9
▁Felix	9
▁Score	9
Test	9
▁abbreviation	9
▁Kul	9
▁Raceway	9
▁Bud	9
▁Idea	9
▁rainforests	9
than	9
▁designate	9
outs	9
lar	9
▁dentist	9
▁reluctantly	9
medical	9
hoice	9
▁embarrassed	9
▁archipelago	9
▁Leima	9
nie	9
▁senator	9
test	9
▁Scandinavia	9
▁Pin	9
reliance	9
▁cro	9
▁Bazaar	9
sam	9
▁taxation	9
▁deaf	9
▁Aman	9
▁Asha	9
ert	9
▁reconstruct	9
▁antigens	9
▁Cul	9
▁cortic	9
▁slo	9
▁Ani	9
▁recovering	9
▁Surve	9
▁trash	9
▁woods	9
ridge	9
anta	9
▁zoo	9
▁Lagori	9
▁Franconia	9
▁Goenka	9
▁Harihara	9
ury	9
▁tolerate	9
political	9
▁haunted	9
union	9
▁subjugat	9
▁irrita	9
▁Agastya	9
▁Magazine	9
▁chanted	9
▁Catholicism	9
▁satirical	9
mprovisation	9
▁Singer	9
▁brokers	9
▁mal	9
▁Gateway	9
▁Banjar	9
▁explosives	9
▁spontaneously	9
▁spray	9
▁intestin	9
▁Kuttachan	9
▁IBM	9
▁cosmetic	9
▁restoring	9
▁parched	9
▁transactions	9
▁Von	9
▁Perl	9
▁Ir	9
▁seaports	9
▁theoretical	9
▁adviser	9
Son	9
▁Sumatra	9
▁Mer	9
▁Report	9
▁Varaha	9
▁defi	9
▁proclamation	9
▁TCP	9
▁concretions	9
▁Lifestyle	9
▁businessmen	9
▁hamlet	9
▁boar	9
▁sparse	9
▁reefs	9
▁ivory	9
▁Tsangpo	9
accination	9
▁Wear	9
▁Pick	9
▁Surrey	9
moon	9
▁Hanumant	9
ris	9
▁astrological	9
▁deceit	9
▁Kamsky	9
▁Jail	9
evolutionary	9
▁Aj	9
▁wrap	9
▁Victor	9
aurav	9
▁stamina	9
▁jealousy	9
▁Viru	9
paksha	9
▁fianc	9
Plus	9
▁spiral	9
▁tones	9
▁Randh	9
▁Soul	9
▁Jaa	9
▁Adding	9
▁Apte	9
▁Quick	9
▁savanna	9
▁Murphy	9
▁adjectives	9
×	9
▁Navami	9
swamy	9
▁logical	9
▁Harish	9
▁Tab	9
▁Dock	9
▁greener	9
▁Kapur	9
▁Au	9
▁Gangaikonda	9
▁Lalit	9
▁inauguration	9
▁Phool	9
▁investigator	9
▁Adinath	9
▁tapeworm	9
▁additions	9
▁congress	9
▁Ly	9
anatha	9
▁Kin	9
▁Rupee	9
▁impacted	9
▁Juli	9
▁Corporat	9
▁AG	9
▁Anton	9
▁giants	9
▁chromosomes	9
▁Concert	9
▁Lords	9
▁Louise	9
▁newcomer	9
spinal	9
martial	9
▁correlat	9
▁Guptas	9
rguably	9
▁Bhumij	9
▁Election	9
▁Mā	9
▁dissatisfaction	9
▁hermit	9
▁tailor	9
▁Tho	9
▁motifs	9
▁Fateh	9
▁Wellington	9
▁Grantha	9
aux	9
▁distributor	9
▁Moti	9
▁reinstated	9
▁progresses	9
▁Vietnamese	9
▁Maybe	9
mol	9
hoe	9
▁industrialist	9
▁conceded	9
▁algae	9
▁lease	9
▁inflamed	9
▁Chowdhury	9
▁Savitri	9
▁lighthouse	9
▁Nigerian	9
▁Wolf	9
▁Mukerji	9
going	9
▁Zari	9
▁attractive	9
opted	9
▁betel	9
▁reelection	9
▁tendenc	9
▁confirmation	9
▁diagrams	9
▁Mangala	9
ulent	9
▁Hathi	9
▁Sneha	9
▁Historian	9
▁Juniors	9
▁Program	9
▁lonely	9
undi	9
▁befriends	9
▁hatch	9
▁bunch	9
▁neighbourhoods	9
▁Goli	9
▁casts	9
alur	9
▁souls	9
inz	9
tsu	9
hum	9
▁motorcycles	9
▁throng	9
▁campsites	9
iff	9
▁Jungle	9
▁laundr	9
▁Giants	9
▁postpone	9
▁Jamuna	9
▁stagger	9
▁Fuku	9
▁Ghazni	9
▁Shrut	9
▁Debt	9
▁proceeding	9
▁Julia	9
▁Ora	9
▁discretion	9
bed	9
▁Italians	9
▁Few	9
▁accurately	9
▁hetero	9
▁vitamins	9
▁tracing	9
TE	9
▁Version	9
▁Kaz	9
▁Sang	9
chana	9
▁cab	9
▁Shaw	9
▁Koel	9
▁guilt	9
▁Khosla	9
▁Karur	9
▁configuration	9
▁Sullivan	9
▁bal	9
▁Serge	9
▁lap	9
▁Mandovi	9
▁Siruvani	9
▁stern	9
▁Swin	9
▁Cameron	9
▁physicians	9
▁exclude	9
Me	9
acoustic	9
▁cushions	9
▁Mason	9
▁hemorrhoids	9
aab	9
▁Rewa	9
▁Bellevue	9
chen	9
ue	9
▁sore	9
▁roofs	9
▁statins	9
uvallam	9
▁terminals	9
▁overlai	9
▁Burg	9
▁primitive	9
pia	9
▁Mahayan	9
threatening	9
▁Holmes	9
iti	9
▁snapped	9
stmanland	9
▁vener	9
tz	9
▁Gelfand	9
▁literate	9
▁Scotia	9
▁Babr	9
uli	9
▁cocaine	9
▁Mistress	9
▁Belarus	9
▁autopsy	9
▁Kasaragod	9
▁investigations	9
▁append	9
▁chills	9
▁miniature	9
▁jungles	9
▁textual	9
▁Vela	9
▁screenwriter	9
▁consoles	9
▁decoration	9
aram	9
vision	9
▁stenosis	9
hola	9
pact	9
ich	9
HA	9
▁Wai	9
gling	9
▁Bhaga	9
▁Wien	9
▁Thalassery	9
▁Kot	9
▁lithium	9
▁accumulation	9
ertussis	9
▁stump	9
▁CFP	9
cost	9
▁Balan	9
▁Ce	9
▁Kangla	9
▁Andamans	9
illo	9
▁akharas	9
▁Illustrat	9
guchi	9
▁timer	9
▁Kingston	9
▁Mandala	9
▁Pixel	9
▁Puthandu	9
▁Ghan	9
lix	9
▁Brother	9
▁spicy	9
▁Leave	9
▁Birds	9
▁Vasu	9
▁Returns	9
▁serpent	9
▁dung	9
▁encephalitis	9
▁injur	9
▁syrup	9
▁genius	9
▁yes	9
▁astigmatism	9
▁conjugation	9
▁fronts	9
▁Creat	9
▁Mamluk	9
▁Saiba	9
ugh	9
▁disciplin	9
▁Boer	9
▁static	9
▁hemisphere	9
▁Wing	9
▁likewise	9
▁empowerment	9
▁Thi	9
moorthy	9
▁summon	9
▁cups	9
ń	9
▁Hoysalas	9
▁nua	9
▁Saturn	9
apada	9
▁shortest	9
▁porridge	9
▁Shimoga	9
▁resounding	9
▁governorship	9
▁Kamaraj	9
▁Egyptians	9
▁Target	9
▁Cavani	9
▁muc	9
▁Pavel	9
▁sacrificed	9
▁Lodge	9
▁Benares	9
▁Henri	9
▁talents	9
▁unknowingly	9
▁Nava	9
▁Angola	9
▁Iberia	9
rā	9
▁Shyam	9
▁outfield	9
▁Catherine	9
mmer	9
▁Debian	9
▁Parvatamma	9
▁ornamentation	9
▁hymn	9
▁Nicaragua	9
▁enthusiastic	9
▁domesticate	9
▁Pindar	9
▁Qureshi	9
▁BCCI	9
wazarat	9
▁Jadhav	9
▁quarterly	9
▁Sarawak	9
▁Chhatra	9
▁feudatory	9
▁erect	9
▁importantly	9
ordinate	9
▁recognise	9
fu	9
▁artisan	9
▁Patrika	9
▁roses	9
▁precipitat	9
▁chores	9
ose	9
▁Varg	9
agh	9
ific	9
▁multiplex	9
ratha	9
▁Manusmriti	9
▁Canucks	9
shah	9
▁cyclist	9
▁suicidal	9
▁Tirur	9
▁cents	9
▁tags	9
▁Complete	9
▁peer	9
▁deformities	9
hor	9
▁Shabbu	9
▁prestige	9
khana	9
▁salesman	9
orp	9
▁Bristol	9
borne	9
▁Than	9
LC	9
▁Arrow	9
▁hump	9
▁Typhoid	9
drug	9
▁Pocket	9
▁unlimited	9
communicated	9
▁Lad	9
▁Vidarbha	9
▁Kata	9
▁hails	9
▁Baltic	9
▁Curtis	9
▁Anamalai	9
▁Prati	9
▁unpaid	9
▁chiefdoms	9
▁hunter	9
▁Omaha	9
▁Perry	9
▁INF	9
▁masked	9
▁Tripathi	9
distance	9
▁handles	9
▁ecology	9
▁Hindal	9
▁Zor	9
▁concussions	9
operative	9
▁bypass	9
▁unsafe	9
▁Duck	9
▁wires	9
RT	9
▁Siddhartha	9
eswara	9
▁lesbian	9
▁conduc	9
▁gallons	9
aked	9
▁Kenne	9
▁Shaktism	9
▁Koirala	9
▁Sarovar	9
▁Gene	9
▁Blackhawks	9
▁enterprise	9
▁Krishnagiri	9
gotten	9
ack	9
▁Stay	9
▁salad	9
▁clashes	9
▁sportsmanship	9
▁Vol	9
▁Stores	9
GM	9
▁moderniz	9
▁satisfy	9
▁precursor	9
▁biopsy	9
▁Kaala	9
ondapalli	9
köping	9
▁unhealthy	9
▁clemency	9
▁Dey	9
risk	9
▁Yuvra	9
▁Sims	9
▁Gau	9
▁Bitcoin	9
▁starvation	9
▁Itanagar	9
▁inclination	9
▁Indication	9
▁Spy	9
▁Muchhal	9
▁Yucat	9
▁regulatory	9
▁Flat	9
▁vassal	9
▁trusts	9
▁expenditure	9
yokushin	9
▁signaling	9
▁prohibit	9
▁Guna	9
▁Chanda	9
hill	9
▁Hiranyakashipu	9
▁Wimbledon	9
▁Lung	9
▁Teerth	9
▁Katrina	9
▁primogeniture	9
lund	9
tag	9
▁Fashion	9
▁tray	9
PCA	9
roots	9
sun	9
▁Eagles	9
▁Roopkund	9
▁Koh	9
▁grenades	9
▁Lack	9
▁preview	9
▁Leth	9
▁Sabbarwahl	9
family	9
▁Wo	9
▁hull	9
producing	9
▁Bergman	9
▁dominating	9
ckett	9
▁Mitchell	9
▁settlers	9
▁inflow	9
▁Assum	9
▁rebound	9
▁invocation	9
▁Kaushik	9
arrell	9
▁securities	9
▁Wisd	9
▁sunburn	9
▁Palitana	9
▁circus	9
tek	9
▁attribute	9
▁demonstrative	9
▁Bentley	9
▁Marge	9
▁Damaji	9
formidable	9
▁Ghaggar	9
Moo	9
IT	9
eel	9
▁pill	9
inda	9
cr	9
▁resting	9
▁thunderstorms	9
▁Valu	9
▁Calvados	9
eder	9
▁Mallick	9
▁Thrashers	8
▁Pasc	8
▁Habo	8
▁playful	8
ip	8
▁storing	8
▁barrister	8
complete	8
▁Realiz	8
▁coup	8
ubert	8
noir	8
▁captives	8
▁probe	8
central	8
▁Quli	8
esar	8
▁Mana	8
▁Sebastian	8
rising	8
▁Girl	8
▁optional	8
▁Nicator	8
▁Babylon	8
▁sprints	8
▁Leadership	8
▁Anirud	8
▁Nitin	8
▁Reform	8
▁hostel	8
▁scenery	8
▁Marco	8
▁Stuart	8
▁Naperville	8
plateau	8
▁SH	8
▁bans	8
▁CPA	8
▁plots	8
iction	8
▁Archive	8
▁candies	8
▁graceful	8
arthikeyan	8
▁annex	8
▁wardrobe	8
▁Mart	8
▁Akademi	8
▁anthropologist	8
fat	8
urlington	8
▁vigorous	8
▁Dictionary	8
▁Famili	8
▁incorrectly	8
▁pumps	8
▁correlate	8
echa	8
▁Kom	8
▁plea	8
▁Guil	8
▁Luci	8
lle	8
▁tire	8
▁Pashtun	8
▁alarming	8
▁railroad	8
▁Edmonton	8
▁Triple	8
▁Ami	8
▁Mahmud	8
▁Talkies	8
▁Capit	8
fitting	8
▁mornings	8
▁Prasha	8
▁Mithila	8
▁Sandy	8
dollar	8
▁Estimates	8
▁barriers	8
▁Bella	8
EP	8
▁pharmaceutical	8
▁Aero	8
▁Crore	8
▁devolve	8
dogleg	8
▁noon	8
▁Communication	8
▁refrain	8
▁offside	8
▁Thiru	8
▁visa	8
▁destroying	8
▁Vij	8
▁coat	8
▁Gondi	8
added	8
▁fascinat	8
▁Masterda	8
arkot	8
su	8
▁Schwarzer	8
▁Anga	8
wheel	8
▁Campus	8
▁Nago	8
▁Tournaments	8
▁notion	8
▁Product	8
▁Ganj	8
▁Khatr	8
▁Handi	8
▁Writer	8
▁visualiz	8
▁Plu	8
▁Raso	8
ambakkam	8
▁propose	8
▁Valentin	8
▁knot	8
▁Falk	8
▁AA	8
▁thali	8
▁Sud	8
▁defencemen	8
▁orphanages	8
▁Trail	8
▁Tut	8
▁Xavier	8
▁Electronics	8
▁zodiac	8
▁Pulmon	8
▁twelfth	8
▁renounc	8
dian	8
▁Zu	8
▁promptly	8
▁Khiladi	8
▁Martinique	8
▁smashed	8
you	8
▁Gat	8
ire	8
▁Nadiadwala	8
▁Prat	8
eik	8
▁Ardha	8
▁ivermectin	8
any	8
▁impede	8
▁Vijayanagar	8
indwara	8
▁Manda	8
▁Battuta	8
▁Fabi	8
llo	8
▁Method	8
▁Karimnagar	8
▁financing	8
▁Offer	8
▁Minar	8
▁Sawai	8
▁portraits	8
golden	8
shan	8
▁Resi	8
▁Dog	8
▁predator	8
aekwondo	8
ngry	8
▁slate	8
▁taunt	8
▁chewing	8
structed	8
▁Peoria	8
▁reviewer	8
▁unifi	8
▁Nir	8
▁Phantom	8
▁Selena	8
▁Interior	8
▁seize	8
▁beverages	8
▁budgets	8
▁parcel	8
▁compliment	8
▁compel	8
He	8
▁Villages	8
▁planets	8
▁Craigslist	8
▁Tukaram	8
▁subtract	8
▁Gamb	8
▁slippery	8
▁Muziris	8
▁Treasure	8
▁YMCA	8
▁Machine	8
▁cry	8
▁bark	8
riya	8
▁Disc	8
oundtrack	8
▁Ah	8
▁cartoon	8
▁segments	8
▁Tantra	8
▁bonuses	8
▁outage	8
▁bargains	8
▁seams	8
▁Tex	8
▁morbidity	8
▁Midwest	8
▁Kaithal	8
▁Karnal	8
MB	8
▁Consum	8
media	8
empt	8
▁Gurdas	8
▁commute	8
nouns	8
▁Oriental	8
▁Towers	8
tuna	8
▁Gift	8
▁shorthanded	8
▁Pam	8
▁steamed	8
▁oppress	8
▁handgun	8
▁Drew	8
▁Fry	8
▁Kolathiri	8
▁Michelin	8
mind	8
acre	8
▁Ishwari	8
▁Million	8
▁shelved	8
▁Ste	8
bak	8
▁noteworthy	8
lich	8
▁contexts	8
▁Ellora	8
bhum	8
▁Ero	8
▁exclud	8
kira	8
▁survives	8
▁seminar	8
▁acre	8
▁assessed	8
▁Fauji	8
▁disposal	8
▁Vikings	8
▁pertain	8
▁pins	8
oti	8
▁Musk	8
mel	8
▁Sw	8
▁Sabbath	8
▁cessation	8
▁Bactrian	8
▁Reza	8
▁Devta	8
hadava	8
▁hydropower	8
▁continually	8
▁accrue	8
▁Kaul	8
▁premise	8
▁lawmakers	8
Shravanabelagola	8
kan	8
▁pause	8
bag	8
▁Pot	8
▁Rosen	8
▁dub	8
▁pat	8
▁addict	8
▁Galicia	8
▁Bedi	8
▁accomplishments	8
chested	8
thyroid	8
bh	8
▁Awam	8
▁Stalin	8
▁advertised	8
▁valor	8
▁smells	8
ön	8
▁Zagame	8
▁Gulshan	8
▁nitr	8
▁factions	8
musti	8
▁Kalidasa	8
▁sporadic	8
erie	8
▁mute	8
▁pelvis	8
▁relegat	8
▁Process	8
▁Khandesh	8
▁exceeding	8
pound	8
ified	8
▁Style	8
BCD	8
Sa	8
▁Majesty	8
thik	8
▁mobilis	8
▁ST	8
pod	8
▁Neymar	8
avo	8
kers	8
▁Capitals	8
▁Sanders	8
▁IPv	8
▁mills	8
▁Comp	8
▁rods	8
▁Mrs	8
▁nritta	8
▁setback	8
▁Suru	8
▁swallowing	8
▁immoral	8
▁uploading	8
▁enzymes	8
▁Prabhu	8
▁protagonists	8
▁Robin	8
▁fictitious	8
▁corrected	8
▁roti	8
▁Banas	8
kanth	8
▁guys	8
▁Passion	8
▁laden	8
▁Dancer	8
▁Element	8
▁Mukt	8
▁Auro	8
gata	8
phaki	8
▁kriti	8
▁cycles	8
▁Danes	8
▁Michelle	8
▁Farukh	8
▁Kona	8
▁definitions	8
▁assay	8
TC	8
▁milder	8
▁Zen	8
▁Dhoom	8
▁orphan	8
ude	8
▁jizya	8
▁Kap	8
▁BPD	8
▁gum	8
▁guarantees	8
▁Patil	8
▁Poona	8
hita	8
nkara	8
▁Pillai	8
▁Alappuzha	8
▁Nandita	8
ibo	8
▁Bharath	8
▁drills	8
▁Gale	8
▁abhorrence	8
▁Chill	8
▁Parbat	8
od	8
alu	8
▁Gingee	8
▁bombers	8
▁Companion	8
▁Agarwal	8
▁Rourkela	8
▁tabla	8
▁dangers	8
▁flawed	8
▁Singha	8
▁Brij	8
▁rāgams	8
▁feathers	8
▁recurring	8
▁Nixon	8
▁Pt	8
▁bacill	8
▁Panna	8
▁kalaripayat	8
▁OS	8
▁Tyler	8
▁Sultanpur	8
▁inflation	8
rus	8
▁Dwarka	8
▁Window	8
▁suck	8
▁Purna	8
▁recipients	8
▁dexterity	8
mptu	8
▁neem	8
▁ME	8
▁pose	8
▁transfusions	8
▁immersion	8
wai	8
▁balances	8
▁und	8
▁Nazir	8
▁cre	8
▁Zoroastrianism	8
▁Examinations	8
▁Bing	8
▁Pipe	8
▁Collection	8
pplause	8
▁Sajid	8
▁heroes	8
▁CBC	8
▁Register	8
▁aneurysm	8
AV	8
▁gaps	8
▁dislike	8
▁premium	8
▁Sarah	8
▁Erode	8
▁Kichaka	8
▁Anubhav	8
▁Tribal	8
▁heirs	8
▁Elder	8
▁vet	8
ACP	8
▁Gai	8
▁Cycl	8
▁Deul	8
▁plateaus	8
▁Yogācāra	8
▁Holding	8
▁Richa	8
ture	8
▁bhava	8
▁Bharathapuzha	8
▁biryani	8
▁Rotterdam	8
sanas	8
▁Caucasus	8
▁Gilli	8
▁speaker	8
▁masala	8
▁polished	8
▁Chart	8
▁Alexei	8
▁bubble	8
▁Edict	8
Tamil	8
▁Kranti	8
▁hardship	8
▁jack	8
▁sturd	8
▁Broughton	8
very	8
▁tele	8
▁gesture	8
▁gratitude	8
▁Pangal	8
▁sliding	8
▁ripped	8
▁predictable	8
▁Bond	8
▁nomads	8
▁Kailash	8
▁partitions	8
▁banya	8
▁bundle	8
▁Czechoslovakia	8
▁abhinaya	8
▁sweep	8
▁insert	8
▁Valli	8
▁Andr	8
▁adequately	8
resh	8
▁thi	8
▁landlord	8
yield	8
▁Fruit	8
▁Chogyal	8
▁Valmiki	8
▁Lars	8
iliary	8
▁acidic	8
▁drafting	8
▁Haydon	8
▁inclusive	8
▁brave	8
▁Toy	8
▁diabetic	8
▁Property	8
▁Turin	8
▁aforementioned	8
▁enrage	8
nuj	8
▁agglomeration	8
DT	8
▁deleted	8
PD	8
▁shopped	8
▁SBS	8
▁Official	8
▁assassinate	8
▁Bang	8
▁compatib	8
▁proud	8
▁Mail	8
lla	8
▁Join	8
▁problematic	8
ably	8
▁gatka	8
▁Never	8
PR	8
▁puff	8
▁jersey	8
▁Mustaine	8
▁occupancy	8
▁Briton	8
▁betrayal	8
▁Praga	8
▁Paschim	8
▁splits	8
▁affiliation	8
▁seeming	8
▁Mahabodhi	8
▁interspers	8
▁Amarkantak	8
▁inaccurate	8
▁establishments	8
strong	8
ug	8
▁DD	8
▁hematoma	8
▁Er	8
▁droop	8
▁Kash	8
pore	8
kilometre	8
▁alleviat	8
▁Il	8
▁Thor	8
nio	8
▁Teri	8
▁notify	8
▁Sharia	8
▁Expert	8
▁Squad	8
actress	8
▁Ace	8
▁tetra	8
▁Nataraja	8
eutic	8
infected	8
▁Hussein	8
▁Niraval	8
▁candle	8
▁fantastic	8
ayam	8
▁forestry	8
Mulk	8
block	8
▁apple	8
▁succeeds	8
rali	8
▁Bhasha	8
▁domains	8
▁Dudushi	8
▁Albanian	8
▁McNeil	8
▁spectacle	8
▁plight	8
▁disciplined	8
▁transfusion	8
▁Cincinnati	8
▁Raghunath	8
▁disliked	8
▁medalist	8
▁joke	8
▁systematiz	8
lemish	8
▁solidarity	8
▁Aparajito	8
kta	8
▁FY	8
▁Roo	8
▁dismount	8
▁swinging	8
adil	8
▁que	8
▁strand	8
deally	8
▁Ruknuddin	8
▁deposed	8
▁Dampier	8
rominent	8
▁Nagarjuna	8
amangalam	8
▁malla	8
▁Coconut	8
▁exploited	8
▁Gay	8
▁grazing	8
▁License	8
▁knights	8
▁bustl	8
▁hi	8
▁chathusra	8
erna	8
▁Uttarayan	8
▁Gyal	8
▁propel	8
▁disbanded	8
▁bravery	8
▁converge	8
alkot	8
▁eponymous	8
▁elites	8
▁screenings	8
▁Srirangapatna	8
SR	8
▁Chitra	8
▁determination	8
▁reflux	8
▁subjugation	8
roy	8
omycin	8
▁Vanuatu	8
▁Gua	8
▁Pyar	8
▁shopkeeper	8
▁Khamt	8
▁figurines	8
▁Kartikeya	8
▁associates	8
▁firefighters	8
▁Geoff	8
▁libel	8
▁tubes	8
▁recur	8
▁Suz	8
judge	8
▁Maj	8
▁Harrow	8
▁Mos	8
apana	8
▁thoracic	8
▁hazards	8
▁Khasa	8
▁Hooda	8
▁GitHub	8
▁Manav	8
▁bidding	8
vala	8
▁surely	8
idden	8
▁obese	8
▁Shakta	8
▁Obero	8
ocieties	8
▁calculat	8
▁brainstem	8
kote	8
social	8
hampa	8
popular	8
▁Christine	8
cat	8
▁Concord	8
ither	8
▁jacket	8
▁Powerboat	8
▁Frenchman	8
May	8
▁stalls	8
azi	8
▁Mika	8
▁chocolates	8
▁jewels	8
▁OK	8
▁unify	8
▁Sonia	8
Script	8
▁Rescue	8
▁Yemen	8
▁Siddis	8
▁outdated	8
▁Oka	8
▁Olympians	8
▁Harbour	8
kottai	8
ats	8
▁Spa	8
▁Chance	8
▁goalies	8
▁Alba	8
▁accuse	8
▁nightmare	8
familiar	8
▁Bhatta	8
▁unavoidable	8
▁receivers	8
giving	8
bandhu	8
▁Florence	8
wling	8
▁Shipp	8
cute	8
▁Horse	8
▁organisers	8
look	8
hana	8
▁Chala	8
fended	8
▁Archie	8
▁aggressively	8
▁cradle	8
arna	8
cont	8
▁Yana	8
▁Karratha	8
zing	8
▁Madam	8
▁nightclub	8
▁Varuna	8
▁fragrant	8
▁shades	8
▁cytoplasm	8
▁clerics	8
Kho	8
▁bards	8
▁Draft	8
▁Lub	8
IOC	8
▁communicat	8
tories	8
▁Greene	8
eo	8
▁Suburban	8
▁amendments	8
ically	8
▁meadows	8
▁scrutiny	8
▁Bhagalpur	8
ulia	8
▁Offshore	8
eyed	8
▁Collie	8
▁Garos	8
▁Cons	8
herbal	8
▁umbrella	8
▁urgency	8
▁imaginary	8
▁Sandeep	8
▁Varnam	8
▁retention	8
rasa	8
▁memorable	8
▁Burhanpur	8
▁orchids	8
rah	8
ntya	8
▁precautions	8
▁inaccessible	8
▁Arimba	8
▁autos	8
▁diffuse	8
▁soles	8
▁salutation	8
naga	8
virus	8
▁Adria	8
▁Laing	8
position	8
▁tastes	8
▁tune	8
▁strabismus	8
▁secularism	8
▁fingerprint	8
▁molest	8
▁equivalents	8
▁Crete	8
▁Somayaj	8
▁inevitable	8
LF	8
▁embellished	8
▁Urvashi	8
▁Moham	8
▁stairs	8
▁pudd	8
▁sociolog	8
▁Vizier	8
▁Countries	8
▁Vishwakarma	8
▁Mappilas	8
TR	8
▁Ritesh	8
▁Santragachhi	8
bit	8
▁Jayasi	8
▁trails	8
leen	8
▁reasonabl	8
haranam	8
▁souvenir	8
▁hydel	8
▁Moran	8
nov	8
▁robot	8
▁Debal	8
▁sambar	8
ence	8
▁Munnar	8
▁owls	8
▁Domingo	8
▁Paes	8
▁Speaking	8
▁rhinoceros	8
▁temperate	8
▁manoeuvre	8
chy	8
illan	8
▁Bosque	8
IBN	8
▁Centers	8
nidhi	8
gnant	8
▁freight	8
▁hypothesis	8
▁Serious	8
▁encode	8
ec	8
▁politically	8
▁Gaga	8
▁Jaffrey	8
▁Amjad	8
▁Azmi	8
▁feudatories	8
▁butcher	8
khan	8
budget	8
oi	8
▁Gro	8
icycle	8
▁Len	8
▁Panhandle	8
▁Shilpa	8
▁Ljusdal	8
race	8
▁Banganga	8
▁sectoral	8
▁Sesotho	8
rung	8
▁Padmanabha	8
▁incomes	8
▁exo	8
▁Cause	8
▁Gilbert	8
▁Baker	8
▁Tanna	8
▁Parcs	8
▁cobalt	8
▁Cholapuram	8
esvara	8
▁Gospels	8
▁Kari	8
coloured	8
▁braid	8
▁Compar	8
▁Shaivite	8
▁Everest	8
▁realiz	8
▁keyboards	8
▁mg	8
Sun	8
▁Grenada	8
PGA	8
▁Belgrade	8
▁weaker	8
▁Mai	8
▁slot	8
▁lymphoma	8
▁manifestations	8
▁ware	8
lcerati	8
araja	8
▁haze	8
▁Clarke	8
▁euro	8
▁Hooghly	8
▁awe	8
▁Imam	8
▁spiritually	8
▁Idamalayar	8
▁solved	8
▁endgame	8
▁puncture	8
reyi	8
osa	8
▁semester	8
▁Ame	8
opav	8
▁assign	8
▁Shikoh	8
vel	8
▁Gre	8
▁ripe	8
▁gaze	8
▁Mango	8
▁Entrance	8
▁Caesar	8
ritten	8
▁lawn	8
▁unfortunately	8
▁Amr	8
▁medic	8
▁denial	8
▁lila	8
iac	8
▁psoriasis	8
▁Betty	8
▁profiles	8
▁curry	8
▁Paradise	8
remedy	8
▁Margao	8
famous	8
▁Antarctica	8
▁domestication	8
bah	8
hut	8
obi	8
▁Ci	8
▁anorexia	8
▁Golmaal	8
▁Johann	8
aga	8
▁lehenga	8
▁jackets	8
▁weir	8
▁observer	8
▁amphibians	8
▁stances	8
▁diagram	8
▁Taba	8
▁Sing	8
▁plead	8
dala	8
beck	8
▁Brahmapal	8
▁Palestinian	8
▁Consult	8
▁crow	8
▁Kushana	8
rolled	8
▁transparency	8
▁chorus	8
▁Gudhi	8
▁Tam	8
▁uphill	8
loved	8
▁ut	8
▁incline	8
▁cas	8
▁Rec	8
▁constituent	8
▁revisions	8
▁stall	8
▁vocalists	8
▁lathi	8
ike	8
▁FBI	8
▁faults	8
▁implications	8
▁upfront	8
▁expose	8
▁Dave	8
▁Shafi	8
▁westwards	8
oon	8
▁Pachai	8
▁Yudi	8
▁khela	8
▁align	8
▁ham	8
▁Territori	8
▁demo	8
ompetitors	8
▁Ratnam	8
▁wilderness	8
▁vanished	8
▁Mahadevan	8
▁measurement	8
▁Color	8
PCR	8
lingual	8
▁suppression	8
▁veto	8
OU	8
▁Fitzsimons	8
▁Lotha	8
▁Pho	8
▁Av	8
▁organis	8
▁infighting	8
▁Composition	8
▁resolv	8
▁Shivalik	8
▁Gent	8
▁Duch	8
▁obstacle	8
▁necessity	8
badi	8
uddha	8
▁Panjim	8
▁Jamyang	8
how	8
▁genitals	8
rek	8
left	8
▁Fil	8
▁breasts	8
azuk	8
▁Malta	8
▁Vin	8
▁Bedfordshire	8
iah	8
▁sprout	8
▁Wil	8
▁Scindia	8
▁Pou	8
ankar	8
▁Pas	8
tina	8
▁mate	8
▁Coloni	8
▁Artists	8
▁pains	8
▁Arlene	8
uba	8
▁Patr	8
ender	8
▁Greenland	8
▁veterinar	8
▁athleticism	8
▁alteration	8
▁Ivan	8
▁Rak	8
▁lover	8
▁Phillips	8
▁cousins	8
▁atrophy	8
▁Chilaka	8
rik	8
▁libero	8
▁demolition	8
▁precursors	8
▁Romanian	8
andra	8
▁unanimous	8
athi	8
▁Swaziland	8
▁Hardy	8
beit	8
asp	8
▁skeleton	8
▁playwright	8
oxide	8
▁generator	8
▁chande	8
▁parrot	8
HS	8
▁granaries	8
▁Jayaram	8
▁Pace	8
▁Aeroflot	8
ercury	8
▁mourn	8
dhi	8
▁deed	8
▁headaches	8
▁offence	8
▁Besant	8
▁rec	8
▁Nilgiris	8
▁tr	8
named	8
▁carriage	8
▁Medina	8
▁horrified	8
▁homosexuality	8
▁Hashmi	8
hing	8
▁Merchant	8
▁endors	8
▁Elite	8
▁murabba	8
balls	8
Le	8
amkutty	8
apuram	8
▁Asiatic	8
▁Venus	8
▁Strato	8
▁grappling	8
katha	8
▁tunnels	8
mont	8
eighton	8
mmit	8
▁hinterland	8
art	8
▁Importance	8
bhumi	8
▁Ganda	8
▁embezzlement	8
▁fr	8
covered	8
▁Burns	8
▁Magistrates	8
▁natives	8
▁refined	8
▁colonists	8
▁Basanti	8
▁Hyde	8
▁Turk	8
▁bend	8
▁coyote	8
▁desperation	8
▁sleepy	8
▁Bij	8
▁fists	8
▁stripes	8
▁Finn	8
▁prank	8
▁Sanch	8
▁vas	8
▁liturgy	8
▁Wire	8
▁angioedema	8
▁mechanics	8
ello	8
▁Sonepur	8
Division	8
▁Lao	8
pecifically	8
▁Ay	8
ilian	8
▁taxed	8
▁shrink	8
ailure	8
▁waterline	8
▁beam	8
▁marrie	8
▁Dhanurveda	8
▁Koil	8
▁Veteran	8
▁intervene	8
▁lympha	8
post	8
▁Soldier	8
▁stretches	8
▁Jehan	8
▁genera	8
▁entertaining	8
gers	8
ightened	8
▁Tanakpur	8
▁spearhead	8
issionaries	8
▁sanctions	8
und	8
▁luxuri	8
▁Keer	8
▁tillana	8
ukkada	8
▁pap	8
pot	8
▁Prakas	8
loo	8
▁Brahmapur	8
release	8
▁em	8
▁Anang	8
▁Tobago	8
ugu	8
▁meander	8
▁Pon	8
▁alarmed	8
▁Soni	8
gupta	8
▁CDs	8
▁Amid	8
ols	8
▁sway	8
▁Crosby	8
▁Zanjeer	8
iggins	8
▁womb	8
▁rats	8
ffer	8
▁fin	8
DP	8
▁regrets	8
▁Gori	8
▁Bhupathi	8
▁Sit	8
▁Technical	8
▁Parsi	8
▁Driver	8
▁Chilika	8
▁hindered	8
▁mathematical	8
▁siderosis	8
▁Spielberg	8
▁adolescent	8
▁Kurnool	8
ongenital	8
▁Pap	8
▁Nema	8
▁centimetres	8
▁swimmers	8
▁Blocks	8
▁pollut	8
▁cues	8
▁Saur	8
▁vitreous	8
ope	8
▁imagery	8
ttuvan	8
▁Homo	8
▁spells	8
▁Prana	8
▁escaping	8
▁premature	8
▁Mig	8
▁resid	8
▁Vladimir	8
▁Khamnu	8
Fit	8
▁peacock	8
▁Swara	8
nick	8
▁Idol	8
▁blank	8
▁modify	8
▁Awadhi	8
▁Sakas	8
▁expires	8
ì	8
▁rivulets	8
anba	8
solated	8
▁enlightenment	8
▁spam	8
▁mascots	8
hese	8
▁PK	8
▁bishops	8
▁apprentice	8
▁incredibl	8
▁Prema	8
▁Ashtami	8
onde	8
▁messenger	8
kola	8
fowl	8
▁Chittorgarh	8
▁easie	8
▁HI	8
▁Dogra	8
▁Keshav	8
▁thunder	8
▁Emmy	8
▁convergen	8
▁halfway	8
▁eco	8
iu	8
▁Badaun	8
▁Kunwari	8
▁Spark	8
▁erratic	8
▁runoff	8
▁Haven	8
▁sideline	8
▁bytes	8
continent	8
▁Chao	8
growing	8
▁Peak	8
▁Sathya	8
▁Kangsa	8
▁Nahar	8
▁Lantern	8
▁Quilon	8
▁Const	8
▁levy	8
▁ratt	8
▁Yard	8
paracetamol	8
▁CLP	8
▁iconography	8
▁IK	8
▁skater	8
▁overhead	8
▁vertebra	8
inu	8
▁constraints	8
▁friendlies	8
▁Rajah	8
▁Kris	8
▁Buzzi	8
▁morpholog	8
▁Painting	8
▁authorise	8
▁kilometer	8
▁fibrosis	8
▁Chel	8
▁Thoibi	8
▁Khuman	8
▁Dahan	8
▁rebellio	8
▁stigma	8
▁obstruct	8
▁Brisbane	8
▁Dileep	8
▁Nandini	8
▁harmonious	8
▁Beat	8
▁risky	8
▁Desh	8
▁Islamabad	8
▁ASCII	8
▁FreeBSD	8
▁Naveen	8
▁Amba	8
ume	8
awab	8
verse	8
▁Indi	8
▁pomp	8
▁perforation	8
▁Dharam	8
▁Alexandr	8
dag	8
▁leaking	8
▁Bak	8
▁Vidh	8
▁lean	8
▁necklace	8
▁gorges	8
Na	8
▁Ballet	8
▁Bhargava	8
▁Dhana	8
▁hospitalization	8
▁morale	8
▁Ptolemy	8
▁coelom	8
▁apparatus	8
▁tumbling	8
▁veena	8
▁bo	8
▁flock	8
WC	8
▁Peacock	8
▁inundation	8
▁extoll	8
▁durable	8
▁remorse	8
▁Chong	8
umpha	8
▁vihara	8
▁conspir	8
▁PB	8
▁Sushant	8
▁Berar	8
ocks	8
▁envi	8
▁accomplish	8
▁yell	8
▁semifinal	8
▁airplane	8
dol	8
▁Heaven	8
▁Phul	8
▁advancement	8
▁CPI	8
▁Jeetendra	8
llegal	8
▁Vishwaroop	8
▁creature	8
▁chairs	8
▁fiberglass	8
▁cedar	8
▁Musa	8
▁Kheda	8
▁statistics	8
▁clot	8
▁Rohillas	8
▁Transit	8
▁sorrowful	8
▁archiv	8
mental	8
▁Ac	8
▁Beautiful	8
▁stained	8
aha	8
starring	8
ostomy	8
▁rum	8
▁Patani	8
num	8
▁Hemisphere	8
▁Books	8
▁Kalahandi	8
▁Kr	8
▁Kempe	8
▁pharmacy	8
▁Jeremiah	8
▁thicker	8
cho	8
nayana	8
fledg	8
▁Masrur	8
▁eastwards	8
vested	8
▁Messenger	8
SN	8
▁intrigues	8
▁nodules	8
▁Jhodi	8
▁contenders	8
▁Tori	8
oe	8
▁racked	8
Jigar	8
▁Vit	8
cooked	8
▁refrigerator	8
skin	8
▁traverse	8
▁Silva	8
enham	8
▁Commercial	8
▁Mozart	8
Wiki	8
▁trophies	8
pool	8
▁curtains	8
▁Gurukul	8
▁Prof	8
▁Alfa	8
▁Gl	8
▁lifespan	8
▁kidnapping	8
▁stale	8
▁inhibit	8
▁Söder	8
▁suspensions	8
▁Mahar	8
idal	8
icameral	8
▁consolidat	8
▁carpenter	8
▁Emily	8
▁Tribune	8
▁nitrogen	8
▁Fayette	8
▁thirteenth	8
▁activate	8
▁Campaign	8
iputra	8
▁Ging	8
▁Susi	8
centuries	8
▁truce	8
▁Gond	8
▁discarded	8
▁trampoline	8
▁Jalore	8
▁Indran	8
▁stereo	8
▁sects	8
▁boil	8
▁negligence	8
ivalik	8
▁cheating	8
▁VII	8
▁Saheb	8
▁ensues	8
▁propitiate	8
▁Ramanuja	8
▁loaded	8
narp	8
ati	8
▁beads	8
SV	8
eswaram	8
uzhal	8
▁Ted	8
▁Zeus	8
▁invoice	8
▁Janaki	8
▁magician	8
wear	8
▁pronouns	8
▁Herzegovina	8
▁Graz	8
iz	8
▁Talwar	7
▁scout	7
▁guides	7
▁auditions	7
keeper	7
▁Dana	7
▁Sonam	7
▁Need	7
▁daylight	7
▁Dino	7
ailing	7
▁residences	7
▁blaze	7
▁Matsya	7
khand	7
▁Kuch	7
▁sweater	7
▁sake	7
▁alerts	7
▁Bhandar	7
traction	7
öv	7
▁Minto	7
▁Sarkar	7
▁Booker	7
▁Griffin	7
▁Underwood	7
onomic	7
ows	7
RA	7
hadeva	7
oodle	7
▁Libraries	7
▁Dust	7
izing	7
▁lei	7
▁nurture	7
▁Farmers	7
thurai	7
ointed	7
▁bureaucracy	7
▁Referee	7
▁Provide	7
▁Ashwini	7
▁hopeful	7
▁Ul	7
dine	7
▁goodbye	7
▁shiny	7
▁Asuras	7
▁Laos	7
▁Aztec	7
founded	7
▁pencils	7
▁enjoyable	7
▁Worth	7
▁runways	7
▁executives	7
▁stew	7
▁marginal	7
SC	7
▁Wessex	7
▁swell	7
plex	7
▁Solanki	7
tarian	7
▁pathology	7
▁alias	7
uth	7
vasa	7
sweet	7
herla	7
▁Khammam	7
ein	7
▁vocables	7
exual	7
▁Koraput	7
▁Mappila	7
▁Liver	7
▁Thorn	7
▁Rubber	7
▁bored	7
karam	7
▁Drugs	7
▁incorporation	7
▁unfriendly	7
▁Grave	7
▁eclipse	7
▁Genetic	7
▁counselling	7
▁pixels	7
▁fading	7
aculty	7
▁peacocks	7
isting	7
▁Panhala	7
▁Citizen	7
IM	7
isvara	7
ashmi	7
▁Gymnasium	7
▁ribbons	7
▁turf	7
▁ideologies	7
▁Retail	7
▁Lim	7
sentencing	7
▁accusations	7
fires	7
▁Ahl	7
▁diminish	7
▁Bonds	7
salt	7
MS	7
olden	7
▁Purulia	7
▁Dahi	7
hil	7
sory	7
▁pearl	7
▁Korkai	7
▁Warsi	7
▁Bashir	7
▁Kongu	7
pali	7
IV	7
▁hazard	7
Or	7
▁fencing	7
rude	7
▁deficits	7
ome	7
▁tackled	7
▁henchmen	7
▁assassin	7
▁Wana	7
▁sunk	7
▁Orl	7
▁dowry	7
▁lab	7
▁Harvey	7
oh	7
▁Somapura	7
▁examin	7
arrow	7
▁subscriptions	7
▁Syr	7
▁Marth	7
▁Yan	7
▁shooters	7
working	7
hini	7
▁cutout	7
▁recurrent	7
▁oppression	7
▁Lass	7
pathy	7
▁colorectal	7
▁Jupiter	7
▁insane	7
▁Uni	7
▁atomic	7
▁puzzles	7
▁pastor	7
▁peg	7
▁allergies	7
▁protesting	7
▁Fresh	7
▁crashing	7
▁withdrawals	7
▁murals	7
▁fibrillation	7
▁jokes	7
▁leverage	7
▁Frost	7
▁Kalam	7
▁Tru	7
deau	7
▁slashing	7
▁AC	7
holders	7
▁cartridges	7
▁Qutub	7
▁Tomb	7
▁Nickel	7
▁Thatcher	7
▁Ernst	7
▁Sierra	7
▁doubl	7
▁Nizamuddin	7
▁Mallika	7
▁Councillor	7
▁diffusion	7
▁domestically	7
▁Tou	7
▁sitcom	7
▁inactivate	7
offs	7
▁pierce	7
▁dictionary	7
▁Bihari	7
favourable	7
▁Faujdar	7
▁inch	7
▁assemblies	7
▁tanning	7
▁Cunningham	7
▁battl	7
▁Locate	7
▁rivulet	7
urgarh	7
▁Dragons	7
tte	7
▁microbes	7
▁hectic	7
▁Nirar	7
▁Tyndis	7
▁Lucky	7
▁cereal	7
▁Babita	7
▁Recreation	7
▁Wei	7
▁humiliat	7
▁jeep	7
Cruz	7
▁Mee	7
thana	7
felt	7
hearted	7
▁Bagga	7
▁rework	7
iku	7
▁Chakra	7
▁NMNAT	7
Brahmanical	7
▁Kalabhra	7
▁crashes	7
▁Shivalinga	7
▁tragic	7
rise	7
▁ket	7
▁sensational	7
ritz	7
▁Pitch	7
▁Bhairava	7
▁hypothyroidism	7
▁stat	7
▁sacrifici	7
▁roasted	7
▁Rajat	7
▁bot	7
Islamic	7
▁Automobile	7
▁Arakkal	7
meen	7
rö	7
uddh	7
▁menstruation	7
▁palp	7
dication	7
▁Banasena	7
▁Noyyal	7
▁incur	7
starr	7
▁Alai	7
▁Hip	7
▁protestors	7
▁Nanjaraj	7
rock	7
agari	7
▁Bho	7
▁Uri	7
Jazeera	7
▁violations	7
▁Abkhaz	7
▁Gandamana	7
▁Aji	7
▁tomatoes	7
▁Terra	7
▁Umayyad	7
▁Gain	7
▁fouled	7
▁Fuji	7
▁Bhatkhande	7
▁Gokhale	7
▁guarding	7
▁betting	7
▁Saskatchewan	7
▁Rust	7
checking	7
▁lac	7
described	7
▁Chrys	7
▁Chapter	7
▁taxis	7
▁ply	7
▁stranger	7
▁republics	7
▁wolf	7
▁fox	7
utism	7
▁Ruci	7
▁sticker	7
▁Gama	7
eras	7
▁Bundi	7
ndez	7
▁shopkeepers	7
ushar	7
▁Razia	7
▁tributes	7
check	7
▁Raho	7
▁Roosevelt	7
▁Hem	7
▁strangers	7
FIBA	7
▁terribly	7
▁dressing	7
▁Brigade	7
▁Philippine	7
alya	7
They	7
▁Matia	7
▁Que	7
▁Downs	7
▁Rish	7
nis	7
oyan	7
▁Pench	7
dama	7
▁mouthguard	7
▁Kahn	7
via	7
▁roadway	7
▁Shim	7
▁sails	7
▁Webster	7
▁Bea	7
▁wizard	7
netic	7
▁kara	7
▁inactive	7
ido	7
▁Khalif	7
▁hiatus	7
▁Shock	7
▁Neeli	7
▁incarcerated	7
nemia	7
▁trout	7
▁Lancaster	7
▁foil	7
▁Shield	7
▁Skeleton	7
discovered	7
▁Simpl	7
▁deviate	7
▁Foot	7
▁lingam	7
▁marginaliz	7
itting	7
▁Material	7
▁mould	7
▁testimonial	7
▁starters	7
▁buck	7
ku	7
▁Stuttgart	7
ected	7
▁cruelty	7
▁Sprint	7
▁cookie	7
▁mac	7
▁allude	7
▁praises	7
▁Baat	7
rsity	7
▁ganglion	7
▁Thiruma	7
wash	7
dum	7
▁stripp	7
PVR	7
▁Treasury	7
unconstitutional	7
▁Fifteen	7
▁Were	7
▁zip	7
▁Julie	7
▁penal	7
▁Tomas	7
koti	7
▁gi	7
▁Heliodorus	7
▁Nicola	7
color	7
▁graphite	7
▁Andes	7
sinha	7
▁translator	7
▁Dominion	7
▁Bhagava	7
▁thicken	7
▁mala	7
bsorption	7
▁tambura	7
Jan	7
▁registers	7
▁conversations	7
▁Kid	7
gor	7
▁Hammond	7
▁bunk	7
▁Kub	7
ouwer	7
▁IOLs	7
▁camel	7
▁Hit	7
lathi	7
▁Jacksonville	7
iffer	7
▁southwards	7
▁shutdown	7
▁contraception	7
tmospher	7
potted	7
▁visualization	7
▁unison	7
currency	7
▁mound	7
▁immunized	7
▁trim	7
▁bronchi	7
wick	7
▁incompetence	7
ficient	7
▁punctuation	7
āra	7
▁Tarrant	7
▁fulfilled	7
step	7
▁Yazid	7
ectasis	7
▁Mangi	7
dnan	7
▁paralyzed	7
▁Hri	7
▁Darshan	7
q	7
▁Finlay	7
under	7
▁shave	7
oke	7
▁Sarfar	7
▁Crawford	7
vasive	7
▁Stoke	7
azhi	7
[...]
