।	104999
▁के	93328
▁में	76304
,	64352
▁है	63590
▁	59813
▁और	47261
▁की	43055
▁से	37822
▁को	33174
▁का	29912
▁एक	27953
▁हैं	27605
0	26857
1	26304
.	21439
2	18750
▁पर	18442
▁लिए	17993
▁ने	16431
ों	16319
▁किया	15251
े	14591
▁था	14570
-	13440
ी	13348
9	13213
▁गया	12378
▁कि	11717
▁यह	11244
▁भी	9730
ा	9606
▁जाता	9430
▁रूप	9405
▁कर	9204
▁करने	9011
▁इस	8528
▁हो	8524
▁जो	8106
5	7722
▁नहीं	7517
8	7158
▁साथ	7128
▁या	6912
3	6796
ित	6745
▁थे	6725
7	6502
6	6342
4	6338
▁तक	6252
▁बाद	6056
▁अपने	6027
▁द्वारा	5548
ने	5524
▁दिया	5474
▁थी	5469
▁वे	5294
ल	5245
▁उन्होंने	4672
▁तो	4630
▁जब	4487
▁कुछ	4344
▁(	4317
▁ही	4257
▁कई	4232
▁राज्य	4163
▁गई	4087
▁करते	4046
▁भारत	3982
▁गए	3927
▁वह	3912
▁अधिक	3908
▁वाले	3902
▁सबस	3879
न	3874
▁आप	3859
▁पहले	3588
)	3490
▁सकता	3453
▁उपयोग	3370
▁लेकिन	3355
▁समय	3313
▁उन्हें	3280
▁शामि	3239
▁अन्य	3213
▁उनके	3202
▁हुआ	3186
▁होता	3181
▁अपनी	3155
▁हुए	3141
▁उस	3113
▁खेल	2930
▁क्षेत्र	2913
▁जा	2882
▁"	2877
▁कम	2871
▁करता	2866
▁होने	2861
▁सकते	2818
▁कारण	2770
▁फिल्म	2765
▁बहुत	2708
▁लोगों	2698
▁होती	2640
▁दो	2575
▁कहा	2568
में	2552
▁इसे	2532
▁नाम	2513
▁आम	2497
र	2491
▁जाने	2467
▁जिस	2414
▁रहे	2386
▁जाती	2380
▁दौरान	2380
▁शहर	2357
ता	2307
▁रहा	2297
▁भारतीय	2242
▁हुई	2218
▁शुरू	2194
▁वाली	2192
▁करना	2186
▁किसी	2173
"	2166
▁पास	2146
▁इसके	2122
▁बीच	2121
उनकी	2109
▁होते	2101
▁जैसे	2096
लगभग	2061
▁तरह	2046
▁काम	2043
:	2030
ओं	1958
▁कोई	1943
▁लोग	1934
▁किए	1920
▁न	1879
▁तौर	1863
▁स्थित	1828
▁लिया	1822
▁बार	1819
▁आपको	1768
▁फिर	1745
▁जिसक	1729
▁जाते	1707
▁वर्ष	1703
▁जाना	1700
यदि	1692
ियों	1690
▁नदी	1674
▁सभी	1672
▁क्योंकि	1661
▁उसे	1652
▁दिन	1627
▁मुझे	1619
▁मुख्य	1600
▁इन	1597
▁जिसे	1593
ए	1590
▁दी	1590
▁मैं	1581
सी	1580
▁साल	1546
ई	1538
▁दोनों	1525
▁प्रमुख	1514
से	1484
▁अलग	1475
▁प्राप्त	1473
▁केवल	1467
▁करें	1456
▁इसका	1456
बारे	1450
▁तब	1444
▁करती	1437
▁सकती	1432
▁उन	1420
▁संयुक्त	1419
▁अमेरिका	1417
म	1417
▁राष्ट्रीय	1405
▁तीन	1387
▁उसक	1386
▁टीम	1383
▁विशेष	1360
ं	1357
▁संगीत	1337
▁ये	1331
▁भाग	1329
▁मंदिर	1329
▁पहली	1317
▁ऐसा	1313
▁उनक	1311
की	1310
▁दक्षिण	1309
एस	1305
▁शुरुआत	1304
ीय	1298
्स	1295
▁अनुसार	1289
▁अपना	1263
▁अधिकांश	1261
▁रही	1261
स	1252
▁बन	1232
▁वाला	1229
▁आ	1229
▁पूर्व	1227
▁प्रकार	1221
▁हालाँकि	1219
▁ओर	1218
▁उत्तर	1214
▁आपके	1212
▁चाहिए	1199
क	1195
'	1187
▁ले	1184
िक	1172
▁महत्वपूर्ण	1171
▁युद्ध	1155
▁विश्व	1146
▁'	1134
वीं	1130
▁अब	1128
▁स्थान	1118
▁थीं	1116
▁शताब्दी	1113
▁व्यक्ति	1109
▁आई	1107
▁पता	1100
▁घर	1091
▁अक्सर	1090
▁जहाँ	1089
▁कंपनी	1088
▁हर	1080
▁ए	1065
▁जारी	1064
▁स	1055
▁बात	1051
▁बना	1051
▁निर्माण	1046
▁खिलाड़ी	1045
▁देने	1041
▁चार	1039
▁सी	1038
▁बनाया	1036
कर	1022
▁मृत्यु	1011
▁मदद	1010
▁मध्य	1003
ेक	1002
▁माना	1002
▁कभी	1001
▁बड़े	999
▁विभिन्न	995
▁गोल	968
▁प्रति	966
▁प्रत्य	960
▁अ	953
▁बड़ी	947
▁सरकार	944
▁आवश्यकता	934
▁-	934
▁भूमिका	933
▁क्षेत्रों	932
▁जन्म	931
▁करके	923
▁समूह	919
▁प्रदर्शन	909
▁हिंदू	907
कि	904
▁दुनिया	902
▁जिससे	902
प्रदान	902
▁दशक	901
▁सेना	900
▁क्या	896
िंग	890
▁स्थिति	879
▁इसमें	875
▁पुरस्कार	874
▁पानी	873
▁इसलिए	872
▁तुलना	868
▁पहला	867
▁देश	857
▁रखा	855
▁लोकप्रिय	855
▁बनाने	854
डी	851
▁मूल	844
▁होगा	844
▁अंत	843
▁देता	841
▁राजा	836
▁परिवार	834
▁स्तर	832
▁हिस्सा	831
आई	830
▁बड़ा	826
▁बाहर	817
▁जीत	812
▁दिल्ली	809
टी	807
▁संख्या	806
▁देख	804
▁साम्राज्य	801
▁मैच	795
▁पूरी	795
▁दूसरे	795
बी	790
▁हालांकि	789
▁जीवन	787
▁डी	787
▁फ़िल्म	787
▁धर्म	784
▁द	777
▁माध्यम	766
▁आयोजित	759
▁प्रदेश	757
▁ध्यान	756
▁आगे	754
ीन	748
▁खिलाफ	746
पी	741
▁अलावा	738
▁उदाहरण	735
▁खेलों	728
▁अमेरिकी	728
▁हूँ	728
▁जिले	724
▁लगा	724
ना	723
;	723
▁आयु	723
▁बिना	722
▁भाषा	718
▁ऐस	717
नी	715
▁छोटे	714
▁केंद्र	712
▁भर	710
▁नए	707
▁गेंद	704
▁खुद	703
▁इस्तेमाल	702
ें	702
▁प्रभाव	701
ू	699
▁देते	693
!	691
▁स्थानीय	688
▁महिला	687
▁डॉलर	685
▁कुल	684
▁पूर	682
▁लीग	681
▁जिन्हे	680
▁प्रभावित	674
▁कार्यक्रम	673
▁स्थापित	673
▁प्रसिद्ध	671
▁वर्षों	669
▁वर्तमान	667
▁ब्रिटिश	667
▁अंतिम	666
▁जैन	665
▁भुगतान	664
अलग	664
▁रहते	663
▁सदस्य	662
▁लेने	661
▁ऑफ	657
▁अंतर्राष्ट्रीय	654
▁लेकर	654
▁उच्च	653
▁दिए	651
▁पूरा	651
▁देशों	648
▁विकास	648
▁बंद	647
▁विकसित	644
▁बनाए	642
▁देखा	642
ऋ	640
▁एन	640
ः	640
ण	638
▁कार्य	638
▁मेरे	637
▁पश्चिमी	636
▁उत्तरी	635
▁यू	632
▁एस	632
▁दूर	632
ो	631
▁अभी	628
▁पुलिस	628
▁अवधि	627
▁सामान्य	627
▁उसकी	626
▁स्थापना	623
एफ	621
▁निध	621
▁समान	619
▁बदल	616
▁सेवा	615
▁करोड़	613
▁शासन	613
▁फुटबॉल	612
▁सीमा	610
▁गाँव	609
▁रहने	608
▁जिनमें	608
वें	607
▁बी	605
▁ली	603
▁विश्वविद्यालय	602
▁महीने	602
▁सहित	598
▁इतन	598
▁आज	597
एल	595
▁प्रणाली	593
▁ह	592
▁खेला	592
▁प्रतिशत	590
▁क	587
▁रखने	585
▁मार्च	583
?	583
▁रंग	582
▁महिलाओं	580
%	580
▁अच्छा	577
▁प्रतियोगिता	577
▁द्वीप	577
▁नृत्य	574
▁समाप्त	574
▁जनवरी	573
▁मिनट	572
▁ओलंपिक	572
▁जल	571
▁सिंह	571
▁तैयार	571
▁संघ	570
▁जगह	569
▁दे	569
▁अगल	568
▁आधार	567
▁उपलब्ध	566
▁कमी	566
▁कोशिश	566
▁अगर	566
▁चला	565
▁मीटर	564
▁चाहते	563
▁मैदान	560
▁व	557
ती	554
▁वर्ग	553
▁कला	551
▁पूर्वी	550
▁बंगाल	549
▁खिलाड़ियों	547
▁गीत	546
▁पारंपरिक	545
जी	544
▁शब्द	541
ते	541
▁प्रयास	540
▁जैसी	539
▁आधारित	539
वी	537
▁मौजूद	536
▁टी	536
▁बताया	536
▁सम्मान	535
▁योजना	534
▁हिस्से	533
▁फिल्मों	532
▁अंक	529
▁पश्चिम	528
▁आने	528
आर	528
मी	527
▁किलोमीटर	527
▁मिल	526
▁दिखाई	524
फी	523
▁शादी	522
▁यहाँ	521
▁उपचार	520
▁पाँच	519
▁आबादी	519
एन	517
▁खोज	517
▁पिछल	515
▁अर्थ	515
▁संबंधित	514
▁विशिष्ट	514
▁ऑस्ट्रेलिया	514
▁बच्चों	513
▁श्रृंखला	512
▁मेरा	512
▁दूसरी	511
▁प्राचीन	511
▁ऐसी	511
कभी	510
▁बने	509
या	509
.)	509
▁हासि	507
ओ	506
▁खर्च	506
▁जानकारी	505
▁सूची	503
▁नीचे	503
▁परिणामस्वरूप	503
के	503
▁दर	503
▁सुरक्षा	503
▁राजधानी	503
▁यात्रा	502
▁पिता	501
▁अध्ययन	501
▁मेरी	500
▁दिसंबर	500
▁वापस	499
▁आपकी	498
▁अतिरिक्त	498
▁खान	498
▁व्यापक	496
▁जीता	496
▁काउंटी	494
ियाँ	494
▁नवंबर	493
▁शैली	492
▁ठीक	492
▁क्लब	492
▁अप्रैल	490
▁सहायता	490
▁खो	489
▁झील	487
▁स्थल	486
▁प्रतिनिधि	484
▁लग	482
साथ	482
▁केरल	481
▁दिनों	481
▁ऊपर	481
▁हवाई	479
▁रह	479
▁विचार	478
▁संस्करण	477
▁सामने	476
▁भीतर	475
▁सहायक	475
एम	475
▁पैसे	474
▁इतिहास	473
▁नामक	473
▁पसंद	473
▁नई	473
▁राज्यों	473
▁अभिनय	473
▁सात	472
▁सितंबर	471
▁चुनाव	471
▁लाख	470
▁खेले	470
▁समर्थन	470
▁एम	469
▁तमिल	468
▁तेज	468
▁ताकि	465
/	465
ट	465
▁जून	464
▁मैंने	464
▁जापान	463
▁काल	462
▁स्कूल	461
▁बस	461
▁छोटी	461
▁जाएगा	460
▁आसपास	458
▁त्योहार	457
▁अक्टूबर	457
▁सार्वजनिक	457
▁नगरपालिका	456
▁अंदर	456
▁जिन्होंने	456
▁आया	455
▁अच्छी	455
▁हिस्सों	454
▁प्रवेश	454
▁मुगल	452
▁होना	451
▁मिली	451
▁कंप्यूटर	451
▁बच्चे	450
▁मई	449
▁दल	448
▁पी	448
▁मिला	447
ारिक	445
▁वहाँ	445
▁प्रारंभिक	444
▁जहां	442
▁सफल	440
▁सप्ताह	440
▁छोड़	439
▁मामलों	439
▁गंभीर	438
▁अगस्त	436
▁आधिक	436
▁पीछे	436
▁मौसम	435
▁मनाया	433
▁सर्वश्रेष्ठ	432
▁बढ़ा	432
▁प्रांत	432
▁नेतृत्व	431
शा	430
▁होगी	429
▁निर्धार	427
▁शाह	427
▁हाल	427
▁लगता	425
▁अनुमति	425
▁चिकित्सा	425
▁लंबे	424
▁दर्ज	424
▁बौद्ध	423
▁किला	423
▁आधुनिक	423
▁रिकॉर्ड	423
▁म	423
▁संपर्क	420
▁पार्टी	420
▁मामले	420
▁लड़ाई	419
▁हिंदी	419
▁ज़्यादा	419
▁उसका	419
▁निवेश	417
▁फरवरी	417
▁बजाय	416
▁पार	415
▁गेम	415
▁गैर	415
▁चलता	415
▁भोजन	414
▁बैंक	414
▁सके	413
▁उल्लेख	413
▁भारी	413
▁उम्र	412
▁छह	412
▁:	411
रा	411
▁नियंत्रण	411
तौर	410
▁बीमारी	410
▁घोषणा	409
▁परीक्षण	408
▁शिक्षा	406
▁देती	406
▁आए	405
▁इंग्लैंड	404
▁प्रथम	404
▁खराब	403
िया	403
▁संबंध	403
▁बेटे	401
▁रात	401
▁जुलाई	401
▁शरीर	400
▁जी	400
इनमें	400
▁व्यवसाय	400
▁बेहतर	399
▁पाकिस्तान	398
▁मार	398
▁रोग	398
▁मील	398
▁स्वीडन	397
▁पद	397
▁खरीदारी	397
एँ	397
▁दूसरा	396
▁मार्ग	395
▁कप	395
▁पूजा	393
▁तट	393
▁हाथ	393
▁गति	393
▁कहानी	393
▁पाया	393
▁उप	391
▁भूमि	390
▁भाई	390
▁सत्र	390
▁पड़	389
▁हार	389
▁द्वितीय	389
▁चीनी	388
▁स्वास्थ्य	388
▁पाए	387
री	387
▁पड़ा	387
▁ग्राहक	387
▁तहत	386
▁वन	386
▁राजवंश	386
▁अध्यक्ष	384
▁गलत	384
▁ब	383
▁कुमार	383
▁पदक	383
▁व्यापार	382
▁बढ़	382
▁इसी	382
▁तरीके	380
▁सुनिश्चित	377
▁संक्रमण	375
▁पालन	375
▁हॉकी	375
▁समुदाय	375
▁उद्योग	374
▁विजय	373
▁रहता	373
▁सुधार	372
▁स्पष्ट	371
▁पुरुषों	371
▁वित्तीय	370
▁घंटे	370
▁संदर्भ	370
▁किले	369
▁जिसने	369
▁दक्षिणी	369
मात्र	368
▁उत्सव	368
▁पहुँच	368
▁जिनक	368
▁पहचान	367
▁विद्रोह	367
▁सामन	367
▁पत्र	367
▁ज़िले	366
▁अधिकारियों	365
▁उम्मीद	365
▁स्वीकार	364
▁शतरंज	364
▁नुकसान	362
▁एफ	361
▁सामाजिक	359
▁राजनीतिक	359
▁लगाता	359
▁संकेत	358
▁नगर	358
▁कैसे	358
▁पेशेवर	358
▁जिन	357
▁पुरुष	357
▁अनुभव	356
▁श्रेणी	356
▁अनुमान	355
▁आय	355
▁ऑनलाइन	355
▁बनाई	354
▁आता	354
।"	352
▁राष्ट्रपति	352
▁आनंद	351
▁गईं	351
▁आकार	351
▁पैसा	351
▁हमे	350
▁विभाज	350
▁मौत	349
ि	349
▁व्यक्तिगत	349
▁आपका	349
▁शायद	348
▁हमला	348
▁छोटा	347
▁दौड़	347
▁विस्तार	347
▁कार्ड	347
▁समुद्र	346
▁प्रस्तुत	346
▁श्री	346
▁दस	346
▁तमिलनाडु	345
त	345
▁ऐतिहासिक	345
▁पंजाब	345
▁डिग्री	344
▁धार्मिक	344
▁देवी	344
▁शीर्ष	344
वा	344
▁एशिया	344
▁संगठन	343
श	343
▁उत्पादन	342
▁कितन	341
▁पूर्ण	339
▁अभिनेता	338
▁लेते	338
▁हम	338
▁मानव	337
▁कैंसर	337
▁आर	336
▁समारोह	335
▁रक्त	335
त्व	334
▁लिखा	334
▁सड़क	334
▁चोट	332
▁योग	332
▁चीन	332
▁लगाया	332
▁सैन्य	331
▁सफलता	330
▁इंडिया	330
▁स्टेशन	330
▁ई	329
▁प्रदर्श	329
▁पहाड़ी	329
▁संभावना	328
▁परिवर्तन	327
▁बावजूद	327
▁क्षमता	326
▁पत्नी	326
▁उत्पाद	326
▁कार	326
जह	326
▁डर	326
▁कर्नाटक	325
▁मह	325
▁दुकान	325
▁आठ	324
▁राशि	324
▁कानून	324
▁विकल्प	323
▁भगवान	323
एच	323
▁वृद्धि	320
▁धन	320
▁पैदा	320
▁लाभ	320
▁एल	320
▁परियोजना	319
▁नियमों	319
▁क्रिकेट	319
▁देव	318
▁जाए	318
▁शहरों	318
▁राज	316
▁लंदन	316
▁उद्यान	316
▁रेलवे	316
▁महाराष्ट्र	315
▁विषय	315
▁औसत	314
▁रक्षा	314
▁वास्तव	314
▁तरफ	314
▁रचना	314
▁अधिकार	313
▁कृषि	313
▁युग	313
▁बनी	312
),	312
▁जोखिम	312
▁चले	311
▁होकर	311
▁आवश्यक	310
▁अंतर	310
▁ईस्वी	310
▁तापमान	310
▁कनाडा	309
▁घरेलू	309
▁आयोजन	309
▁शक्ति	309
▁नियुक्त	309
▁वीडियो	308
ाई	306
▁उद्देश्य	305
▁पक्ष	305
ंग	304
▁लाल	304
▁नियमित	304
▁गुजरात	304
▁शिलालेख	304
▁जनगणना	302
▁तूफान	302
▁स्वतंत्रता	301
▁निभाई	301
▁राग	301
▁करेंगे	300
▁हवा	300
▁नियम	300
▁राम	300
▁अंग्रेजी	300
▁लगाने	299
▁दूरी	299
▁जैसा	297
▁यूरोप	297
▁घाटी	297
का	297
▁पड़ता	296
▁वर्षा	295
▁सिर	295
दार	295
▁मंदिरों	295
▁दृश्य	295
▁परंपरा	295
▁जान	293
▁बा	293
▁आदेश	293
▁विरोध	293
ियर	292
▁चैंपियनशिप	291
▁बचत	291
▁मुंबई	291
▁प्रक्रिया	291
▁बिजली	291
▁गठन	290
▁मात्रा	290
▁हों	290
▁दें	290
▁मूल्य	290
▁प	290
▁यूरोपीय	289
▁सीमित	289
▁वार्षिक	288
▁कॉलेज	288
▁कांग्रेस	288
ीकरण	288
ली	288
़	287
▁लगे	287
▁पुराने	287
▁वेबसाइट	287
▁फैसला	287
▁उपकरण	286
▁कमाई	286
सूस	286
▁निर्मित	285
▁हत्या	284
▁चित्र	284
एं	284
▁चुना	283
▁खेलने	283
▁स्थानों	282
▁स्रोत	282
तुरंत	282
▁घटना	282
▁दिवस	281
▁विवाह	280
▁याद	279
▁विभाग	279
▁मन	278
▁बच	278
▁नया	278
▁युवा	278
▁शाही	277
▁प्राकृतिक	277
▁अभ्यास	277
▁नदियों	276
▁निर्णय	276
▁अधिकारी	275
▁सदस्यों	275
▁त्वचा	275
▁ज्यादा	275
▁जाँच	275
▁सम्राट	275
▁विज्ञान	275
▁जर्मनी	275
▁स्वयं	275
▁सामान	274
▁प्रतिस्पर्धा	274
▁चुक	273
▁केंद्रित	273
▁बाढ़	273
▁ओ	273
▁निर्भर	273
▁ईसा	272
▁आर्थिक	272
▁मतलब	270
▁रिलीज़	270
▁लक्षण	270
▁आयोवा	270
▁वस्तुओं	270
▁कहीं	269
▁जुड़े	269
▁दिल	269
▁एशियाई	269
िन	268
▁अली	268
▁आते	268
य	268
तम	268
▁प्रयोग	268
▁करेगा	268
▁आदि	267
▁पांच	267
▁शिव	267
▁मिलता	267
▁समीक्षा	266
▁नियंत्रित	266
▁पहुंच	266
▁रोकने	266
▁अस्पताल	265
▁बैंडी	264
▁लाग	264
▁रे	264
▁संभावित	263
▁प्रकाशित	263
▁रहती	263
▁मिलती	263
▁माता	263
▁वर्णन	262
▁प्रशिक्षण	262
▁बेटी	262
▁कीमत	262
▁निकल	262
▁लंबी	262
▁बाल	262
▁बराबर	261
▁जॉन	261
▁सा	261
▁प्रस्ताव	261
▁आरोप	261
▁परिणाम	260
▁संग्रह	259
▁समस्या	259
▁आक्रमण	258
▁पोलो	258
▁फोन	258
▁न्यू	258
▁रखें	257
▁कब्जा	257
▁निश्चित	257
▁निजी	257
▁मारे	256
▁माँ	255
▁ज्यादातर	254
▁कश्मीर	254
▁सकें	254
▁दावा	254
शास्त्रीय	253
▁बहत	253
▁राष्ट्र	253
▁टीमों	252
▁सैनिकों	252
▁तंत्रिका	252
▁लौट	251
▁लक्ष्य	251
▁सही	251
▁एच	251
▁दरबार	251
▁उत्पन्न	250
▁गुफा	250
▁स्वतंत्र	250
▁मिलने	249
▁ज	249
▁संस्कृति	249
▁खाते	248
▁निर्देशक	248
▁चरण	248
▁विद्यालय	248
▁रोक	248
▁समाचार	248
▁अरब	247
▁घोष	247
▁मिट्टी	247
▁मजबूत	246
क्षम	245
▁बनने	245
▁प्रतिक्रिया	245
▁शुल्क	244
▁दर्शात	244
▁कपड़े	244
ज	244
▁टेलीविजन	243
▁स्वर्ण	243
▁पवित्र	242
▁प्रबंधन	242
▁एकल	242
▁प्रतीक	242
▁समझ	242
▁न्यूयॉर्क	242
▁शारीरिक	242
▁मान्यता	241
▁मीडिया	241
▁सब	241
▁चल	241
▁प्रसार	241
▁लागत	241
▁कोड	240
▁परिवहन	240
▁शासनकाल	240
▁बजट	240
▁उनसे	240
▁एंड	240
▁बॉक्स	239
▁होंगे	239
▁पत्थर	239
▁पार्क	238
▁मॉडल	238
▁महान	238
▁तीसरे	237
▁प्यार	237
▁निर्देशित	236
▁शुरुआती	236
▁मंत्री	236
▁प्रेरित	236
▁सामग्री	235
▁सक्रिय	235
▁अच्छे	235
▁गाड़ी	235
▁सोच	235
▁बल्कि	234
▁मानना	234
▁उपहार	234
▁तुम	233
▁रिपोर्ट	233
▁पेश	233
▁नेटवर्क	233
▁डब्ल्यू	233
▁मराठा	233
▁दिखाया	233
▁सूचना	232
▁बाजार	232
▁रन	232
▁निवास	232
▁वास्तविक	232
▁शासक	231
▁राजमार्ग	231
यों	231
▁विपरीत	231
▁मानक	231
▁अंग्रेज	231
▁पुष्टि	230
▁मिले	230
▁बैंड	230
▁फ्रांस	230
▁चू	229
▁मांग	229
▁मना	229
▁जंगल	229
▁जिम्मेदार	229
ला	229
▁वस्तु	228
▁फैला	228
▁मुश्किल	228
▁समूहों	227
▁बिक्री	227
▁देखभाल	227
▁आती	227
▁स्टोर	227
▁बोर्ड	227
▁पाई	226
▁जल्द	226
▁विशाल	226
▁हमारे	226
▁कृष्ण	225
▁करीब	225
▁विवरण	225
त्मक	225
▁आकर्ष	224
▁वालों	224
▁खुशी	224
▁प्राग	224
▁अशोक	224
▁मस्तिष्क	224
▁खरीद	224
▁राजस्थान	223
▁नौ	223
▁साहित्य	223
▁व्यवस्था	223
▁बेच	222
यू	222
बार	222
पर्याप्त	222
▁चोल	222
▁मान	221
▁विष्णु	221
▁दौरा	221
▁इन्हें	221
▁कहना	221
▁नाटक	221
▁आसान	221
▁समर्प	221
व	221
▁संरचना	220
▁कहते	220
▁बोली	220
▁देना	220
▁किनारे	220
पिता	220
▁फ	220
▁ग	219
▁जांच	219
▁सलाह	219
▁प्रकाश	219
▁लेख	219
▁जमा	218
▁लिखे	218
▁पुत्र	218
▁सुबह	217
▁नागरिक	217
▁विशेषता	217
▁अदालत	217
▁खाद्य	217
इलाज	217
▁संपत्ति	216
▁टूर्नामेंट	216
▁पहाड़ियों	216
▁तरीका	216
▁रुपये	216
▁अभिनेत्री	216
▁उल्लेखनीय	216
▁स्टेडियम	215
▁योग्य	215
▁कार्यालय	215
▁सरकारी	215
▁जल्दी	215
▁चैम्पियनशिप	214
▁प्रभावी	214
▁कारक	214
▁पीड़ित	214
▁संस्कृत	214
▁ग्रामीण	214
▁सीधे	213
▁दोस्त	213
▁लद्दाख	213
▁जिनका	213
▁इलाक	213
▁आघात	213
▁सुरक्षित	213
▁गर्म	212
▁परिषद	212
ष्ट	212
▁जनसंख्या	212
▁रखते	212
▁हद	212
▁प्राथमिक	212
▁रेखा	212
▁बदलाव	211
▁शहरी	211
▁जुड़ा	211
▁चुका	211
को	210
▁गंगा	210
▁मारने	210
▁कलाकार	210
▁अंततः	210
▁खरीदने	210
▁अल	210
▁लें	210
मैन	209
▁चीज़	209
▁निर्माता	209
▁देखें	209
▁मानसून	209
▁शराब	209
▁अभियान	209
▁सुल्तान	208
▁जीते	208
▁टेस्ट	208
▁योगदान	208
▁बारिश	208
▁साथी	208
▁मजबूर	207
▁हराया	207
पुर	207
▁वी	207
▁ब्याज	206
पूर्ण	206
▁अनुरोध	206
▁यूनाइटेड	206
▁व्यवहार	206
▁जीवित	205
▁ब्रिटेन	205
▁ओडिशा	205
▁वि	205
▁बांध	205
▁खिताब	204
▁वास्तुकला	204
▁इंटरनेट	204
▁पुरानी	204
▁चंद्र	204
▁सिर्फ	204
▁मे	204
▁शो	204
▁एल्बम	204
▁चावल	204
द	203
▁क्यों	203
▁व्यावसायिक	203
▁क्षति	203
▁तय	202
▁दर्द	202
▁विजेता	202
▁संभव	202
▁तंत्र	202
▁इ	202
▁संस्थान	201
▁अकबर	201
▁हिमालय	201
▁दृष्टि	200
▁बल	200
▁कल	200
▁तीसरी	200
पूर्वक	199
▁छूट	199
▁अवसर	199
▁मुसलमान	199
▁निदान	199
▁बर्फ	199
▁दवाओं	198
▁जेल	198
▁बचा	197
▁निम्न	197
▁गुरु	197
▁संघर्ष	197
▁लकड़ी	197
▁सूर्य	197
▁बढ़ाने	197
▁लगी	197
▁चयन	197
▁पाने	196
▁ईसाई	196
▁कदम	196
▁लाइन	196
▁विश्वास	196
▁गवर्नर	196
▁आग	195
▁समस्याओं	195
▁नौकरी	195
▁खुश	195
▁सांस्कृतिक	194
▁पकड़	194
▁जवाब	194
▁सिख	194
▁गायक	194
▁फैल	194
▁प्रशासन	194
▁जिला	194
▁भाषाओं	193
▁गांधी	193
▁सह	193
▁समाज	193
पश्चिम	193
▁उत्पादों	193
▁यहां	192
▁कपूर	192
▁बतात	192
▁पतंग	192
▁चाल	192
▁भेजा	192
▁आंदोलन	192
▁रख	192
▁अत्यधिक	192
▁लेता	192
▁डाल	192
▁पाल	191
▁जर्मन	191
▁खाने	191
▁शोध	191
▁सूचीबद्ध	191
▁निर्देशन	191
▁लेखक	191
▁विटामिन	191
▁पैमाने	190
▁दोष	190
▁प्रमाण	190
▁देवता	190
▁उड़ान	189
▁चेन्नई	189
▁गाने	189
▁कैलिफोर्निया	189
▁क्षेत्रीय	189
▁मुक्त	189
▁संबंधी	189
▁पृष्ठ	188
▁गतिविधियों	188
▁संरक्षण	188
▁प्रशंसा	188
▁केंद्रीय	188
▁दिशा	188
▁विदेशी	188
▁फ्रांसीसी	188
▁शांति	188
▁सो	188
▁शेष	188
▁लोक	188
▁दर्शकों	187
▁ताल	187
▁प्रधानमंत्री	187
▁प्रतियोगिताओं	187
▁डॉक्टर	187
पूर्व	186
ज़	186
▁चलते	186
▁महत्व	186
▁ऑफिस	186
▁मुस्लिम	185
▁पर्यटन	185
▁बीमा	185
▁कंपनियों	185
▁महल	185
▁बांग्लादेश	185
▁डाला	184
▁तलाश	184
▁समिति	184
▁चर्चा	184
▁सेंट	184
▁डेटा	184
▁यौन	184
▁राजाओं	184
▁कार्यक्रमों	184
▁आपूर्ति	184
▁तेल	183
▁संचालन	183
▁प्रार्थना	183
▁लक्षणों	183
▁समृद्ध	183
▁अफ्रीका	183
▁भविष्य	183
▁पर्वत	183
▁साइकिल	183
▁कार्यों	182
▁सागर	182
▁बचाव	182
▁असम	182
▁सजा	182
▁वंश	182
▁संभवतः	182
▁इनकार	182
▁गिर	182
▁विफल	181
▁राव	181
▁छात्र	181
▁अंतरराष्ट्रीय	181
▁बहु	181
▁उत्पत्ति	181
▁स्थानांतर	181
▁पा	180
▁वयस्क	180
▁हटा	180
▁ग्रीष्मकाल	180
▁आस	180
▁आसानी	180
▁अड्डा	179
ियन	179
▁चर्च	179
▁रिलीज	179
▁कौशल	179
▁महीन	179
▁बिहार	178
▁आलोचना	178
▁भीम	178
▁शूटिंग	178
▁कर्मचारी	178
▁किस	177
▁कार्यकाल	177
▁चढ़ाई	177
▁निगम	177
▁उच	177
▁कलाकारों	177
▁हजार	176
▁साझा	176
▁घायल	176
▁अड्डे	176
ीकृत	176
▁ला	176
▁रानी	176
▁संसद	176
▁तेलुगु	175
बद्ध	175
▁मछली	175
▁रखना	175
▁स्वामित्व	175
▁उतन	175
▁हाथों	175
▁मर	175
▁विवाद	175
▁ऑर्डर	174
शासित	174
▁अपेक्षा	174
▁संक्रम	174
▁फुट	174
▁विविधता	174
▁गणना	173
▁संरक्षित	173
▁भिन्न	173
▁नज़र	173
▁मनात	173
▁हमले	173
▁शाखा	173
▁प्रतिद्वंद्वी	172
▁गोवा	172
▁जानवरों	172
▁जानी	172
▁जनता	172
▁संचालित	172
▁सेल्सियस	172
▁देखकर	172
▁खेलते	171
▁सिस्टम	171
▁शॉट	171
▁खंड	171
▁स्कोर	170
▁प्रतिबंध	170
▁रेड	170
▁फाइनल	170
▁विक्रेता	170
▁प्र	170
▁सभा	170
▁हमार	170
▁गांव	170
▁कानूनी	169
▁मानते	169
▁मौक	169
▁मनोरंजन	169
ात्मक	169
▁उपस्थिति	169
▁नंबर	168
▁दबाव	168
▁अभयारण्य	168
▁डे	168
▁घरों	168
▁सकारात्मक	168
▁बनाते	168
▁सिनेमा	167
▁मैचों	167
▁ईस्ट	167
▁निचले	167
▁स्वर	167
▁कह	167
▁चलने	167
▁पति	167
▁चेक	167
▁तल	167
▁घाट	167
शन	166
▁व्यक्त	166
▁दौर	166
▁ऊपरी	166
▁गतिविधि	166
▁जलवायु	165
▁त	165
▁मुख्यालय	165
▁सेन	165
▁श्रेय	165
▁बुनियादी	164
▁दुर्घटना	164
▁जिलों	164
▁अनुबंध	164
▁पात्र	164
▁वीं	164
▁पेड़	164
▁अनुष्ठान	163
▁जानत	163
कृत	163
▁पदार्थ	163
▁न्यायालय	162
रण	162
▁हरा	162
▁उपकरणों	162
िका	162
▁चट्टान	162
▁लंबा	162
▁तथा	161
▁कौन	161
▁अन	161
▁पैर	161
▁संचार	161
▁नेशनल	161
▁सफेद	160
▁औपचारिक	160
▁सर्दिय	160
▁ज्ञात	160
▁जुड़ी	160
▁मंच	160
▁बता	160
▁मणिपुर	160
▁पुराना	160
▁विषाणु	160
▁चेहरे	160
▁जे	160
बॉल	159
प	159
▁पर्यटक	159
▁प्रचार	159
▁प्रथा	159
▁गिरफ्तार	159
▁प्रवाह	159
▁हस्ताक्षर	159
▁फीट	159
▁ऊर्जा	159
▁तोड़	159
▁वायरस	159
"।	159
▁बढ़ती	159
▁चैनल	158
▁खाड़ी	158
▁सुंदर	158
▁रेडियो	158
▁विमान	158
▁ऊँचाई	158
▁शानदार	158
▁संयोजन	158
▁चिंता	158
▁तेज़	158
▁समुद्री	158
िस	158
▁सारे	158
▁बढ़ने	158
▁अपराध	157
▁अलाउ	157
द्दीन	157
▁सुझाव	157
▁सलाहकार	157
▁बोल	157
▁जोड़ा	157
▁दुर्लभ	157
▁लोकप्रियता	156
▁सिटी	156
▁मालिक	156
▁उपमहाद्वीप	156
▁दवा	156
▁अधिनियम	156
▁होली	155
▁कोशिकाओं	155
▁धीरे	155
लिखित	155
▁लड़की	155
▁ना	155
▁प्रोग्राम	155
▁होटल	154
दूसरे	154
▁चली	154
▁बाहरी	154
▁एक्स	154
▁विद्वान	154
▁गूगल	154
▁नोट	153
▁वहां	153
▁विकार	153
▁बातचीत	153
▁चाहता	153
▁भीड़	153
▁दौरे	153
▁एकत्र	153
उष्णकटिबंधीय	152
▁शब्दों	152
▁कबड्डी	152
▁व्यक्तियों	152
▁चलचित्र	152
▁अनु	152
▁साइट	152
▁महा	152
▁मेजबान	152
▁बे	152
▁सीट	152
▁रूस	152
▁सिक्किम	152
▁लघु	151
▁वर्षीय	151
▁सॉफ्टवेयर	151
▁पुस्तक	150
▁खाना	150
▁संलक्षण	150
▁उपाधि	150
▁थोड़ा	150
▁रेल	150
▁गुप्त	150
▁तकनीक	149
▁सु	149
▁जोड़	149
▁जाएगी	149
▁इस्लाम	149
▁सेवाओं	149
▁वकील	149
▁छोड़कर	149
▁चैंपियन	149
▁शल्य	148
▁बचाने	148
▁अचानक	148
▁कुश्ती	148
▁कु	148
▁गणराज्य	148
▁फ़	148
▁सत्ता	148
▁टकरा	147
▁सर्वोच्च	147
▁दोस्तों	147
▁नेता	147
▁शिकार	147
▁दुकानों	147
▁बॉलीवुड	147
▁लैक्रोस	147
▁गुणवत्ता	147
▁कठिन	146
▁ग्रेट	146
▁रूपों	146
▁अधीन	146
▁ट्रेन	146
▁बहन	146
जैसे	146
▁वर्णित	146
▁अप	146
▁सुविधा	146
▁साब	146
▁लेना	146
▁आपातकाल	146
▁डच	146
▁चलाने	146
▁पशु	146
▁किशोर	146
▁संगीतकार	146
▁जोड़ी	145
▁नेहरू	145
▁मौर्य	145
▁निकाय	145
▁श	145
▁अकादमी	145
▁स्टॉक	145
▁यूनानी	145
▁गुफाओं	145
▁बास्केटबॉल	145
▁वर्गीकृत	145
▁राय	145
▁मासिक	144
▁नि	144
ग्रस्त	144
▁शक्तिशाली	144
धीरे	144
▁स्टार	144
▁प्रेम	144
▁बिल	144
▁टिकट	144
सदी	144
ह	144
▁घटनाओं	144
▁बनाना	143
सा	143
▁भेज	143
▁कन्नड़	143
▁जलप्रपात	143
▁ग्रंथ	143
▁किमी	143
▁चालक	143
▁गैस	142
▁छात्रों	142
▁र	142
▁बनाता	142
▁यही	142
गी	142
▁खड़	142
▁गुस्सा	142
▁माइक्रोसॉफ्	142
▁स्पेन	142
▁शोथ	142
▁खतरा	141
▁सिंधु	141
▁रखी	141
▁शेर	141
▁मेल	141
▁देखते	141
▁पदार्थों	141
▁अवकाश	141
▁हॉल	141
▁पेशक	141
▁सेवन	141
▁दूसर	141
▁महाविद्यालय	141
▁आत्मा	140
▁प्रतीत	140
▁कप्तान	140
▁विस्तृत	140
▁सल्तनत	140
▁लिखन	140
▁वायु	140
▁हैदर	139
▁ल	139
▁छोड़ने	139
▁साफ	139
‘	139
’	139
▁आलोचक	139
▁शासकों	139
▁लंबाई	139
▁हृदय	139
▁सर	139
▁बदले	139
▁मिलकर	139
▁चक्र	138
▁सड़कों	138
▁परिसर	138
▁बंगाली	138
▁जोड़त	138
▁पीत	138
▁सुपर	138
▁टूट	138
▁किरदार	138
▁अर्जित	137
गुप्त	137
▁विदेश	137
गत	137
▁काली	137
▁सैनिक	137
▁गर्मिय	137
ाने	137
ाना	137
▁अर्थव्यवस्था	137
▁मुहम्मद	137
▁स्थलों	136
▁क्रेडिट	136
▁प्रशासनिक	136
▁कर्मचारियों	136
▁सम्मेलन	136
▁स्मारक	136
▁रद्द	136
▁गाया	136
▁स्नातक	136
▁खर्चों	136
▁इलाकों	136
पास	136
▁दैनिक	136
▁आखिरी	136
▁लिखी	135
▁दान	135
▁मलयालम	135
एक	135
▁गृह	135
▁पकड़ने	135
▁संग्रहालय	135
▁आंध्र	135
▁आंतरिक	135
▁राजकुमार	134
▁खाता	134
▁हाथी	134
▁बेसिन	134
▁राज्यपाल	134
▁विभाजन	134
▁सेट	134
▁परेशान	134
▁सरल	134
▁पांड्य	134
▁संस्थापक	134
▁सहमत	134
▁इंच	133
पू	133
▁बैठक	133
▁नौका	133
▁खाली	133
▁चिह्न	133
▁संदेह	133
▁त्रिपुरा	133
▁खुले	133
▁कथित	133
▁संस्कार	133
▁ख	133
▁रुचि	132
▁जय	132
▁स्थायी	132
▁उम्मीदवार	132
▁लिखित	132
▁हट	132
मंडल	132
▁विरोधी	132
▁वैदिक	132
नाथ	132
लैंड	132
▁डिज़ाइन	132
▁इकट्ठ	131
▁औरंगजेब	131
▁रॉक	131
▁मेघालय	131
▁हैदराबाद	131
▁नारायण	131
ब	131
▁क्रम	131
डब्ल्यू	131
▁वैश्व	131
ले	131
▁रखता	131
▁कमान	131
▁टीमें	131
▁खेती	131
▁पालिका	130
▁अधिकतर	130
▁रोड	130
▁बेल्जियम	130
ंस	130
▁परंपराओं	130
▁भावना	130
▁रास्ते	130
▁मूर्ति	130
▁सटीक	130
▁शैलियों	130
▁बताते	129
▁मूल्यांकन	129
▁जोर	129
▁मुद्रा	129
▁चेतावनी	129
▁तारीख	129
▁शिकायत	129
▁दिखा	129
ेट	129
▁सिंचाई	129
▁रेस	129
▁गिरावट	129
▁प्रजातियों	128
▁रहना	128
▁इतिहासकार	128
▁हथियार	128
▁नव	128
▁परिवर्त	128
▁कपड़ों	128
▁कॉल	128
▁पाठ	128
गढ़	128
मा	128
▁चिकित्सक	128
▁खतर	128
▁सोचा	128
▁मादक	128
▁जीती	128
पूर्वोत्तर	128
▁कैद	128
▁फिल्में	127
▁व्यंजन	127
▁देखी	127
▁सर्वेक्षण	127
▁अंग	127
▁जितना	127
°	127
लाने	127
▁जम्मू	127
▁कथा	127
▁मनुष्यों	127
शाली	127
▁कोर्ट	127
▁सर्विस	127
▁प्रोत्साहित	127
▁गोली	127
▁तीव्र	127
▁फसल	127
▁अनुकूल	126
▁बिंदु	126
▁बुखार	126
ीदा	126
िल	126
▁ज्वर	126
▁टाइम्स	126
▁हरियाणा	126
▁ऑफ़	126
▁ट्रैक	126
▁स्थितियों	125
▁ब्रांड	125
▁आराम	125
▁ज्ञान	125
वर	125
▁निकट	125
▁विधि	125
▁असामान्य	125
▁सं	125
",	125
तटीय	125
▁विंडोज़	125
▁दृष्टिकोण	124
▁सतह	124
▁असफल	124
▁आधे	124
▁सेकंड	124
▁तीसरा	124
▁माल	124
▁फिल्मफेयर	124
▁छोर	124
ानी	124
▁निवासी	124
▁डिजिटल	124
▁पत्रिका	124
▁तनाव	124
▁लूट	124
▁वाहन	124
▁जीवाणु	123
▁पढ़ाई	123
▁मलेशिया	123
▁सिंहासन	123
▁किंगडम	123
▁अस्थायी	123
स्कर	123
▁रविवार	123
▁वजन	123
▁कक्ष	123
▁मुकाबल	123
सन	123
▁सेंटर	123
▁प्रयासों	123
▁श्रीलंका	123
▁विरासत	122
▁उठा	122
▁अमरीक	122
▁जरूरत	122
▁कहता	122
▁मिश्रित	122
▁लड़न	122
▁शिशु	122
▁अर्ध	122
▁वेस्ट	122
▁माने	122
▁विशेषज्ञ	122
▁नेटबॉल	122
▁तैयारी	121
▁नायक	121
▁आउट	121
▁गहरा	121
पन	121
▁दक्कन	121
▁स्थिर	121
▁प्रोटीन	120
▁ग्रंथों	120
दान	120
▁एसोसिएशन	120
▁मंडल	120
▁चंडीगढ़	120
▁टेक्सास	120
▁चरित्र	120
▁पटकथा	120
▁शेयर	120
▁पृष्ठभूमि	120
▁शाम	120
▁न्याय	120
▁मत	120
▁प्रबंधक	120
▁दंड	119
▁संदेश	119
▁तेलंगाना	119
▁तरीकों	119
▁पड़ोसी	119
▁संक्षिप्त	119
▁पहुंचा	119
▁तभी	119
याँ	119
‍	119
▁आक्रामक	119
▁महिलाएँ	119
▁वितरण	118
▁उपवास	118
▁मिलते	118
सारी	118
▁कोरिया	118
▁वेब	118
▁शिवाजी	118
▁बुरा	118
▁जमीन	118
▁स्टूडियो	118
▁रोमन	117
▁भागों	117
▁हाई	117
▁बढ़ते	117
▁जटिल	117
▁बनता	117
▁रहें	117
▁पुल	117
▁जॉर्ज	117
▁दुल्हन	117
▁हिंदुओं	117
▁सिद्धांत	117
▁बारह	117
▁देगा	117
▁डाक	116
▁मिलाकर	116
▁विज्ञापन	116
▁द्वार	116
▁नदियाँ	116
जोड़ने	116
▁पर्यावरण	116
वे	116
खत्म	116
▁वैज्ञानिक	116
▁ईस्टर	116
▁खरीदार	116
▁बंदरगाह	116
▁पहुँचा	116
▁पक्षियों	116
▁शीतकाल	116
▁रोलर	116
▁रोगियों	116
▁चौथे	116
▁प्रशिक्षक	116
▁तस्वीर	115
▁उपयोगकर्ता	115
▁स्वाद	115
▁स्क्रीन	115
बुरी	115
▁बेहद	115
▁अनुसंधान	115
▁विलय	115
▁कराया	115
▁उत्तराखंड	115
▁आखिरकार	115
▁पौराणिक	115
▁ईरान	115
▁इंजन	115
▁पुलकेश	115
▁उपयुक्त	114
▁गर्मी	114
▁पठार	114
▁प्रशिक्षित	114
▁उत्तराधिकारी	114
▁माला	113
▁इटली	113
▁राजपूत	113
▁शिविर	113
▁मुसलमानों	113
▁सैन	113
▁इस्लामी	113
▁आदमी	113
▁टीवी	113
▁मोबाइल	113
▁आँखों	113
▁लगती	113
▁पेरिस	113
ीत	113
▁डॉ	113
िनी	113
▁लिंग	113
▁विकिपीडिया	112
▁प्रधान	112
▁बुद्ध	112
वां	112
▁पुनः	112
▁विधानसभा	112
▁गठबंधन	112
▁सूच	112
▁आंख	112
वेयर	112
▁अकेले	112
▁बुक	112
▁देवताओं	112
▁ज़रूरत	112
▁मैसूर	112
▁पारिवार	111
▁वेतन	111
▁सूअर	111
▁फ्री	111
भले	111
▁टर्न	111
▁घास	111
▁खोल	111
▁संधि	111
▁निकाल	111
▁विचारों	111
▁बॉम्बे	111
ेन	111
▁तीर्थ	111
▁अभिलेख	111
▁पेट	111
पश्चिमी	111
▁जाएँ	111
▁उत्कृष्ट	111
▁वापसी	111
▁ऊंचाई	111
▁अंतर्	111
▁दीवार	111
▁घंट	110
ु	110
▁इंटरनेशनल	110
▁यात्री	110
▁लाया	110
▁आश्चर्य	110
▁सि	110
▁मुझ	110
▁ऐप	110
पाल	110
▁शीर्षक	110
▁संगम	110
▁भागीदार	110
▁कड़ी	110
▁यक्षगान	110
▁परिभाषित	110
▁हिंसा	110
▁मुद्दों	109
▁बीमार	109
▁गणेश	109
▁परीक्षा	109
▁देरी	109
▁मानसिक	109
▁रखे	109
▁नेपाल	109
▁लेती	109
▁मुगलों	109
▁प्रारूप	109
▁रूसी	109
▁मार्क	109
▁बल्लेबाज	109
▁ऊँची	109
▁खास	109
▁घाव	108
▁राजनीति	108
▁भरी	108
▁आदर्श	108
▁वनस्पति	108
▁वित्त	108
▁आकर्षण	108
▁परिवारों	108
▁पैरों	108
▁पहने	108
▁कोच	108
▁बटन	108
▁पंजाबी	108
ड	108
▁इमारत	108
ंकि	108
▁प्रीमियर	108
▁सर्व	107
▁फल	107
▁मंत्र	107
▁वसंत	107
तु	107
अनिवार्य	107
▁भरा	107
▁मुद्द	107
▁पोस्ट	107
▁शुष्क	107
▁बर	107
िष्ट	107
▁लॉस	107
▁उपाय	107
▁श्रृंगेरी	107
▁फूल	107
▁अवैध	107
▁नकारात्मक	107
▁जनरल	107
▁छड़ी	107
▁भर्त	107
▁मराठों	106
▁मध्यम	106
▁औद्योगिक	106
्य	106
वाँ	106
▁कैलेंडर	106
▁ढ	106
▁तुलसी	106
▁प्रकृति	106
▁चुन	106
▁तुर्की	106
▁सामु	106
▁जीव	106
▁जहाज	106
▁देर	106
▁चीजों	106
▁सर्वर	106
▁हासन	106
▁अस्तित्व	106
▁विस्फोट	106
▁हुईं	106
▁आवास	105
▁फेडरेशन	105
▁हाउस	105
▁वही	105
▁गीतों	105
▁हैः	105
▁पक्षी	105
▁निदेशक	105
दायिक	105
▁नीति	105
▁मराठी	105
▁सप्ताहांत	105
▁आवेदन	105
▁रक्तस्राव	105
▁वरिष्ठ	105
▁व्याख्या	105
▁पैदल	105
▁गाय	105
▁ब्लैक	105
▁देखना	104
▁असल	104
▁लगात	104
▁इनका	104
▁स्रोतों	104
▁निर्णायक	104
▁नीदरलैंड	104
▁दुकानें	104
▁निरंतर	104
▁चौथा	104
र्स	104
▁बाधा	104
▁छत्तीसगढ़	104
▁कैथोलिक	104
▁दर्शाया	104
गा	103
▁राजस्व	103
▁भंडार	103
यात्रियों	103
▁आमंत्र	103
▁सैकड़ों	103
▁उ	103
▁तुम्हार	103
▁विविध	103
▁बाघ	103
ेश्वर	103
ग	103
▁क्रमश	103
▁समुदायों	103
▁सारा	103
▁हटाने	102
▁लेखन	102
ुद्दीन	102
▁आध्यात्मिक	102
▁चोरी	102
▁स्नूकर	102
▁अति	102
▁सच	102
▁व्यस्त	102
▁पहनत	102
▁रणनीति	102
▁गाव	102
▁आहार	102
▁सौ	102
▁माँग	102
बारा	102
▁दुख	102
▁पृथ्वी	102
▁हल्के	102
वर्ती	102
▁ज़्यादातर	102
▁रक्षक	102
▁कार्रवाई	102
▁नागा	102
▁ड्राइव	102
▁डेमोक्रेट	101
▁अमीर	101
▁आवाज़	101
▁बढ़त	101
लाल	101
▁पेरियार	101
▁शंकर	101
▁हास्य	101
▁न्यूनत	100
▁दूध	100
▁फेफड़ों	100
▁खतरनाक	100
▁सितारे	100
▁मां	100
▁टीकाकरण	100
▁प्रतिरोध	100
▁पड़े	100
▁सिक्के	100
▁सौंप	100
▁लय	100
▁अपनाया	100
▁प्रजातियाँ	100
▁आइस	99
▁सुना	99
▁कांस्	99
▁नेत्र	99
▁परत	99
▁तपेदिक	99
▁टिप्पणी	99
▁अज्ञात	99
▁न्यूजीलैंड	99
▁सिंगापुर	99
युक्त	99
▁चीज़ें	99
▁शिक्षक	99
▁देंगे	99
▁कमजोर	99
▁मुफ्त	99
▁मेट्रो	99
▁तलाक	99
▁लगते	98
▁कोशिका	98
▁सोने	98
▁अनुस	98
जनक	98
▁आत्महत्या	98
▁जेम्स	98
▁अंग्रेज़	98
▁बच्चन	98
▁सवाल	98
▁संबंधों	98
▁कब्ज़ा	98
ाँ	98
▁मारा	98
▁त्यौहार	98
▁व्यायाम	98
▁देखे	98
▁दायर	98
▁चुनौती	97
▁देकर	97
▁बाज़ार	97
दी	97
▁प्रशंसक	97
▁कमरे	97
▁जाति	97
▁सराहन	97
▁विवाहित	97
▁ब्राजील	97
▁मैक	97
▁सेनाओं	97
▁डिजाइन	97
▁निभात	97
▁जीन	97
▁स्पोर्ट्स	97
▁कब	97
▁पतन	97
▁काट	97
देव	97
▁प्रकोप	97
गीर	97
▁मिस्र	97
▁कितने	97
▁बजे	97
▁दिमाग	97
▁पीछ	96
▁मित्र	96
▁पौधों	96
▁उदय	96
▁गुफाएँ	96
ति	96
▁चुने	96
▁जानवर	96
▁पोर्ट	96
▁डूब	96
▁समझौते	96
▁सुविधाओं	96
▁अमर	96
▁जश्न	96
▁प्रतिभाग	96
▁सेवाएँ	96
▁इलाके	96
▁मुँह	96
▁नक्काशी	96
▁सिक्क	96
▁बढ़ता	96
▁वर्ल्ड	95
▁निकालन	95
नैदानिक	95
▁डाउन	95
▁इंडियन	95
▁चीजें	95
▁पीने	95
▁बहाल	95
▁शनिवार	95
▁ग्रुप	95
▁तकनीकों	95
▁हल	95
▁उल्लंघन	95
▁रंगों	95
▁प्रगति	95
▁चट्टानों	95
▁सेवानिवृत्ति	95
▁धारा	95
▁बम	95
▁खेत	95
▁कहाँ	94
▁गायब	94
▁तर्क	94
▁उतार	94
▁यहूदी	94
▁चलती	94
▁मशीन	94
▁गुना	94
▁दत्त	94
ार	94
▁उपदंश	94
▁व्यवस्थित	94
▁तकनीकी	94
▁दास	94
▁मोटर	94
▁समकालीन	94
▁प्रेस	94
▁रिहा	94
▁कार्यकार	94
▁सूत्र	94
▁शुद्ध	94
▁शुक्रवार	94
▁दर्शन	94
वाणी	94
▁क्रिसमस	94
▁कवि	94
▁काले	93
एवं	93
ंशिक	93
▁सचिव	93
▁स्कूलों	93
्	93
▁डर्बी	93
▁संविधान	93
▁वादा	93
खड़ा	93
▁तुम्हें	93
▁कॉमेडी	93
▁रहीं	93
▁शव	93
ेड	93
▁यद्यपि	93
▁इतालवी	93
▁साक्ष्य	93
▁ओवर	93
▁अंतराल	93
▁प्रतिमा	93
▁प्रतिरक्षा	93
▁संगठित	92
▁साधन	92
▁नेताओं	92
▁विश्लेषण	92
▁लगाए	92
▁सूखे	92
▁बीस	92
▁संगठनों	92
▁डालने	92
▁मांसपेशियों	92
▁ओपन	92
▁मार्शल	92
▁कोलकाता	92
▁वाणिज्यिक	92
▁मूर्तियों	92
▁रस्सी	92
▁चालुक्य	92
▁हैंः	92
मामला	92
▁चोटी	92
▁इकाई	92
▁उगा	92
▁लाइसेंस	92
▁गाँधी	92
▁प्रणालियों	92
▁रेफरी	91
▁कठोर	91
▁संवाद	91
▁पाते	91
प्रतिबंधित	91
▁हथियारों	91
▁प्रचलित	91
▁वितरित	91
▁हुसैन	91
▁महासंघ	91
▁माध्यमिक	91
▁छवि	91
▁ब्राह्मण	91
▁हैरान	91
▁मि	91
▁बहने	91
▁अपील	90
▁बाई	90
▁चोपड़ा	90
▁मेन	90
▁मिश्रण	90
▁पुनर्	90
▁गुण	90
▁सांस	90
▁तत्व	90
▁पौधे	90
▁स्नान	90
▁बगल	90
ेज	90
▁पटेल	89
▁एयर	89
▁विक्रम	89
▁पात्रों	89
▁डिवीजन	89
▁अर्जेंटीना	89
▁वैकल्पिक	89
▁टीके	89
▁पहाड़ों	89
▁घिरा	89
▁किताब	89
▁बदला	89
▁दीर्घकालिक	89
▁मेला	89
▁पुणे	89
▁अवशेष	89
▁पराजित	89
ँकि	89
▁ख्याल	89
▁सोमवार	89
▁छुट्टी	89
▁पद्म	89
▁थोड़ी	89
▁प्रवास	89
▁साक्षात्कार	89
▁जलाशय	89
▁दलों	88
▁वन्यजीव	88
▁दुखी	88
▁शास	88
▁शर्मा	88
▁शिखर	88
▁कहानियों	88
▁ग्रीन	88
बलों	88
▁डिस्क	88
औपनिवेशिक	88
▁पृथ्वीराज	88
▁अफगानिस्तान	88
जा	88
▁लो	88
▁मच्छर	88
▁ग्रैंड	88
िश	88
▁दबा	88
▁पेय	88
▁मेज	88
नगर	88
▁भौगोलिक	88
▁बहादुर	88
वियत	88
▁टूर	88
▁संत	88
▁बैंगलोर	87
▁अनुवाद	87
▁डेल्टा	87
▁नर्मदा	87
थ	87
▁चाय	87
▁झरना	87
▁खबर	87
▁फारसी	87
▁शिकागो	87
▁पोशाक	87
▁दोपहर	87
▁चंद	87
▁विजयनगर	87
▁तत्वों	87
▁महोत्सव	87
▁वो	87
▁चित्रण	87
▁हिसाब	87
▁सदस्यता	87
▁खून	87
▁लड़कियों	87
▁पूल	87
▁वहीं	87
▁परिस्थितियों	87
▁रिपब्लिकन	87
स्थ	86
रियाई	86
▁थ	86
▁क्रॉस	86
▁विकेट	86
▁चरणों	86
▁मेले	86
▁क्रांति	86
▁बॉल	86
▁अभि	86
▁संभा	86
▁बर्बाद	86
▁उपनाम	86
▁ठिकान	86
ँ	86
▁वैष्णव	86
वती	86
▁प्रत्यक्ष	86
▁पारित	86
▁दस्तावेज	86
▁ध्वनि	86
▁भाव	86
▁नेट	86
▁जंगलों	86
वादी	86
▁पंक्ति	85
▁निभान	85
▁हिट	85
▁थोड़े	85
▁मुलाकात	85
▁अनुरूप	85
▁रजत	85
राज	85
▁अनेक	85
▁क्यू	85
▁सरदार	85
▁फ्लोरिडा	85
▁चरम	85
▁बहस	85
▁गुस्से	85
▁छुट्टिय	85
▁लक्ष्मी	85
▁फैसल	85
▁इच्छा	85
कार	85
पट्टी	85
▁सूजन	85
ियां	84
▁मल	84
▁भक्ति	84
▁पाउंड	84
▁महाद्वीप	84
ल्पन	84
▁यकृत	84
▁ढूंढ	84
▁नशील	84
▁महामार	84
▁हस्तक्षेप	84
▁प्रबंध	84
▁निगर	84
▁अतीत	84
▁संजय	84
▁आयरलैंड	84
▁नामांक	84
▁प्रसारण	84
▁पॉल	84
▁ढेर	84
▁भाइयों	84
▁च	84
▁लेन	84
▁रेस्तरां	84
▁मुकदम	84
▁सख्त	84
▁बचे	84
▁गिरने	84
▁पेनल्टी	84
▁कमल	84
▁भेजने	84
▁पीठ	83
▁बैल	83
▁वर्जीनिया	83
▁जॉर्जिया	83
▁रोगी	83
▁असमर्थ	83
▁पड़ती	83
▁अफ्रीकी	83
▁बंधन	83
▁सहयोग	83
▁पारिस्थितिक	83
▁नाडु	83
▁नामांकन	83
▁नाव	83
▁सवार	83
▁इंस्टाकार्ट	83
▁निर्देश	83
▁थिएटर	83
एक्स	83
▁ऊतक	83
▁ऑपरेट	83
▁सातवाहन	83
▁जातीय	82
▁आतंकवाद	82
▁किकबॉक्सिंग	82
▁खोला	82
▁माइकल	82
▁भू	82
च	82
▁कै	82
▁आनुवंशिक	82
▁आवाज	82
जो	82
▁कनाडाई	82
▁जोड़े	82
▁विकिरण	82
▁जगहों	82
▁हमल	82
▁प्रतिष्ठ	82
▁वै	82
▁सका	82
▁निष्कर्ष	82
▁वाहक	82
▁चौथी	82
▁प्रौद्योगिकी	81
▁मौख	81
फ़ी	81
▁उत्तरार्ध	81
▁सम	81
▁समझा	81
▁प्रोफेसर	81
शील	81
▁बचपन	81
▁ड	81
▁बेटा	81
▁आँख	81
▁विलियम	81
▁श्रेणियों	81
▁गोलकीपर	81
तू	81
▁गर्भ	81
▁नमक	81
▁टेनिस	81
▁दीं	81
▁कुंभ	81
▁संस्था	81
▁समारोहों	81
▁हराकर	81
▁जहाज़	81
कालिक	81
▁पहलू	81
▁विद्युत	81
लर	81
▁नर्तक	81
▁फ़िल्मों	81
▁जनजाति	81
▁इस्तीफ	81
▁उच्चतम	81
▁नागालैंड	81
ीफा	81
▁वैध	81
▁लड़के	81
▁समग्र	80
▁प्रतिभा	80
▁मणिपुरी	80
▁तथ्य	80
▁बिलकुल	80
बाधित	80
▁सहयोगी	80
▁डिलीवरी	80
▁रोशनी	80
▁नकद	80
▁ठोस	80
▁कतार	80
▁फ्लोरबॉल	80
▁डेविड	80
▁मठ	80
वाद	80
▁चलाया	80
▁रोम	80
शोथ	80
▁पुनर्निर्माण	80
▁टोक्यो	80
रत	79
▁उठाया	79
▁ज़रूर	79
▁नवाब	79
▁समाप	79
ान	79
▁जितन	79
▁अंग्रेज़ी	79
▁किसानों	79
▁तुगलक	79
▁निराश	79
▁सेनापति	79
▁चौड़ा	79
▁गर्भावस्था	79
▁वर्गीकरण	79
▁केंद्रों	79
मान	79
▁तिथि	79
▁भरे	79
▁त्याग	79
▁कामयाब	79
▁टाइम	79
▁खरीदा	79
▁वाशिंगटन	79
▁झरने	79
▁लिख	79
▁बह	79
▁गिरा	79
▁किक	79
▁जटिलता	79
▁तलवार	78
▁सेवानिवृत्त	78
राव	78
▁स्विट्जरलैंड	78
▁उद्घाटन	78
चल	78
▁एक्सप्रेस	78
▁विद्यालयों	78
▁ताकत	78
▁भ	78
▁त्योहारों	78
▁बाँध	78
▁आलम	78
▁लक्षद्वीप	78
▁पलक	78
टा	78
▁कोलंबिया	78
▁मैन	78
▁सीज़न	78
▁लगाना	78
▁स्तंभ	78
▁मतदान	78
▁अवस्था	78
षि	78
▁पेशवा	78
▁निकाला	78
▁पल्लव	78
दा	78
▁जुड़	78
▁अस्वीकार	78
▁मलिक	77
▁विक्टोरिया	77
▁मंगलवार	77
▁मांस	77
▁वैसे	77
▁एकदम	77
▁अम्ल	77
▁कल्पना	77
▁रग्बी	77
▁जन	77
▁महाभारत	77
▁पुर्तगाल	77
राने	77
▁आर्ट	77
▁प्रश्न	77
▁बोलने	77
कर्ता	77
▁सौदे	77
▁हानि	77
▁यात	77
▁एहसा	77
▁तीर	77
▁ऊंच	77
▁समाधान	76
▁अंतर्गत	76
▁हिंद	76
▁छू	76
भूमि	76
▁अधिकारों	76
▁ब्लू	76
▁पर्द	76
▁गरीब	76
▁खड़ी	76
$	76
▁हिल	76
▁निशान	76
▁फट	76
▁धनुष	76
▁ट्रॉफी	76
▁पीढ़ी	76
▁मेक्सिको	76
▁उठाने	76
▁पुर्तगाली	76
▁रखरखाव	76
▁घातक	76
बर्ग	76
▁आयोग	76
▁रण	76
▁प्रतिस्थाप	76
▁दीवारों	76
▁रो	76
ायात	76
▁सीनेट	76
▁कॉफी	76
▁फैली	76
▁रथ	76
▁निकास	76
▁लिमिटेड	76
▁खेलना	76
▁मामूली	76
जात	76
▁शुभ	76
▁फांसी	75
▁पूर्णिमा	75
▁ग्यारह	75
▁संक्रांति	75
▁नागरिकों	75
▁सामूहिक	75
▁पड़ी	75
▁पोंगल	75
▁प्रतीक्षा	75
▁हल्की	75
▁कुशल	75
▁लिखत	75
▁अहमद	75
▁दुर्गा	75
▁गढ़	75
▁काटने	75
▁स्व	75
▁वेल्स	75
▁गहरे	75
▁कथाओं	75
▁टीका	75
▁अंडमान	75
▁मृत	75
▁चार्ल्स	75
▁जन्मदिन	74
▁मै	74
▁गुड	74
▁गायन	74
▁थाईलैंड	74
▁प्रहार	74
▁प्रो	74
▁करेगी	74
▁छ	74
▁श्रीनिवास	74
▁सबूत	74
▁भेजे	74
▁मास्टर	74
▁एप्पल	74
▁कठिनाई	74
▁प्रदर्शनों	74
▁यूरो	74
▁दिलचस्प	74
▁बेसबॉल	74
▁फेंक	74
▁पढ़ने	74
▁अनाज	74
▁गोल्ड	74
▁तेंदुलकर	74
▁लाहौर	74
▁प्रांतों	74
▁तार	73
▁परामर्श	73
▁कविता	73
▁ब्रह्मपुत्र	73
▁कृत्रिम	73
▁संरक्षक	73
▁जरूर	73
▁रचित	73
पर	73
▁पहलुओं	73
▁संशोध	73
▁रसायन	73
▁मिशिगन	73
▁प्रस्तुति	73
₹	73
▁कटौती	73
▁शांत	73
▁व्यापारी	73
रास्ता	73
▁उपयोगकर्ताओं	73
िस्तान	73
▁बीटा	73
[	73
▁धातु	73
▁जैव	73
▁प्रकट	73
▁रियासत	73
▁मॉल	73
▁फील्ड	73
▁लड़क	73
▁नाक	73
युद्ध	73
▁सुनाई	73
▁इंडोनेशिया	72
बा	72
▁रेसिंग	72
▁मीर	72
▁हे	72
▁धरोहर	72
लाइन	72
मन	72
जीवों	72
▁मुख्यमंत्री	72
यंस	72
▁लेबल	72
▁जयपुर	72
▁मद्रास	72
▁भवन	72
▁करवा	72
▁दम	72
▁थाई	72
▁क्षेत्रफल	72
▁भौतिक	72
▁कंपनियाँ	72
]	72
राम	72
▁परेशानी	72
▁रेशम	72
▁अधि	72
आउट	72
टन	72
▁जुलूस	72
▁इडाहो	72
▁विवादास्पद	72
राहत	72
▁साउथ	72
▁वंशज	71
▁मिस	71
▁कार्तिक	71
ांत्रिक	71
▁किराए	71
न्स	71
▁स्वायत्त	71
स्को	71
▁अग्नि	71
▁पावर	71
▁उपन्यास	71
▁उद्देश्यों	71
▁अवधारणा	71
िता	71
▁स्थानिक	71
▁मंजूर	71
▁संदिग्ध	71
▁निकलती	71
▁भावनात्मक	71
▁धर्मों	71
▁प्रतिस्पर्ध	71
▁कार्यकर्ता	71
▁मंत्रालय	71
▁मी	71
▁परीक्षणों	71
▁मेरु	71
▁हरे	71
▁लिपि	70
▁आपसे	70
▁लेह	70
▁गो	70
▁ज़ोर	70
▁रिचर्ड	70
▁कीमतों	70
मेंट	70
▁करण	70
▁खुल	70
▁जाएंगे	70
▁लायक	70
▁जैक	70
▁पहनने	70
▁विफलता	70
▁कथक	70
गो	70
▁मस्जिद	70
जीत	70
▁चूक	70
▁फूलों	70
▁आविष्कार	70
ियो	70
▁बस्ती	70
▁व्यंजनों	69
▁जाएं	69
▁भक्त	69
▁पुरातत्व	69
पोषण	69
▁खुला	69
▁उतर	69
▁इंदि	69
▁युद्धों	69
▁स्टीव	69
▁रिकॉर्डिंग	69
द्ध	69
▁स्मृति	69
▁नाट्य	69
▁जिम	69
▁गाना	69
▁परमाणु	69
और	69
ाते	69
▁भार	69
जन्य	69
पण	69
▁लीला	69
▁पथ	69
▁नजर	69
▁प्रतिस्थापन	69
▁फैले	69
करण	69
▁ठहराया	69
▁सौदा	69
▁जर्सी	69
ाबाद	69
▁फ़ाइल	69
▁गज	69
▁व्रण	69
म्	69
▁रेत	68
▁पंजीकृत	68
▁चाहती	68
▁सुख	68
▁बनती	68
▁कुलीन	68
▁मोहम्मद	68
▁इंतजा	68
▁फ़ोन	68
▁मिलेगा	68
वाला	68
▁कराटे	68
▁एजेंसी	68
▁प्रभुत्व	68
▁योद्धा	68
▁पीले	68
▁सुन	68
▁स्वागत	68
रो	68
▁अंतरराज्य	68
▁स्वस्थ	68
▁सकल	68
▁छत	68
▁पहुंचे	68
▁फ्राइडे	68
▁कोच्चि	68
▁पदार्	68
▁निवेशक	68
▁हिंदुस्तानी	68
▁मनाई	68
▁सभ्यता	68
▁नॉर्थ	68
▁मैदानों	68
▁आदिवासी	68
▁आह्वान	68
▁रैकेट	68
▁स्क्वैश	68
▁मरम्मत	68
▁महावीर	68
▁पृष्ठों	68
▁आश्रय	68
▁शूट	68
▁घोड़ों	68
▁मा	68
▁बयान	67
▁निर्वाच	67
▁इराक	67
▁सफाई	67
▁पहुँचे	67
रानी	67
▁अग्र	67
▁भरोस	67
▁चक्रवात	67
मंद	67
▁खुली	67
▁लाप	67
▁इंग	67
▁पैकेज	67
▁कागज	67
▁गुलाम	67
▁योग्यता	67
▁अग्रण	67
▁वोट	67
▁एंटरटेनमेंट	67
▁साधारण	67
▁लक्ष्यों	67
▁जूनियर	67
▁मध्ययुग	67
▁वॉलीबॉल	67
▁पुरातात्विक	67
▁उन्नत	67
जनरल	67
▁ईरानी	67
▁साक्षर	67
ड़ी	66
▁आपदा	66
▁बढ़ाया	66
करार	66
▁बैठने	66
▁नामों	66
आधारित	66
▁संगीतकारों	66
▁बिग	66
▁समझौता	66
▁टैक्स	66
रे	66
▁सुर	66
▁उपस्थित	66
▁मैसाचुसेट्स	66
▁निपटन	66
▁तालाब	66
▁कलिंग	66
▁दिखात	66
▁कलकत्ता	66
▁उत्तराधिकार	66
▁तृतीय	66
▁वार	66
▁बेल	66
▁व्यवसायों	66
▁चाहे	66
▁चलाते	66
▁अपहरण	66
▁खनन	66
दायक	66
▁किताबें	66
▁पोलैंड	66
▁खुजली	66
▁एयरलाइंस	66
▁मेहनत	66
बिल्कुल	65
▁सीखन	65
▁जला	65
▁खुराक	65
▁बर्तन	65
▁वाह	65
▁एक्शन	65
▁इमारतों	65
▁प्रताप	65
▁ऑपरेशन	65
▁गाए	65
▁पोष	65
▁गरीबी	65
▁बच्चा	65
▁स्कॉटलैंड	65
▁महाराजा	65
▁अमरीका	65
▁तुमने	65
▁मैनेजर	65
▁अभिव्यक्ति	65
कारी	65
▁छेद	65
▁टेबल	65
▁उत्साह	65
▁पीटर	65
▁अंश	65
व्यक्तित्व	65
▁शर्त	65
▁तारा	65
▁आना	65
▁स्तन	65
▁पुराण	65
▁लहर	65
▁विपणन	65
▁प्रोग्रामिंग	65
▁पीड़ितों	64
▁टोरंटो	64
▁ऐ	64
▁ओपेरा	64
▁युगल	64
▁शास्त्र	64
▁लगाई	64
▁बैठे	64
▁ड्राइवर	64
▁अभिनेताओं	64
▁प्राथमिकता	64
▁बढ़िया	64
▁धन्यवाद	64
▁डि	64
▁क्रिया	64
▁गुजरन	64
▁पर्वतारोही	64
▁खुलास	64
▁नॉर्वे	64
▁बाग	64
▁थॉमस	64
▁तालिका	64
▁रफी	64
▁रॉबर्ट	64
▁सॉफ़्ट	64
▁निर्माताओं	64
▁सावधानी	64
▁वीर	64
▁धीमी	64
▁ऑल	64
▁वाई	64
बाई	64
▁वैज्ञानिकों	64
▁माह	64
▁घटक	64
▁ओकलाहोमा	64
▁आकाश	64
▁ऑटो	64
▁हफ्त	64
▁आगरा	64
▁प्रारंभ	64
▁ग्राम	64
▁नकली	64
▁हार्ड	64
▁द्रव्य	64
▁विरोधियों	64
▁रहमान	64
▁सोशल	64
▁स्वरों	63
▁साउंडट्रैक	63
▁निचल	63
▁घुटने	63
▁किंवदंती	63
▁बैक	63
▁संभाला	63
▁कल्याण	63
▁निलंब	63
▁बैठा	63
▁खरीदना	63
▁पुस्तकों	63
लोकसभा	63
▁नकदी	63
▁नवीन	63
▁स्वदेशी	63
▁संबद्ध	63
▁अर्हता	63
▁इलेक्ट्रॉनिक	63
▁उपनिवेश	63
कशॉ	63
▁रहेगा	63
▁संकट	63
▁न्यायाधीश	63
▁चुनने	63
▁श्रमिक	63
▁औसतन	63
▁द्वि	63
▁भारतीयों	63
▁भरने	63
▁यीशु	63
▁उधार	63
▁पुरी	63
▁संयंत्र	63
▁मोड़	63
▁वा	63
▁पूछताछ	63
▁पंद्रह	63
▁सेपक	63
▁घुड़सवार	63
▁अस्थि	63
▁प्रायद्वीप	63
▁हेतु	63
▁निकटत	63
▁समस्याएं	63
्री	63
▁क्षण	63
ांतर	63
▁संसाधनों	62
▁घड़ी	62
▁मूत्र	62
▁सोन	62
")	62
▁हूं	62
▁सिद्ध	62
▁ज़मीन	62
▁स्कैन	62
▁सर्जरी	62
▁आभूषण	62
▁आगमन	62
▁जड़	62
▁उपनगर	62
▁भुवनेश्वर	62
▁संशोधन	62
▁संक्रामक	62
▁मधुमेह	62
▁नारियल	62
▁अनंत	62
▁मुक्केबाजी	62
पूर्वी	62
▁नदियां	62
▁ज़िम्मेदार	62
▁गोल्फ	62
▁दंपति	62
▁ट्रक	62
▁पाता	62
▁ईमेल	62
▁दाग	62
▁दोगुन	62
▁बवेरिया	62
▁कटाई	62
▁तंग	62
▁पेंगुइन	61
ही	61
▁उत्पादक	61
▁कार्यवाह	61
▁जनजातियों	61
▁नौकायन	61
▁दंत	61
▁मैरी	61
बल	61
▁परिणामों	61
▁उर्दू	61
▁हफ्ते	61
▁चढ़	61
▁शिक्षकों	61
▁आशी	61
र्वाद	61
जे	61
▁ग्रहण	61
ड़ा	61
▁निर्द	61
▁तस्वीरें	61
▁पार्वती	61
▁कहत	61
▁रोका	61
▁प्ले	61
▁परिचित	61
▁ज़	61
▁कहें	61
▁प्राप्तकर्ता	61
▁मिशन	61
▁लाक्रोस	61
▁ठंडी	61
नि	61
▁भाषाएँ	61
ोन	61
▁वातावरण	61
▁पत्रों	61
▁तत्काल	61
▁विरुद्ध	61
स्तर	61
▁भूत	61
▁संघों	61
▁राजेंद्र	61
▁डबल	61
▁किंग	61
▁ओक्लाहोमा	61
▁ढक	61
▁व्हाइट	61
▁सिनेमाघर	60
▁स्वरूप	60
▁घेराबंदी	60
▁महासागर	60
▁मकर	60
▁बनाकर	60
▁ग्वालियर	60
▁स्मारकों	60
▁दस्तावेज़	60
▁शपथ	60
▁पेज	60
▁बाइक	60
▁वाद्ययंत्र	60
▁अव	60
शस्त्र	60
▁कुत्ते	60
▁अल्पसंख्यक	60
▁तालुक	60
▁पड़ेगा	60
वन	60
▁हेक्टेयर	60
▁धमकी	60
▁वार्षिकी	60
▁ब्रेक	60
ुआ	60
▁बीमारिय	60
▁निकोबार	60
▁सन	60
फ	60
▁प्लास्टिक	60
▁पैक	60
▁गुहा	60
▁घोड़े	60
▁बॉब	60
▁स्वामी	60
▁देशी	60
▁पोप	60
▁गोद	60
आधी	60
▁सहमति	60
▁फिनलैंड	60
▁एयरलाइन	60
▁गुरुवार	60
▁नौसेना	60
▁जलाल	59
गामी	59
जिसे	59
▁सिकंदर	59
▁विधान	59
▁हमने	59
▁धारणा	59
▁फ़ुटबॉल	59
▁अवरुद्ध	59
▁पुडुचेरी	59
▁समीक्षक	59
▁हुमायूं	59
▁रूढ़िवादी	59
टॉप	59
▁रवि	59
▁पेड़ों	59
▁स्वचालित	59
▁तरल	59
▁सत्रों	59
▁गंभीरता	59
▁मु	59
▁बोलते	59
▁दृढ़	59
▁बालाजी	59
▁काला	59
▁क्लाइंट	59
▁भंडारण	59
▁पार्श्व	59
▁बाबर	59
▁स्टेट	59
▁लेफ्टिनेंट	59
▁पढ़ा	59
िम	59
▁स्तूप	59
▁झारखंड	59
▁सिडनी	59
▁गोलरक्षक	59
▁बनते	59
▁घुस	59
▁आरंभ	59
▁संवेदनशील	58
▁मिजोरम	58
▁संस्थानों	58
▁अर्थशास्त्र	58
▁मुख	58
▁व्यापारियों	58
▁मैड्रिड	58
▁तीर्थंकर	58
पने	58
▁ध्रुपद	58
ून	58
▁लि	58
▁भाषण	58
▁ऊँचा	58
▁निष्क्रिय	58
▁स्वीडिश	58
कालीन	58
▁विश्वसनीय	58
▁तैनात	58
▁फेम	58
▁अद्वितीय	58
▁अवसरों	58
▁सत्य	58
▁मनोवैज्ञानिक	58
▁चीज	58
▁आजीव	58
▁नवरात्रि	58
▁तिब्बती	58
▁बिशप	58
विन	58
निहित	58
▁आत्म	58
▁इलिनोइस	58
▁साहित्यिक	58
▁समानता	58
▁कृति	58
▁गुजर	58
▁अनुपात	58
▁अपमान	58
▁चालुक्यों	58
▁सलीम	58
▁बादामी	58
▁कच्छ	58
▁बुश	58
▁प्रजन	58
स्वामी	58
▁कर्ज	58
▁मार्टिन	58
▁आयोजनों	58
▁बृहदांत्र	58
▁इनकी	58
वाई	57
▁एकजुट	57
▁निर्	57
▁संसाधन	57
▁डेन	57
▁स्मिथ	57
▁गाते	57
▁कलाओं	57
▁वेशभूषा	57
▁प्लेट	57
▁स्केटिंग	57
▁तूफ़ान	57
▁छिप	57
▁आकर्षक	57
▁मनो	57
▁खेली	57
▁समर्थक	57
भ	57
ांग	57
▁प्रवक्ता	57
▁पका	57
“	57
▁अमृतसर	57
▁उद्यम	57
▁बनाएँ	57
▁वाद्य	57
▁गौतम	57
▁वसा	57
▁ईद	57
▁फेंकने	57
▁गुट	57
ानिक	57
▁दुश्मन	57
▁भावनाओं	57
▁प्रवासी	57
▁लेखकों	57
▁रेगिस्तान	57
▁उठ	57
▁घेर	57
▁रासायनिक	57
▁पित्ती	57
▁गले	57
▁युवाओं	57
▁अलबामा	57
▁बालों	56
▁परि	56
▁दर्शान	56
▁लैटिन	56
▁अन्यथा	56
▁पाक	56
▁शै	56
▁मिर्जा	56
▁निराशा	56
▁आगंतुक	56
▁अवसाद	56
कृपया	56
▁दादा	56
▁नवीनत	56
▁दुरुपयोग	56
▁गुफाएं	56
▁विक्रेताओं	56
▁टू	56
▁चिंतित	56
▁केबल	56
▁खनिज	56
कों	56
ेशन	56
▁पिक्चर्स	56
▁लखनऊ	56
▁बेचा	56
▁वाहनों	56
▁समलैंगिक	56
▁प्रजाति	56
▁शौचालय	56
▁सुनकर	56
▁ब्राज़ील	56
▁माउंट	56
▁हमलावर	56
▁रस	56
▁फोटो	56
▁जानबूझकर	56
▁रुद्र	56
▁कैमरा	56
▁ख़रीदार	56
▁ताज़	56
▁घट	56
▁भव्य	56
▁अर्जुन	56
इन	55
▁मुताबिक	55
▁अंगों	55
वेल	55
▁सीखा	55
▁प्रतियोगिताएँ	55
▁नींद	55
ियस	55
▁डैन	55
स्त	55
ास्त	55
▁विषम	55
▁वर्ण	55
▁रीति	55
▁जयंती	55
▁ठंड	55
▁जीका	55
▁शौकिया	55
▁गानों	55
गहरी	55
▁गिटार	55
▁रखती	55
▁नीतियों	55
▁विंडोज	55
▁पेनाल्ट	55
▁दिखत	55
▁सूचकांक	55
▁बेस	55
▁सफ़ेद	55
▁यूनिवर्सिटी	55
ाकार	55
▁पाठ्यक्रम	55
▁फायद	55
▁पेन	55
▁ऑस्ट्रिया	55
▁स्टेन	55
▁ब्लॉक	55
▁पिट्सबर्ग	54
▁चढ़ा	54
▁अम्बेडकर	54
▁नेपाली	54
▁कृष्णा	54
▁श्रीनगर	54
▁ताज	54
▁फाउंडेशन	54
▁भूख	54
ंड	54
ओडिसी	54
▁संपादक	54
▁मिलेगी	54
▁एकड़	54
▁सड़कें	54
▁बोतल	54
▁कम्यून	54
▁मोर	54
▁शाब्दिक	54
▁गुजरती	54
▁आवृत्ति	54
▁प्राधिकरण	54
▁सहज	54
▁अमेरिक	54
▁बुलाया	54
भिन्न	54
ॉन	54
▁घटिया	54
▁व्यास	54
▁मिज़ोर	54
▁श्वसन	54
▁कूद	54
▁लिंक	54
▁खाँसी	54
▁प्रसाद	54
▁सोनी	54
▁मेज़बान	54
▁संभालने	54
▁क्रोध	54
ीं	54
▁ठंडा	54
▁पूछें	54
ाचार्य	54
नेस	54
▁मानचित्र	54
▁कवर	54
▁रेटिनॉल	54
▁पाठक	54
सवारी	54
परंपरागत	54
▁महापौर	54
▁अवतार	54
▁हनुमान	53
▁शाकाहार	53
▁हल्का	53
▁दब	53
▁किसान	53
▁बढ़ी	53
▁टुकड़े	53
▁सुदूर	53
▁रॉयल	53
▁किस्म	53
▁स्वर्ग	53
▁कारोबार	53
कम	53
▁पूरक	53
▁रा	53
▁फाइल	53
▁गोट	53
पत्र	53
▁समर्पण	53
▁पर्वतीय	53
▁सरस्वती	53
▁चाहेंगे	53
▁हाथियों	53
▁नाग	53
▁आधा	53
▁शतक	53
गिरी	53
▁भं	53
साली	53
▁ख़	53
▁नकल	53
▁मालवा	53
▁कस्ब	53
▁समर्थित	53
▁माइक्रो	53
▁वियतनाम	53
▁साहस	53
▁खासकर	53
▁मौतें	53
▁उंगली	53
▁ऊँचे	53
▁हेड	53
▁आईं	52
▁हेनरी	52
▁छठी	52
क्षणिक	52
▁पुस्तकालय	52
▁शिल्प	52
▁बंदूक	52
▁चमक	52
▁पहाड़	52
▁तुर्क	52
पुनर्जीवित	52
▁कलात्मक	52
▁नी	52
▁लड़ी	52
▁फिल्माया	52
▁वर्मा	52
▁असर	52
▁पीला	52
▁मुखर्जी	52
”	52
चंद	52
▁गुजराती	52
▁टुकड़	52
▁सिंध	52
▁सदन	52
▁फिल्मांकन	52
▁सेवाएं	52
▁भिन्नता	52
▁भूकंप	52
▁खरीदते	52
क्षेत्र	52
▁हिंसक	52
▁रुक	52
▁खन्ना	52
▁सिलिका	52
▁वुशु	52
स्ट	52
▁मूर्तियाँ	52
▁अक्षर	52
▁बर्लिन	52
▁स्वा	52
▁प्रतियोगी	52
▁वर	52
▁इलिनॉयस	52
▁एलेक्स	52
▁मोहन	52
क्स	52
▁महिलाएं	52
खारिज	52
▁प्रेरणा	52
▁राजदूत	52
▁सुविधाएँ	52
▁आपस	52
▁क्लबों	52
▁केले	52
▁लोकत	52
▁बर्फबारी	51
▁योनि	51
▁महाकाव्य	51
सर	51
▁अनुशंसा	51
▁कैरोलिना	51
▁इज़राइल	51
▁अंडर	51
▁दोस्ती	51
▁निर्धारण	51
▁अधिग्रहण	51
भार	51
ै	51
▁ट	51
▁हिरण	51
▁कक्षा	51
▁ड्रॉ	51
▁कमर	51
▁अरक्तता	51
▁सदियों	51
▁सैम	51
▁फसलें	51
▁स्टेशनों	51
▁फसलों	51
▁बोर	51
▁कोष	51
▁संतुलन	51
▁पॉप	51
▁तिब्बत	51
फ़	51
ृत	51
▁प्रशास	51
▁य	51
▁हिल्स	51
▁तलहटी	51
▁घबरा	51
▁नील	51
▁मार्गदर्शन	51
▁वृक्ष	51
▁फर्म	51
गर	51
▁मधुर	51
वर्मन	51
▁अर	51
▁अनुपस्थिति	51
▁रेंज	51
▁यूनियन	51
▁माफी	51
▁अभियानों	51
▁कवच	51
▁रेटिंग	51
▁धूल	51
आ	51
▁कॉर्फ	51
▁चक्रवृद्धि	51
वाले	51
▁सूक्ष्म	51
जल	50
घर	50
रिया	50
▁मिर्च	50
▁बुधवार	50
▁गा	50
▁डेट्रॉइट	50
▁दावे	50
़ा	50
रवाना	50
▁भूस्खलन	50
▁उन्मूलन	50
▁यादव	50
▁अपलोड	50
▁निर्यात	50
▁अनजान	50
▁चेहरा	50
▁कूपन	50
▁निकला	50
▁अतिथि	50
▁ट्विटर	50
▁धूप	50
▁नदीमुख	50
▁निजाम	50
▁जेस	50
▁इंक	50
▁दवाएँ	50
▁स्विस	50
▁सोलह	50
▁फेसबुक	50
▁दिवसीय	50
▁जंग	50
▁अप्रत्याशित	50
▁शताब्दिय	50
▁वॉल	50
▁सीरीज़	50
साधारण	50
ूर	50
रॉनी	50
▁इलाहाबाद	50
▁होम	50
▁बोस	50
्ड	50
▁रतन	50
▁आंत्र	50
▁घूमत	50
▁आसमा	50
यर	50
▁सौंदर्य	50
▁इवेंट	50
▁ब्रह्म	50
▁पहल	49
▁गायत्री	49
▁रॉय	49
▁सिफारिश	49
▁लिखें	49
▁पत्रकार	49
▁शा	49
यन	49
▁खोजें	49
▁समस्याएँ	49
रिला	49
ियम	49
▁गंतव्य	49
▁शृंखला	49
अमेरिकियों	49
▁चिढ़	49
▁सुंदरता	49
▁टन	49
▁श्वेत	49
▁हेलीकॉप्टर	49
▁रंगमंच	49
▁लव	49
▁युक्त	49
▁पिच	49
▁त्वरित	49
रोधी	49
▁बढ़े	49
▁अंतरिक्ष	49
▁कार्बन	49
पत	49
▁टाइप	49
▁संप्रभु	49
ज़ा	49
▁इंजीनियरिंग	49
▁वर्गों	49
▁लेंस	49
▁बिन	49
▁इं	49
▁जु	49
▁चतुर्थ	49
▁अंडे	49
▁क्षमा	49
▁क्यूबा	49
▁साहिब	49
▁बढ़कर	49
▁आवासीय	49
▁कारावास	49
▁बीजापुर	49
▁कॉस्ट	49
▁आवरण	49
▁अफगान	49
!"	49
▁याचिका	49
▁ख़िलाफ़	49
डे	48
▁राधा	48
ार्सिलो	48
▁पश्च	48
▁पै	48
▁पैस	48
नो	48
▁दाम	48
प्रमाणित	48
▁शैल	48
▁मोहर	48
▁प्रबल	48
▁अरबी	48
▁मेंढक	48
▁अपार्टमेंट	48
▁मनाए	48
▁जासूस	48
▁अखिल	48
▁जाएँगे	48
▁सार्वभौमिक	48
▁जल्लीकट्टू	48
▁दिये	48
▁सौर	48
▁समायोजित	48
▁मुकदमे	48
स्थल	48
▁गुप्ता	48
▁नियुक्ति	48
ग्राम	48
▁आखिर	48
▁पि	48
▁उपजाऊ	48
▁व्यावहारिक	48
▁संचरण	48
▁पूछ	48
वहन	48
▁पोषण	48
▁प्री	48
ंडी	48
▁चौदह	48
▁दाहिन	48
▁एजेंट	48
▁शोर	48
▁अनुयाय	48
▁अरुणा	48
ेस	48
▁पहुँचत	48
▁बनीं	48
▁सीधा	48
▁मार्केट	48
▁बांस	48
▁संतान	48
▁दूल्हे	48
▁हवेली	48
▁बदलते	48
▁कारा	48
▁वृत्तचित्र	48
▁वाकई	47
▁उड़	47
▁मीठे	47
षण	47
▁घन	47
▁बीज	47
▁अकाल	47
बीर	47
रन	47
▁ऑर्केस्ट्रा	47
▁वादक	47
▁रोकथाम	47
▁अनिश्चित	47
▁भोपाल	47
▁शेख	47
▁फिलीपींस	47
▁जुर्माना	47
▁ढांचे	47
▁रिंग	47
▁मेडिक	47
▁मंगोल	47
▁जॉनसन	47
▁कर्तव्य	47
▁दिला	47
▁आशा	47
▁अजीब	47
▁आग्रह	47
▁कथकली	47
▁खुर्र	47
▁गर्दन	47
▁मोटे	47
▁प्रशासक	47
▁कारों	47
▁किनार	47
▁कटक	47
▁पूर्वजों	47
▁इंद्र	47
▁अभिन	47
रीक्षण	47
▁भूल	47
▁डेटाबेस	47
▁लात	47
▁साप्ताहिक	47
▁वस्तुएँ	47
▁खींच	47
▁पहचाना	47
▁पुजारी	47
▁टेप	47
▁प्रिय	47
▁समीर	47
▁ऑक्सीजन	47
वर्ष	47
▁मैक्सिको	47
▁पहलवान	47
ियल	47
▁प्रयोगशाला	47
▁बोझ	47
▁नाटकों	47
▁मारना	47
रक्षित	47
▁चोटें	47
▁लत	47
▁मजदूर	47
ड़	47
▁सर्वाधिक	47
▁दलदल	47
फोर्ड	47
▁नहर	47
▁प्रदूषण	47
▁स्थिरता	47
▁गहन	47
▁मोनिका	47
▁दफनाय	46
▁तान	46
▁प्रदर्शनकार	46
▁लेंगे	46
▁सर्वोत्	46
▁रि	46
▁एडवर्ड	46
▁मुग़ल	46
▁प्रकाशन	46
▁लाइव	46
उद	46
नेट	46
▁इन्फ्लूएंज	46
▁कार्ल	46
ची	46
▁आईफोन	46
▁आँखें	46
▁किलों	46
▁धुन	46
▁दिगंबर	46
▁चेर	46
▁निर्वास	46
दर	46
▁ट्रेल	46
ंत	46
▁हज़ार	46
▁अमरिका	46
▁मिलान	46
▁कुत्तों	46
▁चिली	46
▁ड्रामा	46
▁कण	46
▁श्रृंखलाओं	46
▁यूक्रेन	46
▁रत्न	46
राधिक	46
वासी	46
▁जि	46
▁तोड़ने	46
▁पन	46
▁धोनी	46
टो	46
▁चुनें	46
▁आशंका	46
▁सामग्रिय	46
▁रिश्तेदारों	46
▁साहि	46
हम	46
▁रॉकेट	46
अपने	46
▁चेरा	46
▁फैलता	46
राजीव	46
▁झलक	46
▁रू	46
▁शिया	46
▁नरम	46
▁ज़िला	46
▁नियोज	46
▁खा	46
▁अटलांटिक	46
▁मिलाया	45
▁फ्लू	45
▁मानद	45
▁भट्ट	45
ेर	45
▁राजकुमारी	45
▁भरपूर	45
▁बजा	45
▁गवाह	45
▁विवरणों	45
▁स्ट्रीट	45
▁पारा	45
▁मैनचेस्टर	45
बोर्ड	45
▁तैमूर	45
▁डेविस	45
ख	45
▁योद्धाओं	45
▁खिलाफ़	45
ीज़	45
खेल	45
▁गेट	45
x	45
▁डांस	45
▁सिरे	45
▁ट्रेडमिल	45
▁रिया	45
▁हुमायू	45
▁ओणम	45
▁मुक्ति	45
िकोड	45
शिप	45
▁क्लाइ	45
▁हॉलीवुड	45
▁मेलबर्न	45
▁खेलता	45
▁बहुमत	45
लीला	45
▁न्यूज़	45
हीन	45
▁अंपायर	45
▁उभर	45
ारा	45
▁भजन	45
▁बेगम	45
▁दस्ताने	45
कुल	45
▁अरे	45
▁वाक्यांश	45
▁केंटकी	45
▁फंड	45
▁लुइस	45
▁पत्थरों	45
▁डालते	45
▁स्वच्छता	45
ाधिकार	45
लिंग	45
▁रस्साकशी	45
▁राणा	45
▁स्ट्रोक	45
लोड	45
▁पंजीकरण	45
▁इंटर	45
स्थान	45
▁अनौपचारिक	45
▁संलग्न	45
▁मालिकों	45
▁सहयोगियों	45
▁सुनवाई	45
मेल	45
▁उल्टी	45
▁स्पीडवे	45
▁प्रसव	45
▁खंडहर	45
▁पलट	45
▁लाइफ	45
▁पढ़	44
▁माइक	44
निर्मित	44
▁सोचत	44
▁हस्त	44
▁रचनात्मक	44
▁मनोरंज	44
▁सीनेटर	44
▁लोहड़ी	44
▁मातृ	44
▁संबोधित	44
▁रियो	44
▁दाखिल	44
▁आकर	44
▁जाल	44
▁एंजिल्स	44
▁बिताया	44
▁कूच	44
▁प्रशांत	44
ये	44
▁फैशन	44
▁करम	44
कृतियों	44
▁बु	44
▁गयी	44
▁नृत्यों	44
▁नींव	44
डा	44
संभव	44
▁संप्रदाय	44
▁विवेक	44
▁चौक	44
▁मोटरस्पोर्ट्स	44
▁टेनेसी	44
▁बोस्टन	44
▁टाउन	44
▁शि	44
▁केन्द्र	44
▁अनोख	44
▁पादरी	44
▁स्वच्छ	44
▁स्पेनिश	44
वीर	44
▁मीनार	44
▁रूम	44
▁खरीदी	44
▁कपास	44
▁मिसौरी	44
▁खासी	44
▁ओहायो	44
▁धर	44
▁सेंट्रल	44
▁हार्मोन	44
▁थक	44
▁क्लास	44
▁बिल्ली	44
▁आयोजक	44
कलन	44
▁दार्जिलिंग	44
▁दर्शक	44
▁पूछा	44
▁अनूठ	44
▁निधि	44
भाविक	44
▁औषधीय	44
▁सितार	44
▁कारखाने	44
दाहिने	44
▁शून्य	44
▁जावा	44
ेंगे	44
▁कब्रिस्तान	44
ाइटिस	44
▁बंदर	44
▁नासिक	44
▁सेमीफाइनल	44
▁गुलाबी	44
▁स्थग	44
▁लिनक्स	44
▁बिगड़	44
▁कोयला	44
▁नतीजतन	44
ाल	44
▁फिलाडेल्फिया	44
▁धनुस्तम्भ	44
▁क्वींसलैंड	44
▁संश्लेषण	43
▁व्य	43
▁राक्षस	43
णों	43
▁फाउल	43
▁कावेरी	43
▁पंचायत	43
▁क्रिस	43
▁उड़ीसा	43
▁वक्त	43
▁गोलीबार	43
▁फारस	43
▁ऑक्सफोर्ड	43
▁पकड़े	43
▁आदत	43
▁कोशिकाएँ	43
ीर्ण	43
▁बेकार	43
▁ख़तर	43
▁भरतनाट्यम	43
▁निष्पाद	43
▁कायम	43
▁तीरंदाजी	43
▁छाती	43
▁जंक्शन	43
▁दा	43
▁बलात्कार	43
▁लैगून	43
▁मुहान	43
▁वर्चस्व	43
▁कॉर्पोरेशन	43
▁रक्तचाप	43
▁भाग्य	43
▁बंधक	43
▁पार्श्वनाथ	43
▁दिखने	43
▁पर्वतारोहण	43
▁अनुचित	43
▁कमांडर	43
▁लड़ाक	43
▁सम्मिल	43
▁रोमांटिक	43
▁अस्थिर	43
ेल	43
दीन	43
ाजपेयी	43
▁तत्कालीन	43
▁कंकाल	43
▁पे	43
▁चोलों	43
▁विशेषज्ञता	43
▁गिल	43
ग्रहण	43
▁मेमोरी	43
▁फोर्ट	43
▁सजाया	43
▁टेक्सस	43
▁पु	43
▁अल्प	43
▁दश	43
चा	42
▁समर्थकों	42
▁संपादन	42
▁कब्ज	42
▁दार्शनिक	42
▁बजाया	42
▁बागान	42
▁अनीता	42
▁लोह	42
▁नाराज	42
▁दंग	42
▁तले	42
▁निकले	42
▁लेखाकार	42
▁ओंटारियो	42
▁सै	42
▁सजावटी	42
▁गिरजाघर	42
ेंद्र	42
▁शक्तिय	42
▁निंद	42
ांकन	42
▁सस्ते	42
बन	42
▁भ्रूण	42
गृह	42
बू	42
यह	42
▁चिकित्स	42
▁विकारों	42
▁छिपा	42
▁बितान	42
▁पूर्ववर्ती	42
▁कमज़ोर	42
ुर	42
▁धकेल	42
▁बेचे	42
▁रुकन	42
टर	42
▁शिरा	42
▁पकाने	42
▁फॉर्म	42
▁गुल	42
▁चिंताओं	42
▁फायदे	42
घराने	42
▁महारानी	42
▁पांडवों	42
सिस	42
▁लुईस	42
▁मानवाधिकार	42
▁द्रविड़	42
▁दिव्य	42
▁लड़ा	42
▁छवियों	42
ंगी	42
▁गु	42
श्त	42
▁मिनेसोटा	42
बैक	42
▁सीरम	42
▁नग्न	42
▁राजनयिक	42
▁छंद	42
▁लौटा	42
▁पोते	42
▁एक्सचेंज	42
छोटे	42
▁बदलती	42
▁चुरा	42
▁समतल	42
▁कट	42
▁एकादशी	42
▁घृणा	42
वियों	42
िव	42
▁प्रतिष्ठा	42
▁सूरज	42
▁सस्त	42
मुफ़्त	42
किन	42
▁नोक	42
उपो	42
▁ओह	42
▁बेड	42
क्रिया	41
▁नम	41
▁पंचांग	41
▁खिलौने	41
्ज़	41
▁स्वाइन	41
▁बीजिंग	41
▁चि	41
स्टर	41
▁रचा	41
▁घने	41
▁श्रद्धांजलि	41
सान	41
▁साजिश	41
▁लड़ते	41
▁हिमाचल	41
▁कारगिल	41
▁शैलियाँ	41
▁रिले	41
▁अक्षरों	41
▁मंदी	41
▁संभोग	41
▁रोगों	41
▁कूट	41
साइड	41
रेखा	41
▁विज	41
▁भविष्यवाणी	41
▁फोड़	41
▁अनुयायी	41
▁री	41
▁मनुष्य	41
▁ढलान	41
▁तरंग	41
▁प्रोजेक्ट	41
▁बिक	41
▁यंग	41
▁तराश	41
▁मुंह	41
▁निकायों	41
▁पाली	41
▁प्रजातियां	41
▁बेन	41
▁बंदरगाहों	41
ाइट	41
▁भेजी	41
▁थ्रिलर	41
▁चेन	41
▁आर्य	41
▁क्लिक	41
▁कीमतें	41
▁मारकर	41
▁गर्भपात	41
▁मछलियों	41
▁व्यय	41
▁धोखा	41
्या	41
▁पहना	41
▁देसाई	41
उ	41
▁गायकों	41
▁शरण	41
▁अनुक्रम	41
▁बैडमिंटन	41
▁गाइड	41
▁सप्तक	41
▁पांडे	41
▁आश्चर्यचकित	41
रू	41
▁चलाना	41
▁धीमा	41
▁टाइफाइड	41
▁सोना	41
अप	41
▁गौरव	41
▁तिहा	41
▁बर्मा	41
वार	41
▁कर्ण	41
▁क्रोएशिया	41
▁तिल	41
▁कनेक्शन	41
▁नाना	41
▁सामंत	41
▁प्लेस्टेशन	41
▁बि	41
ष्णकटिबंधीय	41
▁दुर्भाग्य	41
▁सांसद	41
कॉक	41
▁विज्ञापनों	41
ल्स	41
▁यूट्यूब	41
▁भूमिकाएँ	40
▁अहमदाबाद	40
▁बारी	40
▁इकाइयों	40
▁चुकाने	40
▁राउंड	40
▁खात	40
▁विशेषताएँ	40
जैविक	40
▁बैंकिंग	40
बाएं	40
▁टकराव	40
▁नाइट	40
▁नमूने	40
धारा	40
▁देखरेख	40
▁गोविंद	40
▁त्रुटि	40
▁साथियों	40
▁कंधे	40
▁होंगी	40
जस्सी	40
▁उथल	40
कर्ताओं	40
▁भ्रष्टाचार	40
वाड़ा	40
▁दर्जन	40
▁ऑटिज्म	40
▁शोले	40
▁उत्पीड़न	40
▁इंतज़ा	40
▁नर	40
▁सिद्धांतों	40
▁शेट्टी	40
मार्ग	40
▁गीता	40
▁रोमांचक	40
होम	40
▁खलनायक	40
▁भोज	40
▁घाटियों	40
▁सोचें	40
▁भैंस	40
▁जेन	40
▁संभाली	40
सेन	40
▁गद्दी	40
▁रोज	40
▁पैलेस	40
▁मेगावाट	40
उठाते	40
▁भारती	40
▁बैठ	40
▁गुड़	40
▁जताई	40
▁खरीदे	40
▁नशे	40
▁ज़ी	40
▁धोखाधड़ी	40
▁डिवि	40
मार	40
▁कच्च	40
▁चाकू	40
▁धारण	40
▁प्राय	40
▁कुषाण	40
▁निर्वाचन	40
विल	40
▁झूम	40
ेश	40
▁कैश	40
पा	40
▁घटनाएँ	40
वानी	40
रों	40
▁रुख	40
▁तांबे	40
▁हिन्द	40
▁द्रव	40
▁न्यूज	40
▁प्रेमी	40
▁कैमरे	40
▁समझत	40
▁विस्थापित	40
▁करो	40
▁लीजिए	39
+	39
▁मुद्राओं	39
▁बर्खास्त	39
▁आइटम	39
▁बिस्तर	39
▁प्रतिबिंब	39
▁पद्मिनी	39
▁सॉफ्ट	39
▁लगेगा	39
▁थैले	39
▁फॉर्मूला	39
▁लाभांश	39
▁धूम्रपान	39
▁मुकेश	39
▁आयाम	39
▁सकेंगे	39
▁संचालक	39
▁रणनीतिक	39
▁झरनों	39
▁फ्रांसिस्को	39
▁स्थानांतरण	39
इस	39
▁टेलीविज़न	39
▁उपेक्ष	39
▁जीवंत	39
▁मदुरै	39
▁ईश्वर	39
▁लैप	39
▁परिदृश्य	39
▁परिधान	39
▁पूर्वानुमान	39
▁ओम	39
▁गोपाल	39
▁खिलजी	39
▁कहानियाँ	39
▁दुर्योधन	39
▁सहानुभूति	39
▁लॉर्ड	39
▁फ़ारसी	39
▁मानदंड	39
▁उछाल	39
▁दमन	39
▁एलिस	39
▁आयुक्त	39
▁गिरोह	39
▁स्कॉट	39
▁भय	39
ोसा	39
सकने	39
▁हड्डी	39
▁मोल	39
▁इब्	39
▁नीले	39
▁राष्ट्रवादी	39
▁फ़्रांस	39
▁क्वीन	39
▁चौड़ी	39
▁शोषण	39
▁दोहरी	39
▁रहेंगे	39
▁नाराज़	39
माला	39
▁मछुआर	39
▁खरीदें	39
▁स्तनपा	39
▁पल	39
▁मॉन्ट्रियल	39
▁हिम	39
▁संपूर्ण	39
▁आश्रम	39
▁चित्तौड़	39
▁बनवाया	39
▁सर्दी	39
▁जहाजों	39
▁आजकल	39
▁हरि	39
▁चक्कर	39
▁इशार	39
▁त्रावणकोर	39
▁बातों	39
▁निकटता	39
▁क्रिकेटर	39
▁स्वीकृत	39
टंकी	39
▁टुकड़ों	39
▁शैव	39
▁छठे	39
▁वेद	39
▁बुला	39
िर	39
▁संन्यास	39
उल	39
▁फिल्म्स	39
लिन	39
▁अँग्रेज	39
▁तबाह	39
टोनी	39
डेन	39
▁हिमनद	39
▁माया	39
हावी	39
डेट	39
▁कागज़	39
▁पुनर्वा	38
▁झिल्ली	38
कल	38
▁दरार	38
▁पत्नियों	38
▁("	38
▁नियत	38
▁कैनो	38
▁हिस्सेदार	38
वुड	38
▁बैनर	38
▁देगी	38
रूम	38
स्टा	38
▁बॉस	38
▁डेली	38
▁सिवि	38
▁हा	38
–	38
था	38
▁सीख	38
नीय	38
▁टीक	38
▁मिलीं	38
▁नस्ल	38
लाता	38
▁सीता	38
▁भा	38
▁शेयरों	38
▁बैठत	38
▁आंकड़	38
▁मानी	38
▁भेंट	38
▁कस्बों	38
▁संतुष्ट	38
▁रेजिमेंट	38
▁हवाएँ	38
▁वरुण	38
I	38
▁सकी	38
▁मुद्र	38
▁घिर	38
▁शोधकर्ताओं	38
▁निर्देशों	38
▁मैक्स	38
▁पत्ते	38
▁वैंकूवर	38
▁रोज़	38
▁प्रतिजैविक	38
▁ह्यूस्टन	38
कुलम	38
क्यू	38
▁बैले	38
▁ज्वार	38
▁स्वीकृति	38
▁ध्व	38
ॉइड	38
▁उपग्रह	38
▁टैक्सी	38
▁फर्श	38
▁रागम	38
▁विराम	38
▁रणजी	38
▁उपाध्यक्ष	38
▁कोहिमा	38
▁दिख	38
▁इंडो	38
▁जैक्सन	38
▁सुनने	38
▁रवैय	38
▁ज्वालामुखी	38
▁रुप	38
▁महात्म	38
▁दूल्हा	38
▁आदित्य	38
मती	38
▁मनु	38
तीर्थयात्रियों	38
▁लड़	38
▁म्यूनिख	38
▁बेचत	38
▁वैन	38
▁मज़बूत	38
▁पाप	38
षित	38
▁सिन्हा	38
ास	38
▁शरद	38
▁ढाल	38
▁उपभोक्ता	38
▁पसीन	38
▁अनियमित	38
ेज़	38
▁बातें	38
▁प्रतिष्ठान	38
▁बनना	38
▁प्रतीकात्मक	38
▁प्रासंगिक	38
पुरम	38
▁ऊतकों	38
▁फॉर	38
▁नाइजीरिया	38
▁मूल्यवान	38
▁वाराणसी	38
▁संकीर्ण	38
▁ऐहोल	38
▁सस्ता	37
▁दरवाजे	37
▁बिताए	37
▁उदार	37
▁नोकिया	37
▁उजागर	37
कस	37
▁ग्रे	37
▁मसालों	37
▁चाचा	37
▁महानगर	37
ाऊ	37
▁संहिता	37
▁नीली	37
▁स्वामीनाथन	37
न्ना	37
▁संभवत	37
▁अभिगम	37
▁मज़ा	37
▁मिलियन	37
▁ग्रह	37
ाहौल	37
▁विंग्स	37
▁अवध	37
▁परिचय	37
▁तेरह	37
▁हरकत	37
▁नहरों	37
▁जोस	37
▁स्प्रिंग	37
▁ब्राउन	37
▁उत्परिवर्तन	37
बसे	37
▁गणित	37
▁कंपनियां	37
शी	37
▁अद्यतन	37
▁परिभाषा	37
▁सिक्का	37
▁एपिसोड	37
▁झीलों	37
▁पते	37
▁छठा	37
▁सीधी	37
▁अल्सर	37
▁महंगी	37
▁चचेरे	37
▁रिकॉर्ड्स	37
ूनी	37
▁लगाएँ	37
▁विनम्र	37
▁तर	37
▁लाइट	37
▁कचर	37
▁हेलमेट	37
▁झूठ	37
▁मायन	37
▁अत्याचार	37
▁शटल	37
▁छाप	37
▁शर्ट	37
▁ढोल	37
▁राइट	37
बिजली	37
▁आँसू	37
▁तैराकी	37
▁फॉक्स	37
▁अक्षय	37
▁उठाए	37
▁क़िला	37
▁रोहे	37
▁प्रभु	37
▁जवाहर	37
▁मानता	37
जहाँ	37
▁बिलों	37
▁किम	37
▁इरादा	37
▁सोचने	37
▁टक्कर	37
▁पहाड़ियाँ	37
▁पंक्तिय	37
▁आजाद	37
▁दूकान	37
▁कीजिए	37
टाइम	37
टे	37
▁क्लर्क	37
▁उपलब्धि	37
ाब	37
▁पतवार	37
▁विद	37
▁शोक	37
▁उड़ा	37
▁पुष्ट	37
▁ति	37
▁मारिया	37
पन्न	37
▁लेक	37
शाह	37
▁किरण	37
▁प्रायोजित	37
म्मा	37
रहित	37
▁बताए	37
▁गर्भाशय	37
▁दुष्प्रभाव	37
▁गेम्स	37
राष्ट्रीय	37
▁वनस्पतिय	37
▁रैप	37
▁समकक्ष	37
▁चमड़	37
▁एथलेटिक्स	37
▁स्नेह	37
▁मोड	36
▁कराची	36
▁मंडली	36
▁एंडरसन	36
▁लैंड	36
▁गोदावरी	36
▁रामायण	36
तः	36
▁इंजेक्शन	36
फील्ड	36
▁साद	36
▁फ्रीस्टाइल	36
▁भतीजे	36
▁सिंड्रोम	36
▁जागरूकता	36
शैली	36
▁इधर	36
▁दिखाए	36
▁सजावट	36
▁शॉप	36
▁कपड़ा	36
▁वस्त्र	36
▁असहमत	36
▁रिक	36
▁विकि	36
▁लक्षित	36
▁अवरोध	36
▁वृत्त	36
▁लगीं	36
▁आर्थर	36
▁श्रम	36
▁पादुकोण	36
▁इंदौर	36
▁चैंपिय	36
▁उमर	36
▁लॉ	36
सिंह	36
▁बैग	36
▁व्रत	36
ाम	36
▁याज	36
▁पेंसिल्वेनिया	36
▁यॉज	36
▁रूपांतरण	36
▁टिप्पणिय	36
▁विनियम	36
▁छोड़ा	36
▁साड़ी	36
▁चौड़े	36
▁म्यूजिक	36
▁दु	36
▁मेयर	36
▁सऊद	36
▁गदा	36
▁ब्लॉग	36
▁सिखान	36
▁राजेश	36
▁कांच	36
वैध	36
टिव	36
ख्यात	36
▁प्रभाग	36
ावरण	36
▁बिट	36
मलाई	36
▁अत्यंत	36
▁फलों	36
बर्स	36
▁प्रोडक्शन	36
▁स्की	36
▁आयरन	36
परवाह	36
▁कैम्ब्रिज	36
बकाया	36
▁महीना	36
▁गौर	36
▁प्रदर्शनी	36
▁गारो	36
▁साम्राज्यों	36
प्रत्यक्ष	36
▁गुणसूत्र	36
▁लार	36
▁ब्रायन	36
▁मेहमानों	36
▁झंडे	36
▁टैंक	36
▁चतुर्थी	36
▁विल	36
▁मेवाड़	36
▁भेजत	36
▁नागपुर	36
मित्र	36
▁वैस	36
िए	36
▁सत्याग्रह	36
▁अजीत	36
▁घबराहट	36
▁टॉम	36
▁विनाश	36
▁ईंधन	36
▁जूते	36
▁झटका	36
▁लाए	36
▁ब्रह्मांड	36
▁वाणिज्य	35
▁फीचर	35
▁गिल्ली	35
▁दौड़ने	35
▁चिन्ह	35
▁यमुना	35
▁समानांतर	35
ानंद	35
▁कर्म	35
▁रसोई	35
▁त्रि	35
▁मूर	35
▁शुरूआत	35
▁अभाव	35
▁जौहर	35
▁थ्रोबॉल	35
विक	35
हर	35
णाल	35
▁बें	35
▁मिज़ो	35
▁औ	35
▁साँस	35
▁चिप	35
▁सिम	35
ज़ी	35
▁अपवाद	35
▁रातों	35
नियंत्रित	35
▁न्यायाधीशों	35
पति	35
▁विलुप्त	35
▁सार	35
▁सहकारी	35
▁हंस	35
▁प्रभार	35
▁ऑडियो	35
▁ऑन	35
▁बनावट	35
▁घटा	35
अपमानजनक	35
▁खंडों	35
भाव	35
▁साझेदारी	35
संबंधी	35
▁पदोन्नत	35
▁अनूप	35
र्रा	35
▁केली	35
▁वुड	35
▁बुजुर्ग	35
▁मोदी	35
▁आत्मसमर्प	35
▁सूरत	35
▁घावों	35
▁प्रपत्र	35
▁मेज़	35
▁बस्तिय	35
▁मूक	35
▁निराशाजनक	35
वाल	35
▁बर्दा	35
▁इल्	35
▁एयरब	35
▁विलियम्स	35
विशेष	35
▁दंगल	35
▁पेपर	35
▁ब्रिज	35
▁नो	35
▁सहारा	35
▁खु	35
कला	35
▁बितात	35
▁संगीतमय	35
▁भिक्षु	35
▁कबील	35
▁एट	35
▁पहनना	35
▁प्रतिकूल	35
▁बजाते	35
▁फ्रैंक	35
▁आंग्ल	35
▁पैड	35
▁लैंग	35
▁ग्रीक	35
▁प्राण	35
▁अलास्का	35
▁विधियों	35
▁पैरिश	35
▁आर्द्रभूमि	35
▁लियोन	35
▁जोसेफ	35
▁जम	35
▁पट्ट	35
▁पैन	35
▁लाई	35
यान	35
▁डोर	35
▁अग्रिम	34
▁इलाक़	34
▁तटों	34
▁रोल	34
▁धागे	34
▁शीत	34
▁अर्बुद	34
▁मूल्यों	34
▁कोंकण	34
▁सम्पूर्ण	34
▁जबलपुर	34
▁अहोम	34
▁प्रवृत्ति	34
▁उद्गम	34
▁पहुँचाने	34
प्ले	34
▁दवाएं	34
▁जोशी	34
▁अंतः	34
▁इमारतें	34
▁लाना	34
▁शिष्य	34
▁जीवनी	34
▁डिफेंस	34
▁बताएँ	34
▁बरामद	34
वस्तु	34
▁भूटान	34
▁बाबा	34
▁नंद	34
▁भंग	34
▁सामान्यतः	34
▁चूना	34
▁पद्धति	34
▁फंस	34
▁पहनती	34
▁इलेनॉय	34
रक्षण	34
▁रिश्तेदार	34
्स्की	34
र्ट	34
र्ड	34
▁दर्जे	34
▁ईसाइयों	34
▁रैंकिंग	34
▁अपर्याप्त	34
▁जिनमे	34
▁चिकन	34
▁प्रेसीडेंसी	34
मेत	34
▁ठंडे	34
ज़ीर	34
▁क्यूबेक	34
▁जगन्नाथ	34
▁शक	34
▁यज्ञ	34
▁निखिल	34
▁सचिन	34
▁शास्त्री	34
▁हिंदुस्तान	34
▁एकीकरण	34
▁अजय	34
▁स्	34
▁म्यांमार	34
▁नियोक्ता	34
▁क्वार्टर	34
▁गोल्डन	34
▁अस्पतालों	34
▁ताइवान	34
▁निमोनिया	34
▁पचास	34
▁उद्धृत	34
▁करवाया	34
▁फ्रेम	34
▁अटलांटा	34
▁दया	34
▁फारेनहाइट	34
▁पंख	34
▁पटना	34
▁कानपुर	34
▁इडुक्की	34
▁कैन	34
▁प्रतियोगिताएं	34
ुओं	34
▁पियानो	34
▁बीत	34
▁उपचारों	34
▁अवशोष	34
पाट	34
नाड	34
ावती	34
आम	34
▁यंत्र	34
▁राजनेता	34
▁ट्रस्ट	34
बारी	34
गठित	34
▁जॉली	34
▁अनुदान	34
▁जातियों	34
▁रिश्ते	34
▁डरावनी	34
▁मज़े	34
▁आर्द्र	34
▁छिद्र	34
▁डेल	34
हूर	34
▁पंडित	34
▁पुनर्गठन	34
▁सम्बन्ध	34
ूरी	34
▁गैलिंग	33
रक्षक	33
▁बुजुर्गों	33
▁पढ़ाया	33
▁अनुच्छेद	33
▁गुर्दे	33
▁बदबू	33
▁दारा	33
▁गेंदबाज	33
▁अखबार	33
▁भाषी	33
▁वर्दी	33
▁जोन्स	33
टिक	33
▁क्लासिक	33
▁डीन	33
▁घिन	33
▁लपेट	33
गार	33
▁लीडर	33
▁दुर्	33
▁अधूर	33
▁पुनर्निर्मित	33
▁जलाने	33
कॉम	33
▁रु	33
▁बंदी	33
कोट	33
▁पंक	33
▁यकीन	33
जेड	33
▁बाएँ	33
▁मिसिसिपी	33
▁हॉलैंड	33
com	33
▁निज़ाम	33
दास	33
▁खगोल	33
डियम	33
▁उत्सर्ज	33
▁कुंजी	33
▁नियमोल्लंघन	33
▁वें	33
▁ट्रम्प	33
▁अगरतला	33
▁नोबे	33
▁अध्याय	33
▁घ	33
▁बेल्ट	33
यार	33
▁गोला	33
▁अमृत	33
▁पेशी	33
▁गेंदबाजी	33
▁इंडियाना	33
पुट	33
▁दोहरा	33
▁विधवा	33
▁डेनमार्क	33
इंग	33
ावश्यक	33
ेरियो	33
▁बर्न	33
▁अवलोकन	33
▁मक्का	33
ंका	33
फ़ील्ड	33
▁हसन	33
रात	33
▁सुनी	33
▁रॉयल्टी	33
▁मिनी	33
▁जयदेव	33
लोन	33
▁गायिका	33
▁रिसाव	33
▁महंगा	33
▁कैंट	33
▁मो	33
▁एनिमेट	33
यम	33
▁सेठी	33
▁अफवाह	33
▁स्कीइंग	33
बीच	33
▁जलन	33
▁कांजी	33
▁पू	33
ोला	33
▁संकल	33
प्रवाह	33
▁कोलोराडो	33
▁बो	33
▁नीलामी	33
▁क्ल	33
▁सुभाष	33
▁सिपाह	33
▁पोत	33
▁प्रसन्न	33
बॉक्स	33
▁कोरोना	33
▁मिलीमीटर	33
▁जेट	33
▁मांसपेशी	33
▁तंजावुर	33
▁ओंट	33
▁पुनरुत्थान	33
▁माप	33
▁सैयद	33
▁जाली	33
▁ललित	33
▁नवजात	33
▁मिलना	33
▁जानता	33
▁बचना	33
▁साहब	33
▁विनिमय	33
▁सुखद	33
▁विकलांग	33
▁प्रदाता	33
▁आंत	32
▁सेंटीमीटर	32
▁खिड़क	32
▁रोमांच	32
▁सोल	32
मध्य	32
▁हांगकांग	32
▁गढ़वाल	32
▁अवनि	32
▁बलिदान	32
▁रोजगार	32
मे	32
▁अभिषेक	32
▁एप्लिकेशन	32
▁नाविक	32
▁साम	32
▁प्राणी	32
▁प्रेमिका	32
ाली	32
विले	32
▁सार्स	32
▁पुन	32
▁ट्यूमर	32
▁फेंका	32
▁ध्रुव	32
▁कठिनाइयों	32
▁निपुण	32
▁बोनस	32
▁उज्जैन	32
▁बाउल	32
▁बिंदुसार	32
▁जन्माष्टमी	32
▁चलाए	32
▁पागल	32
पाई	32
▁संवेदनशीलता	32
▁बसों	32
▁टाइगर	32
वर्णक	32
ेरी	32
▁उत्साही	32
▁सांता	32
▁भेजन	32
▁पक्षाघात	32
▁मोट	32
▁न्यूज़ीलैंड	32
▁किराये	32
▁उपनिषद	32
▁आपात	32
राज्य	32
कुंड	32
▁दुर्व्यवहार	32
भारतीय	32
णी	32
▁जगत	32
▁गिरफ्तारी	32
▁शिप	32
▁आजीविक	32
▁जीवाश्म	32
▁चर	32
▁उपज	32
▁इलेक्ट्रिक	32
▁नैतिकता	32
▁पैरा	32
▁बेटों	32
टेल	32
▁प्रविष्टि	32
▁गुलाब	32
▁बदलना	32
▁ऊंचा	32
यूनानियों	32
▁साम्यवाद	32
▁सिद्धार्थ	32
▁प्रतीकों	32
▁हर्ष	32
भाग	32
▁उदास	32
▁दीवारें	32
▁छीन	32
▁पिट	32
ासन	32
▁लाठी	32
▁टोपी	32
▁ड्रम	32
▁सोम	32
प्पा	32
▁उल्	32
▁तीर्थयात्री	32
▁आर्म	32
▁समन्वय	32
▁जेब	32
▁पुराणों	32
▁जनजात	32
▁कॉमिक	32
▁सुनील	32
▁उच्चारण	32
▁मणि	32
तारों	32
▁वंचित	32
▁सहस्राब्द	32
▁किचन	32
▁पूर्वार्	32
▁भोंसले	32
▁झंडा	32
▁ऑस्कर	32
▁जुड़वां	32
▁चा	32
चढ़ाव	32
▁मौ	32
▁महाबली	32
▁पढ़त	32
▁घनत्व	32
▁हरी	32
▁चक्रवर्ती	32
▁लास	32
▁कुचीपुड़ी	32
▁अमिता	32
ुल	32
▁बाह्य	32
▁ध्वज	32
▁सिलेंडर	32
▁अनुशासन	32
▁गिरफ़्तार	32
यात्राओं	32
▁विस्कॉन्सिन	32
लो	32
▁सशक्त	32
▁करार	31
▁फाइबर	31
▁कौर	31
▁पायलट	31
▁टेलीफोन	31
▁पवन	31
्ट	31
▁वाहिका	31
ुदा	31
मैं	31
▁मत्स्य	31
▁गुणा	31
▁सपाट	31
▁बड़	31
▁कलाई	31
▁मवेशियों	31
खंड	31
ोस	31
▁रघु	31
▁ब्यूर	31
दीप	31
िद	31
▁अश्विन	31
▁उद्यानों	31
▁रोकत	31
▁मय	31
▁नारंगी	31
▁पर्व	31
गेट	31
▁पकड़ा	31
▁विश्राम	31
▁उत्त	31
▁अंगूठ	31
िरासत	31
▁कुचल	31
राग	31
▁धारावाहिक	31
धर्म	31
▁सिखाया	31
▁पीट	31
▁दह	31
▁गोपनीय	31
▁परेड	31
तपुड़ा	31
▁यादृच्छिक	31
▁मतभेद	31
▁फिलिप	31
चंद्र	31
▁माही	31
ाइन	31
▁मिश्रा	31
▁एनीमे	31
▁ख़राब	31
▁महाकाव्यों	31
▁फुफ्फुस	31
▁थैला	31
▁ज़िंदग	31
▁भागवत	31
ेक्ट	31
▁दरें	31
▁वस्तुएं	31
▁साइबर	31
कूरियर	31
▁मंत्रिमंडल	31
▁क्र	31
▁कैट	31
▁नमूना	31
▁संगमरमर	31
विनाश	31
▁प्राप्ति	31
▁रुझान	31
▁खाल	31
डन	31
▁अवरोधक	31
▁भिक्षुओं	31
▁एरिया	31
▁हड़प्पा	31
▁उन्नीस	31
▁सेनापतियों	31
▁अवटु	31
▁अंशु	31
▁रेड्डी	31
▁प्रतियाँ	31
▁गेहूँ	31
▁संभाल	31
▁प्रिया	31
हस्तांतरण	31
▁लोन	31
▁देखेंगे	31
▁इस्पात	31
▁आयात	31
▁गौ	31
▁बैटरी	31
नम	31
▁वास	31
▁सौंपा	31
▁शहीद	31
▁बंदूकधार	31
▁गंग	31
▁बैर	31
▁पहन	31
▁मैक्सिकन	31
▁ईमानदारी	31
▁निक्क	31
▁राजनेताओं	31
रफ्तार	31
▁तीर्थयात्रा	31
▁लॉक	31
▁कर्नाट	31
▁ब्रॉड	31
▁हताहत	31
▁बारीकी	31
▁हस्तियों	31
▁रसीद	31
▁देखत	31
▁होलिका	31
विद्या	31
बुक	31
▁टुकड़ा	31
▁नलिका	31
ग्याल	31
▁मेटल	31
▁मापने	31
▁हेर	31
▁नाते	31
▁छापे	31
▁दिलीप	31
लेबर	31
धा	31
▁डालें	31
▁योजनाकार	31
▁डॉन	31
▁रास	31
▁उलट	31
▁मॉडलिंग	31
▁भूषण	31
▁फ्रिज	31
▁सिरदर्द	31
▁प्रगतिशील	31
▁बंध	31
▁भ्रम	31
▁डिब्बे	31
▁मैट	31
रोव	31
▁पक	31
▁संकलन	31
▁टर्मिनल	31
▁पंचमी	31
▁टाइफ	31
मयता	31
ोर	30
▁एनी	30
▁इंडोनेशियाई	30
▁वैष्ण	30
▁गाद	30
▁प्रान्त	30
▁पंच	30
▁बैंकों	30
▁अभिजात	30
▁ताजे	30
▁धब्बे	30
सदाबहार	30
▁गिनत	30
▁आकृति	30
▁मोक्ष	30
सेल	30
▁कपिल	30
▁वर्णक	30
▁कबीर	30
▁चालीस	30
▁महंग	30
▁वारंगल	30
▁रोके	30
शास्त्र	30
▁पाना	30
▁सराहा	30
▁मगरमच्छ	30
नाम	30
रस	30
▁चुनी	30
▁उठाना	30
▁जैमर	30
▁चयापचय	30
▁घटकों	30
▁डल	30
▁राहुल	30
▁लक्ष्मण	30
लाइट	30
▁दीपक	30
▁मादा	30
▁बचें	30
▁चेस	30
इयों	30
▁पकड़ना	30
हेल	30
लौकिक	30
▁सींग	30
माउथ	30
▁गुवाहाटी	30
▁भुजा	30
▁ग्रेनाइट	30
बंद	30
▁वज़न	30
▁विषाक्तता	30
▁मिलेंगे	30
▁राजपूतों	30
▁मिडफील्डर	30
▁संवर्धन	30
▁एना	30
▁अड्डों	30
▁बताई	30
▁साइड	30
▁गलग्रंथि	30
रंग	30
▁उत्तेज	30
▁ब्राह्मणों	30
▁टैगोर	30
▁किये	30
▁यानी	30
▁परिकल्पना	30
▁वध	30
स्ट्रा	30
▁ब्लेड	30
▁रोमांस	30
▁अमित	30
▁लंच	30
▁साइमन	30
▁चेल्सी	30
▁उपदेश	30
▁पॉलिस	30
▁आवंट	30
▁गौड़ा	30
▁खुसरो	30
▁स्थितियाँ	30
▁आएगा	30
▁वाक्य	30
▁ख़ास	30
मापा	30
▁टैग	30
▁जवाबी	30
▁शिलांग	30
तुतमिश	30
▁कुकी	30
डाउन	30
▁फ्रेंचाइजी	30
▁स्कॉटिश	30
▁मिलर	30
▁जड़ी	30
▁अरावली	30
▁दिखाते	30
▁ग्राउंड	30
लय	30
▁जादू	30
▁किफाय	30
▁अंकुर	30
▁बनाएं	30
▁अफीम	30
थोक	30
▁अवार्ड्स	30
▁डोंगी	30
▁जोधपुर	30
पद	30
▁दावत	30
▁चार्ट	30
▁नरसंहार	30
▁कथानक	30
▁फिजी	30
▁दत्ता	30
▁कंडोम	30
▁वफादार	30
श्वेत	30
▁वान	30
▁फर्नीचर	30
▁विमोच	30
ढका	30
▁कृत्य	30
माही	30
नायक	30
▁लापरवाह	30
▁अर्कांसस	30
भूत	30
▁सू	30
▁सीमाएँ	30
▁पल्लवों	30
▁मास	30
▁गणतंत्र	30
▁प्रक्रियाओं	30
▁चांदी	30
▁चमकील	30
निक	30
▁भाजपा	30
▁जब्त	30
▁मश	30
▁हेंड्रिक	30
▁शिक्षण	30
▁गार्ड	30
▁तैरत	30
▁कराना	30
▁फेंकना	30
▁चौधरी	30
▁महानदी	30
हाउस	30
्रा	30
▁निभा	29
▁सतर्क	29
▁पीड़ा	29
कर्षण	29
▁रिज	29
▁वॉटर	29
▁नुआ	29
क्कन	29
▁रीड	29
▁रूपांतर	29
ाइड	29
▁बरसात	29
▁बादशाह	29
फ़ेल	29
▁विपक्ष	29
यिक	29
▁स्टेरॉयड	29
▁जानकर	29
▁देसी	29
▁लोकतंत्र	29
वर्थ	29
▁प्रतिरूप	29
▁किंवदंतियों	29
▁सिपाही	29
▁बाइब	29
समय	29
▁हितों	29
▁ब्रा	29
▁प्रीति	29
▁बिखर	29
▁भेदभाव	29
▁वास्तुकार	29
▁सत्याप	29
▁रूपक	29
▁घूम	29
▁छाया	29
दाएँ	29
▁राष्ट्रकूट	29
▁दोहर	29
▁विनियमन	29
▁जुटान	29
▁सिएटल	29
▁डकैती	29
▁मोटरसाइकिल	29
पाकिस्तान	29
▁सूरी	29
▁यूनान	29
▁रोजर	29
▁पूँजी	29
राष्ट्रपति	29
▁चिकित्सकों	29
▁बलि	29
दल	29
अभी	29
▁संघर्षों	29
▁इलिनॉय	29
▁संपाद	29
▁अन्ना	29
▁उग्र	29
वि	29
▁कोहनी	29
▁प्रा	29
ेंट	29
▁वरकुदरा	29
▁लुई	29
▁ट्रांस	29
▁जग	29
▁एड	29
▁चौथ	29
दिन	29
▁पैकेट	29
▁संस्थाओं	29
▁यश	29
आप	29
▁दुबई	29
्राइड	29
चिन	29
▁स्टील	29
▁पढ़ना	29
▁पद्मावती	29
▁भावे	29
नर	29
▁जमैका	29
▁सीरीज	29
▁बोलियों	29
▁लिटिल	29
▁निक	29
▁अंधे	29
निया	29
▁बसें	29
▁इंजीनियर	29
▁मल्ल	29
▁बोल्ट	29
▁प्रिंट	29
▁वास्तविकता	29
▁कनेक्टिकट	29
▁प्रजा	29
▁हॉट	29
▁चाह	29
▁लेगा	29
भारत	29
ाला	29
क्रांतिकारी	29
▁हान	29
▁समाजवादी	29
दीप्ति	29
▁फ्रेंच	29
▁पुलिसकर्म	29
बहुत	29
▁कनिष्ठ	29
▁विध	29
यक	29
▁हंगरी	29
▁रिश्वत	29
▁आर्क	29
▁मसाले	29
▁स्टेट्स	29
▁प्लेटफॉर्म	29
▁लटका	29
▁लुप्तप्राय	29
▁वरीयता	29
▁रिंक	29
▁बेसिक	29
पुत्र	29
▁वेस्टर्न	29
▁कीबोर्ड	29
▁दीमापुर	29
▁समितियों	29
ेल्थ	29
▁बज	29
▁फ्लैट	29
▁चौहान	29
▁कमीशन	29
▁पर्यवेक्षक	29
िस्ट	29
▁मानो	29
▁डाले	29
▁मजिस्ट्रेट	29
▁करुणा	29
▁रात्रि	28
▁अणु	28
▁युवावस्था	28
▁साफ़	28
▁विहार	28
▁दामोदर	28
▁इरादे	28
रेल	28
▁दिखते	28
जन्म	28
▁बुल	28
▁एंड्रयू	28
खाई	28
▁शिक्षित	28
▁रॉस	28
▁मिठाई	28
▁आर्द्रता	28
▁बहनों	28
▁मलेरिया	28
▁विक्रय	28
▁लेट	28
▁पूर्वज	28
▁नाटकीय	28
▁विव	28
▁फाइन	28
▁उपभोग	28
निर्भरता	28
▁पहनी	28
▁फिट	28
▁कराई	28
▁रियल	28
▁फ़ीट	28
▁विन्यास	28
▁निबंध	28
▁तोपखान	28
▁विषाक्त	28
▁रेस्तराँ	28
▁चंद्रमा	28
▁प्रदेशों	28
▁साज	28
गल	28
—	28
▁वित्तपोष	28
▁विकृति	28
▁जूलिय	28
▁कैल	28
▁डेस्क	28
संपर्क	28
▁राजकीय	28
▁जन्मे	28
▁अनुमोद	28
▁सिड	28
▁धक्का	28
▁चे	28
▁किशोरावस्था	28
▁अब्दुल	28
▁मात्र	28
▁फ्रैंकलिन	28
▁हँसी	28
▁संकल्प	28
▁शीघ्र	28
▁निभाया	28
▁रज्जु	28
▁घराना	28
शायर	28
▁सच्च	28
▁कोल्लम	28
▁संगत	28
▁ऑफ़िस	28
ेंडर	28
▁कोर्स	28
चकित	28
▁खेद	28
▁जाप	28
नों	28
▁माफ	28
▁जुनून	28
सीजन	28
▁खिल	28
▁चार्ज	28
▁पड़ोस	28
▁डालना	28
ग्राहक	28
्र	28
▁चो	28
▁मूवाट्टुपुड़	28
▁शांतिपूर्ण	28
▁दृष्टिपटल	28
▁आलिया	28
▁टि	28
क्या	28
▁बीयर	28
▁आयरिश	28
▁घेरे	28
रिक	28
▁उदयपुर	28
▁ऊर्ध्व	28
एफ़	28
▁बृहदान्त्र	28
व्यापी	28
▁कैसा	28
▁अनुप्रयोगों	28
▁सूख	28
▁इकाइयाँ	28
▁धमनी	28
▁महलों	28
▁थैली	28
पल्ली	28
नील	28
▁मिमी	28
हा	28
▁पांडव	28
▁क्षरण	28
▁छी	28
▁कैमर	28
▁लड़े	28
▁कॉ	28
▁सातवाहनों	28
गंगा	28
▁जूडो	28
▁दलाल	28
▁बारकोड	28
घंटा	28
▁कार्यान्वयन	28
▁श्रवण	28
▁वली	28
▁रिटर्न	28
▁स्तनधारियों	28
▁पॉकेट	28
▁निशानेबाजी	28
ंद	28
▁एलर्जी	28
▁केलों	28
वर्धन	28
▁मुरुग	28
▁पिक	27
कोपिंग	27
▁फू	27
लिया	27
▁बिलियर्ड्स	27
▁जाट	27
▁हैमिल्टन	27
▁व्युत्पन्न	27
भूतपूर्व	27
▁ग्रीवा	27
▁विंध्य	27
▁पर्वतमाला	27
▁पर्णपाती	27
▁फर्स्ट	27
▁टाटा	27
▁यवन	27
िला	27
पाषाण	27
▁टूटने	27
▁मथुरा	27
▁बाड़	27
▁जॉर्डन	27
▁टिम	27
▁मियामी	27
▁नानक	27
▁स्राव	27
▁मुखर	27
▁मूर्तिकला	27
▁वॉर	27
▁उपनिवेशवाद	27
▁अहम	27
▁शुजा	27
▁हानिकार	27
▁छल	27
▁गंदे	27
दो	27
▁परिपक्व	27
▁पड़ोसियों	27
▁दिग्गज	27
▁अपराधी	27
▁बचाया	27
ढ़	27
▁शैक्ष	27
▁संरचनात्मक	27
▁उभरे	27
▁बगीच	27
शुल्क	27
▁पाटलिपुत्र	27
▁राक्षसों	27
▁प्रतिकृति	27
▁दूरदर्शन	27
▁ख़ान	27
▁हरिद्वार	27
▁बांट	27
▁अमीरात	27
▁वायसराय	27
▁भित्ति	27
▁भरत	27
▁गर्व	27
▁ओल्ड	27
सेंट	27
▁इम्फाल	27
▁अग्रदूत	27
▁टचडाउन	27
▁रनौत	27
डू	27
▁नाखुश	27
▁तंबाकू	27
कांत	27
▁सापेक्ष	27
▁हताश	27
▁स्विट्ज़रलैंड	27
▁सती	27
▁दिलात	27
▁चित्रकार	27
▁केन्या	27
▁रहित	27
▁दूत	27
▁शब्दावली	27
▁सतारा	27
▁बढ़ना	27
स्पर	27
▁यातना	27
▁शे	27
▁समृद्धि	27
▁घूमने	27
▁सूखी	27
▁भयानक	27
मिकी	27
▁सिगरेट	27
▁निकलत	27
▁पाइप	27
▁अमेज़न	27
▁हड़ताल	27
▁मूर्तिया	27
▁कोयल	27
नंदा	27
▁कब्र	27
▁क्लीन	27
▁उभरा	27
▁छोड़ना	27
▁आंकड़े	27
▁कोमल	27
▁विषाणुओं	27
ंच	27
▁दांत	27
▁अतिसंवेदनशील	27
▁प्रकाशक	27
▁अंकित	27
▁रिवर	27
▁सुन्नी	27
▁गॉर्डन	27
▁ग्रंथि	27
▁परिधीय	27
▁स्टिक	27
▁इंग्ल	27
बाद	27
▁वार्ता	27
▁सूती	27
▁वॉक	27
▁स्पिरिट	27
▁तोपों	27
▁शौक	27
▁प्लेऑफ	27
▁अद्भुत	27
▁फ्लाइ	27
▁बॉन्ड	27
▁बुरे	27
▁पुटीपुच्छकता	27
▁रहस्यमय	27
▁बॉडी	27
मुक्त	27
▁चंबल	27
▁कॉर्निया	27
▁न्यास	27
▁उंगलियों	27
▁चट्टानी	27
बर	27
▁सपना	27
▁शेखर	27
वल	27
▁जुड़ने	27
▁कारीगरों	27
▁एली	27
मूर्ति	27
▁रेंजर्स	27
▁जीवनकाल	27
▁सांख्यिकी	27
▁सुपरमॉडल	27
अब	27
▁लंगर	27
▁एफ़	27
▁अनुकरण	27
▁झुंड	27
गड़ी	27
▁कीर्तिमान	27
▁रिसॉर्ट	27
▁इंस्ट	27
▁आचार्य	27
▁कलश	27
▁बेची	27
▁पहनाया	27
▁नल	27
▁चेतना	27
मर	27
▁तुम्हारा	27
▁मुल्तान	27
▁फर	27
▁आएगी	27
योग	27
▁नागोर	27
▁बैक्टीरिया	26
फा	26
▁कंसोल	26
स्टन	26
▁गोर	26
निःशुल्क	26
▁विकिमीडिय	26
▁माउंटेन	26
▁एंटोनियो	26
रोध	26
▁गतिशील	26
▁परपोष	26
▁ताजा	26
उध	26
र्न	26
▁सत	26
गाड़ियों	26
▁वैली	26
▁कॉलेजों	26
▁ब्रदर्स	26
▁उभरत	26
▁तन	26
▁डलास	26
डो	26
▁चैट	26
ेंशियल	26
▁स्टाफ	26
▁बवंडर	26
▁नियंत्रक	26
▁ज़मान	26
▁मधु	26
▁बेला	26
▁सेंसर	26
▁उखाड़	26
▁विराट	26
▁कोलेस्ट्रॉल	26
▁प्रचुर	26
दर्दनाक	26
लिबान	26
▁प्रोटोकॉल	26
▁सटीकता	26
▁तीर्थस्थल	26
▁आइलैंड	26
रिवाजों	26
▁गिरत	26
▁सुगंधित	26
्ली	26
▁धाराओं	26
▁न्यूकॉम्ब	26
▁कोटा	26
▁मार्गरेट	26
▁बाँस	26
▁मरियम	26
स्टार	26
▁कुत्ता	26
▁खोजकर्ता	26
▁सब्जियों	26
▁दूतावास	26
▁गुंड	26
चीन	26
▁नर्स	26
▁पिछड़	26
▁कैरेबिय	26
▁खाई	26
▁समक्ष	26
▁कुरियन	26
▁सारांश	26
▁मदर	26
गंज	26
▁परिस्थिति	26
▁वर्णमाला	26
▁सर्किट	26
▁भक्तों	26
▁पिन	26
▁आत्मविश्वास	26
कश्मीर	26
▁पट्टे	26
▁ओक	26
▁बताना	26
▁तपस्या	26
▁फ्रंट	26
▁निकली	26
▁स्मार्ट	26
▁अल्पकाल	26
▁स्पर्धा	26
▁काबुल	26
▁पल्लवी	26
त्म	26
▁मिशेल	26
▁वंशावली	26
लु	26
▁अक्षमता	26
वास	26
▁ढाका	26
▁रचनाएँ	26
▁मांगी	26
▁ताई	26
▁एंथ	26
ग्रेगोरियन	26
▁धर्मनिरपेक्ष	26
▁पाती	26
▁उन्ह	26
▁एरिना	26
▁कांचीपुरम	26
▁ज़ो	26
▁पले	26
▁राजस्थानी	26
टनी	26
▁सहन	26
▁विजेताओं	26
▁भ्रष्ट	26
▁हु	26
▁चोर	26
▁विन	26
▁प्रत्यारोपण	26
भाई	26
▁निशाना	26
मग्न	26
▁मारी	26
▁हैम्पशायर	26
▁कथन	26
▁नरेंद्र	26
▁विल्सन	26
▁लौटत	26
आकस्मिक	26
▁एनिमेशन	26
▁इर	26
▁यार्ड	26
▁अमरावती	26
▁ठाकुर	26
▁मीना	26
▁वायलिन	26
संपत्तियों	26
▁खूबसूरत	26
भर	26
▁बताएं	26
▁योजनाएँ	26
स्की	26
ब्बर	26
▁दिवाली	26
▁सलमान	26
▁बेकर	26
▁आर्ट्स	26
▁वेदों	26
▁रोमानिया	26
थलग	26
▁क्रूर	26
▁थकान	26
▁विनिर्माण	26
▁स्वरम	26
▁राइफल	26
वाहक	26
क्रम	26
▁हार्ट	26
▁बाँट	26
▁नफरत	26
▁पीढ़ियों	26
▁एरिक	25
▁काओ	25
▁गंवा	25
विशिष्ट	25
▁आसन	25
▁सगाई	25
समाप्ति	25
▁जागीरदार	25
▁गोपी	25
▁पराबैंगनी	25
▁विक	25
▁लेखा	25
चिकित्सकीय	25
▁गार्डन	25
▁पूछे	25
▁प्रावधान	25
▁छत्रप	25
▁भग	25
▁चित्रकला	25
▁यहूदिय	25
▁कॉमन्स	25
▁कराता	25
▁सोसाइटी	25
▁खंभ	25
▁मैरीलैंड	25
प्रकाश	25
▁जनजातियाँ	25
चिह्न	25
ांक	25
▁कार्लो	25
▁अल्बर्ट	25
▁अपराधियों	25
धारी	25
▁चुप	25
▁सूचीः	25
श्री	25
▁उपनगरों	25
▁धर्मपाल	25
च्छुक	25
▁हनी	25
▁रहस्य	25
हत्याओं	25
▁चुनौतिय	25
▁काउंसिल	25
जुलत	25
▁बांधों	25
▁मृतक	25
▁एजेंसियों	25
कैरोटीन	25
▁दूरदराज	25
▁रीढ़	25
▁लड़ाकू	25
▁पतंगें	25
▁जाम	25
▁लॉरेंस	25
▁शिकारी	25
र्नी	25
▁पेर	25
▁घी	25
मंड	25
▁शाहू	25
उज़	25
▁मुखिया	25
▁कलाकृतियों	25
▁दुष्ट	25
▁विकृत	25
▁मैथ्यू	25
▁ड्रैगन	25
▁खौल	25
शुद	25
▁पेस	25
मोबाइल	25
▁अयाल	25
▁वाद	25
र्द	25
िर्द	25
▁संजीव	25
▁मक्खन	25
▁ठहरात	25
▁गीतकार	25
गाँव	25
▁रेटिनाल	25
▁पांचवें	25
▁पैरालंपि	25
▁फोर्ड	25
▁नरसिंह	25
▁आंखें	25
▁सिखात	25
▁जबरदस्त	25
▁अलेक्जेंडर	25
▁समझना	25
▁प्रोडक्शंस	25
▁छोड़े	25
ोत्तर	25
▁ब्रूस	25
ेबल	25
▁ढलानों	25
▁पैरालिंपिक	25
▁खोजा	25
▁प्रेरक	25
▁वीणा	25
▁बजाए	25
▁रावल	25
▁कम्युनिस्ट	25
▁घाना	25
▁गिनी	25
वाहिक	25
▁रैल	25
▁छेड़	25
▁गुर्जर	25
▁ज्योति	25
▁धोन	25
▁ढांचा	25
▁मठों	25
ात	25
▁जीतता	25
▁सरीसृप	25
▁विनाशकारी	25
बढ़े	25
पुरी	25
▁सूर्योदय	25
पूर्ति	25
▁प्रमुखों	25
▁तीव्रता	25
फोन	25
▁कविताओं	25
मूल्य	25
▁हार्वर्ड	25
▁छोड़ते	25
▁लड़का	25
यो	25
▁डेस	25
▁असमिया	25
▁खेर	25
▁चलाई	25
▁वैकुंठ	25
क्षमताओं	25
▁अजमेर	25
▁बाली	25
▁तु	25
▁बदत	25
▁दरवाज	25
मुझे	25
▁रमज़ान	25
▁मसीह	25
ुअल	25
कोव	25
▁जोरदार	25
▁दूरसंचार	25
▁माओ	25
▁बोइंग	25
▁श्वान	25
▁लाइनों	25
इनडोर	25
शाही	25
▁कोयंबटूर	25
▁लू	25
▁लीफ	25
तेई	25
▁पुनर्जागरण	25
▁प्रसाधन	25
▁कृष्णन	25
▁भूज	25
▁नूरजहाँ	25
▁एडम्स	25
गन	25
▁साइक्लिंग	25
▁वृद्ध	25
▁द्रव्यमान	25
▁कुंड	25
▁आंदोलनों	25
▁आलू	25
▁अल्लाह	25
▁लुइसियाना	25
▁पूछता	25
▁आपत्ति	25
ादित्य	25
▁पुत्रों	25
▁बेत	25
ोसिस	25
▁करेंगी	25
▁ज़बरदस्त	24
▁कार्यात्मक	24
▁खोले	24
▁झाड़िय	24
▁आयन	24
तीत	24
▁कुंग	24
▁खंडन	24
▁हठ	24
▁मैराथन	24
थी	24
▁बादल	24
▁अठारह	24
▁कैंडी	24
शेखर	24
▁कंपन	24
▁उपप्रकार	24
▁पाएंगे	24
▁कैफे	24
▁पीस	24
ार्ड	24
▁लॉग	24
▁कासिम	24
▁क्लिप	24
कक्ष	24
▁जोड़ें	24
टेन	24
खो	24
दिवसीय	24
▁उपभेद	24
▁भरोसे	24
▁खाया	24
▁चलना	24
▁व्याख्यान	24
वासियों	24
▁नाइल	24
▁हेम	24
▁बंदूकों	24
▁फीस	24
▁गोलियों	24
▁काँच	24
▁यून	24
ानो	24
लेन	24
▁काउंटर	24
▁मनोदशा	24
▁स्वतः	24
▁बेयर	24
▁मुकाबलों	24
▁फे	24
▁तहसील	24
▁वहन	24
▁चाहें	24
▁सफा	24
▁कुरान	24
▁सौतेल	24
▁मॉरीशस	24
ोजी	24
▁फेफड़	24
▁जानकार	24
▁गैरी	24
▁बेट	24
▁विघटन	24
▁लौटे	24
▁डाली	24
▁प्रोटेस्टेंट	24
▁व्हिट	24
▁बिजनेस	24
▁बाबू	24
▁दाव	24
द्वा	24
▁मोटा	24
▁आदम	24
▁पत्तों	24
▁संदर्भों	24
▁वायरल	24
▁हटाना	24
▁पिघल	24
▁प्रायोजक	24
▁सतबीर	24
▁प्रतिद्वंद्वि	24
▁यु	24
▁सांप्रदायिक	24
▁डेविल	24
▁ताजमहल	24
▁पलायन	24
▁वॉशिंगटन	24
ेंड	24
▁हिला	24
▁व्यंग्य	24
विक्रमादित्य	24
िक्स	24
▁उत्तम	24
▁अमरिक	24
रवरी	24
▁उबर	24
▁संभालत	24
▁पेंटिंग	24
▁वाल	24
▁पंथ	24
▁गंध	24
▁ब्रह्मा	24
▁हटाया	24
भाड़	24
▁वीरा	24
ानुपात	24
▁कार्डिनल	24
गांव	24
▁गायकवाड़	24
बड़	24
▁अवशोषण	24
सागर	24
▁पोल	24
▁प्रायोज	24
ताल	24
▁बढ़ाते	24
▁खजाने	24
▁रकम	24
▁फुल	24
▁बेंगलुरु	24
▁कोस्ट	24
▁व्याकरण	24
ैरियर	24
▁संज्ञानात्मक	24
▁कुआला	24
▁वाय	24
▁पदानुक्रम	24
▁रिश्ता	24
▁भाले	24
▁मौलिक	24
▁यांत्रिक	24
ाधीन	24
▁जोड़ना	24
▁नॉर्म	24
▁नेहा	24
▁ज़िल	24
▁ब्राज़ीलिया	24
अनुशंसित	24
▁कतर	24
▁डोनाल्ड	24
▁उत्तेजक	24
ियार	24
ैक्ट	24
▁स्टैंड	24
▁चॉकलेट	24
▁द्रोण	24
▁प्रतियोगियों	24
▁पित्त	24
▁दावेदार	24
▁टेक	24
▁चैन	24
▁सूफी	24
▁गुड़िया	24
▁राज्यसभा	24
▁एंटी	24
▁दस्ते	24
▁खांसी	24
▁ढक्कन	24
▁दिनचर्या	24
▁पोटेशियम	24
▁नावों	24
▁साइन	24
▁चतुर	24
▁मज़ाक	24
िड	24
▁अकेला	24
▁सनी	24
्का	24
▁दू	24
▁दिखती	24
▁प्रामाणिक	24
▁संवाददाता	24
राजा	24
▁बाध्य	24
▁प्रिंटर	24
▁अर्थात्	24
▁अभिवादन	24
▁उभरी	24
▁जिंदगी	24
▁अर्थात	24
पुड़ा	24
▁जैकेट	24
▁बुलात	24
▁विपक्षी	24
▁डो	24
लाते	24
वंश	24
▁प्रतिदिन	24
मार्ट	24
▁उरु	24
▁संग्राम	24
▁वास्तुशिल्प	24
▁झ	24
▁तालुका	24
▁जलोढ़	24
कोरम	24
▁वॉन	24
▁खाए	24
वादक	24
कालत	24
▁कद	24
▁प्रतिरक्षी	24
▁भांग	24
पोर्ट	24
▁चुनत	24
▁किराया	24
▁एंटवर्प	24
▁एपल	24
▁एम्स्टर्डम	24
मीठा	24
▁अखाड़	24
▁ऑडिशन	23
▁पर्वतारोहियों	23
▁धारक	23
▁विश्वकोश	23
मजान	23
▁मुक़ाबल	23
बोर्न	23
▁पाला	23
▁अचल	23
तृक	23
▁अयोग्य	23
दबा	23
▁दिलाया	23
▁कैनोइंग	23
▁मध्यस्थ	23
▁परिसंपत्तियों	23
▁तात्	23
पर्य	23
▁चुंबक	23
▁सचमुच	23
▁सम्बंध	23
▁तकलीफ	23
▁धार	23
▁टेलर	23
▁माइलिन	23
▁घोड़ा	23
▁सीनियर	23
▁भूभाग	23
▁जनम	23
▁सीमांत	23
▁पादप	23
▁श्लोक	23
हट	23
▁मलबे	23
▁डिस्प्	23
▁फी	23
▁गये	23
▁सुसज्जित	23
▁यथा	23
▁हीरे	23
▁संज्ञा	23
▁शॉर्ट	23
▁अयस्क	23
▁दर्र	23
▁लेडी	23
▁विश्वासघात	23
फूर	23
▁शिमला	23
▁फ्लैश	23
▁क्षत्रिय	23
▁एंजेलेस	23
II	23
▁अलगाव	23
▁विं	23
बो	23
▁यौगिक	23
ज्जा	23
▁परिचालन	23
बॉक्सिंग	23
लोल	23
ट्रैफिक	23
▁स्क्वॉ	23
▁कार्ट	23
▁ज़रिए	23
▁क्लार्क	23
▁जमाव	23
▁तीस	23
▁होश	23
▁नौसैनिक	23
भुगतान	23
▁सर्च	23
▁इनसे	23
▁क्रेग	23
▁वाइन	23
▁आम्बेडकर	23
▁ठहरा	23
▁नर्तकिय	23
▁भाला	23
▁जलाशयों	23
▁आधिपत्य	23
▁ऑस्ट्रेलिय	23
▁भैरव	23
स्टिंग	23
▁मिलन	23
निकेत	23
▁हवाला	23
▁वर्	23
▁बेघर	23
▁त्रिपुर	23
▁नंदी	23
▁गहने	23
▁दुसर	23
▁दर्पण	23
▁बनारस	23
▁समायोजन	23
▁ग्राही	23
▁छुपा	23
▁नर्तकों	23
▁नमूनों	23
▁बलदेव	23
▁अस्पष्ट	23
क्वालिटी	23
▁लिंकन	23
▁कंधों	23
▁बेंजामिन	23
▁नूर	23
▁बमबा	23
▁शुंग	23
▁रोगजनक	23
▁संस्कारों	23
▁आँकड़	23
▁शाहजहा	23
▁पेट्रोल	23
▁मूस	23
▁मस्तूल	23
▁दिलाई	23
▁प्रतिरक्ष	23
▁मेपल	23
▁बेड़	23
▁अल्फा	23
▁रंगा	23
▁विधाय	23
▁पोस्टर	23
▁बायर्न	23
▁अलमारी	23
▁तलवारबाज	23
▁अनुपचारित	23
▁पैट्रि	23
▁क्षत्रपों	23
▁वेम्ब	23
▁देखो	23
लू	23
▁दस्त	23
▁मदन	23
▁पड़ेगी	23
▁सुविधाएं	23
वार्षिक	23
▁बहिष्क	23
▁चाणक्य	23
▁वेबसाइटें	23
▁प्रोग्रामर	23
▁मद	23
▁तैराक	23
▁एथलीट	23
▁वाटर	23
टकर	23
▁क्रिस्टल	23
ैया	23
▁पाइक	23
▁मसौद	23
▁रेखांक	23
▁अनुपम	23
भिषेक	23
▁क्रीम	23
ंपुर	23
ेंस	23
▁पेंट	23
▁इच्छाओं	23
▁गड़बड़ी	23
▁स्पेक्ट्र	23
▁माधव	23
▁समेक	23
▁नैतिक	23
▁शार्क	23
ार्ध	23
▁बहुसंख्यक	23
▁बेटियों	23
▁सेब	23
▁मोनो	23
▁स्पर्श	23
▁सरगम	23
▁जोंकोपिंग	23
▁संध्या	23
▁शाओलिन	23
न्यू	23
पहला	23
▁फ़ारेनहाइट	23
▁क़िल	23
▁शह	23
▁अपस्फीत	23
तिहा	23
▁जियो	23
▁जीर्ण	23
▁ईंट	23
▁फि	23
▁वक्ष	23
▁बढ़ाना	23
▁जागीर	23
▁कोविड	23
▁अब्राहम	23
▁निष्ठा	23
हो	23
▁चूह	23
▁ढाँचे	23
▁लेबनान	23
कथित	23
▁एंग्लो	23
▁पतल	23
़र	23
▁यूनिवर्स	23
▁चतुर्थांश	23
▁आईट्यून	23
▁टोकरी	23
▁दृढ़ता	23
▁कैम्प	23
तता	23
▁पृथक	23
▁एडोब	23
▁सुरंग	23
▁ब्र	23
▁अपशिष्ट	23
▁रवींद्र	23
▁भेद	23
▁दाई	23
▁गन्ना	23
▁गंदगी	23
▁कनिष्क	23
▁गांधार	23
▁अक्षांश	23
▁चोरों	23
क्षी	23
▁फीडे	23
रोहित	23
▁हि	23
ीट्यूट	23
निका	23
▁स्कैनर	22
बिंग	22
▁पॉइंट	22
▁स्काउट	22
▁मार्गदर्शक	22
▁फोर	22
▁पतंगबाजी	22
▁अवधारणाओं	22
पेशेवर	22
▁विलास	22
▁असुर	22
सातकर्णी	22
▁सेल्यू	22
▁लिवरपूल	22
▁परिक्रमा	22
▁जमानत	22
अनुसूची	22
▁कटे	22
▁श्रव्य	22
▁कामना	22
▁जिम्नास्टिक	22
▁उत्पादकता	22
▁महेंद्र	22
▁फ्रेड	22
⁄	22
मानवीय	22
▁लैस	22
▁राजाराम	22
▁कश्यप	22
▁लॉन्च	22
▁लटक	22
▁आतंक	22
▁ख़ुश	22
▁पूछना	22
▁उड़ाने	22
▁गला	22
▁झा	22
▁ग्राहियों	22
दंड	22
▁बांड	22
ायत	22
▁हेलेन	22
प्लस	22
▁घात	22
▁किलेबंद	22
▁दीव	22
पुतली	22
ंगामा	22
▁स्मार्टफोन	22
▁बॉय	22
सिवाय	22
▁अकाउंट	22
▁उत्सवों	22
▁वंशानु	22
▁पो	22
▁प्रतिज्ञा	22
▁ताप	22
▁चित्रकारी	22
▁आश्वस्त	22
▁तलछट	22
▁पोन्नानी	22
▁निष्पक्ष	22
▁सीटी	22
▁भूरे	22
▁डरा	22
▁वॉल्ट	22
▁मगध	22
▁तात्कालिक	22
▁कांगड़ा	22
▁क्रमिक	22
▁रोशन	22
▁शिवलिंग	22
▁असेंबली	22
कोटा	22
▁पेयजल	22
मैसूर	22
▁परजीवी	22
▁मंडप	22
ल्ली	22
▁कंधार	22
▁बजान	22
▁तिथिय	22
▁फेर	22
▁इंडीज	22
▁काठमांडू	22
मिस्टर	22
▁हिरानी	22
वेट	22
▁परोस	22
▁लॉन्ग	22
▁सूडान	22
▁आयुर्वेद	22
▁पोर	22
▁धान	22
▁बल्लेबाज़	22
▁नवाचार	22
▁मोर्च	22
▁प्लेटफ़ॉर्म	22
▁शहद	22
▁प्रोसेसर	22
▁कस	22
▁कड़ा	22
▁दोहराया	22
▁गि	22
ड़ित	22
▁खींचत	22
▁सियोल	22
देवताओं	22
▁कस्टमर	22
▁कमा	22
रम	22
▁माई	22
▁वायुमंडल	22
▁चमगादड़	22
▁मकान	22
▁फंसे	22
▁हड्डियों	22
देशीय	22
▁पहुंचाया	22
▁स्वभाव	22
▁स्वै	22
▁विनोद	22
▁इंटरफेस	22
दून	22
ॉक्स	22
▁रैम	22
चित्र	22
च्छिक	22
▁डालत	22
किस्मत	22
▁हेपेट	22
▁दोस्ताना	22
▁शान	22
▁फॉरवर्ड	22
▁वसूल	22
▁ईर्ष्या	22
▁सितारा	22
▁गेहूं	22
▁पावरबोट	22
▁बाजी	22
▁बाथ	22
▁खोद	22
▁सिलीगुड़ी	22
▁नानी	22
▁सामानों	22
ाया	22
मेन	22
नसों	22
▁फिलहाल	22
▁बेकहम	22
▁अपनाई	22
▁संकेन्द्र	22
लीग	22
▁दक्षिणपूर्व	22
▁सिने	22
समूह	22
▁आपसी	22
▁पुनरावृत्त	22
▁पठान	22
▁अनुसूच	22
▁धर्मार्थ	22
ंगा	22
▁घुटनों	22
▁नीला	22
▁भूमध्यसागर	22
▁पर्ल	22
▁क़	22
काल	22
▁एथेंस	22
साल	22
▁लिफाफ	22
▁श्रेणियां	22
▁कस्बे	22
▁पारगम	22
▁कार्टर	22
▁परिष्कृत	22
▁साइप्र	22
▁ग्रां	22
▁रावी	22
▁विचल	22
ुला	22
▁ग्रेव्	22
▁पिंड	22
▁अपरि	22
▁कहां	22
सम	22
जन	22
▁ब्लेयर	22
▁असंतोष	22
▁मोशन	22
▁कौ	22
सुरक्षित	22
▁ग्लेशियर	22
▁एथलेटिक	22
▁कुमारी	22
विश्वरूपम	22
▁समझाया	22
▁सतलुज	22
▁बसंत	22
▁चिर	22
▁तराशा	22
▁नायर	22
▁प्रकरण	22
▁चाब	22
चिकित्सा	22
▁वेल	22
ारी	22
▁कोल्हापुर	22
मोन	22
▁प्रलेख	22
▁अछूत	22
▁ब्यास	22
▁असीम	22
▁काकतीय	22
▁धावक	22
मु	22
▁आवेग	22
▁ताड़	22
▁मर्तबान	22
ग्वेद	22
▁फर्क	22
▁आर्सेनल	22
ांडा	22
▁मशाल	22
▁निहित	22
▁हीरा	22
▁सल्फ	22
▁कर्नल	22
▁एंजेल	21
▁नाद	21
्सी	21
▁प्रसंग	21
▁विभागों	21
▁गंदा	21
▁विष	21
मुख	21
धातु	21
▁विद्या	21
▁स्टेज	21
▁चमत्कार	21
▁मजाक	21
प्स	21
स्ट्रोक	21
मय	21
▁खदेड़	21
▁सोचिए	21
▁सेकेंड	21
▁टायर	21
▁रबर	21
▁जीतीं	21
▁मुठभेड़	21
▁फौज	21
▁पाम	21
▁ऐंठन	21
▁सुई	21
▁तस्करी	21
▁ओड़िशा	21
▁प्रक्षेप	21
▁निर्देशकों	21
बाग	21
ताओं	21
ंगत	21
िंदा	21
▁उगाय	21
▁संयोग	21
▁चेरों	21
▁अक्षतंतु	21
▁दीवान	21
▁टाल	21
▁अलं	21
▁गड़बड़	21
टेक	21
▁अश्लील	21
▁ख़रीद	21
▁एंड्रॉइड	21
फिशर	21
▁उदयगिर	21
सीमिया	21
अखाड़े	21
▁खिड़कियों	21
▁अर्	21
वश्य	21
▁डोमिनिक	21
▁स्लेट	21
▁अधिहृषता	21
▁मुहर	21
मरान	21
▁मिर्ज़ा	21
▁पलक्कड़	21
▁रोकना	21
▁तालम	21
ौर	21
सेट	21
▁बुनाई	21
▁गड्ढ	21
▁घंटा	21
▁फोटोग्राफ	21
▁कोशिकाएं	21
▁कर्मी	21
▁बर्फील	21
ज़मानी	21
▁फैमिली	21
ोट	21
▁चैंबर	21
वर्ग	21
▁टूर्नामेंटों	21
▁सपनों	21
▁स्पोर्ट	21
▁एयरवेज	21
▁पीली	21
▁कन्नूर	21
▁रहेगी	21
▁राजी	21
▁ईबे	21
▁गन्ने	21
यी	21
▁सिंघ	21
ड्र	21
▁स्टार्स	21
▁एलो	21
▁दिवालिया	21
▁मॉड्यूल	21
▁अभिनेत्रियों	21
▁हित	21
िकी	21
▁फ़ाइन	21
▁शिंदे	21
▁असमानता	21
▁मदिरा	21
▁हीरो	21
▁स्नो	21
▁विशेषताएं	21
▁ऑ	21
▁कान्हा	21
▁प्राइम	21
सीनू	21
▁अंडा	21
▁जयंतिया	21
▁माथे	21
जीराव	21
▁चुनना	21
▁मंगलेश	21
▁विकी	21
▁तरुण	21
▁मिलें	21
▁देवदार	21
दम	21
▁चौकी	21
▁किंग्स	21
▁श्रुति	21
▁इट	21
▁डकोटा	21
▁दाह	21
▁युवक	21
▁किलोग्राम	21
▁प्लान	21
▁जकार्ता	21
▁डिजाइनर	21
▁सच्चाई	21
▁यंत्रमानव	21
▁निष्कास	21
विलंबित	21
▁कैरोल	21
▁बास	21
▁कहलात	21
ाघात	21
▁नेत्रहीन	21
▁रणनीतिय	21
▁घुमावदार	21
▁श्रेणीकरण	21
▁पारसी	21
▁रज्ज	21
▁निपटान	21
▁जोश	21
▁निष्कर्षों	21
▁पाठशाला	21
ंगर	21
तीन	21
कॉन्फ्रेंस	21
▁प्यूर्टो	21
▁कामुक	21
▁मसाला	21
▁वितरक	21
चेज़	21
▁वश	21
तर	21
▁नायिका	21
▁जौ	21
ग्रा	21
▁अलाव	21
▁एडिलेड	21
रोक्त	21
फ्लिक्स	21
▁कयाकिंग	21
▁पेशावर	21
▁डाय	21
▁गुरुओं	21
▁बोट	21
▁कुर्द	21
दि	21
▁माँस	21
▁महाशिवरात्रि	21
ध	21
▁उपनयन	21
सरकारी	21
▁प्रणालियाँ	21
▁वर्षगांठ	21
▁कैलिफ़ोर्निया	21
▁बियर	21
▁ट्रेड	21
▁काटा	21
▁चांद	21
टर्स	21
▁यक्ष	21
▁जननांग	21
▁वज़ीर	21
▁प्रभागों	21
▁एस्टोनिया	21
▁नमी	21
▁उड़ात	21
▁श्रोणि	21
▁दीक्षित	21
▁डेर	21
▁खदान	21
▁जस्टिस	21
▁तेलुग	21
▁दाँत	21
हार्य	21
▁रेखाओं	21
▁टेरेस	21
▁किलो	21
शिया	21
▁पट	21
▁हरिहर	21
▁बै	21
▁श्रद्धा	21
▁जांघ	21
वायरस	21
अ	21
▁फिलिस्तीन	21
▁गारंटी	21
▁टेम्पलेट	21
▁शुक्राणु	21
जान	21
▁पाएगा	21
▁सुधारने	21
▁हॉर्न	21
खा	21
रियर	21
कायदा	21
▁ऑब्ज	21
▁वार्ड	21
▁रिसीवर	21
▁बेचन	21
▁आच्छाद	21
▁गोविंदा	21
▁बीचों	21
▁मनी	21
▁कोड़	21
▁अमावस्या	21
▁वू	21
▁फॉल्स	21
▁माफ़	21
ावली	21
▁झुक	21
▁मेनन	21
▁दादरा	21
▁गर्भगृह	21
▁औषधि	21
फिल्म	21
पैड	21
▁ड्राफ्ट	20
▁कोर्फ	20
▁इलैया	20
▁रक्ताल्पता	20
▁डा	20
लीकट	20
▁केंट	20
▁करिश्म	20
▁दुश्मनों	20
▁यॉर्क	20
▁अग्निशमन	20
▁फिनिश	20
यात्रा	20
▁श्रद्धालु	20
ग्रोव	20
ाशय	20
▁ट्री	20
▁कीचड़	20
रियस	20
नाद	20
▁भेजें	20
▁इंका	20
▁मरीज़	20
▁बूढ़े	20
न्टन	20
▁अज़रबैजान	20
▁उपकल	20
▁गोरखा	20
▁सचेत	20
गस	20
▁उपयोगिता	20
▁शंकु	20
▁वायरलेस	20
▁बराक	20
स्टीन	20
साजन	20
▁धूम	20
सार	20
▁शूकर	20
ड्स	20
▁रॉबिन्सन	20
▁कोट	20
इ	20
▁संकेतक	20
▁विचारधारा	20
▁जूना	20
मेर	20
▁चैलेंज	20
▁तवा	20
▁बुंडेसलीगा	20
▁खार	20
▁भलाई	20
▁खर्चे	20
▁थाली	20
▁फ्रांसिस	20
▁सुलभ	20
▁धर्मांतर	20
पुथल	20
▁रक्तस्रावी	20
यूनानी	20
▁वृत्ति	20
▁प्रयाग	20
▁हैंडल	20
▁फ्रेडरिक	20
▁नस्लों	20
नॉकआउट	20
▁पान	20
▁अनुभवों	20
▁इला	20
दूसरा	20
▁सैट	20
▁नज़दीक	20
ंजी	20
▁निरुपमा	20
▁गांगुली	20
▁वेस्टइंडीज	20
▁नाच	20
▁संतोष	20
▁बजरंग	20
बैंक	20
बाज़ी	20
दाताओं	20
▁सुलेमान	20
▁फिरोज	20
▁म्यूचुअल	20
▁चढ़ाय	20
▁जमीनी	20
▁गोदाम	20
▁अव्यवस्थ	20
सेना	20
▁पहुँचन	20
▁लाभों	20
▁कारें	20
▁परतों	20
▁छत्र	20
▁कहे	20
▁कैथे	20
▁पेरू	20
▁फु	20
हार	20
▁संग	20
▁बदमाश	20
▁इंस्टॉल	20
▁स्वयंसेवक	20
▁क्राउन	20
▁अरबों	20
▁शिवरात्रि	20
▁कन्नौज	20
▁अनुभाग	20
ौती	20
क्रमण	20
▁वक्ता	20
▁मोहरे	20
ेरा	20
▁यम	20
▁खनिक	20
कर्त	20
▁पीना	20
▁मग	20
▁होवे	20
▁खाद्यान्न	20
▁लगाएं	20
▁स्तम्भ	20
▁प्रता	20
▁राखी	20
▁ह्यू	20
▁उत्सुक	20
▁कैप्ट	20
▁वासुदेव	20
▁बोहेमिया	20
▁पूंजी	20
लिए	20
निचला	20
▁प्रोत्साहन	20
▁सर्बिया	20
ाची	20
▁मिठाइयाँ	20
ाती	20
▁रची	20
▁खोपड़	20
▁अयोध्या	20
लान	20
▁ज़रा	20
बारूद	20
रेख	20
▁बिक्र	20
▁बैड	20
▁गुजरते	20
▁नेब्रास्का	20
▁लिपिड	20
▁नंगे	20
▁देहर	20
▁ग्रीस	20
▁लवण	20
▁स्क्वायर	20
▁सिंच	20
वाड़ी	20
▁पछाड़	20
चार	20
▁मैककार्	20
पॉड	20
▁अवांछ	20
▁उपखंड	20
▁पैंट	20
▁कैरिबिय	20
▁घोर	20
▁ढूँढन	20
▁कार्यस्थल	20
▁रश	20
▁संचय	20
▁मांगत	20
▁मोह	20
▁मतली	20
▁अमूर्त	20
▁ईमानदार	20
▁तक्षशिला	20
वादन	20
▁प्रिंसटन	20
▁समाधि	20
▁कंटेनर	20
▁एशिय	20
▁कंगन	20
▁जनक	20
▁महेश	20
ऑस्ट्रियाई	20
▁खिलौना	20
मर्डर	20
िटी	20
▁बटालियन	20
▁तराई	20
▁घुड़सवारों	20
टाउन	20
▁इलेक्ट्रॉनिक्स	20
▁डब्बे	20
▁डगलस	20
▁कीटनाशक	20
▁अविवाहित	20
▁स्वयंसेवकों	20
▁ग्लोब	20
▁डेरा	20
▁खे	20
▁स्थाना	20
▁ब्रैड	20
ोलिश	20
▁उत्साहित	20
▁पंज	20
▁संतुल	20
▁लैंगिक	20
प्पी	20
▁नारद	20
▁नाथ	20
▁सुनाया	20
▁आमने	20
▁चीर	20
▁मलाशय	20
▁एलिजाबेथ	20
▁कोलंबस	20
▁द्वितीयक	20
▁हकदार	20
▁सूट	20
▁तिवारी	20
▁रयान	20
ैंड	20
पोव	20
▁विला	20
▁सजाते	20
मीटर	20
▁इब्राहिम	20
▁पला	20
▁पौ	20
▁यूटा	20
▁टच	20
नू	20
▁उमा	20
▁सीखना	20
▁गुज़र	20
▁नॉरफ़ॉक	20
▁लता	20
▁जोहान	20
लेम्बोर्ग	20
▁अनुप्रयोग	20
▁ब्लूज़	20
▁ची	20
▁ज़ोन	20
▁फेयर	20
माने	20
▁कक्षाओं	20
धार्मिक	20
▁पैनल	20
▁बरी	20
▁भ्रमित	20
▁अंतर्राज्य	20
▁कैल्शियम	20
▁कालीन	20
▁लु	20
▁ऑरेंज	20
▁त्योरी	20
▁धाम	20
▁मचा	20
▁जीवाणुओं	20
▁नॉर्ड	20
परक	20
▁शरणार्थ	19
▁आस्था	19
▁इंसुल	19
▁हेडन	19
▁मल्टी	19
▁दुकानदार	19
▁गिरे	19
▁सिल्वर	19
▁बूट	19
▁निम्मी	19
(	19
▁अर्प	19
ईद	19
संभावनाओं	19
▁पहुँचता	19
▁अनुपस्थित	19
▁लक्ज़मबर्ग	19
▁रैंक	19
लर्स	19
▁मेईतेई	19
द्धांत	19
▁मूसर	19
▁पाउलो	19
▁एडम	19
▁मैनेज	19
▁ट्रिप	19
▁महमूद	19
▁जटा	19
ेरियन	19
न्यूज़	19
▁इजरायल	19
▁गुर	19
▁भूगोल	19
दोष	19
▁अनिल	19
कट	19
▁शेल	19
दौला	19
▁फ़्लोरिडा	19
▁बाल्टीमोर	19
मू	19
▁काटना	19
▁सुबर्ण	19
▁प्रभावशील	19
▁पॉली	19
▁लोकल	19
▁पहनें	19
▁वांछ	19
▁नायकों	19
▁तांग	19
केश	19
▁मेहरा	19
▁चंपा	19
▁गिरवी	19
▁हस्तांतर	19
▁लौह	19
▁फ्ल	19
▁मोती	19
विकास	19
चर	19
▁अरुण	19
▁प्रतिबद्धता	19
▁ड्यूक	19
▁थो	19
▁सैमस	19
▁पितृ	19
▁कन्या	19
गति	19
▁पाये	19
▁कॉपीराइट	19
श्रेणी	19
▁लड़ाइयों	19
▁माइक्रोग्राम	19
अमेरिकी	19
III	19
▁राष्ट्रवाद	19
▁टाइल	19
▁हड़प	19
▁शुभंकर	19
▁देय	19
जीवन	19
▁अधो	19
रोही	19
▁मास्ट	19
▁ग्राहम	19
▁मीटिंग	19
▁एसिड	19
▁मात	19
सॉ	19
▁चपेट	19
▁सील	19
कृतियाँ	19
▁सांप	19
ऑफ	19
▁नजरअंदाज	19
▁लोगो	19
▁मुनि	19
▁टावर	19
▁दंगे	19
▁मंजिल	19
▁सुखी	19
▁अन्न	19
ाचार	19
▁तृतीयक	19
▁घुमा	19
कुल्हाड़ी	19
▁पाताल	19
िणी	19
▁ज्योतिष	19
▁छापा	19
गाह	19
▁वीरू	19
▁बेंच	19
▁अधिराज्य	19
▁श्रेष्ठ	19
▁अवरोह	19
तो	19
▁मंगा	19
रूढ़	19
▁नौकर	19
▁लॉज	19
▁डार्	19
लेट	19
पात	19
▁कब्ज़	19
▁ब्ल	19
▁खोए	19
▁मेकअप	19
ोल	19
▁पटियाला	19
▁नौकरान	19
▁गिल्ड	19
▁इन्	19
▁क्लेयर	19
▁वर्तनी	19
▁गत	19
लिये	19
िमा	19
ट्टी	19
शर्करा	19
▁चुनौतीपूर्ण	19
▁स्ट	19
▁चश्मे	19
स्सी	19
पुरुष	19
▁वेदांत	19
सस	19
▁खुशहाल	19
▁फास्ट	19
▁सेवक	19
▁स्वीकार्य	19
देन	19
▁नीच	19
▁छलांग	19
ंट	19
▁प्रतियां	19
▁पुजारियों	19
ोक	19
पीठ	19
▁लेखिका	19
▁दीन	19
▁गोबिंद	19
▁मेड	19
युवी	19
▁अदा	19
▁चिड़ियाघर	19
▁गोथ	19
▁नाश्ते	19
महान	19
▁उदर	19
▁डायरी	19
▁अंतरा	19
▁अदला	19
▁बहाव	19
▁कल्चर	19
▁आदिनाथ	19
▁हस्तशिल्प	19
धर	19
▁ग्लोबल	19
मासी	19
▁गैंग	19
तिया	19
▁रिको	19
▁सिलंबम	19
ानुसार	19
▁चिन	19
सूली	19
▁छद्म	19
▁येल	19
ग्वे	19
▁गन	19
▁कलाकृतियाँ	19
स्क	19
वान	19
▁फायर	19
▁हटाए	19
मुखी	19
▁जूत	19
वेशन	19
ज़ीका	19
ुई	19
▁प्लेस	19
कन	19
वर्षीय	19
्ताद	19
▁बैंगनी	19
▁बंदूकें	19
▁खूब	19
▁रॉब	19
▁सागौन	19
ाज	19
▁पैगंबर	19
▁पढ़ें	19
वर्ध	19
▁संरच	19
▁वारंटी	19
▁तिरुवनंतपुरम	19
▁व्यवहार्य	19
▁फूला	19
▁द्रौपदी	19
▁सिंग	19
▁आपूर्तिकर्ता	19
मां	19
▁गंधर्व	19
क्का	19
▁विशिष्टता	19
▁छात्रा	19
ट्टु	19
▁मास्को	19
▁झांसी	19
▁शौकीन	19
▁ग्र	19
▁खर	19
▁घोटाल	19
▁उस्मान	19
▁कुतुब	19
▁निष	19
▁आइडाहो	19
▁शल्यचिकित्सा	19
▁प्रवर्तन	19
▁सारिका	19
▁नागर	19
सामने	19
▁परोपकार	19
▁नाभिक	19
▁ईंटों	19
ावस्था	19
▁एस्टेट	19
▁संतों	19
विराम	19
▁काश	19
▁गज़	19
▁ग्राफ़िक	19
मारा	19
▁शाखाएँ	19
▁अप्रवा	19
▁कंबोडिया	19
▁दि	19
▁मिर	19
▁इंसान	19
▁फाल	19
▁अनदेख	19
▁पेसो	19
▁उड़िया	19
▁शत्रु	19
ंजय	19
▁हेरा	19
▁लोककथा	19
▁टेली	19
▁चिकनी	19
▁निकालें	19
▁रुकत	19
उच्छेदन	19
▁वैधता	19
▁दिशानिर्देशों	19
▁वर्क	19
त्र	19
ताकार	19
▁बिज़	19
कृष्ण	19
▁चैपल	19
ंतु	19
▁पालक	19
▁लगना	19
▁अवार्ड	19
▁मालदीव	19
यार्ड	19
▁उत्कीर्ण	19
दक्षिण	19
▁ऑर्गन	19
▁लाइनें	19
▁विंग	19
▁रईसों	19
▁चार्टर	19
▁रॉ	19
▁फ्लोर	19
पीड	19
वेज	19
िज्म	19
▁डेवलपर	19
▁पास्कल	18
▁मोरक्को	18
▁पेनिसिलिन	18
▁जू	18
▁धैर्य	18
▁संसार	18
▁बख्शीश	18
▁मारवाड़	18
▁राठौ	18
▁हेगड़े	18
बाल	18
िब्रू	18
▁गोरा	18
▁मनीष	18
▁साहनी	18
▁कॉन्ट	18
▁फूड	18
लाई	18
▁वाल्टर	18
▁हरित	18
फ्ट	18
▁थैलेसीमिया	18
▁चकमा	18
▁प्रिंस	18
▁ट्रिनिट	18
▁रेटिनोइ	18
▁हथेल	18
▁होंठ	18
घाट	18
राई	18
राइस	18
▁बूंद	18
▁कीट	18
▁रूमान	18
सुर	18
▁हुक	18
डेल	18
▁बैंकॉक	18
▁बेरोजगारी	18
गम	18
ावनी	18
▁अपेक्षित	18
▁खरोंच	18
▁गुम	18
टस	18
मारते	18
▁गण	18
▁पेशे	18
▁सामरिक	18
▁अभियोजक	18
यां	18
▁रीमेक	18
▁फिन	18
▁दिव	18
▁मुकुट	18
▁समीकरण	18
▁गांठ	18
नारायण	18
▁अनाथालय	18
▁एज	18
▁समावेश	18
▁आरंभिक	18
▁डु	18
धिक	18
▁चप्पू	18
▁सुगन्ध	18
▁रूपरेखा	18
▁वन्यजीवों	18
नुसार	18
▁आचरण	18
▁दिशानिर्देश	18
रंगा	18
▁बहल	18
▁कन	18
कथा	18
▁कुषाणों	18
छोटी	18
▁संपदा	18
▁नै	18
▁धब्बों	18
▁सोलोमन	18
ताई	18
▁लॉयड	18
▁रोनाल्ड	18
पल	18
▁बहाने	18
▁साल्	18
ज़बर्ग	18
▁पत्रकारि	18
▁प्रतिशोध	18
कानूनी	18
▁भवनों	18
गैर	18
▁आर्यन	18
▁सेतु	18
▁खारे	18
▁दरवाज़ा	18
▁कैनेडी	18
▁चूर्ण	18
▁बारीक	18
हेम	18
▁शाद	18
▁थ्रो	18
▁सूबेदार	18
▁लालच	18
▁यूनिट	18
▁माध्य	18
▁एला	18
▁छवियाँ	18
▁बाज़ारों	18
▁राह	18
▁पेरुम	18
▁उद्	18
ियत	18
▁इंपीरियल	18
▁जर्नल	18
▁रमन	18
▁दोहराव	18
▁जुआ	18
फॉर्मेशन	18
▁सद	18
▁उच्चत	18
फू	18
▁पुस्तिका	18
▁किण्व	18
▁बाज़	18
▁तटस्थ	18
▁मलय	18
▁विमानन	18
▁कार्लस	18
ऍ	18
▁इंडस्ट्रीज	18
▁स्काई	18
▁दिखाव	18
हन	18
▁जाफर	18
▁ताक	18
▁अल्पाइन	18
▁पच	18
▁प्रमाणपत्र	18
▁नॉर्डिक	18
्ताव	18
▁रोटी	18
▁मनोरोग	18
▁आइसलैंड	18
▁डंडा	18
▁प्रकाशनों	18
डस्ट	18
सीमा	18
▁चौंका	18
▁रिकेट्सिया	18
पुल	18
▁वेश्या	18
▁इनाम	18
िना	18
▁प्रदाताओं	18
▁स्टोक	18
▁पैट	18
▁प्रचारक	18
▁पर्थ	18
▁गै	18
मिट	18
▁हल्दी	18
▁आधारभूत	18
▁मिजो	18
▁बिल्लियों	18
संख्य	18
▁डोमेन	18
यानंद	18
▁सबके	18
▁एंटीबायोटिक	18
नाई	18
▁शर्मिंदा	18
▁शॉल	18
▁अत्याधिक	18
बिल्लू	18
▁नोवा	18
▁स्वेच्छ	18
▁अध्यादेश	18
▁अबू	18
बूटियों	18
▁शेयरधारक	18
िएट	18
योगिक	18
लों	18
▁जवान	18
गालैंड	18
▁आंद्रे	18
मिया	18
▁वृत्तांत	18
▁दाने	18
र्जर	18
मत	18
▁चटगाँव	18
▁बेबी	18
▁रेडिफ	18
लमार	18
▁स्कर्वी	18
▁प्रतिजन	18
▁दादी	18
▁रिका	18
ॅ	18
▁मददगार	18
▁सुपरस्टार	18
ाव	18
▁आड	18
ंट्स	18
▁गेंदें	18
मराठा	18
▁ढूंढें	18
▁महत्वाकांक्षा	18
▁महाराज	18
▁डॉल्फिन	18
▁परिसंच	18
▁सिंधी	18
▁ओमान	18
▁निश्चय	18
रॉय	18
▁टूल	18
▁इमाम	18
▁प्लेयर	18
▁स्मरण	18
▁वामन	18
▁बालक	18
▁जैज़	18
म्बा	18
▁लूटा	18
ैटर्न	18
▁ब्राउज़र	18
▁डिएगो	18
धार	18
्यू	18
िद्ध	18
▁जिंद	18
सभा	18
▁ब्रुइ	18
▁कैरी	18
▁होल्कर	18
▁कुमाऊं	18
▁तपस्वी	18
▁श्रीधर	18
स्पेक्ट	18
▁देवगन	18
ैन	18
▁सुप्री	18
ाँसी	18
भाषा	18
न्वित	18
▁तथापि	18
▁स्थलाकृति	18
▁अगस्त्य	18
जाति	18
▁प्रतिभूति	18
▁अनुभूति	18
▁पहुंची	18
▁बाइबल	18
▁पतली	18
लॉग	18
ैक	18
नाटक	18
▁मेलों	18
िश्च	18
▁उपर्	18
▁विक्ट	18
▁उज़्बेक	18
▁नौशाद	18
मार्केट	18
▁सुअर	18
▁निकिता	18
▁पट्टियाँ	18
▁लिबरल	18
▁लसीका	18
▁कास्प	18
चेन	18
▁अभयारण्यों	18
▁कवक	18
विजय	18
▁सीखत	18
▁पतंजल	18
▁गतिशीलता	18
▁पके	18
श्य	18
▁टुडे	18
▁शिवालिक	18
▁संकुचन	18
▁काशी	18
▁घरानों	18
▁तंतु	18
▁तोमर	18
हान	18
▁संवहनी	18
▁अर्ल	18
▁निकालते	18
निर्माण	18
▁खिलौनों	18
बहन	18
▁मुड़	18
▁सार्थ	18
▁फार्म	18
▁व्हीलचेयर	18
▁टैप	18
कॉइन	18
▁जंजीर	18
हे	18
▁फंक्शन	18
▁पुर	18
▁सुह	17
ुक	17
▁बहरीन	17
मैनुअल	17
कभार	17
ुसम	17
▁कढ़ाई	17
▁ताप्ती	17
▁रीगन	17
▁सदा	17
चक	17
वेंट	17
▁जूझ	17
मंगलम	17
▁हृद्	17
▁तारे	17
बत	17
गु	17
▁दाएं	17
▁मट्टू	17
▁संजाल	17
यूर	17
▁काटे	17
▁अंड	17
▁कहानिया	17
▁ड्रेस	17
▁ट्रेकिंग	17
▁आईपैड	17
▁ऊँट	17
▁कांप	17
▁सॉकर	17
▁लेजर	17
▁काठिन्य	17
▁अंधेर	17
मेरे	17
▁अख्तर	17
▁उर्फ	17
▁छींक	17
▁सौम्य	17
▁बंदिश	17
▁मैनहट्टन	17
भद्रा	17
▁रबड़	17
▁गृहस्थ	17
▁ऊब	17
ङ	17
सूची	17
▁पहुँची	17
▁बाला	17
▁निपटा	17
ध्य	17
▁प्लस	17
▁ओसा	17
▁फँस	17
▁श्वेतांबर	17
▁गौड़	17
वचन	17
▁पेरि	17
▁पड़ाव	17
▁चरमोत्कर्ष	17
▁हथकरघा	17
▁भारतपुड़ा	17
▁निन्टेंड	17
िच	17
▁अल्जीरिया	17
▁फेंकत	17
▁एमी	17
शक्ति	17
▁आव	17
▁युधिष्ठिर	17
▁प्रत	17
▁राजधानिय	17
▁ब्वॉय	17
▁अलवर	17
र्थ	17
▁आंगन	17
रोमियो	17
▁कमजोरी	17
▁संकोच	17
▁अटॉ	17
▁फैलाव	17
▁फैंट	17
▁आइकन	17
▁कॉर्पोरेट	17
▁टूटे	17
लिस्ट	17
▁कथाएँ	17
▁फ़्रांसीसी	17
▁सुगंध	17
▁अंगद	17
▁अशांति	17
▁स्पिन	17
▁कसम	17
▁स्क्रिप्ट	17
▁मुक्केबाज़ी	17
▁भेड़	17
विरोधी	17
▁दबाएँ	17
▁स्लेज	17
▁अनिश्चितता	17
▁पार्ट	17
▁डायरेक्टर	17
▁बधाई	17
▁भाप	17
थर	17
िरी	17
▁व्युत्पत्ति	17
फल	17
▁सौभाग्य	17
▁लेग	17
▁ईयर	17
▁रोज़ा	17
▁स्तनधारी	17
▁आरोहण	17
▁आरोह	17
▁मस्जिदों	17
क्षत्र	17
घाती	17
टोरेंट	17
▁गैलरी	17
▁नादे	17
▁क्रॉनिकल	17
▁कमांड	17
▁काउंट	17
▁कुक	17
्को	17
▁आत्मकथा	17
▁गौरी	17
▁तंजौर	17
▁बुद्धि	17
ोपा	17
ध्याय	17
▁बत्रा	17
▁ग्वाटेमाला	17
स्मिथ	17
▁आक्रमणकार	17
▁फेन	17
जुलता	17
ीमिया	17
डु	17
▁खिला	17
▁अफ़गान	17
▁लिखीं	17
▁गंद	17
▁छिड़	17
▁नॉर्	17
▁चौ	17
उत्तर	17
िकरण	17
ेयर	17
▁तंत्रिकाकोशिका	17
आयनीकारक	17
▁अक्षम	17
▁व्योमिंग	17
▁बांसुरी	17
▁चट्टानें	17
▁विश्वव्यापी	17
▁प्रयोगात्मक	17
▁तुंग	17
▁कटाव	17
▁अरोड़ा	17
▁औरंगाबाद	17
▁मजा	17
▁ब्लड	17
▁पाइरेट	17
▁पाएँगे	17
▁आत्मरक्षा	17
▁टाय	17
दुई	17
▁चंदन	17
बदली	17
▁सांक	17
▁वाहिकाओं	17
▁बेनेडिक्ट	17
▁चैत्र	17
▁एंटन	17
कोर	17
▁पहचाने	17
▁गली	17
▁आबू	17
▁प्राइस	17
वाली	17
▁जांचकर्ता	17
वादियों	17
तिहासिक	17
▁मेसोपोटामिया	17
▁सुस्त	17
पालन	17
▁नरसिम्हा	17
▁टेरी	17
▁निकोल	17
ाढ़े	17
उस	17
▁वाइल्ड	17
▁कॉलोन	17
▁एज़िथ्रोमाइसिन	17
▁बिकने	17
▁कैम	17
▁डेनिस	17
▁सूरमा	17
▁वेंकट	17
▁तटबंध	17
▁रोनाल्डो	17
▁हैंड	17
चारी	17
▁नवोद	17
नार	17
▁सोते	17
▁सृजन	17
▁भूलें	17
गाम	17
▁अपूर्ण	17
▁मलयाली	17
जेन	17
▁बायो	17
▁आयकर	17
▁आशुरचना	17
▁बरुथ	17
▁मुइज़	17
▁आग्नेयास्त्र	17
ांडर	17
साहे	17
▁इलायची	17
▁रेन	17
▁तोड़ा	17
▁धू	17
▁कृपा	17
वाह	17
कू	17
गे	17
▁अंतत	17
▁सोची	17
▁गुरुद्वार	17
▁अध	17
▁सरोवर	17
▁माउस	17
▁उत्तेजना	17
▁माय	17
तरफा	17
निगम	17
▁वियना	17
▁असंतुष्ट	17
▁लीबिया	17
▁ऐन	17
▁उतारा	17
पंक्ति	17
▁शुक्ल	17
▁पत्रकारों	17
▁मच	17
▁लोहार	17
ेरो	17
▁झुकाव	17
▁मकबर	17
▁स्कंद	17
▁प्रसंस्करण	17
▁इलिय	17
▁निहत्थ	17
भयावह	17
▁स्केटर	17
▁कारखान	17
▁वैक्स	17
▁नेपोलियन	17
▁आटे	17
▁सनम	17
▁फिल्टर	17
▁मनमोह	17
प्र	17
रुख	17
यवन	17
रिए	17
▁हाँ	17
▁अविश्वसनीय	17
▁सद्भाव	17
▁सीमांक	17
▁सेल्टिक	17
▁छुआ	17
▁महत्वाकांक्ष	17
▁चाइना	17
▁संकुल	17
▁टेल	17
▁रियलिटी	17
▁स्लैम	17
▁उडुपी	17
▁फै	17
▁शहना	17
वांग	17
मलव	17
▁गील	17
▁सूखा	17
लोअर	17
संगीत	17
ंधार	17
▁लाएँ	17
तुलनीय	17
▁गे	17
▁जादूगर	17
▁धृतम	17
यांग	17
▁फेरे	17
लेस	17
परिषद	17
▁मेमोर	17
▁चर्चों	17
▁स्पेशल	17
▁हिम्मत	17
▁अचीव	17
▁प्रोफेशनल	17
ेला	17
▁प्रशंसित	17
नौका	17
▁संगरोध	17
▁भवानी	17
▁जीतकर	17
▁जस्टिन	17
▁डक	17
▁इंस्टा	17
▁मुट्ठी	17
▁पीटर्सबर्ग	17
ॉ	17
▁लिन	17
ंडा	17
▁टिकाऊ	17
▁कदंब	17
▁आभार	17
▁कोण	16
आर्थिक	16
▁बैटमैन	16
▁हीमोग्लोबिन	16
ोडोर	16
▁सिट	16
▁हाउज़	16
▁रखकर	16
▁थाईप	16
▁साउंड	16
वर्तमान	16
▁मुंडा	16
▁संयोजित	16
▁स्केन	16
तिन	16
▁ओरेगॉन	16
प्रतिद्वंद्वियों	16
▁एस्पिरिन	16
▁मुक़दम	16
▁मुवाट्टुपुड़ा	16
▁सता	16
▁फेल्	16
▁ब्रेस्ट	16
▁पूजन	16
जफ	16
▁कार्तिकेय	16
▁बिली	16
▁गढ़ा	16
▁मंगल	16
▁जनेरियो	16
▁धो	16
ज़ेब	16
▁ट्यूब	16
▁सराय	16
▁पेंसिल	16
▁सिमर	16
▁नामकरण	16
्सबर्ग	16
भयंकर	16
राधिका	16
▁भाषाएं	16
▁रोच	16
विकृति	16
▁कारनाम	16
▁बक्सर	16
▁कमीज	16
कोई	16
▁आंकड़ा	16
▁कुंत	16
▁छठ	16
▁यांग	16
▁विघट	16
शत	16
▁वादी	16
नाल	16
▁पटर	16
▁मैड	16
▁कूटनीति	16
▁खंडवा	16
▁कमाल	16
▁जैम	16
▁मंजू	16
▁गेंदबाजों	16
शासन	16
▁वल्लभ	16
▁मल्होत्रा	16
▁वन्य	16
▁दही	16
▁आइसक्रीम	16
▁ब्रे	16
▁कठपुतली	16
▁विक्	16
▁गैलेक्	16
घंटे	16
▁ग्रैमी	16
स्टेड	16
▁जुटा	16
▁प्रत्याश	16
▁मुद्रण	16
परांत	16
▁बल्ले	16
विद	16
▁निकाले	16
▁मामा	16
▁खोजन	16
▁वेश्यावृत्ति	16
▁झड़प	16
▁खोजे	16
▁ध्वनिय	16
▁एड्स	16
▁कपाल	16
▁बजाता	16
▁राख	16
▁जीभ	16
िट	16
▁क्लीवलैंड	16
▁साहसी	16
▁माघ	16
▁प्रलोभन	16
संघ	16
▁छुटक	16
▁तरण	16
▁पैंथर	16
▁त्रिशा	16
▁रै	16
विच	16
िंगटन	16
▁तोशाम	16
▁कैथल	16
िन्हो	16
▁छुड़ा	16
फेल्ड	16
मोशन	16
▁उत्तरपूर्व	16
ेम	16
▁स्टार्टअप	16
▁पहुँचाया	16
▁स्पेस	16
माल	16
▁मछलियाँ	16
▁जाऊँगा	16
▁रिच	16
▁क्रीक	16
▁खजुराहो	16
▁बीर	16
▁म्यूज़िक	16
▁लिफ्ट	16
▁धारावाहिकों	16
▁प्रमस्तिष्क	16
▁स्त्री	16
▁संकुच	16
▁गेट्स	16
सांसदों	16
▁डैश	16
▁विंडो	16
▁कंक्रीट	16
▁टोपालोव	16
कोंडा	16
▁बैरी	16
▁सांगा	16
▁बेचैनी	16
न्य	16
▁शब	16
▁मातृभूमि	16
▁डेंगू	16
▁राज़	16
▁वेन	16
▁नाबालिग	16
मांस	16
▁पल्ल	16
▁बेईमान	16
▁रेटिना	16
▁क्रैमनिक	16
▁फ़ेम	16
▁फीड	16
▁आश्व	16
▁मिथ्या	16
▁नीर	16
▁कैनेडियन	16
▁समोआ	16
▁सुनामी	16
▁कॉन	16
▁बेस्ट	16
हीं	16
▁परिवेश	16
▁उभार	16
▁हारे	16
परिवर्तनीय	16
बर्गर	16
चरण	16
▁कविताएँ	16
▁मॉस्को	16
▁सैंट	16
▁कराए	16
▁दलाली	16
▁बहुल	16
टोक	16
▁लम्ब	16
▁स्को	16
▁संबलपुर	16
▁गुज़रत	16
राष्ट्र	16
▁खबरें	16
▁निवारक	16
▁प्रस्थान	16
▁सुरेश	16
स्फीति	16
▁ट्यूनीशिया	16
▁स्वराज	16
्लैंडर्स	16
▁पगडंड	16
▁माफिया	16
▁गणपति	16
▁वर्णम	16
▁बीम	16
▁विधायक	16
▁डेनियल	16
▁दीपिका	16
रफेर	16
दूर	16
▁भड़क	16
▁पुस्तकें	16
▁दस्तान	16
कोल	16
▁झीलें	16
बड़े	16
लक्ष्मी	16
ेश्वरी	16
▁रिसर्च	16
▁अंजा	16
▁शिवानी	16
ण्ड	16
▁न्यायपालिका	16
▁सत्रह	16
▁लम्बे	16
▁सर्प	16
▁होस्ट	16
▁पालकी	16
▁एव	16
▁खांडे	16
▁आविष्कारक	16
▁मज्जा	16
परिवर्तन	16
जून	16
▁ड्रॉप	16
▁पिंट	16
▁प्रदूष	16
▁वर्जि	16
▁बलूचिस्तान	16
त्रयी	16
▁गठिया	16
▁हू	16
▁वेस्टमिंस्टर	16
▁लुक	16
▁बदलता	16
टों	16
▁बुझा	16
▁पंचम	16
संजू	16
▁सरकारें	16
▁परिपूर्ण	16
▁ज़ा	16
▁रिजर्व	16
बेरी	16
▁ऑर्किड	16
▁भटक	16
▁अफसोस	16
ेनबर्ग	16
▁राजू	16
▁फाइलों	16
▁डोम	16
▁लातविया	16
अनुवाद	16
▁पहुंचना	16
▁ओटावा	16
▁बुडापेस्ट	16
▁कल्प	16
▁आदिल	16
▁रस्म	16
▁डेथ	16
▁बहाना	16
▁मंगेशकर	16
▁कीर्तन	16
▁बर्बर	16
▁फ़ोटो	16
▁ताली	16
▁नौकरिय	16
वारा	16
▁पहुँचात	16
कुमार	16
▁क्रोन	16
▁प्रतिक्रियाओं	16
▁रामा	16
▁एल्ब	16
▁उठाता	16
▁सन्	16
▁फलस्वरूप	16
▁आइडिया	16
▁बर्ग	16
▁कही	16
▁निभाईं	16
▁घोंसल	16
▁जमी	16
▁सावधान	16
▁अप्रभाव	16
▁मॉरिस	16
▁गँवा	16
▁भूमध्य	16
▁सीढ़िय	16
▁फोर्स	16
▁बारबाडोस	16
▁फतेह	16
▁मोरा	16
▁कैनबरा	16
छात्र	16
▁कौरवों	16
▁खिलाडि	16
▁उद्भव	16
▁मुमताज	16
▁करतब	16
▁दीर्घा	16
▁तह	16
धीर	16
▁वीर्य	16
▁सर्वसम्मत	16
ुष्ठ	16
▁लाइटन	16
▁दशहरा	16
▁सपोर्ट	16
▁क्रिस्टी	16
▁उन्माद	16
▁डिफेंडर	16
▁अहो	16
▁आकृतियों	16
▁उड़त	16
▁आरा	16
▁दाल	16
▁पुनरावर्त	16
वर्जित	16
मनी	16
▁राजनीतिज्ञ	16
▁क्रिस्टोफर	16
राणा	16
▁माँगने	16
▁पेनांग	16
▁अलंकरण	16
▁चक	16
▁कास्पारोव	16
▁डेबिट	16
▁दिखान	16
▁एलेन	16
▁मुक्केबाज़	16
जिसक	16
▁बगीचों	16
फ़ेयर	16
शिमा	16
▁जन्मी	16
▁जेरी	16
▁पिल्ल	16
▁स्नैप	16
ग्राफिक	16
▁डायर	16
▁भाड़	16
▁स्केट	16
▁ढकी	16
रूथ	16
▁घर्षण	16
सिया	16
▁माउंटबेटन	16
▁आयर्स	16
िन्न	16
▁वार्न	16
रियन	16
▁मरीन	16
▁उत्प्रेरक	16
▁योन	16
▁मनोचिकित्सक	16
▁हिन्दू	16
▁नमकीन	16
▁अस्थमा	16
▁उधारकर्ता	16
िधि	16
▁अनूठा	16
▁क्रू	16
▁पिक्सेल	16
सिन	16
▁प्यारी	16
▁वैगन	16
▁टेन	16
▁ढूँढ	16
▁फहरा	16
▁अहिंसा	16
▁बोलती	16
▁करूँ	16
▁उत्थान	16
▁अंदाज	16
▁अजंता	16
रूप	16
▁भोजपुरी	16
▁साम्राज्यवाद	16
▁संकाय	16
▁डकैत	16
▁चलेगा	16
▁बोला	16
वज्ञा	16
▁धमनिय	16
▁टेट्रा	16
▁चिंतन	16
▁पकड़ी	16
▁जोन्	15
▁नही	15
▁विभेद	15
कशेरुकी	15
डुबकी	15
▁नक्शे	15
▁कोट्टायम	15
▁राइड	15
▁स्ट्रिंग	15
स्टिन	15
▁अधिसूचना	15
ेस्ट	15
▁तिलक	15
▁प्रांगण	15
▁होयसल	15
▁समझदार	15
▁कैंपबेल	15
▁घोल	15
्टेक	15
▁डागर	15
स्थानीय	15
ख्वाह	15
▁अंधेरी	15
▁रेलमार्ग	15
▁मंज़िल	15
चित	15
▁कैपिटल	15
▁गोलटेंडर	15
▁फेलुदा	15
शब्द	15
▁उद्यमी	15
▁अंबानी	15
▁पद्य	15
▁मुन	15
▁जुआन	15
▁मिटा	15
▁तेहरान	15
ऊ	15
हाइपहेमा	15
▁मोहित	15
▁वायनाड	15
▁शोधकर्ता	15
▁डॉर्टम	15
▁जित	15
▁अस्सी	15
अपनी	15
▁बिन्दु	15
▁ब्रॉडबैंड	15
▁श्याम	15
▁दुश्मनी	15
▁पेस्ट	15
▁पतलून	15
▁माँसपेशिय	15
▁खिलाड	15
▁क्लिंट	15
▁मिशनरी	15
मल	15
▁ज्यामित	15
▁एसोसिएट	15
▁अब्बास	15
▁नतीज	15
▁मिन	15
यु	15
▁राजराज	15
▁प्रायश्चित	15
A	15
ेकर	15
देवी	15
▁लॉकर	15
घात	15
▁मुकदमों	15
दर्शन	15
▁सतहों	15
कारा	15
▁फेंके	15
▁सॉन्ग	15
शर्मनाक	15
▁दाद	15
▁डिक	15
▁सौद	15
▁डिज़नी	15
▁नापसंद	15
कारक	15
बे	15
▁टूटी	15
हेड	15
पाड़ा	15
▁टैब	15
▁वर्कुदर	15
▁जाहिर	15
िस्ट्री	15
▁कैटेलोनिया	15
▁ड्रीम	15
▁मौन	15
▁फ़ाउल	15
▁भगा	15
रोहन	15
िपाह	15
▁बसु	15
▁परिमाण	15
▁स्प्रेडशीट	15
▁एर्ना	15
पट्ट	15
्दी	15
▁हाइड्रोजन	15
▁दलित	15
▁त्रासद	15
▁उत्खनन	15
ऑन	15
▁रिव्यू	15
▁अहिल्या	15
मोंट	15
▁दुब	15
▁थीसियस	15
▁लोहा	15
▁छिट	15
▁रेटिन	15
▁मैग	15
प्रिय	15
▁जिमनास्ट	15
▁निक्षेप	15
र्ग	15
ियु	15
▁गौहर	15
▁बेरी	15
▁मेहमान	15
▁कैसल	15
हाथ	15
▁ताइप	15
▁पिछला	15
▁साग	15
▁प्रण	15
▁भारोत्तोलन	15
▁पंप	15
पथ	15
▁एंडी	15
▁झाड़ियाँ	15
▁टाइफस	15
्की	15
स्टेट	15
▁श्रा	15
▁वंशाणु	15
ाए	15
▁विकलांगता	15
▁ग्लेन	15
▁बर्ड	15
▁खंजर	15
▁डंडे	15
इबी	15
▁ओलाव	15
▁खेप	15
▁एजुकेशन	15
▁पं	15
ॉल	15
▁ओबेरॉय	15
▁हार्ब	15
ेतिक	15
▁अभियोज	15
ित्र	15
▁नीम	15
▁आधान	15
चू	15
▁समन्व	15
्टर	15
हर्ट्ज़	15
▁मिनिकॉय	15
▁अफ़्रीका	15
▁दायित्व	15
चिंग	15
सफलताओं	15
▁स्टेटमेंट	15
▁वरदा	15
▁लैरी	15
▁गेमिंग	15
▁आवर्तन	15
▁स्टिंग	15
▁प्रेमियों	15
▁अभद्र	15
तमिल	15
▁ब्रो	15
एहसान	15
सिख	15
▁स्ट्राइकर	15
▁स्ट्रीम	15
▁सारंग	15
▁वेल्लोर	15
बेन	15
▁उध	15
तिज	15
▁हेवी	15
▁निरा	15
मस्ती	15
मूल	15
लहट	15
नहैम	15
दारी	15
▁चंदा	15
गोपाला	15
▁परंपराएँ	15
▁अफ़्रीकी	15
▁कुरूप	15
▁सर्जन	15
▁क्वार्टरबैक	15
ाधर	15
▁किशनगढ़	15
▁अंबेडकर	15
▁नास्तिक	15
दाता	15
प्रति	15
दायी	15
▁काउंटिय	15
बिल	15
▁निशा	15
▁उकसाया	15
▁एवेन्यू	15
▁चौराह	15
▁यॉर्कशायर	15
▁चीरा	15
शाब्दिक	15
▁अस	15
▁ब्लैकहॉक	15
▁एयरटेल	15
▁सिग्नल	15
▁लूप	15
▁धीमे	15
▁सम्भावना	15
▁वेनिस	15
▁शुरु	15
▁जिम्नास्ट	15
टल्स	15
▁लाइब्रेरी	15
▁पक्की	15
▁स्विम	15
▁बसा	15
▁तला	15
▁बेलारूस	15
▁विल्किंस	15
▁ऑक्स	15
▁रिफंड	15
▁मोंटाना	15
▁व्हेल	15
ल्ड	15
▁निर्मल	15
▁पैं	15
सो	15
▁बर्फ़	15
▁बेसब	15
▁तैर	15
▁पाएँ	15
बर्न	15
ैबर	15
▁बाहों	15
▁अटारी	15
▁पैरालम्पिक	15
मैक	15
▁मशीनें	15
▁अंदाज़	15
▁इकोनॉमिक	15
▁क्लाउड	15
▁समा	15
▁फाल्के	15
▁कन्याकुमारी	15
हत	15
▁बोले	15
▁डेला	15
▁मान्य	15
▁ऐब	15
▁भतीज	15
▁मेइतेई	15
▁जावेद	15
▁क्रूज	15
▁जलने	15
▁अनुमोदन	15
▁प्लीज़	15
▁नाचते	15
▁जुड़त	15
कर्मियों	15
▁बस्तियाँ	15
▁सीकरी	15
▁मीतेई	15
▁खाम	15
ोव	15
▁एबॉट	15
▁कू	15
▁उठाई	15
▁कैंप	15
▁विशु	15
▁यूनि	15
▁लूथर	15
मोट	15
यंत्रों	15
▁रत्ना	15
माताओं	15
▁प्लग	15
▁क्रूरता	15
▁इस्माइल	15
▁पूर्ति	15
▁विलो	15
बायीं	15
▁ब्राह्म	15
▁सल	15
▁सास	15
▁जिन्होने	15
ोद्धा	15
▁प्रह्लाद	15
वैदिक	15
▁धीर	15
▁घटनाएं	15
▁अर्क	15
▁बैज	15
ैन्सी	15
▁वेगास	15
▁स्थापत्य	15
▁गरुड़	15
▁अलगाववाद	15
इश	15
▁घाटियाँ	15
▁बेक	15
▁सिराज	15
▁मिथुन	15
▁पार्कर	15
बिशप	15
▁संभाग	15
ुलेटर	15
▁पीर	15
▁छप	15
▁रोगाणु	15
▁दिव्या	15
तुल्य	15
▁मरीज	15
▁बुर्ज	15
▁नट	15
▁मैत्री	15
▁हेरो	15
▁तालवाद्य	15
ब्यून	15
▁बच्च	15
▁मुक्केबाज	15
▁निर्वाण	15
▁केसर	15
▁आज़ाद	15
▁क्यो	15
▁रैपिड	15
▁मनाना	15
▁निरोध	15
▁विलासिता	15
▁फाड़	15
▁अशांत	15
▁ऑर	15
▁प्लेग	15
▁रचनात्मकता	15
▁नारे	15
▁महाधमनी	15
▁झगड़े	15
वर्ड	15
▁मर्दान	15
▁रायगढ़	15
▁आयुष	15
▁स्मैश	15
फर	15
जुएला	15
▁कम्प्यूटर	15
▁रसेल	15
▁स्पीड	15
▁हिटर	15
▁क्यूब	15
बान	15
शाला	15
बियन	15
ोरेंस	15
ाता	15
▁ढूँढ़	15
▁स्लाइड	15
▁मास्क	15
▁जलमार्ग	15
्वा	15
▁शेव	15
▁प्रियजन	15
प्रतिकारक	15
▁इन्फैंट	15
▁कुर	15
▁जैस्पर	15
▁ज्यूरिख	15
▁बाघों	15
▁वशिष्ठ	15
▁दौलत	15
मान्य	15
▁टे	15
गेम	15
▁सलाद	15
विनय	15
▁ईगल	15
टिंग	15
▁थीम	14
ेगा	14
▁बलराम	14
▁मतदाताओं	14
लाभ	14
शिप्ट	14
▁पौध	14
▁पुष्कर	14
▁जगा	14
▁आक्रमणकारी	14
▁ससुराल	14
▁उपासना	14
मुंबई	14
▁इको	14
▁थका	14
▁मारवर्मन	14
▁धारी	14
लेनिन	14
▁मूवी	14
ोरलैंड	14
▁बांह	14
▁गुच्छ	14
▁एज़	14
▁धोत	14
फिर	14
रुआ	14
जेट	14
▁पट्टा	14
▁खोली	14
▁ट्राइ	14
▁धड़	14
▁लिबर्ट	14
▁उत्तरार्	14
स्थि	14
लोक	14
▁टॉप	14
▁बेले	14
▁मिट	14
▁दक्षता	14
▁पुरस्कृत	14
▁कराईकल	14
▁टिक	14
▁चौखट	14
सफर	14
▁चाक	14
▁शिष्यों	14
▁डेट	14
▁टॉ	14
▁फेंकी	14
▁डोवर	14
▁क्लिनिक	14
▁भौतिकी	14
▁क्लाइम्बिंग	14
▁ज़्यादा	14
▁लियोनार्ड	14
र्ना	14
▁भयभीत	14
▁तर्ज	14
मरणो	14
मिक	14
▁थैल	14
रक्त	14
▁पार्टिय	14
▁रेखाचित्र	14
ैर्	14
▁स्पी	14
▁डामर	14
िंद	14
▁सैक्सन	14
▁कुशलता	14
फेस	14
ाएंगे	14
▁निलय	14
▁पटल	14
▁अनुवादित	14
▁रेस्	14
▁ज़ांस्कर	14
▁अना	14
▁कोझिकोड	14
▁कान्ह	14
▁जीप	14
शनल	14
णा	14
▁निरीक्षक	14
▁महारत	14
▁कामकाज	14
▁जुड	14
▁भुना	14
▁नॉर	14
▁ताम्रपत्र	14
▁क्रैश	14
▁धर्मशास्त्र	14
ीस	14
▁संवेदी	14
▁पोर्टलैंड	14
▁लातिनी	14
थन	14
▁जिया	14
▁अपराजित	14
▁अयान	14
▁पुनरुद्धार	14
▁शक्तियाँ	14
▁मं	14
▁हेमा	14
▁मालिनी	14
▁हिप	14
▁गियर	14
▁पाऊँगा	14
▁पूर्ववर्तियों	14
▁जलाकर	14
▁टमाटर	14
▁भात	14
▁ज़ब्त	14
▁गोलकोंडा	14
▁कल्पनास्वरम	14
▁जीवनसाथी	14
डरावने	14
▁पणजी	14
▁कैटरीन	14
▁पिया	14
')	14
▁संश्लेष	14
▁झंड	14
नीचे	14
पब्लिक	14
▁नॉट	14
दन	14
कुछ	14
▁पोस	14
▁ब्रिगेड	14
गोल	14
▁ध	14
▁पेंच	14
▁बर्तनों	14
▁ल्यूक	14
▁सिद्दीकी	14
▁वीरता	14
▁उज्बेक	14
▁बाइट	14
▁ग्रोवर	14
▁कड़े	14
▁अक्तूबर	14
▁ठेकेदार	14
▁उर्वरक	14
▁पुरोहित	14
ौदा	14
▁किशन	14
▁क्षत्रप	14
नुमा	14
▁कास्ट	14
उन	14
▁माहि	14
▁अर्जेंटीन	14
्थ	14
▁सिम्पस	14
▁मिथक	14
▁उगत	14
▁टॉवर	14
▁पहिय	14
▁लुकास	14
▁सरसों	14
ुरा	14
ेन्द्र	14
▁आओ	14
▁परवर	14
स्पेस	14
फ़र	14
▁इकबाल	14
▁टा	14
▁ग्लासगो	14
ब्रो	14
गुरु	14
कोर्ट	14
▁एं	14
ठ	14
▁तीरंदाज	14
▁फिरोज़	14
▁कमांडो	14
=	14
▁कुराश	14
▁कन्वें	14
▁मुहरों	14
▁स्ट्राइक	14
निर्धारण	14
▁गेल	14
ीरज	14
▁मंगलम	14
ृष्टि	14
▁डायमंड	14
पेट	14
पोलिस	14
▁प्रबन्ध	14
▁यूगोस्लाविया	14
▁गिराया	14
▁गिफ्ट	14
ेराल्ड	14
▁शु	14
▁अहिंस	14
▁सिं	14
▁विकासकर्ता	14
▁नीलगिरी	14
▁बरूथिय	14
▁मधुबाला	14
▁थैंक	14
▁थूक	14
▁उत्तरदाय	14
▁बद्री	14
▁फटा	14
रिस	14
▁कुश	14
मबर्ग	14
र्कस	14
▁हॉर	14
▁होल्डिंग	14
▁संबन्धित	14
▁दबाएं	14
▁चतुर्	14
रमेश	14
▁मांसाहार	14
▁रगड़	14
▁घुल	14
वारी	14
▁बरतन	14
▁अद्वैत	14
▁गजपति	14
बीन	14
▁मांसपेशिया	14
वेन	14
▁क्षै	14
▁फला	14
▁प्रस्तुतकर्ता	14
▁जॉय	14
▁ग्रीष्म	14
▁टखने	14
▁सुल	14
▁ग्रेगरी	14
बिनेट	14
▁जिनेवा	14
▁अहमदनगर	14
▁फोर्ब्स	14
▁पियरे	14
▁जफर	14
▁पश्चात	14
▁राजघरान	14
▁बुद्धिमान	14
▁रेव	14
▁बोध	14
▁स्वार्थ	14
▁अर्धशतक	14
▁अल्बानिया	14
मानव	14
▁मोमबत्त	14
▁अय्यर	14
लार	14
बर्ट	14
▁राइन	14
▁ऑप्टिक	14
▁शीतल	14
▁ठे	14
स्ट्रिक्ट	14
▁कैनस	14
▁पर्याय	14
▁बिल्ल	14
▁भे	14
▁प्रशस्त	14
मार्क	14
▁गौतमी	14
डुम	14
▁लावा	14
सुथर	14
▁ओरेगन	14
▁डिश	14
▁कलन	14
▁डिलीवर	14
▁ओशिनिया	14
मियाओ	14
▁धमाक	14
मेनिया	14
पुलिस	14
▁ठहर	14
माता	14
▁मलाया	14
ाले	14
कर्म	14
जागीरदारों	14
▁परिवर्तनशील	14
▁प्रश्नावली	14
▁कीड़ों	14
▁धु	14
ोसाय	14
हानि	14
मिल	14
ाड़ियों	14
▁तापीय	14
▁परमेश्वर	14
▁पारदर्श	14
मिली	14
▁विषुव	14
▁वोग	14
▁छोड़ी	14
▁कियाः	14
म्पा	14
▁सुचार	14
▁ओलंपिया	14
▁भौंचक्क	14
▁इच्छ	14
तंत्र	14
णदाता	14
▁तापी	14
▁इत	14
▁भावुक	14
▁वर्षावन	14
▁ट्रै	14
▁नॉर्टन	14
आपत्तिजनक	14
▁अक्	14
▁हॉर्स	14
▁अनिच्छा	14
▁हॉवर्ड	14
▁कर्क	14
▁सूक्ष्मजीव	14
▁मनोविज्ञान	14
क्लब	14
▁ब्रेड	14
▁ट्रू	14
▁ऑरलियन्स	14
▁गुंज	14
▁मॉनिटर	14
सोच	14
आज़ादी	14
▁पटसन	14
▁दिनांक	14
▁उग्रवाद	14
▁फूट	14
▁नरगिस	14
राजनीतिक	14
चन	14
▁वरकुदर	14
करा	14
▁विस्फोटक	14
पार	14
▁यूके	14
▁नासा	14
▁अल्फ़ा	14
▁नारा	14
किया	14
▁जेफ	14
▁पीपल	14
सूचक	14
▁आर्	14
डमरू	14
▁संधिशोथ	14
▁सलामी	14
फेस्टिवल	14
जातीय	14
▁फेयरफील्ड	14
▁तलवारों	14
▁एंथ्रेक्स	14
मो	14
▁जिन्ना	14
▁पेट्र	14
▁श्रृंखलाएँ	14
षभ	14
▁शैतान	14
▁सवाना	14
▁वात	14
▁मैट्रिक	14
▁नौसिखिय	14
▁प्रतिबद्ध	14
▁आटा	14
▁क्वींस	14
▁भट्टाचार्य	14
▁अरक्	14
ट्टा	14
▁आकाशगंगा	14
▁तिरुपत	14
▁स्वप्रतिरक्ष	14
ारंभ	14
▁शाश्वत	14
▁जिमनास्टिक	14
▁उमड़	14
▁पारस्परिक	14
▁डोन	14
▁हत	14
▁नजरबंद	14
▁महादेव	14
ोइस	14
ज़ान	14
▁कैरम	14
▁विशुद्ध	14
▁पदनाम	14
▁एरेन	14
▁ट्रेक	14
▁खींचा	14
▁बाल्टिस्तान	14
▁माली	14
▁कुंभकोणम	14
ेटी	14
घ	14
▁पलकें	14
▁पेट्रोलियम	14
▁सौदेबाजी	14
▁छा	14
▁गुरुत्व	14
▁करूंगा	14
▁देंगी	14
▁बिर	14
▁बृहत्	14
▁सकेगा	14
▁ब्रांडों	14
▁फिलिप्स	14
ड़ला	14
सेल्स	14
वंत	14
▁चंदेल	14
▁खेलेंगे	14
▁मंत्रि	14
▁बाण	14
▁उबाल	14
▁कूल	14
▁रॉबर्ट्स	14
▁मुस्कान	14
▁ऑक्सी	14
▁देशमुख	14
शत्रु	14
▁साठ	14
▁खीर	14
▁रिटायर	14
▁एंट	14
▁केबिन	14
▁हैलो	14
▁असुविधा	14
▁अला	14
▁कैथरीन	14
सिक	14
▁रुकावट	14
लबर्ग	14
▁लचीलापन	14
▁ओस्लो	14
▁औषध	14
▁रूट	14
▁वांग	14
▁अद	14
▁अंधा	14
ूल	14
▁ऐप्स	14
▁उँगलिय	14
▁विभूषण	14
▁बिल्डर	14
वत	14
▁अभिविन्यास	14
▁अस्थिभंग	14
▁अश्व	14
माज़ी	14
होमोसिस्टीन	14
▁कांची	14
▁स्टीफ	14
रोड	14
मरी	14
▁गिरते	14
▁डाइऑक्साइड	14
र्डिन	14
▁सम्	14
▁मेवे	14
▁ढाँचा	14
▁टेड	14
‘‘	14
भ्रंश	14
▁रजिस्टर	13
▁संवेदन	13
▁छोड़ता	13
▁समझें	13
▁परिसंघ	13
▁संदीप	13
▁छायांकन	13
▁सीढ़ी	13
▁अस्थिरता	13
▁कुली	13
▁शोभा	13
▁मेरठ	13
स्टोन	13
▁मूलधन	13
स्थानिक	13
▁नस्लवाद	13
▁धर्मशाला	13
ंध	13
▁मार्को	13
ेलो	13
▁स्तब्ध	13
▁चटनी	13
▁स्पर्धाओं	13
▁बटर	13
▁मूंगफली	13
पितृ	13
▁उछल	13
वैसे	13
▁इक्ता	13
▁नाइ	13
▁सुनना	13
▁दुखद	13
टॉमी	13
▁गार्स	13
▁चौबीस	13
त्रश्लेष्मलाशोथ	13
▁धनराशि	13
लॉय	13
मंगोल	13
तार्किक	13
▁अमीन	13
चे	13
▁बंधा	13
▁मज़दूर	13
▁बाय	13
▁दं	13
▁ट्वीट	13
▁नुस	13
▁जाग	13
▁अंतर्दृष्टि	13
नृत्य	13
▁प्रसू	13
▁बनें	13
▁चैत्य	13
▁मायर	13
िक्र	13
विचार	13
▁धनुस्तंभ	13
▁असंगत	13
▁सांड	13
▁स्पष्टीकरण	13
▁दीजिए	13
वाटर	13
▁विवा	13
▁परतें	13
▁प्रतिबिम्बन	13
▁जातीयता	13
▁स्टीलर	13
हरण	13
ंटो	13
▁चिल्लात	13
झी	13
▁कट्टरपंथ	13
▁कूपर	13
र्डेम	13
▁मूर्ख	13
▁स्टंट	13
लिटी	13
▁अन्तर्	13
▁धाराएँ	13
स्टाइल	13
स्सा	13
▁दूरबीन	13
▁ग्राफिक	13
▁क्षेत्राधिकार	13
▁मैग्	13
र्टन	13
▁लाती	13
▁पुरंदर	13
▁बतूता	13
▁एडवांस	13
▁हरिया	13
▁ग्रांडे	13
▁मल्लिका	13
बरा	13
▁वाइसराय	13
क्यो	13
▁ओलिव	13
▁सुदृढ़	13
▁खोलें	13
▁अप्रवास	13
ंडेल	13
▁आभ्यंतर	13
▁शोला	13
ारिणी	13
▁किकबॉक्सर	13
▁नवविवाहित	13
▁शार्ल	13
▁महँग	13
मोली	13
▁अराजकता	13
▁बारात	13
▁छूटने	13
▁संचयन	13
विद्युत	13
दादी	13
▁नैनो	13
▁कंप	13
▁गोंड	13
▁त्रिवे	13
▁झुंकू	13
▁उद	13
▁धड़कने	13
▁वसूली	13
▁अर्द्ध	13
बोर्ग	13
▁उज्ज्वल	13
▁अवरोहण	13
स्वर	13
बिंदु	13
▁हाइपर	13
भूम	13
▁बानो	13
गार्ड	13
▁उतरत	13
▁वाइकिंग	13
▁अजनबी	13
ामिक	13
▁कलाकृति	13
मंदिर	13
▁गामा	13
▁माधवरा	13
नाथन	13
▁गुब्बार	13
▁अटकल	13
▁जलंधर	13
▁हथकड़	13
ांतक	13
▁महादा	13
▁उर्	13
बाड़ी	13
▁महाप्रबंधक	13
▁ओस	13
▁शुक्र	13
▁सुधा	13
▁बोलना	13
▁पर्चे	13
▁ईस्टर्	13
▁आशु	13
▁मोटर्स	13
निर्धार	13
▁टाइट	13
▁प्रशिक्षु	13
▁ऑकलैंड	13
▁विसर्ज	13
▁शरणार्थियों	13
रेमन	13
▁हरम	13
्मन	13
▁प्रशिक्षकों	13
सहारा	13
▁आँध	13
▁नृत्त	13
▁फ़ुट	13
फोड़	13
▁हैंडबॉल	13
▁बाराब	13
▁निकोलस	13
जवाब	13
▁एबरडीन	13
▁बिता	13
▁सुपरहीरो	13
ेक्शन	13
▁कलेक्टर	13
▁जहर	13
▁जमींदारों	13
नामी	13
▁कल्ह	13
▁हार्पर	13
▁मुबारक	13
′	13
ैंगलोर	13
▁बाप	13
▁गोरी	13
▁ब्रेट	13
टेंडो	13
▁इकलौत	13
छाड़	13
शंकर	13
▁मंद	13
▁आर्मेनिया	13
शर	13
▁विस्टा	13
▁मुर्ग	13
ेटिक	13
▁नालंदा	13
▁सारनाथ	13
▁नैनीताल	13
▁अन्	13
▁द्वारका	13
पोल	13
▁कष्ट	13
▁विली	13
▁होप	13
▁धोखे	13
▁जज	13
▁विसर्जन	13
▁मीठी	13
बंबई	13
▁बागवानी	13
▁कुट	13
स्का	13
▁गीगा	13
▁नाल	13
▁सहकर्म	13
▁एलबम	13
▁परमार	13
▁मैकेनिक	13
▁लेवी	13
मल्ला	13
▁दृष्टिबाधित	13
▁देशद्रोह	13
भुज	13
डर	13
▁हथिया	13
▁लीं	13
▁शर्म	13
▁रखेंगे	13
▁आइजोल	13
▁क्रो	13
▁मुर्गी	13
▁डोंग	13
▁बख्त	13
पुनर्जनन	13
▁जैसलमेर	13
▁मूर्तिकार	13
▁जातियाँ	13
▁अधीनस्थ	13
▁सांद्र	13
▁समझे	13
▁तिर्यक	13
फिट	13
भंग	13
▁बेलगाम	13
▁जर	13
हल	13
▁इंडियानापोलिस	13
ेब्रो	13
▁स्केट्स	13
▁डील	13
ीश्वर	13
▁बेरहम	13
फेर	13
सूद	13
▁संप्रदायों	13
▁सहिष्णु	13
▁धोना	13
▁बेहोश	13
▁मनोचिकित्स	13
▁खाती	13
▁दागे	13
▁निदेशालय	13
▁अम	13
▁पंचायतें	13
▁ब्रज	13
▁पाऊंगा	13
▁जन्य	13
▁दीक्षा	13
▁पोर्टल	13
कार्ट	13
▁पूंछ	13
पुरा	13
▁नागार्जुन	13
▁तिरछ	13
▁नाला	13
▁पंचोली	13
▁ईडन	13
▁बायर	13
▁तिकड़	13
ग्राउंड	13
▁संवेदना	13
▁प्रचल	13
▁विज़	13
▁ब्रेन	13
▁चटर्जी	13
▁निपट	13
▁टोकन	13
ग्रंथि	13
▁नस	13
टू	13
▁अभिया	13
ंत्रिकी	13
▁उत्प्रेर	13
▁त्रिशूर	13
ाक	13
मेरु	13
़ी	13
▁सांख्य	13
▁अव्यवस्था	13
वाइड	13
न्न	13
▁सोर्स	13
लुक	13
▁सैंड	13
▁फगवा	13
▁झुका	13
निष्कासन	13
▁प्रतिलेख	13
▁कॉनकॉर्ड	13
▁सजीव	13
गाती	13
▁प्ल	13
▁फ़्लायर	13
▁तुर्कमेन	13
▁चलन	13
▁पर्यवेक्ष	13
▁तीरंदाज़	13
उद्देश	13
म्प्टन	13
▁फीनिक्स	13
▁चाँदी	13
▁होंडा	13
ियाना	13
▁पेटा	13
▁बख्श	13
मुरा	13
▁लाभा	13
▁दांड	13
▁भ्रमण	13
▁नाइट्स	13
▁पुनर्स्थाप	13
▁पर्स	13
▁घुरि	13
▁कुकर	13
▁हिंदु	13
▁अधिकांशत	13
▁इमेज	13
▁राजाराज	13
्त्य	13
▁अब्दुल्ला	13
▁सिया	13
▁रामपाल	13
िटिस	13
नाक	13
▁एल्यूमीनियम	13
▁मुद्राएं	13
्राइम	13
▁चमड़ा	13
जनित	13
्ता	13
▁फैक्ट्	13
▁बद	13
निधि	13
▁वर्ड	13
▁सुपरवाइज	13
▁मंगेतर	13
संप्रदाय	13
▁अल्फ्रेड	13
▁रॉकी	13
▁सारणी	13
▁नौकाएँ	13
▁बिकीं	13
▁अरवा	13
टला	13
▁एंड्रिया	13
▁वाट	13
▁बैठकर	13
▁बोस्निया	13
फ़ोन	13
रिज़ोन	13
स्क्रिप्ट	13
▁ग्रेनेड	13
▁मनोभ्रंश	13
▁मेडल	13
▁चिता	13
▁ओलंपियाड	13
▁सिग	13
▁कार्बोनेट	13
▁जगात	13
▁तख्त	13
जुली	13
▁टैबलेट	13
रबंद	13
▁फ़ैशन	13
X	13
▁सुसंगत	13
▁बगदाद	13
पक्ष	13
ोत्साहित	13
▁इस्ता	13
▁मालवाहक	13
▁बदनाम	13
▁फ़े	13
ग्रह	13
▁सुमन	13
▁बहामा	13
▁दाब	13
विष्णु	13
▁मेक	13
पांडिचेरी	13
सवम	13
▁पूर्णांक	13
लेज़र	13
▁गेंदबाज़	13
▁मोर्चा	13
▁दहन	13
▁राजसी	13
▁गोमांस	13
विद्यार्थी	13
▁टीचर	13
▁कैर	13
▁सिल	13
▁राघव	13
▁विकृतिय	13
ऑर्डर	13
▁कंट्रोल	13
▁चांग	13
▁जेम	13
▁शेफ	13
▁भुज	13
▁खेलीं	13
लिस	13
बेक	13
▁घुसपैठ	13
▁पक्षपात	13
▁अल्मे	13
▁तेंदुए	13
▁ट्र	13
▁सैन्यबल	13
▁इवान	13
ेह	13
▁परिण	13
▁ट्रंक	13
काठिन्य	13
▁घनी	13
▁नेल्सन	13
...	13
▁ओशन	13
▁लिंडा	13
▁सोफिय	13
फोर्स	13
ँग	13
▁वाइस	13
लिपियों	13
िलाई	13
फिगर	13
▁जूड	13
बंदी	13
ारियो	13
▁दैव	13
▁टग	13
▁संयुग्म	13
▁भु	13
प्रा	13
▁स्टैन	13
▁बढ़ाई	13
▁दैत्य	13
प्रभा	13
▁मोज़	13
▁जया	13
▁रंजन	13
मारियो	13
▁गोरे	13
▁गॉथिक	13
▁अंतःशिरा	13
▁नाभि	13
▁गिफ़्ट	13
▁सदाशिव	13
▁ग्रै	13
▁बुरुं	13
▁जमींदार	13
▁एक्सेल	13
मीर	13
▁हिमस्खलन	13
▁अंगूर	13
▁विल्स	13
▁मर्क	13
▁बर्कले	13
▁रामचंद्र	13
▁विस्थापन	13
निष्ठ	13
गाई	13
▁अंडकोष	13
▁सांचे	13
▁निरावल	13
▁दुर्ग	13
▁माँगी	13
▁आशूरा	13
▁खंब	13
नाटो	13
▁यथार्थवादी	13
▁छूत	13
▁पुलों	13
खान	13
▁संगणक	13
ालय	13
▁पॉलिटेक्निक	13
▁सभरवाल	13
▁बारूद	13
▁तिर	13
▁रागा	13
▁चावला	12
ैल	12
▁संक्षेप	12
▁ज़मोरिन	12
▁प्राइमर	12
▁चपटे	12
▁कांटे	12
▁बोर्डिंग	12
▁पिरामिड	12
शॉट्स	12
▁तदनुसार	12
▁फ़िल्माया	12
स्तान	12
▁गर्ल	12
▁अटक	12
िकता	12
▁सांडा	12
▁रच	12
त्रेय	12
सौर	12
विरोध	12
मथ	12
▁वैस्टर्न	12
▁पहेली	12
▁फोटोग्राफर	12
▁टार्	12
ुलिन	12
लक्ष्य	12
▁कमाए	12
▁सुलझा	12
▁कल्पनाशील	12
वांडो	12
सेक्स	12
▁पॉक	12
न्सास	12
▁अमी	12
▁भों	12
नल	12
▁रीस	12
▁स्ट्रिप	12
▁ओबामा	12
▁प्रत्यय	12
रोज़गार	12
▁कॉर्क	12
▁सौंपे	12
मिलन	12
▁परहेज	12
▁कीथ	12
▁एल्टन	12
आधुनिक	12
▁पाव	12
विज्ञान	12
▁किट	12
▁दामाद	12
्रे	12
ुल्लू	12
▁उठती	12
▁टोल	12
▁महि	12
केंद्रित	12
▁जीवनशैली	12
मोर	12
मादा	12
▁मुर्शिदाबाद	12
▁लेआउट	12
▁अखंड	12
▁समयावधि	12
▁नर्तकी	12
▁कुलोत्तुंग	12
▁हरिदास	12
▁डेवलपमेंट	12
जू	12
▁मुकुंद	12
▁ऑस्टिन	12
▁रम	12
▁पार्षद	12
▁कमिश्नर	12
▁उपराज्यपाल	12
▁कट्टर	12
▁सुपारी	12
दत्त	12
▁पालक्काड़	12
▁पुटिका	12
बु	12
▁प्रणा	12
▁निषेध	12
ध्रुवी	12
▁डिज़्नी	12
▁खजाना	12
क्रियाओं	12
ाएँगे	12
▁खंडगिर	12
▁क्रोनो	12
िज़्म	12
▁कार्टून	12
▁प्रयागराज	12
▁बर्नार्ड	12
▁कुरुक्षेत्र	12
▁एड्रियान	12
▁ब्रि	12
▁कॉपी	12
▁हैरिस	12
िबल	12
▁टूथपेस्ट	12
▁बीकानेर	12
ाइमर	12
▁प्रतिक्रियाएँ	12
डविन	12
▁व्याप्त	12
▁डिब्ब	12
▁पिस्तौल	12
▁फ्राय	12
धावा	12
▁टिप्पणीकार	12
▁सूप	12
▁कैच	12
▁हंटर	12
▁मंगोलिया	12
अजेय	12
वर्ल्ड	12
ुषार	12
▁शत्रुता	12
▁ज़िप	12
▁आप्रवासन	12
▁कटि	12
▁पांडुलिपि	12
▁सच्चा	12
▁डू	12
▁गवाहों	12
▁आइलैंडर	12
ज़े	12
▁पिंडली	12
▁आरोपी	12
▁सैरगाह	12
▁पक्षधर	12
▁सृष्टि	12
▁पंट	12
▁शैंकबोन	12
बॉटन	12
▁यो	12
▁राजतंत्र	12
ोई	12
▁सेव	12
▁कालिदास	12
ंक	12
▁कालूग	12
▁गर्भधारण	12
कल्प	12
▁आभासी	12
▁आवश्यकताएँ	12
▁स्प	12
ुम	12
▁हेली	12
क्टर	12
▁छात्रवृत्ति	12
▁टो	12
▁जलाए	12
▁सुव्यवस्थ	12
▁ढल	12
▁शंख	12
▁स्प्रिंट	12
▁सिम्फनी	12
ग्रन्थि	12
▁श्रीमती	12
▁मुहर्रम	12
झूठा	12
▁अनैतिक	12
▁गिरी	12
▁बैरल	12
▁रुके	12
▁हफ़्त	12
▁नंबरों	12
▁नुस्ख	12
लेखक	12
ाधार	12
न्नूर	12
हिट	12
▁गर्भनिरोध	12
राड	12
▁इलेक्ट्रॉन	12
▁विक्षोभ	12
▁ऊँचाइय	12
▁कोयम्बटूर	12
▁ताओ	12
▁अनाथ	12
▁प्राकृत	12
▁सुश्र	12
ब्रुक	12
▁काठी	12
▁विवर्तनिक	12
▁सिलसिले	12
▁लिस्बन	12
▁क्रूज़	12
▁क्रिटिक	12
▁मुँहास	12
▁खरीददार	12
कार्बन	12
▁आइवरी	12
सप्तमी	12
▁रियाल	12
▁धा	12
▁फेडर	12
ीट्रिक	12
▁क्रीड़ा	12
IV	12
▁कृष्णदेवराय	12
जोल	12
▁पत्तियों	12
▁स्प्रे	12
▁रेडर	12
▁लौटन	12
▁झेल	12
▁उद्धरण	12
▁फ़िरोज़	12
▁शोथज	12
▁मोहाली	12
▁एयरपोर्ट	12
▁डंड	12
▁न्यूटन	12
▁उत्सुकता	12
ोदय	12
▁मंडला	12
▁पांडुलिपियों	12
▁मुल	12
म्बल	12
▁चालन	12
दिसंबर	12
प्रेरित	12
ट्टम	12
▁बुज़ुर्ग	12
न्नी	12
▁हास	12
सितंबर	12
▁नॉर्वेजिय	12
▁आवर्धन	12
▁भाद्र	12
▁ऑड	12
▁समुच्चय	12
▁समरूप	12
▁शीश	12
टूट	12
▁माघी	12
▁जीनप्ररूप	12
▁मैप	12
▁झूठी	12
▁डुबो	12
▁मुड़े	12
▁खानाबदोश	12
पो	12
▁बेथ	12
▁सफ़ाई	12
पोर्टफ	12
ोलियो	12
ऑक्साइड	12
▁ड्यू	12
▁एस्प	12
फूला	12
▁अनानास	12
सला	12
राज़ी	12
ोंग	12
▁स्केल	12
गेरी	12
हिस्टामाइन	12
▁सेपाक	12
ुरत	12
▁लीज़	12
▁लियोने	12
▁आवाज़ें	12
▁बृहद	12
नूर	12
▁चन्द्र	12
▁लम्बा	12
▁बौछार	12
▁मन्नार	12
डिपार्टमेंट	12
मुस्लिम	12
▁असहिष्णु	12
▁गिरना	12
▁खेलेगा	12
कुडी	12
▁मोतियाबिंद	12
मुसलमानों	12
▁ग्लास	12
कॉर्न	12
▁नाओ	12
थवा	12
▁एथलीटों	12
▁ट्रांसफ	12
▁चीफ	12
्स्ट्रा	12
सीसी	12
▁परेशानियों	12
▁मेटा	12
ैनिक	12
▁अपद	12
ट्टुवन	12
लैंगिक	12
▁खींची	12
▁निर्गम	12
▁भद्द	12
▁इत्र	12
▁पद्मा	12
▁मशीनों	12
▁उपन्यासों	12
▁रेश	12
▁आज्ञा	12
▁स्वप्न	12
▁परिगल	12
▁मुराद	12
ीनी	12
▁इल	12
▁रजनी	12
▁डिम्ब	12
▁कुन	12
▁आंक	12
▁छतों	12
्रिया	12
▁मसालेदार	12
▁उबकाई	12
जिन	12
▁प्रह	12
▁मिडलैंड	12
▁मित्रों	12
▁ज्यो	12
गेंद	12
ुकी	12
भद्र	12
▁पुष्प	12
्रेस	12
▁परिसरों	12
▁चलकर	12
बाओ	12
▁मैग्नस	12
ओवर	12
शर्ते	12
▁कूड़े	12
▁सुहास	12
कई	12
केरल	12
दिल	12
ताजी	12
▁हिस्पैनिक	12
▁दानव	12
▁मेसन	12
▁पिचर	12
जित्सु	12
संरक्षक	12
▁कस्टम	12
ॉक	12
कुरा	12
▁कुंडल	12
▁डरते	12
▁गेर	12
▁ट्वेंटी	12
▁विश्वनाथ	12
▁बूढ़ा	12
जब	12
▁उल्ला	12
दड़	12
खयाल	12
▁पाचन	12
ीसिया	12
ब्रह्मपुत्र	12
फ्लायर्स	12
▁सारस	12
▁खोलत	12
▁लिली	12
▁बजर	12
टि	12
▁रात्रिभोज	12
▁बेली	12
▁अपतटीय	12
▁भीमा	12
▁रामनाथ	12
कोस	12
▁चिप्स	12
दगार	12
▁आएंगे	12
न्या	12
▁सदमा	12
▁डब्लू	12
▁धर्मनिरपेक्षता	12
▁नुब्रा	12
▁मुआवज	12
चालक	12
फॉरेस्ट	12
▁पुरातत्वविद	12
▁वराह	12
▁बाल्टी	12
▁कोल्ट्स	12
▁शीतपित्त	12
▁एरिजोना	12
▁शरीफ	12
▁चाप	12
▁ट्रायल	12
▁इलिनोय	12
रिवाज	12
ागुआ	12
▁खिंच	12
▁स्टॉर्म	12
एंगे	12
▁मॉर्गन	12
▁चक्रक	12
लेखन	12
▁तिरुनेलवेली	12
▁स्टेजिंग	12
▁मोज़े	12
▁द्वंद्व	12
्टु	12
▁ऑर्डरों	12
▁बहार	12
▁टकराया	12
▁फ़ायरफ़ॉक्स	12
▁मयूर	12
▁कसरत	12
कपाल	12
नवमी	12
▁श्रृंगार	12
मंत्रण	12
▁मुखौटा	12
लीटर	12
मुख्य	12
▁सांची	12
▁आशीष	12
▁ऑपरेटर	12
▁डॉट	12
▁तराना	12
▁उपा	12
▁केशव	12
▁मिया	12
▁आशुरा	12
ायर	12
▁विदिशा	12
ग्लोबिन	12
▁इरफ	12
▁घंटी	12
▁पैसिफिक	12
पट्टिनम	12
▁त्रिची	12
▁कंबल	12
▁परिचारक	12
▁उभयचर	12
▁सुनहरे	12
योजित	12
▁अंटार्कटिक	12
▁पिंक	12
ेसर	12
ंबुल	12
▁पाले	12
▁रचे	12
▁आरेख	12
▁अलीगढ़	12
पड़ोस	12
▁द्विभाषी	12
शुष्क	12
▁लोड	12
▁रोथ	12
▁बल्ब	12
▁संग्राहक	12
हुआ	12
▁फ्रैंकफर्ट	12
ंटू	12
हल्ला	12
▁काँग	12
स्मृति	12
लगंड	12
▁ऐशलैंड	12
▁बोलता	12
सूर्य	12
▁घुड़सवारी	12
▁कुचि	12
पुड़ी	12
▁ख़ु	12
▁क्षार	12
▁मनोहर	12
▁निकाली	12
▁सेक्टर	12
▁उदासी	12
फिल	12
▁शस्त्र	12
▁मेसी	12
▁सेठ	12
गोंग	12
थम	12
▁जॉब	12
ौ	12
▁कल्कि	12
▁बॉयज़	12
▁मनोविकृति	12
▁डार्क	12
सन्न	12
मेला	12
▁अन्तः	12
▁अपहरणकर्ता	12
▁गोले	12
कुट्टी	12
सेनाध्यक्ष	12
▁लैन	12
सॉफ़्ट	12
कास्ट	12
▁सिखाई	12
रांव	12
आर्य	12
▁व्यवधान	12
▁झलकी	12
▁कन्सास	12
▁एंग्लि	12
▁टेलीग्राफ	12
▁अपरिवर्तनीय	12
▁कत	12
फुल	12
▁गोब	12
▁अफ़ग़ान	12
कुंभ	12
▁गुयाना	12
▁पुत्री	12
▁चंडी	12
▁आनंदमय	12
▁नियामक	12
▁चैरिटी	12
ीना	12
▁एयरो	12
स्क्रीन	12
▁अभिलेखागार	12
▁फ़्लोर	12
हाल	12
▁जाऊँ	12
▁जैकब	12
▁मोनाको	12
वो	12
ज़ो	12
शीट	12
▁बैट	12
▁स्तुति	12
▁विशाखापत्तनम	12
ंज	12
नीला	12
नर्जी	12
▁ज़र	12
खाने	12
▁भितर	12
▁कजाकिस्तान	12
▁एडी	12
▁समस्त	12
▁सेल्स	12
ाइल्स	12
्रोले	12
▁पोलियो	12
▁वोन	12
ोत्सव	12
▁गैलन	12
▁चेरी	12
▁अस्थान	12
▁शंघाई	12
पोस्ट	12
▁ट्रकों	12
▁प्रॉप	12
डोर	12
▁शॉ	12
▁चाँद	12
▁बर्मिंघम	12
▁साबुन	12
▁पुकार	12
▁सब्जियाँ	12
▁मुजफ्फर	12
▁रुश	12
▁भेजकर	12
▁घड़े	12
▁मार्ज	12
▁मेहता	12
▁मृद्भांड	12
▁केंटुकी	12
▁अभ्यारण्य	12
▁बायोप	11
▁मोन	11
▁धोया	11
▁नेशन	11
▁चँद्र	11
देह	11
▁आशावाद	11
▁जोगीघोपा	11
्म	11
▁झेलन	11
▁सेबेस्टिय	11
▁नार	11
▁कूदने	11
▁बू	11
▁बैक्ट्रिया	11
दौड़	11
िरुद्ध	11
▁अरु	11
▁कॉन्	11
रत्न	11
कॉर्टिकोस्टेरॉइड	11
सेक	11
▁परिषदों	11
▁लेंट	11
▁ढह	11
मेट्र	11
स्थापित	11
▁जाएंगी	11
▁डेड	11
▁लाभकार	11
▁मिसाइल	11
▁चिल्ला	11
▁अल्ट्रासाउंड	11
▁फोम	11
▁अल्	11
▁संयंत्रों	11
▁बनर्जी	11
बेट	11
फोर	11
▁कवरत्ती	11
▁लहरें	11
ल्लित	11
▁रिपोर्टर	11
▁कैलगरी	11
▁कम्युनिकेशंस	11
▁ज्वलनशील	11
▁टांक	11
▁शब्दांश	11
लॉन्ग	11
▁निक्स	11
▁अगत्ती	11
गद्दी	11
ल्हार	11
▁टोप	11
▁प्लूटार्क	11
▁प्रतिवाद	11
ाही	11
▁संयम	11
▁रिबन	11
▁इंसानों	11
▁शिक्षि	11
▁उल्टा	11
विंग	11
▁होशंगाबाद	11
▁टॉक	11
ीयन	11
▁गाँठ	11
बंध	11
शंस	11
▁बजाई	11
स्वाल	11
▁मू	11
▁शिक्षाविद	11
▁भट्टी	11
▁संरेख	11
▁हत्यारे	11
्टन	11
▁कीड़े	11
ेजा	11
▁नह	11
▁तपस्वियों	11
▁ज़ु	11
▁गुरिल्ला	11
▁आलस	11
▁भालू	11
▁गीले	11
▁रखिए	11
▁सैर	11
▁गिरि	11
▁क्वॉलि	11
▁कॉलिन	11
▁आर्कटिक	11
समुद्र	11
▁कोंकणी	11
▁असेम्ब	11
लिंगी	11
▁चाची	11
▁निरस्त्र	11
सेफ	11
▁साइबेरिया	11
बर्ड	11
▁क्वालीफा	11
▁ताना	11
▁निर	11
▁बेने	11
▁उतरे	11
हल्ली	11
▁फेस	11
▁होलो	11
▁मुस्कुरात	11
शॉप	11
▁ईटा	11
▁फिसलन	11
▁नीरा	11
▁पंत	11
▁एंटीहिस्टामाइन	11
▁अपग्रेड	11
िंडा	11
▁मगर	11
राइट	11
▁ओवेन	11
▁प्लीहा	11
पत्तन	11
▁त्यागराज	11
ॉलिडे	11
▁एम्स	11
चारिक	11
गिर	11
▁कॉन्स्टेंटिनो	11
▁अंजन	11
मेरिट	11
▁गगन	11
▁फिश	11
▁मुस्कुरा	11
िंक	11
ाह	11
▁तमाशा	11
▁स्टॉल	11
वार्ड	11
▁नं	11
पीछे	11
▁कोस्टर	11
▁ब्राह्मणवाद	11
▁पासवर्ड	11
▁टेरा	11
▁सुर्खिय	11
न्ट	11
▁क्लियर	11
▁कोणार्क	11
जीवी	11
▁आर्या	11
दयालु	11
▁फटकार	11
ंधू	11
▁क्षीण	11
▁ठिकाने	11
शान	11
▁मरीना	11
▁कीपर	11
प्रतिदिन	11
▁देवा	11
▁लोटस	11
▁वास्को	11
▁चौकोर	11
▁लौ	11
▁नाज़ुक	11
▁पोंग	11
▁आवाजें	11
नामा	11
प्पड़	11
▁वेगा	11
▁क्रूस	11
▁लोकार्प	11
▁यूरेशिय	11
▁आईटी	11
रिंकू	11
▁कौल	11
वेज़	11
▁तबला	11
▁मेकर	11
▁नींबू	11
शॉपर	11
▁प्रकार्य	11
▁विज्ञप्ति	11
▁एरी	11
▁दुःख	11
फ़ा	11
▁रोज़म	11
▁लोम	11
▁हिरन	11
ावी	11
बिल्डिंग	11
▁चित्ती	11
▁नवाज	11
▁रक्तपात	11
▁तालू	11
शांक	11
▁बं	11
▁सीडर	11
▁राजन	11
षभनाथ	11
▁स्विच	11
▁मित्रता	11
▁मैनिटोबा	11
सेसे	11
▁आध्यात्मिकता	11
▁स्टोन	11
▁जागृत	11
▁जठर	11
▁नलसाज	11
क्यूम	11
▁मार्	11
▁पिल	11
▁मोटवानी	11
डोर्फ	11
▁एवियन	11
▁ब्रश	11
ामाइन	11
बस्टर	11
यामा	11
बड़ी	11
किंग	11
बूटियाँ	11
▁विरोधाभास	11
▁मार्व	11
▁अफ	11
कैट	11
▁स्क्रब	11
▁सुशांत	11
ेना	11
▁श्वास	11
▁गम	11
जारा	11
▁बुंदेल	11
ृहदांत्र	11
गायक	11
▁जुए	11
▁प्यारे	11
▁एस्ट्रोज	11
ोमा	11
ंबा	11
पॉलिट	11
स्ता	11
त्सु	11
▁नर्सिंग	11
दोषपूर्ण	11
▁आंधी	11
▁साबर	11
बरी	11
▁भागव	11
सैनिक	11
▁कलाबाज	11
▁मार्क्स	11
पट	11
▁निशानेबाज़	11
▁बीबीसी	11
▁कैंसिल	11
▁श्राप	11
▁चलचित्रों	11
्सग	11
िविंग	11
बाधाएँ	11
▁स्याह	11
दर्	11
▁उबल	11
कांड	11
▁हैम्बर्ग	11
ज्ञ	11
▁घूंसे	11
▁एल्डर	11
▁पुनर्प्राप्त	11
दौलत	11
▁चुपचाप	11
▁पाय	11
फेन	11
प्राप्त	11
▁सिंधिया	11
्व	11
अभिव्यंजक	11
र्थक	11
▁क़ीमत	11
▁हाइड्रो	11
▁पूछत	11
▁झेलम	11
पॉलिश	11
▁कर्मनाशा	11
▁अर्मेनियाई	11
▁श्यामा	11
▁जरा	11
▁सुजाता	11
▁पदोन्नति	11
▁फुटबॉलर	11
▁अस्वीकृति	11
▁सहिष्णुता	11
▁सिम्बा	11
▁फीताकृमि	11
वस्त्र	11
रक्यूल	11
▁कंद	11
चालन	11
साइक्लि	11
▁प्याल	11
▁स्वशासन	11
▁कांग	11
▁चढ़ात	11
▁हाफ	11
▁प्रणालियां	11
▁रचनाकार	11
▁कैड	11
▁अपर	11
कॉमर्	11
िपथ	11
▁बहा	11
▁कॉलिन्स	11
▁चार्जर	11
जेल	11
▁वागड़	11
▁चिन्ना	11
▁आइरि	11
▁ऑडिट	11
▁कबूतर	11
सु	11
▁पनामा	11
▁थॉम्पसन	11
▁डीप	11
▁सक्से	11
▁ताँबे	11
▁पाकर	11
▁एस्ट	11
स्टॉक	11
▁धुंध	11
▁गुस्ता	11
▁चेंग	11
▁क्लेमें	11
ीपुरम	11
▁आएँ	11
▁आक्रोश	11
▁रामकृष्ण	11
▁नॉर्थवेस्ट	11
ाउंट	11
▁अरण्य	11
▁आहुति	11
अंधेरा	11
▁विसंगतिय	11
वेद	11
लिसा	11
▁वानिकी	11
टॉड	11
▁रामस	11
▁निर्देशिका	11
▁श्रमण	11
▁हनुम	11
बहनों	11
मुंडा	11
लपुर	11
सामाजिक	11
▁छान	11
▁कनेक्ट	11
▁उल्लू	11
▁मलबा	11
▁काजू	11
कलाकार	11
▁डिज्नी	11
नहावर	11
लुगु	11
▁रोन	11
▁राज्यपालों	11
▁मेघना	11
स्टिक	11
▁गिलास	11
▁ग्रिड	11
मर्श	11
▁डैलस	11
▁रायपुर	11
▁शयन	11
▁बिताई	11
▁फॉर्च्यून	11
▁कॉर्	11
▁एंटीवायरस	11
▁रिज़	11
▁धर्मग्रंथ	11
जय	11
ोम	11
▁मोटरमार्ग	11
ब्र	11
▁जेड	11
▁वृंदा	11
▁कैप	11
▁अर्नेस्ट	11
▁मिरर	11
▁मस	11
▁वॉली	11
▁मैसेडोनिया	11
▁उपयोगिताओं	11
▁अप्रभावित	11
▁वंडर	11
शुभ	11
कैंडिडेट्स	11
▁नोएडा	11
▁प्रतिध्वनि	11
▁गोंडवाना	11
कार्य	11
▁एम्बुलेंस	11
▁नुकील	11
▁पख्तूनख्वा	11
सरी	11
▁आतिशबाज	11
ियाई	11
भ्रमण	11
▁पर्सन	11
▁यमन	11
▁ड्रैक	11
▁ग्राफ	11
पु	11
▁ओलंपियन	11
▁रीमिक्स	11
▁शिरस्त्राण	11
म्प्लेक्स	11
▁भगवद	11
▁पेचीद	11
शेष	11
▁शुद्धता	11
▁प्राइवे	11
ष्ठी	11
▁वेधशाला	11
▁असफलता	11
▁प्रवीण	11
▁प्रिंसिप	11
▁अपेंडिक्स	11
लेवन	11
▁बेचैन	11
▁पर्	11
▁मर्	11
टाइन	11
▁नारीवाद	11
उपश्रेणियों	11
चेस्टर	11
▁कांगो	11
▁बर्कल	11
▁एडवर्ड्स	11
युग	11
▁बिल्ड	11
लाप	11
▁अवीव	11
▁जुर्मान	11
▁गुंडे	11
वृत्त	11
स्थायी	11
▁टर्क	11
जोन	11
▁विनय	11
त्रा	11
ुलु	11
▁कुट्टा	11
▁फिसल	11
▁ओट	11
▁चु	11
शियारा	11
मेड	11
▁आयातित	11
▁तीख	11
▁चलो	11
▁उग	11
▁तख़्त	11
▁फ़िल्में	11
▁हाउसबोट	11
▁सोंग	11
पेन	11
▁टर	11
▁गार	11
▁क्लीनिक	11
ोष्ण	11
▁शॉन	11
ोरी	11
▁मुड़त	11
▁सत्तर	11
▁बचाए	11
▁टैम्पा	11
▁कल्पित	11
▁संजीन	11
▁बालन	11
▁समझौतों	11
ाओ	11
▁नजदीकी	11
▁नूरजहां	11
▁माँगा	11
▁फ़ि	11
▁प्रतिवर्त	11
▁हत्थ	11
▁विश्लेषक	11
▁दाउद	11
▁दफना	11
▁तेरा	11
▁सॉस	11
▁मायूस	11
ोरर	11
▁विशेषण	11
▁त्रिवेंद्रम	11
घट	11
▁पार्क्स	11
सुबह	11
▁एवरे	11
▁पहनकर	11
▁त्रिनिदाद	11
इयान	11
▁खींचे	11
▁नूतन	11
▁ग्रेड	11
▁कॉन्सर्ट	11
▁नवागंतुक	11
काष्ठ	11
▁कम्पन	11
गुट्टा	11
▁मांड	11
▁मैम	11
मथिट्टा	11
▁लै	11
ाएगा	11
▁टाई	11
▁कहावत	11
▁कॉम	11
▁मेस	11
▁महानंद	11
▁उँगल	11
▁सावित्री	11
▁नारी	11
फ़ोर्ड	11
▁गिलहर	11
▁कोहिनूर	11
▁संचलन	11
▁संपीड़	11
लाद	11
▁सोया	11
▁बेशक	11
▁भेष	11
▁दुर्भावना	11
▁कैप्स	11
▁फ़र्श	11
▁भद्रा	11
▁टनल	11
मिला	11
ोलापुर	11
▁क्लारा	11
▁अखबारों	11
▁फिडे	11
▁अल्पाहार	11
ादेशिक	11
▁चेतन	11
▁खैर	11
▁आज़मा	11
▁आइल	11
▁सेंचुरी	11
▁आएँगे	11
▁प्रोसेस	11
▁माणिक्य	11
▁बंट	11
▁शिला	11
शब्बू	11
▁भट	11
▁यज्ञोपवीत	11
मुवक्किल	11
▁कैसी	11
▁बिक्रीकर्ता	11
्यांग	11
▁अग्नाशय	11
▁जाओ	11
लिगा	11
▁क्ले	11
▁सेटर	11
▁अभिकल्प	11
नदी	11
▁बेंटन	11
▁पियर्स	11
▁निषाद	11
▁शुक्ला	11
मोटे	11
▁अकेल	11
सियन	11
ंजीत	11
▁बैच	11
द्वीप	11
▁रैडक्लिफ	11
नन	11
▁कासरगोड	11
बाहु	11
▁कास्त्रो	11
▁अय	11
▁आयर	11
▁बटु	11
▁जागते	11
▁स्थिरक	11
▁नीलगिरि	11
▁गवर्न	11
सज्जा	11
▁अक्षतन्तु	11
▁पायल	11
▁धीरज	11
ॉय	11
▁वज्र	11
परिवार	11
▁एलेक्सा	11
▁सबक	11
▁गज़ब	11
▁प्रबंधकों	11
नागरिक	11
▁रोमा	11
आपको	11
घन	11
▁ब्रुकलिन	11
▁रूचि	11
▁तहखाने	11
एड्स	11
्होंने	11
▁बक्से	11
▁गिना	11
▁फिल	11
ाइल	11
▁अले	11
▁बरमूडा	11
माउंट	11
▁उत्पल	11
▁मंथन	11
▁टेक्नोलॉजी	11
्सन	11
▁मदुराई	11
बिया	11
मृदा	11
▁कॉफ़ी	11
ामल	11
▁चित्त	11
▁जैक्स	11
▁डिवाइस	11
▁ऑफिसर	11
▁एप्	11
▁पपड़ी	11
▁कॉम्प	11
▁इराद	11
▁अपक्षय	11
▁मिड	11
▁फ़ोर्ट	11
▁भास्कर	11
▁माँगत	11
▁इंटरएक्टिव	11
▁लॉरेन	11
मन्ना	11
क्त	11
▁विधायिका	11
▁मूड	11
▁कांचा	11
▁होलकर	11
▁दरकिनार	11
▁मिडिल	11
▁मोंटे	11
▁भुख	11
▁चाओ	11
संस्कृत	11
▁रेबेका	11
▁लीवर	11
▁साधुओं	11
▁गोटा	11
▁नगरों	11
हरी	11
षिकेश	11
▁चिल्ड्रन	11
▁हिल्टन	11
य्या	11
▁निव	11
▁पीपुल	11
▁तिरुव	11
▁क्रेन	11
▁लिथुआनिया	11
▁प्राधिकार	11
▁नैसकार	11
▁यौ	11
टिया	11
र्टी	11
टोरिया	11
▁अनाम	11
▁सीमाएं	11
फूल	11
▁प्रवचन	11
▁आदिवासियों	11
▁लुटेर	11
▁एस्बेस्ट	11
बेश	11
▁अलुपा	11
▁कुवैत	11
▁अलंकार	11
घा	11
▁बार्ट	11
हाबो	10
▁ईशा	10
ॉल्ट	10
▁नज़रअंदाज	10
▁वेधा	10
▁कुंडलिनी	10
▁वाक	10
रॉबिन	10
▁मानस	10
▁वृक्षारोपण	10
▁ज़ेब	10
आरा	10
विजेता	10
▁स्मॉल	10
▁अनूपपुर	10
▁स्टु	10
अर्ट	10
हरे	10
▁प्याज	10
▁बोधिसत्व	10
▁हमीद	10
फ्लाई	10
धन	10
▁पूर्णता	10
चीनी	10
▁लुस	10
डिक्शन	10
▁वीरतापूर्ण	10
▁डै	10
क्षरण	10
▁ज़ाहिर	10
साइट	10
▁डेज़	10
▁अर्न	10
▁पेन्सिलवेनिया	10
▁सब्जी	10
ाइक्	10
▁उलझ	10
▁क्लेम	10
इडिया	10
▁जांग	10
िली	10
वासा	10
▁मंडलों	10
ज़ाकि	10
▁एनएच	10
▁मोरन	10
▁दिक्कत	10
▁यकृत्	10
▁कार्ला	10
▁प्रोफ़ाइल	10
▁पक्क	10
▁ग्रेव	10
▁महासचिव	10
▁गेर्स	10
▁घटाने	10
प्चा	10
▁मैकमोहन	10
न्द्र	10
शर्ट	10
▁विराज	10
▁टैन	10
▁गोता	10
▁गंज	10
▁ड्रोन	10
▁पोक	10
▁शहरयार	10
ल्श	10
▁समझी	10
▁शिहाबुद	10
▁राजकोष	10
▁रेवेन्	10
▁हारा	10
▁सुनते	10
▁हुगली	10
िंदर	10
▁प्रधानता	10
▁आसिफ	10
▁वाहिनी	10
▁व्याप्ति	10
▁पत्रक	10
▁लीक	10
ठी	10
▁बॉलिंग	10
▁औजारों	10
▁संसाध	10
▁सिलसिल	10
डेक्स	10
▁ओडिय	10
्रिज	10
▁क़ुतुब	10
▁रणथंभ	10
▁कमला	10
▁एश	10
▁आभास	10
काय	10
▁निगलन	10
ार्थ	10
ोडेन	10
▁लियो	10
▁नकार	10
▁अन्वेषण	10
▁चैत	10
▁प्लास	10
▁पखवाड़	10
▁मोड़ने	10
▁उपन्यासकार	10
▁गुरुंग	10
▁चक्क	10
▁प्रखंड	10
▁द्वंद्वयुद्ध	10
▁लामा	10
▁सुत्त	10
▁कुशन	10
▁मुखपृष्ठ	10
▁अभिमान	10
▁नजदीक	10
▁कार्यप्रणाल	10
मीडिया	10
रिंग	10
▁ओरिएंट	10
ेयरी	10
▁हत्यार	10
रुक	10
▁एंजाइम	10
▁स्नायु	10
▁भूरा	10
▁शर्मि	10
▁स्टंप	10
▁कदंबों	10
▁दोआब	10
▁स्टीन	10
संचालित	10
ोरल	10
▁जीनोम	10
प्रचलित	10
▁पाउडर	10
▁सट्टेबाज	10
▁कॉर्ब	10
▁उदारवाद	10
कोह	10
लिंक	10
▁चम्मच	10
वू	10
▁ईथर	10
▁कुंवार	10
▁खलीफा	10
▁कलम	10
▁डिस्को	10
▁मचान	10
ोनिक	10
्ब	10
▁बताएगा	10
▁मंजु	10
▁मुश	10
्रफ	10
▁पखा	10
ारजी	10
▁क्रोम	10
बेदी	10
िनावा	10
फ़्ट	10
▁बग	10
▁नोर्ड	10
बोट	10
▁असरानी	10
प्रांत	10
▁वृक्क	10
▁मिश्र	10
▁छिड़काव	10
▁मवेशी	10
▁दुग्ध	10
▁वृषभ	10
बोर	10
▁मजे	10
▁चुम्बक	10
▁भरें	10
ावलोकन	10
▁रिचार्ज	10
▁असं	10
वेश	10
शियल	10
▁भूगर्भ	10
▁विश्वकर्मा	10
नीत	10
▁उद्यमों	10
▁अनुवादक	10
ब्रिज	10
▁बक्स	10
बेल	10
▁टप्पा	10
▁बाहुबल	10
▁इंडि	10
▁क्वांट	10
▁टॉयल	10
▁लाओ	10
▁ज़ेन	10
▁रोहतास	10
मुसलमान	10
▁लड़ाइय	10
▁लिपट	10
▁घुमाया	10
▁किंवदंतियाँ	10
▁पापुआ	10
▁परम्परा	10
▁संयोज	10
गैस	10
कन्या	10
▁मर्सिय	10
▁मैकल	10
ाऊद	10
▁बालासो	10
सलीन	10
▁झोंक	10
नियन	10
▁ऑनर	10
▁हॉक	10
ोल्ड	10
▁ढुलाई	10
ंडाणु	10
▁विसंगत	10
▁गार्जियन	10
द्य	10
▁संग्रहण	10
▁गुरुग्राम	10
आधार	10
▁थ्री	10
हू	10
▁सेहत	10
▁लेप	10
▁कदर	10
▁वेव	10
▁रफ़ी	10
▁मिस्त्री	10
▁रिप	10
▁नरसिंहवर्म	10
▁फ्रेंड्स	10
▁गाज	10
▁कलनविधि	10
ावास	10
▁सहभागि	10
▁वेबर	10
▁बिंग	10
▁मीरा	10
▁रांच	10
प्रधान	10
▁रामनगर	10
▁समि	10
म्स	10
▁प्लिन	10
न्	10
▁मोहल्ल	10
▁इमोटिकॉन	10
▁काउ	10
लुंग	10
▁साइकिलिंग	10
▁देउल	10
▁लार्वा	10
▁राजद्रोह	10
रवाद	10
▁सेनगुप्ता	10
▁होंडुरास	10
▁इंफोसिस	10
▁लिबर	10
▁कबाब	10
▁बिरयानी	10
|	10
ष्टाचार	10
▁जानें	10
▁एर	10
बूत	10
▁सियाम	10
व्य	10
▁अंतरंग	10
रोल	10
प्रमुख	10
▁चेकोस्लोवाक	10
▁इसाबेल	10
▁पली	10
▁झाड़	10
▁डॉक्स	10
▁द्रुत	10
▁इंटरन	10
ैशन	10
▁त्रिकोणीय	10
लेपित	10
▁फ़िनलैंड	10
▁चाव	10
▁उदासीन	10
राशि	10
▁सोचे	10
ैमूर	10
ीति	10
▁एले	10
नस	10
▁करीम	10
ोनी	10
▁एलिज़ाबेथ	10
▁चिप्प	10
▁छड़ियाँ	10
▁निगल	10
▁दाता	10
ंगलोर	10
▁ढीला	10
मेय	10
▁मीट	10
वह	10
▁बेंज	10
▁बिड	10
लियन	10
▁रॉड	10
▁बुल्गारिया	10
▁संबद्धता	10
▁पद्धतिय	10
▁ऐनी	10
यमान	10
गुल	10
▁दादर	10
▁तालु	10
▁ब्लॉकर	10
▁नीतियाँ	10
▁एडवेंचर	10
▁समेकन	10
▁अन्याय	10
क्षुण	10
्ण	10
▁काव्य	10
▁टेम	10
▁थोर	10
ाग्वे	10
▁देवन	10
▁भत्ता	10
ड़े	10
मुक्का	10
▁लेक्सिंगटन	10
▁नटराज	10
▁भूखे	10
▁वाल्डन	10
▁लिस्ट	10
फाइड	10
सूत्र	10
▁कुटीर	10
मुल्क	10
▁प्रोटो	10
थवे	10
▁वेलेंसिया	10
▁सूर	10
अच्छी	10
▁मनोविदल	10
क्सिया	10
▁सँभाल	10
▁बर्मी	10
नागा	10
न्त	10
▁जागरूक	10
▁सिंथे	10
ुन	10
▁बटलर	10
▁उत्तरायण	10
▁ब्लेक	10
▁पनडुब्ब	10
▁सममित	10
म्बोर्ग	10
ॉन्ट	10
▁झगड़ा	10
▁एसेक्स	10
▁ठुकरा	10
ाकर	10
कंपी	10
▁फॉरेन	10
र्जियो	10
कड़ों	10
तीस	10
ुरु	10
▁क्षेत्ररक्षक	10
़्त	10
▁लालिम	10
यस	10
▁क्रिस्टीन	10
▁बप्प	10
ोवा	10
▁फहराया	10
एए	10
▁चढ़ाव	10
▁गुज़रता	10
फ़ोर्स	10
ोग	10
सोनिया	10
▁स्टीवर्ट	10
अविश्वास	10
▁स्लै	10
▁लुंड	10
▁चान	10
▁स्पैम	10
▁फ्यूचर	10
गली	10
▁मुनी	10
▁घुम	10
शहादत	10
▁बंग	10
पॉकेट	10
▁अर्टि	10
▁संस्मरण	10
▁स्कैंडिनेविया	10
▁द्वेष	10
▁बधिर	10
टुआ	10
।(	10
▁घोड़	10
▁धड़कन	10
▁फोगाट	10
▁सीने	10
▁जिब्राल्टर	10
▁भोग	10
▁फ्रेंको	10
▁पवई	10
सात	10
▁एकेडमी	10
▁टैलब	10
▁व्लादि	10
▁अमल	10
▁बावज़ूद	10
शेक्सप	10
ुस्	10
▁हॉटस्पॉट	10
पतवार	10
▁बैलेंस	10
▁अरिम्	10
पॉजिट	10
α	10
सोन	10
▁कर्ब	10
▁जनह	10
▁छुए	10
▁साधु	10
▁स्लोवाक	10
▁परिषदें	10
▁न्यूमैन	10
▁मंडी	10
मस	10
▁फ्रंटियर	10
्वेस्ट	10
▁त्रिशूल	10
▁दर्शाई	10
▁ब्रोकर	10
ाजी	10
▁चीतल	10
▁जायंट	10
▁डॉक	10
लाकर	10
▁प्रबुद्ध	10
ग्रेट	10
स्त्रा	10
▁घड़िया	10
अकाउंटेंट	10
▁पापनासम	10
▁करूंगी	10
▁इसराइल	10
▁बेव	10
र्पिल	10
▁ग्रा	10
रु	10
▁ब्रैंड	10
र्पण	10
▁जैस	10
▁विजयन	10
▁एक्सप्ल	10
▁संप्र	10
ोथो	10
ुरिया	10
▁ऊष्मा	10
ेन्स	10
ब्राह्मण	10
ुश	10
▁रूपांकन	10
▁तब्दील	10
रोज़	10
त्तर	10
▁डंक	10
▁ऑल्ट	10
ख्त	10
▁बाइडन	10
▁सिक्स	10
▁ग्रेग	10
▁ट्यूर	10
▁सेफ्ट	10
▁स्प्रिंगफील्ड	10
▁अदि	10
▁निपटार	10
▁कंपाइलर	10
ां	10
गिरि	10
चक्र	10
्खा	10
बिन	10
▁मंचों	10
ोबा	10
जिगर	10
राह	10
▁सिरिल	10
▁तड़क	10
▁आरो	10
▁प्राक	10
नकपुर	10
पार्क	10
▁माधुर्य	10
▁गू	10
घोषणा	10
▁इलिया	10
▁रेप्रज़ेन्टेटिव	10
▁उद्योगपति	10
▁शैवाल	10
▁प्रोफ़	10
▁मिंग	10
▁चतुर्द	10
▁टु	10
ाड़	10
▁मलप्पुरम	10
मणि	10
ैक्स	10
▁घड़ियाँ	10
▁बंजर	10
ाड	10
▁बुल्स	10
▁गान	10
▁विनो	10
▁ऑरलैंडो	10
्यता	10
शोफ	10
▁विनी	10
▁जलमार्गों	10
▁कारवां	10
▁स्ट्र	10
निदेशक	10
▁भरूच	10
▁रहो	10
ंती	10
केंद्र	10
▁शिनजियांग	10
▁सिलचर	10
▁जूलिया	10
▁निंगथौ	10
▁वॉश	10
▁जता	10
विंद	10
ूंगा	10
▁जॉर्जटाउन	10
▁कुपोषण	10
▁चढ़ना	10
▁मॉर्निंग	10
▁दंतकथा	10
टलैंड	10
नबर्ग	10
▁डोगरा	10
▁गैरेज	10
▁अल्वेस	10
▁तू	10
▁मोरो	10
ुस	10
▁साइक्लो	10
▁पम्बा	10
फिया	10
ड्रामा	10
▁गोरख	10
▁साइज़	10
▁स्पंज	10
▁उप्स	10
▁पंक्तियाँ	10
▁आख़िर	10
▁वाक्	10
▁कॉर्नर	10
▁सीरिया	10
▁स्टैटिन	10
वल्लम	10
टीवी	10
▁इक्वाडोर	10
▁बेवकूफ	10
गज़	10
िट्री	10
ेस्टर	10
▁पांडु	10
विवाह	10
प्रतिस्पर्धात्मक	10
▁दोनो	10
▁क्षय	10
ोलियम	10
▁स्वाज़ी	10
▁हार्डी	10
▁नाटककार	10
शिक्षक	10
▁गी	10
▁मोतिय	10
दृश्य	10
ाइश	10
▁एकाधिक	10
▁बांधवगढ़	10
▁प्रतिलिपि	10
▁हॉप	10
गुड़	10
रेट्स	10
▁निस्सार	10
▁ज़ू	10
▁शिरोव	10
▁प्रॉ	10
▁मैक्रोफेज	10
▁संभाले	10
▁रोइंग	10
▁कटा	10
▁सेलम	10
▁तिरुचिरापल्ली	10
▁बंगल	10
▁परशुराम	10
▁लेफ्ट	10
▁पुरालेख	10
▁लिथियम	10
▁मुद्ग	10
ायन	10
▁चंड	10
▁ग्रीनफील्ड	10
▁कंचनजं	10
▁विजयवाड़ा	10
▁वृंदावन	10
▁सोमा	10
▁एल्	10
▁पुष्य	10
▁हाईवे	10
देश	10
ग्रेव	10
▁खींचना	10
▁माइकोबैक्टीरिय	10
▁कलंक	10
▁सजे	10
▁नेवादा	10
▁छाँट	10
क्कल	10
अप्रैल	10
▁आसफ	10
▁हलवा	10
दराज़	10
चोल	10
▁जै	10
▁वातानुकूलन	10
म्ब	10
▁कोपा	10
▁पावेल	10
▁सेनाएँ	10
▁साइंसेज	10
द्रिक	10
▁स्टैक	10
▁अदरक	10
▁प्रोडक्ट	10
▁फुले	10
निर्देशक	10
▁प्रस्तर	10
्रम	10
▁निका	10
सलम	10
▁मोजा	10
तन	10
षियों	10
▁लिप	10
ुसिया	10
▁गृहिणी	10
▁मरा	10
▁दसवां	10
▁रेतील	10
▁दुर्घटनाएँ	10
▁मल्टीप्लेक्स	10
▁गरबा	10
▁उपासक	10
▁प्रबोध	10
▁सूचक	10
▁वर्णपीतकाभ	10
▁जूट	10
▁अर्नोल्ड	10
▁चित्तौड़गढ़	10
▁देवगिर	10
▁संभालन	10
अन	10
▁संकर	10
▁इवे	10
ल्फ़	10
चमढ़ी	10
▁मापदंड	10
▁परेश	10
▁लायन	10
▁साइट्र	10
▁घेरत	10
▁सिंबा	10
▁नाहर	10
▁पार्थि	10
ावधि	10
▁तोते	10
▁तुन	10
▁बाल्टि	10
▁धूमध	10
▁पायी	10
▁अवन	10
कॉन	10
▁बीजाणु	10
पुआ	10
करी	10
▁नंदिनी	10
▁सामंजस्यपूर्ण	10
▁महान्याय	10
▁पिज़्ज़ा	10
प्रवर्तक	10
▁दाभाड	10
रावा	10
ंगथांग	10
▁लीसेस्टर	10
▁विश	10
▁दरभंगा	10
▁विंड	10
▁परिसंपत्ति	10
▁लचील	10
विज्ञानी	10
▁शी	10
▁आण	10
▁दीप	10
▁ग्रैंडमास्टर	10
वर्नम	10
▁तिल्लाना	10
▁अखरोट	10
▁पराजय	10
▁गड	10
▁युवराज	10
▁प्रतिहार	10
▁डॉस	10
▁कमो	10
राशन	10
ोकुशि	10
▁जीना	10
▁डिप्ट	10
▁गेज	10
▁रिस	10
▁एपेंड	10
▁व्या	10
▁टोड	10
▁पौष्टिक	10
▁बिछा	10
▁उठाएँ	10
▁ग़	10
स्वास्थ्य	10
यूरोपीय	10
▁शार	10
▁कारीगर	10
वाचक	10
▁नग	10
मिन	10
िथ	10
▁कौशिक	10
▁असंतुल	10
▁मुद्राएँ	10
ाहारी	10
▁सर्वनाम	10
▁छक्क	10
ुथ	10
’’	10
▁छपाई	10
▁मौलाना	10
खाना	10
▁जानकी	10
▁मोजे	10
▁गुम्फा	10
▁लीड	9
▁उत्तरोत्तर	9
शीर्षक	9
▁सोनम	9
लक्षित	9
▁छज्ज	9
▁क्लैम	9
▁सीप	9
धारण	9
▁भिड़ंत	9
शीर्ष	9
ेंटल	9
▁बाजू	9
▁स्वेटर	9
▁राष्ट्रगान	9
म्पन्न	9
▁बेबीलोन	9
▁सेल्यूसिड	9
▁सिंक	9
▁रामसे	9
▁गॉड	9
िंग्स	9
मोनिक	9
क्	9
▁पढ़कर	9
इल	9
▁पढ़ी	9
▁ब्रुनेई	9
▁इनसान	9
▁विलंब	9
▁चैतन्य	9
▁वैष्णववाद	9
सिर	9
▁बकरी	9
▁कामथ	9
▁शेषांत्र	9
▁लपट	9
▁अलविदा	9
▁कुंद	9
▁शारद	9
स्लिंग	9
▁पश्त	9
कर्स	9
अमेरिका	9
▁मिलीग्राम	9
▁सचिवालय	9
▁सम्पत्ति	9
ेली	9
▁अर्बन	9
▁फ्लेम्स	9
▁सैंडी	9
इड	9
▁निरस्त	9
बिट	9
▁हिचकिचा	9
▁डब	9
▁पंखे	9
▁मनाली	9
▁हेराक्ल	9
▁बुलेट	9
▁अजगर	9
▁हॉकिन्स	9
▁दखल	9
▁एन्सेस्ट्री	9
द्रव्य	9
▁वीजा	9
▁ह्यूम	9
दे	9
▁शब्	9
श्मि	9
▁संच	9
▁प्रतिपादक	9
ेदार	9
▁योगी	9
दुनिया	9
▁टिप्पणियां	9
▁जनसांख्यिकी	9
कंडक्टर	9
▁पर्यावरणविद	9
▁परिच्छेद	9
▁एरिथ्र	9
रासो	9
क्वेरी	9
्दीन	9
▁भंगिमा	9
▁दोहराई	9
पस	9
▁मेम्फिस	9
▁ट्राई	9
हेज	9
▁लैब	9
▁सख़्त	9
▁मंडे	9
▁ग्रोनिंग	9
▁जोग	9
मोई	9
सुइट	9
▁जटिलताए	9
▁विश्वनाथन	9
अर	9
▁मांगा	9
डियन	9
▁मेघ	9
▁बृहस्पति	9
हॉकी	9
▁लूसिया	9
▁हुये	9
वायर	9
▁घुमाव	9
▁किरान	9
ेक्टिन	9
▁माधो	9
गियास	9
▁लॉय	9
▁फैबिय	9
हॉल	9
िस्का	9
▁पराग	9
▁शेफर्ड	9
▁भादु	9
▁प्रेषण	9
फ़ीफ़	9
▁जोशील	9
▁हडसन	9
▁तारीफ	9
रक्षा	9
▁जुड़ते	9
▁जंजीरा	9
खरी	9
▁जुआनज	9
मोहन	9
फरवरी	9
ेनी	9
▁धवन	9
▁जींस	9
▁कोंडा	9
▁गिरनार	9
▁टेक्स	9
▁रुग्णता	9
▁रिज़ॉ	9
▁टब	9
▁तोप	9
▁पिंजर	9
▁विस	9
अंग्रेजी	9
▁अतिरंज	9
दुन	9
▁ओरछा	9
▁सन्यास	9
▁अज	9
ायक	9
्यक्त	9
वक्ता	9
तरंग	9
▁वस्त्रों	9
▁ड्रू	9
ेटा	9
स्पैनिश	9
▁दादाजी	9
▁अंधत	9
फिश	9
शि	9
▁कोरल	9
▁ईश्वरी	9
▁अबखाज़	9
▁अजी	9
राउंड	9
▁रंधावा	9
▁वोडेयार	9
▁प्रधानाध्याप	9
▁कनाडियन	9
▁आनुवंशिकी	9
जाना	9
पानी	9
▁स्पा	9
▁प्रविष्टिय	9
▁फाइव	9
▁सेक्स	9
ज़िया	9
वेल्ट	9
श्वर	9
टेड	9
▁सुमेर	9
▁त्रुटियाँ	9
ार्गी	9
▁सेरिंग	9
डम	9
गोला	9
▁भोजनालय	9
▁रामगढ़	9
अभिनय	9
▁रोसेन	9
▁पुरातन	9
▁लैंप	9
▁नब्बे	9
▁प्लाट	9
जिप्टी	9
▁डिजाइनों	9
▁रिग	9
क्रॉल	9
▁कोहली	9
▁सुझाए	9
▁धन्य	9
ल्ट	9
▁पात	9
▁शाप	9
शैव	9
▁एस्टर	9
▁हरीकेन	9
कुमकुम	9
▁कल्याणी	9
▁महत्त्व	9
▁एंग	9
▁नाड़ी	9
▁वेयर	9
सफाई	9
कोटी	9
▁डिज़ाईन	9
▁ढकत	9
▁गाथा	9
▁लिव	9
▁अवा	9
▁जठरांत्र	9
▁मक्क	9
▁ऊ	9
▁प्रतिद्वंदी	9
▁मंड	9
शाखा	9
▁एडवा	9
पिच	9
कल्पना	9
▁पेरूम	9
▁टकरॉ	9
▁गुर्ग	9
प्पु	9
▁कश्त	9
▁भार्गव	9
▁जिज्ञास	9
▁याज्ञवल्क्य	9
▁डोना	9
▁विद्वता	9
▁अदन	9
▁कोमा	9
ड़बड़ी	9
िनो	9
ंस्की	9
ल्प	9
संस्थागत	9
▁तौ	9
▁दाढ़ी	9
▁पिल्लई	9
▁जेनकि	9
डेस	9
▁स्वरमान	9
▁भरतपुर	9
▁नैंसी	9
ेगन	9
▁पामर	9
▁जिंजी	9
▁गुरुद्वारा	9
▁बृज	9
▁तीतर	9
▁अदालती	9
▁क्लोराम्फेनिक	9
▁कॉरपोरेशन	9
▁वॉ	9
▁श्	9
▁अहसास	9
▁बिंदी	9
▁बसदी	9
▁इज़	9
▁ड्रग	9
▁बाजपेयी	9
▁भुला	9
▁सुसमाचार	9
▁समाव	9
▁बेर	9
▁पहलव	9
रीना	9
▁पाँड्य	9
वित	9
▁अंडाशय	9
▁आफ	9
▁खांस	9
▁गिनीज	9
उनके	9
▁त्रुटिय	9
▁चार्ल्सटन	9
▁प्रीमिय	9
पूर्णिमा	9
▁दिखे	9
ल्टन	9
किसी	9
ट्टू	9
▁प्रेरणादाय	9
भी	9
▁अभिमन्यु	9
पाँच	9
▁जर्	9
डैम	9
जिस	9
▁लड़किया	9
गना	9
▁एंत	9
वश	9
लम	9
सक	9
▁आयोडीन	9
▁फटे	9
▁पेरी	9
▁अतिशय	9
▁पेशियों	9
ैलाश	9
▁गश्त	9
रगढ़	9
▁रेट	9
▁मिंट	9
▁सीर	9
ोलॉजिक	9
▁वाल्म	9
▁शोफ	9
▁मून	9
▁पीयूष	9
र्ज़	9
▁अनुज	9
▁दर्रा	9
रि	9
विकसित	9
▁रियायत	9
छाँट	9
▁अभियंता	9
किशन	9
▁कुकीज़	9
▁लेटराइट	9
▁वासल	9
मिस्त्री	9
▁धोखेबाज	9
▁सामंजस्य	9
▁श्रोता	9
▁डोरी	9
▁सेलिब्र	9
▁एजेंसियां	9
▁बंटवार	9
िटेज	9
▁कंट्री	9
▁चहमान	9
डाल	9
▁जलेबी	9
▁रेफर	9
रह	9
दिया	9
▁रेप	9
▁स्लाव	9
▁बोल्ड	9
▁नेदुम	9
शे	9
▁मोम	9
तुम	9
▁दमा	9
▁अधिग्रह	9
▁डेम	9
▁राक्षसी	9
▁इरि	9
रियम	9
▁इनर	9
▁डॉयच	9
र्च	9
▁मिडल	9
▁रैक	9
▁निकोला	9
▁बांग्ला	9
▁रौशन	9
शिला	9
▁मारवाड़ी	9
▁हरिकथा	9
चाल	9
▁महेश्वर	9
▁दुर्दशा	9
▁पुर्जों	9
मुरन	9
साइटें	9
मेट	9
फूलत	9
▁सायन	9
▁जल्दबाज	9
▁हिन्दुस्तान	9
र्कशायर	9
▁लिप्यंतर	9
▁विच्छेदन	9
ोप	9
▁मस्क	9
फाई	9
▁मैसेज	9
▁हुड	9
▁विजयादशमी	9
▁बेंड	9
▁जाह	9
▁ग्याल	9
▁मार्सेल	9
▁रोबो	9
मि	9
▁प्लेटलेट	9
▁कोशिक	9
▁ओटोम	9
वर्क	9
▁लाश	9
▁ईसवी	9
िस्टिक	9
▁सर्ज	9
अंक	9
▁वायर	9
▁दशरथ	9
▁शिराएँ	9
▁सुंदरा	9
▁अनाद	9
▁मुअज	9
्जम	9
▁समर	9
▁मुम	9
▁स्थितियां	9
▁प्लाई	9
ईस	9
▁पन्न	9
▁किरायेदार	9
▁पुनर्निर्देश	9
वक्ष	9
▁पम्पा	9
प्रोटीन	9
▁दीया	9
दोन	9
▁सैंटोस	9
▁प्रच्छ	9
▁नागौर	9
▁पस	9
▁वक	9
▁हिमां	9
▁नादि	9
पारा	9
ोवेन	9
▁गोलमाल	9
सबर्ग	9
सेपक	9
ल्विन	9
▁अनिर्ण	9
▁रामनाथन	9
ुएला	9
▁फेलिक्स	9
▁सुगम	9
डिंग	9
▁सजी	9
टीम	9
▁बड	9
▁खरगोश	9
▁मधुमक्ख	9
▁अक	9
्रोएन	9
▁मैल	9
▁कलेज	9
मूल्यांकन	9
पिन	9
ोकार्ड	9
निंग	9
सोल	9
▁टस्क	9
हिल	9
▁रुड	9
▁आर्ची	9
▁होशियार	9
▁लीमा	9
▁पंचकु	9
वाहन	9
ज़ई	9
परीक्षण	9
▁बारीकिय	9
▁जेवियर	9
क्शन	9
ाधान	9
▁मंज	9
ूँ	9
पहिये	9
▁जप	9
▁फतव	9
ठीक	9
▁दूँ	9
▁पंचायती	9
▁फ्रांसीसियों	9
▁सुर्वे	9
जर	9
▁ब्यूटी	9
▁इवैं	9
▁श्व	9
▁फरमान	9
हु	9
शासनकाल	9
ंगो	9
▁उद्घोषक	9
▁स्टाल	9
▁शू	9
भित्ति	9
▁मार्टी	9
प्रिंटिंग	9
▁रोस	9
कुश	9
▁लेनदेन	9
नान	9
किरणें	9
खाँसी	9
▁फ़ार्म	9
▁समाजशास्त्र	9
▁अष्टमी	9
▁बेल्जिय	9
▁आश	9
छी	9
भूतिया	9
▁गीगाब	9
▁अगुआ	9
▁सुमात्र	9
▁रिक्त	9
▁चिकित्सालय	9
हीनता	9
▁प्रतिक्रियाशील	9
▁यामा	9
▁चकत्ते	9
▁शाँत	9
▁शिन	9
▁पार्थ	9
▁सांभर	9
▁सहेजन	9
▁सिलिंडर	9
▁फेल	9
शीत	9
▁त्सांगपो	9
▁रियायती	9
▁नामची	9
▁ब्लूटूथ	9
▁सरे	9
प्रसाद	9
िनस	9
▁लुप्त	9
▁रिश्तों	9
▁सीसा	9
▁विकासवाद	9
ाश	9
▁एडु	9
▁विरूपाक्ष	9
मार्च	9
▁वल्	9
रिम	9
▁खोना	9
▁सिंगल	9
▁गाल	9
हैंडल	9
▁आप्टे	9
बानी	9
▁घूर	9
▁मर्फ	9
▁लिंड	9
▁अकि	9
▁कॉर	9
पैर	9
ोटा	9
▁थल	9
खट्टा	9
▁ईवेंट	9
र्निया	9
काली	9
▁टीलों	9
वट	9
▁फोकस	9
▁श्रॉफ	9
बंगले	9
जई	9
क्चर	9
▁हेनरिक	9
▁मालव	9
▁डॉल	9
कार्ड	9
▁झाड़ी	9
▁इद	9
▁सप्तप	9
▁वेश्याओं	9
▁पगोड	9
▁भूमिज	9
▁सप्तम	9
आव	9
▁सिरी	9
▁ओल्	9
▁उतरती	9
▁सोरायसिस	9
▁मुड़ने	9
▁कुर्सी	9
▁माटो	9
▁वेलिंगटन	9
▁एंजिलिस	9
निष्ठावान	9
भरी	9
▁सूज	9
▁पुट	9
▁त्रिकोण	9
स्तंभ	9
▁अथ	9
▁जाय	9
▁कालक्रम	9
▁नेक्स्ट	9
▁नाश्ता	9
▁जुटाए	9
आकार	9
▁ठुमरी	9
▁प्रसुप्त	9
▁प्यादे	9
▁सुआरेज	9
न्ध्र	9
▁सिक्योरिटी	9
▁नाज़ी	9
ज़ोन	9
▁पारदर्शिता	9
ज्ञापन	9
▁ग्रो	9
सह	9
▁धाग	9
▁पेंशन	9
ग्रो	9
▁घटत	9
▁ब्रोंकोस	9
पक्षी	9
▁शॉर्ट्स	9
▁टोर	9
भाषी	9
▁जमुना	9
▁फुकु	9
▁इवांस	9
▁पवित्रता	9
▁गुंट	9
▁परख	9
झु	9
▁तटरेखा	9
▁अनिच्छुक	9
▁वर्मन	9
▁करूर	9
प्लाज्म	9
▁सिरुवानी	9
▁बॉ	9
र्क	9
▁यूनिक	9
शो	9
▁कमाया	9
▁अष्ट	9
वाद्य	9
▁समान्यत	9
दुर्ग	9
▁रीवा	9
▁खासा	9
मुंड	9
▁शेन	9
▁वॉट	9
▁चलाईं	9
▁गरम	9
▁ऊंट	9
सिटी	9
▁महायान	9
ेगास	9
प्टिक	9
बेजोड़	9
▁चरवाहे	9
▁चिलक	9
▁गेलफ	9
ोंगचांग	9
क्ष	9
अन्तर्वासी	9
रोटेशन	9
▁विध्वंस	9
▁शक्तिया	9
▁वाल्ड	9
ालू	9
▁विलक्षण	9
▁वडोदरा	9
▁लुभान	9
▁तुला	9
▁आवेश	9
▁लाठिय	9
▁धमनीव	9
क्राफ्ट	9
्लाइट	9
ॉट	9
रीटा	9
▁सला	9
ल्डन	9
▁लटकत	9
ज़न	9
इंडियन	9
▁हस्तचाल	9
▁चिपक	9
▁संज	9
▁लॉरी	9
▁पुरापाषाण	9
▁शूटर	9
▁पनीर	9
▁स्वादों	9
▁अमे	9
▁तोड़ना	9
पाक	9
▁टंक	9
▁ट्रं	9
▁चिपका	9
जीवियों	9
▁विल्	9
▁स्कंदन	9
विया	9
खिन	9
▁स्टाइल	9
▁आइ	9
डोल्फ	9
▁मेलि	9
प्रेरक	9
ह्रास	9
▁कांगजेई	9
▁निषेच	9
▁सक्रियता	9
▁पेंड	9
▁दरवाज़े	9
गुची	9
मंगला	9
▁क्रीज	9
▁ख्याति	9
▁अक्ष	9
▁पच्चीस	9
शिव	9
▁सर्	9
गलूर	9
▁असोसिएशन	9
▁साहूकार	9
रती	9
▁बढ़ेगी	9
▁फ्लाई	9
▁दृष्टिवैषम्य	9
ाबंदी	9
▁बिलियन	9
▁प्रथाएँ	9
▁लीड्स	9
▁ग्लूकोमा	9
स्वाद	9
आज	9
ीप	9
▁बँट	9
▁डेट्रायट	9
न्डो	9
▁शिमोगा	9
▁घटोत्कच	9
फेरी	9
रोस	9
▁म्यूज़	9
▁टारगेट	9
▁नुक्	9
▁हामिद	9
▁अनंग	9
▁क्लो	9
▁धुँध	9
▁पाटन	9
रेक्टर	9
▁जागरण	9
▁नवा	9
▁शिथिल	9
िडोर	9
तल	9
▁त्	9
▁किनारा	9
▁घुड़दौड़	9
▁व्यवस्थाओं	9
ज्ञान	9
▁जूस	9
▁गमक	9
▁हुस्स	9
▁सुब्रमण्यम	9
▁हाव	9
▁कृष	9
▁प्रतिफल	9
▁झींगा	9
▁हथौड़	9
▁कुरैशी	9
▁जाधव	9
▁विदा	9
लिच	9
▁उब	9
▁कृमि	9
▁कुएँ	9
▁गर्ल्स	9
ेचर	9
▁खुराना	9
केल	9
▁सहपाठ	9
ओका	9
▁तिरूर	9
▁चट	9
▁टेलीफ़ोन	9
▁आमंत्रण	9
म्प	9
विष	9
▁अस्वस्थ	9
शीद	9
▁ऐक्ट	9
▁ब्रिस्टल	9
▁फैलाया	9
लेखा	9
▁बैटल	9
शल्य	9
सनात	9
▁विदर्भ	9
▁पांडुलिपियाँ	9
▁लैं	9
्टिस	9
▁वत्स	9
▁ज़ैंथोमा	9
▁एंजिलेस	9
▁रविकीर्ति	9
मेध	9
▁इम्यूनो	9
ेक्स	9
▁झांग	9
छऊ	9
▁फ्रै	9
▁त्रिपाठी	9
▁शर्	9
▁कज़ाक	9
चेरी	9
▁ख़रीदा	9
▁कोलोन	9
▁चाहेगा	9
▁तकनीशियन	9
▁टट्टू	9
हारा	9
▁गुणी	9
केन	9
▁कोइराला	9
▁बुन	9
▁डेलावेयर	9
प्पि	9
शिफ्ट	9
लेवा	9
▁नगरी	9
ाश्रम	9
▁सदम	9
वानर	9
▁प्रियदर्श	9
▁ऑट	9
कोंडापल्ली	9
▁चोंग	9
ुच्छ	9
▁प्लेटफार्मों	9
▁चारो	9
▁गैली	9
▁स्विंग	9
▁ग्रीनविले	9
▁निको	9
▁निपटत	9
▁फॉलो	9
ूल्हे	9
लुवा	9
▁मंगला	9
▁युका	9
▁लुईसिय	9
▁जायस	9
▁रोहिल्ला	9
वाट	9
उच्च	9
▁पोकेमॉन	9
मारी	9
▁बाजरा	9
▁छाबड़ा	9
▁राधाकृष्ण	9
▁टेक्स्ट	9
▁सामूतिरि	9
ंबलड	9
▁त्रिलोक	9
सरूर	9
पिंग	9
▁चश्म	9
▁गलियार	9
▁उत्	9
ेय	9
▁पूँछ	9
▁रास्त	9
▁बर्गमैन	9
नोबल	9
▁सिल्वा	9
▁आकृतियाँ	9
▁बीवी	9
▁गोय	9
न्ज़ा	9
िकेट	9
▁कदाचार	9
धि	9
क्सिन	9
बेसिन	9
▁दामा	9
▁घग्गर	9
▁ब्रेव	9
▁मज	9
प्रो	9
▁अवस्थित	9
▁संघर्षरत	9
▁ब्रूनो	9
▁कीर्तिवर्म	9
द्वार	9
▁बर्थ	8
रैना	8
गणक	8
▁बैरिस्टर	8
▁रातें	8
▁माइनक्राफ	8
▁वोल्फ	8
डीनो	8
▁मस्त	8
हर्स्ट	8
▁महामं	8
सं	8
बेटा	8
▁कॉलर	8
बंधन	8
▁निकेटर	8
▁गिरजाघरों	8
▁विधानमंडल	8
▁कोलोस	8
▁फिलहार	8
▁रोधगलन	8
विज़न	8
▁पीसी	8
नानियों	8
ल्म	8
▁मुसी	8
▁अभय	8
▁रंगोली	8
गलियों	8
▁नौकरशाह	8
ग्गा	8
ध्यान	8
र्लिंगटन	8
▁एकताल	8
▁जरूरतमंद	8
▁प्रत्यूर्ज	8
▁मालगुडी	8
क्षमता	8
▁कीन्स	8
▁थर्म	8
लीय	8
▁गुजरा	8
▁नासिर	8
▁मिथिला	8
▁पार्कों	8
मम	8
रापुट	8
लक्षण	8
▁रोप	8
वाहिका	8
▁तेंदुआ	8
लेम	8
▁अब्दाली	8
डॉगलेग	8
▁धुल	8
▁"(	8
स्टर्लिंग	8
▁रिवाज़	8
सर्ग	8
▁पन्हा	8
▁बरखा	8
▁गद्द	8
▁असामान्यताएँ	8
लता	8
▁वाड	8
मगढ़	8
पेट्टा	8
▁नाखून	8
▁श्वार्ज़	8
▁क्षत	8
▁क्रियाशील	8
▁मोटरस्पोर्ट	8
▁गुइ	8
▁नागो	8
▁भाभा	8
▁फुटपाथ	8
▁ट्यू	8
▁असाम	8
▁सुंड	8
▁रूह	8
▁प्रारम्भ	8
▁जैतून	8
▁गोताखोरों	8
▁अनुमत	8
▁पेनसिल्वेनिया	8
▁काउबॉय	8
▁हरिकेन	8
▁रस्सिय	8
▁पुलिकट	8
▁एस्फ	8
▁कैरो	8
▁ऑर्थोडॉक्स	8
बण्ण	8
▁महँगा	8
्टोमी	8
होन	8
म्पो	8
▁कुट्टीपुरम	8
▁डोमिन	8
ंबम	8
हॉक्स	8
▁अंबिका	8
ित्य	8
▁शिशि	8
▁अमेज़	8
▁वैल	8
▁वीक	8
▁चुटक	8
ंजा	8
▁बेदखल	8
शाजनक	8
सामान	8
▁करूँगा	8
किंडल	8
▁नाडियाडवाला	8
▁बैठी	8
▁अधीनता	8
▁बरो	8
▁आइवर	8
▁थक्का	8
▁घमंड	8
▁रिप्रेजेंटेटिव	8
▁क्लोरीन	8
▁अलार्म	8
▁अर्कैन्सॉ	8
▁जनस	8
ामी	8
▁उलुग	8
्रामक	8
सिद्धि	8
▁करीमनगर	8
▁मकबरा	8
▁रोने	8
▁माधोपुर	8
▁फोरम	8
▁थियेटर	8
प्रेक्ष	8
पार्श्विक	8
पि	8
ेत्र	8
पत्ति	8
▁शब्दकोश	8
▁सिल्क	8
डोल	8
▁पशुधन	8
लेना	8
▁सैफ	8
नाग	8
▁देयता	8
▁चाहिएँ	8
▁तुकाराम	8
▁रेस्तरा	8
जनवरी	8
मांग	8
▁नैशविले	8
खार	8
नट	8
▁खिसक	8
▁कैरोलीन	8
▁कहेंगे	8
चिंतामणि	8
▁स्पिनर	8
आराधना	8
▁पुण्यतिथि	8
हार्दिक	8
▁राल्फ	8
तुस	8
▁लातों	8
▁गुरदास	8
है	8
▁तिलहन	8
▁तनिषा	8
▁श्यो	8
▁अल्पक्रियता	8
छाई	8
▁लाथ	8
▁शॉर्टहैंड	8
▁सिन	8
▁बढ़ाए	8
ियंस	8
ुबाई	8
▁रिवॉल्	8
इस्लामी	8
▁स्टेल	8
▁बुलाई	8
रक्कल	8
▁हेलेनिस्ट	8
्टी	8
▁मिशेलिन	8
विवेकाध	8
▁किर्क	8
▁मिचलान	8
▁स्वरुप	8
▁सिद्धान्त	8
▁प्रेत	8
खंडे	8
▁पांचाल	8
▁प्रक्षेपण	8
▁पतंगबाज़ी	8
▁लॉन्ड्र	8
ायी	8
▁अल्बर्टा	8
स्पर्श	8
▁रुस्तम	8
▁गाजियाबाद	8
लंबित	8
▁रिक्श	8
▁लोमड़ी	8
▁सुनहर	8
व्यक्ति	8
▁मुंब	8
▁विल्हे	8
▁टहलन	8
▁पार्थिय	8
▁त्रिमूर्ति	8
▁स्कू	8
स्टैड	8
▁अजनब	8
ुतुर	8
विपक्ष	8
▁बकिंघमशायर	8
▁श्रवणबेल	8
▁रियासतें	8
ऐ	8
▁मेट्रिक	8
झ	8
ंगबा	8
रोधक	8
▁थु	8
म्बी	8
▁फंसा	8
▁अम्मा	8
▁स्टालिन	8
▁निर्जल	8
▁युएज़	8
▁ज़गा	8
जुल	8
्न	8
भरे	8
ंकड़	8
▁स्क	8
प्पन	8
▁प्रत्यक्षदर्श	8
▁कूल्हे	8
▁फ़ॉ	8
▁पुनर्वित्त	8
▁निषेधा	8
ज्ञा	8
▁उकेर	8
▁निलम्ब	8
▁सार्व	8
▁हब	8
▁अध्येता	8
क्की	8
गार्ट	8
▁कैपिटल्स	8
▁उपवन	8
▁नसीरुद्दीन	8
फित्र	8
▁निभाए	8
▁तिरुम	8
▁टॉमस	8
▁भांगड़ा	8
▁हेलियो	8
▁ब्रिट	8
▁रॉन	8
▁प्रशिया	8
▁रॉबिन	8
▁पकवान	8
रोड़	8
▁सैंटा	8
▁प्ला	8
▁मलाई	8
्ज	8
रना	8
▁एक्ट	8
▁अटल	8
▁डेप्युटीज़	8
▁कुदाल	8
▁बीन	8
▁युनाइट	8
▁ट्रेपोनेम	8
▁पोल्ल	8
▁विंगर	8
▁वाच	8
रसद	8
▁मार्ल	8
▁डॉग	8
▁प्लास्टर	8
▁चौंक	8
मुक	8
▁सफ़ल	8
▁पाटिल	8
▁अरुचि	8
▁ज़िंदा	8
▁वीन	8
▁ठो	8
▁मरे	8
▁हावड़ा	8
▁मानवतावाद	8
▁नंदि	8
▁बूल	8
प्रतिहार	8
▁पोज़	8
▁सहकर्मियों	8
▁दागी	8
▁मिडफील्ड	8
▁चिंग	8
▁अजम	8
▁विस्	8
▁टैकल	8
▁राउरकेला	8
▁नोंग	8
छ	8
▁हॉ	8
▁पन्ना	8
▁राइडर	8
▁सुल्तानपुर	8
▁पथरील	8
हैंड	8
▁ताश	8
▁द्रास	8
▁टिके	8
▁रजाड़	8
▁आत्मनिर्भर	8
फट	8
▁समझाएँ	8
▁इश्क	8
▁पिक्चर	8
स्टॉप	8
ाइबर	8
▁पुण्य	8
▁प्याद	8
▁स्टूडियोज़	8
▁निर्ज	8
▁उल्लास	8
▁उपक्रम	8
▁गोथेनबर्ग	8
क्वीन	8
▁आर्च	8
ऑफिस	8
▁साजिद	8
निर्माता	8
ुल्ला	8
▁नॉक	8
फुटबॉल	8
▁राठी	8
▁योगाचार	8
▁कालिया	8
ाँग	8
स्टैंड	8
ैकलीन	8
ैंप	8
▁सर्वव्याप	8
▁कट्ट	8
दाह	8
▁धावकों	8
▁दमिश्क	8
स्तिथि	8
▁शिवसेना	8
▁बबूल	8
▁सीखी	8
▁स्लिप	8
▁डंग	8
▁पैमान	8
▁शेरिफ	8
▁दोहराए	8
▁लंड	8
▁असमान	8
▁बरग	8
▁टिप	8
कर्मी	8
▁डार्टमंड	8
▁अपार	8
▁पड़ेंगे	8
▁दशहर	8
▁स्टैंडर्ड	8
▁लार्सन	8
▁निकालकर	8
वॉल	8
▁अहात	8
ैट	8
▁उपसमूह	8
▁टोयो	8
▁नाजी	8
▁अपु	8
पर्णा	8
ुत	8
▁सिला	8
लोव	8
▁सूक्ष्मदर्शी	8
▁अनवर	8
▁महाम	8
▁हिसार	8
▁ब्राजीलियाई	8
▁लीना	8
▁मान्यताएँ	8
▁देवियों	8
▁अय्य	8
धु	8
▁प्रतिकार	8
▁झोपड़	8
▁मस्टेन	8
ड़ियों	8
▁निष्पक्षता	8
▁कार्यशालाओं	8
▁प्रयोजन	8
▁अवसादग्रस्त	8
▁महाबोधि	8
ाश्म	8
गमन	8
▁अमरकंटक	8
▁मर्चें	8
ट्स	8
गुल्म	8
▁हेन	8
▁गटका	8
▁मंजिला	8
▁सल्वाडोर	8
▁मंकी	8
▁मोले	8
नैना	8
▁गोप	8
▁इकाइयां	8
▁धुले	8
▁सद्दा	8
▁तनम	8
बिरंग	8
▁अर्कांसास	8
▁सिवन	8
लगढ़	8
▁विद्यारंभ	8
▁दुदुशी	8
वलय	8
▁कुमाइट	8
घनास्त्रता	8
▁वेस्टर	8
मेआ	8
पवित्र	8
▁गोमती	8
▁सेलुल	8
▁सिनसिनाटी	8
▁कर्मा	8
▁रघुनाथ	8
▁कॉन्ग	8
▁औद्योग	8
ोद	8
▁लोथा	8
▁फ्लो	8
▁नान	8
गिनत	8
▁चौकीदार	8
▁बहनोई	8
बबूल	8
▁डाल्टन	8
लिंडा	8
▁फिलिपिन	8
▁बंगा	8
▁शूरवीर	8
▁लवली	8
▁लॉन	8
▁ड्व	8
▁आइज	8
मिस	8
बस	8
▁बैब	8
▁श्रीरंगपट्ट	8
टूना	8
विद्यालय	8
▁नाप	8
▁एलिजा	8
िकल	8
▁ढंक	8
▁लगें	8
▁सरन	8
▁बहिर्	8
▁विष्णुकुंड	8
▁हॉन्ग	8
▁कंजंक्टिवा	8
▁वाष्प	8
पादित	8
लोकप्रिय	8
▁उबैदुल्ला	8
▁फुप्फुस	8
आर्यन	8
म्मी	8
▁पेट्रो	8
▁बेकन	8
▁प्ररूप	8
महा	8
▁लाइसे	8
▁अरि	8
▁गिटहब	8
▁पाइपों	8
▁शाक्त	8
▁ओबेरॉन	8
नहीं	8
ाओं	8
▁ऑटोइट	8
▁सैंडल	8
▁दिखें	8
▁चढ़त	8
▁घटी	8
▁आइडहो	8
▁तारीख़	8
▁ब्रुसेल	8
डिया	8
▁निगेटिव	8
सफलताएँ	8
▁मेदिनी	8
▁होन	8
▁स्पे	8
▁भिंड	8
▁एक्सटेंशन	8
▁समर्थ	8
▁अशक्त	8
▁सिलिकोसिस	8
याल	8
ियॉन	8
▁रेगिस्तानी	8
▁चटाई	8
डेरे	8
आन	8
पकड़	8
सेवा	8
▁फ्लोरें	8
▁सुरम	8
▁अतिव्याप	8
▁फैन	8
▁लियान	8
▁शब्दांशों	8
कसद	8
▁कर्राथा	8
▁पहिया	8
▁सेरो	8
▁पर्दा	8
▁चूम	8
▁अस्पष्टता	8
▁नाज	8
▁अड़	8
▁अमन	8
ाप	8
मुग्ध	8
▁नाज़	8
▁अनिद्रा	8
▁कॉर्टिक	8
▁स्लो	8
▁घोंट	8
व्यय	8
▁डबल्यू	8
च्यो	8
▁कहूँ	8
▁ब्रह्मचर्य	8
▁कैले	8
▁छवियां	8
▁हवन	8
▁गोए	8
▁क्रीज़	8
▁प्लेटों	8
ज़िन	8
▁रेंग	8
▁अरा	8
▁बुरहानपुर	8
▁स्मरणोत्सव	8
▁जफ़र	8
▁बरती	8
प्रथम	8
β	8
▁तलव	8
स्टोर	8
चाख	8
▁धर्मा	8
दाई	8
▁सोमयाज	8
▁उर्वशी	8
ज़र	8
▁कैसिल	8
▁सेटिंग	8
▁मप्पिला	8
▁बोडो	8
तेश	8
▁वृषण	8
▁शेड्यूल	8
ुलर	8
ैली	8
▁सूब	8
▁कान्स	8
▁चुटिया	8
▁रोबोट	8
▁अम्म	8
▁सूत्रधार	8
▁मुन्नार	8
▁झींगुर	8
▁बर्क	8
मण्डल	8
▁सेल्फ	8
ाय	8
▁आलाप	8
▁ऊन	8
सेदा	8
सुन	8
▁त्वच	8
▁डंडी	8
▁अपारदर्शिता	8
▁स्ल	8
▁शैलिया	8
▁खरी	8
▁चीड़	8
▁हाइ	8
▁अमजद	8
गुएल	8
▁सीमेंट	8
▁छल्ल	8
▁दक्षिणपंथ	8
▁प्रत्यारोप	8
थल	8
▁दिखला	8
स्खलन	8
केवल	8
▁विमल	8
▁लेक्स	8
▁बीबी	8
▁बाणगंगा	8
▁नौवीं	8
िशा	8
▁स्कार्फ	8
▁व्यस्तता	8
▁पद्मनाभ	8
▁पूति	8
▁गिल्बर्ट	8
▁तन्ना	8
स्र	8
▁कोबाल्ट	8
▁आख्यान	8
▁सिफ़ारिश	8
बक्कम	8
▁प्रमोद	8
▁कालम	8
▁स्पीकर	8
▁बचावकर्	8
▁उत्तरजीविता	8
▁खिलाया	8
▁पूर्णा	8
▁पार्टनर	8
नाह	8
▁पहनाव	8
▁बेलग्रेड	8
▁डटे	8
▁कोसल	8
▁तुलु	8
ंटी	8
विता	8
ारोहण	8
▁विंटर	8
मालय	8
दुगना	8
धुंधली	8
▁यकीनन	8
कोट्टई	8
▁कारखाना	8
▁हिन्दी	8
▁सेक्शन	8
▁माव	8
▁फ़तेह	8
▁स्टॉप	8
गोविंद	8
▁अनुशासित	8
▁इम	8
▁ग्रेज़	8
▁प्रभावकार	8
▁चौगुन	8
स्टर्न	8
▁प्लेन	8
▁कैफ़	8
अल	8
▁रायन	8
▁गोस्थ	8
▁कीड़ा	8
म्बर	8
▁सिद	8
▁कुरोसा	8
▁ठहराव	8
हस्तिनापुर	8
▁सासा	8
ाघाट	8
▁क्लॉक	8
▁आयरा	8
धी	8
▁मैक्सिम	8
▁रिपब्लिक	8
ैंडी	8
▁उबला	8
▁नुमा	8
ट्रैप	8
जीन	8
▁मूठ	8
लॉक	8
ज़स	8
र्	8
▁रंजक	8
▁मैककॉ	8
▁मिनिया	8
▁कारतूस	8
▁साक्षी	8
▁डिन	8
▁सूंस	8
▁सज्जा	8
▁ब्रोक	8
अभिशाप	8
▁त्रिपु	8
▁बेंज़	8
त्तियों	8
▁पीएच	8
▁लूँगा	8
▁मेइ	8
▁महादेवन	8
▁चादर	8
▁प्रतिजैविकों	8
नुरेख	8
▁पावन	8
▁उठते	8
ग्रेड	8
▁कटोर	8
▁डराने	8
▁पराक्रम	8
▁झूले	8
▁कैब	8
▁मार्कण्डे	8
▁रेसर	8
▁खिच	8
▁वेड	8
ोथेरेप	8
तीर्थ	8
दीद	8
▁बालू	8
▁अन्त	8
▁मैडम	8
ोथुं	8
▁नास	8
बिक्री	8
▁जनरेटर	8
▁गोन	8
▁एडग	8
▁स्के	8
▁अहंकार	8
▁माल्टा	8
▁हँसन	8
▁छूना	8
▁अपनाए	8
▁हारमोनियम	8
▁ऑयल	8
▁गोलाबार	8
▁छुप	8
▁धम	8
▁शम्स	8
▁ग्रीनलैंड	8
गण	8
▁ख्वा	8
▁रसीदें	8
त्तेजक	8
बक्क	8
▁प्य	8
▁माइनर	8
▁मोंटगोम	8
▁तीव्रग्राह	8
▁बंकाई	8
▁एडमंड	8
समझ	8
उदाहरण	8
▁जयराम	8
▁नमक्कल	8
▁इमर	8
ांव	8
ावदा	8
मुश्त	8
▁मुल्ला	8
▁बैन	8
▁जंतु	8
▁पह	8
▁मदीना	8
▁ड्यूल	8
▁कुट्टनाड	8
ज़ोर	8
मट्टम	8
▁हाशमी	8
▁पैडल	8
▁एडमिनिस्ट्रे	8
▁कटी	8
ोचित	8
नाइट	8
नास	8
▁पायदान	8
▁चुक्क	8
▁तिरू	8
▁हिलने	8
▁प्रोग्रेस	8
▁विट	8
▁रिकार्ड	8
▁स्ट्रैटो	8
▁बमवर्षक	8
▁स्कूटर	8
▁ट्रांसपोर्ट	8
▁सर्विसेज	8
उन्मुख	8
▁वेटर	8
▁सुमी	8
▁टर्मिनस	8
▁पलटन	8
▁पाइथ	8
रफ़्तार	8
▁कैलोरी	8
▁गंड	8
▁स्टार्	8
▁एमि	8
▁बास्क	8
आनंददायक	8
▁नु	8
▁अटका	8
▁इगो	8
ेल्लारी	8
▁बसंती	8
▁लोनाव	8
शत्रुतापूर्ण	8
▁बीवर	8
जगह	8
)"	8
थुन	8
नालों	8
स्वी	8
▁झूलत	8
▁सिस्टम्स	8
▁संलिप्त	8
▁बूढ़ी	8
▁अस्त	8
▁किंग्स्टन	8
▁फा	8
▁आबाद	8
मोतो	8
▁पुथंडु	8
▁ह्यूग	8
▁वाम	8
पुंज	8
दीवार	8
▁मार्श	8
▁सोनपुर	8
प्रबंध	8
▁बेचार	8
▁शिथिलता	8
▁कर्ट	8
▁दर्ज़	8
▁अव्यक्त	8
▁बहू	8
▁एक्वा	8
▁ढूंढन	8
लेख	8
त्तु	8
▁फ़ै	8
▁जम्प	8
▁सीज़र	8
▁डायल	8
▁निवर्तन	8
▁सभागार	8
महल	8
▁गूँज	8
▁लकवाग्रस्त	8
▁ब्रह्मपुर	8
▁दरअसल	8
▁थंडर	8
▁टोबैगो	8
▁शेड	8
▁मृदु	8
गिल	8
ॉन्ग	8
▁कॉयर	8
▁क्रॉस्बी	8
▁गंधक	8
▁हम्	8
▁अनमो	8
▁ऑर्थो	8
▁स्कर्ट	8
▁मनमान	8
▁ग्राफिक्स	8
▁वोल्	8
▁लेटेक्स	8
▁भूपति	8
विटामिन	8
▁झांझ	8
▁पहाड़ियां	8
▁ब्लॉकों	8
कानुम	8
रोमन	8
▁अपवाह	8
▁बोलिया	8
▁घेरा	8
▁बरसा	8
▁रखवाला	8
▁खम्नू	8
▁नरक	8
▁मिथाइल	8
▁कार्	8
▁फर्	8
▁लैम	8
हद	8
हरा	8
▁अवधी	8
▁चौरी	8
▁चंद्रगिरि	8
▁बेवर	8
▁घिनौन	8
▁ठग	8
ब्रेल	8
डिसन	8
ओम	8
▁पेटैंक	8
भगवान	8
▁नैशविल	8
▁पुरःस्थ	8
▁डॉल्फ़िन	8
▁आँगन	8
▁श्रॉफ़	8
ुट्टी	8
▁चारुलता	8
▁ज़हर	8
आयन	8
ग्राफ	8
ध्रुव	8
▁लुधियाना	8
▁अलका	8
▁बाक	8
ीयत	8
▁कुरु	8
▁सदरंग	8
रासिटामोल	8
ओबा	8
वहाँ	8
▁आज़मान	8
▁मेहराब	8
गलग्रन्थि	8
ट्रॉन	8
▁ओमाहा	8
र्डिस	8
▁बर्	8
▁वेट	8
▁हिमा	8
▁देओल	8
▁नृत्यांगना	8
छतरी	8
▁एल्विन	8
▁घड़ियों	8
च्छद	8
▁डेंट	8
परिणाम	8
▁बिकत	8
ित्ज़	8
▁रूखे	8
लग्न	8
▁धुरी	8
टु	8
▁शक्तिवाद	8
▁सकूँ	8
▁रेखाएँ	8
▁मालिकान	8
▁विषैल	8
▁इक्वि	8
गर्स	8
ंतर	8
डाई	8
▁मॉड	8
▁साझेदार	8
▁आल	8
स्	8
▁टॉलेम	8
O	8
▁हेग	8
▁इलेक्ट	8
▁केसरी	8
▁उन्होने	8
▁गुड़ी	8
खीज	8
्रिक्स	8
▁टाइगर्स	8
▁डिपो	8
▁चिक	8
▁मुनाफ	8
▁अफ़ीम	8
द्रा	8
क्षण	8
▁गुलज़ार	8
म्बर्ग	8
पुझा	8
▁फात	8
संबंधित	8
साला	8
सीरीज	8
ट्र	8
▁खेड़ा	8
▁रचन	8
▁होम्स	8
जैसा	8
कून	8
▁मांगें	8
▁सामान्यतया	8
▁बनाईं	8
फ़रो	8
▁एडिनबर्ग	8
▁लिम्फ	8
ुंड	8
▁श्रीहरि	8
ंगन	8
▁रकाब	8
▁मंसूर	8
▁महार	8
ट्रान	8
फे	8
▁साबू	8
▁बौने	8
वास्तविक	8
▁बाज़ी	8
▁सदर	8
▁इंडस्ट्री	8
सामान्य	8
▁डायस	8
दर्भ	8
दुर्गा	8
धाम	8
▁वेलें	8
▁काजल	8
▁मार्स	8
अधिक	8
▁सांग	8
▁उछलत	8
▁जिग	8
पट्टनम	8
▁समुच	8
▁गुमनाम	8
▁फव्वार	8
▁इंटरफेरॉन	8
▁जनित	8
▁चाट	8
▁चित्रपट	8
डियर	8
खंब	8
▁टाइटन	8
युध	8
▁सुरक्षाकर्म	8
श्याम	8
▁धनेश	8
▁कुलाधिपति	8
▁ट्रिब्यून	8
▁नाइट्रोजन	8
▁तेरहवें	8
▁तंबू	8
चु	8
▁बेंटले	8
▁सामू	8
▁समर्थवाद	8
▁ट्रैम्पोलिन	8
▁डिप्लो	8
▁सिद्धि	8
नेथ	8
▁धमनीविस्फार	8
▁कैरोटीन	8
▁अंडाणु	8
▁कोरस	8
▁विजया	8
सत	8
▁शालि	8
▁रॉटन	8
▁रामानुज	8
▁राघ	8
हुड	8
▁तालीम	8
▁भूवैज्ञानिक	8
▁गवी	8
▁हँस	8
▁जालौ	8
▁एरो	8
▁हारिसाफोर	8
▁ट्रैवल	8
▁शौच	8
ेफ्री	8
▁प्रिव	8
▁मस्तिष्कावरण	8
गोवि	8
▁आला	8
ल्बी	7
▁थ्रैशर	7
▁तम्बा	7
▁तख्तापलट	7
▁दावो	7
▁सनसनीखेज़	7
▁कक्षाएं	7
▁नित्य	7
क्रोना	7
▁प्रदीप	7
▁ग्रिफि	7
मैंने	7
▁पुनर्कृत	7
▁स्किल	7
कंद	7
▁मानवविज्ञान	7
ियोन	7
▁मेथिल	7
पटल	7
सियस	7
▁लाओस	7
▁रखैल	7
व्स्क	7
याव	7
▁निकलकर	7
▁पत	7
त्तूर	7
▁सोलंकी	7
फन	7
कुन	7
▁न्यूरो	7
▁शिश्न	7
▁आवेदक	7
▁दिखाये	7
पत्नी	7
▁खम्	7
▁चेरल	7
▁हिप्पो	7
▁फ़िलिस्तीन	7
▁वाल्डे	7
▁रोश	7
▁पटक	7
▁खोई	7
▁ग़ैर	7
▁रिज़ॉल्यूशन	7
▁गैंगस्ट	7
▁कैंपस	7
▁रोमानी	7
▁दण्ड	7
▁एनेस्थ	7
▁लालसा	7
▁मरना	7
बॉडी	7
▁हस्ती	7
▁अह	7
रुचि	7
▁हॉर्नबिल	7
▁पुरुलिया	7
▁रिमोट	7
▁कोठर	7
ुस्कर	7
▁फ़ैसल	7
माई	7
शनेल	7
▁वारसी	7
▁भुगत	7
ियांग	7
हार्ट	7
नियामक	7
▁वानक	7
बोरी	7
▁अरश	7
र्व	7
▁भोगी	7
▁टुट	7
▁ज़ेव	7
▁शूद्र	7
▁फैक्टर	7
▁कटआउट	7
▁देशभक्ति	7
एंड	7
मॉडर्न	7
▁बल्ला	7
न्डे	7
▁पेग	7
▁असभ्य	7
रिवाज़	7
▁पासिंग	7
▁बंधु	7
▁अभ्य	7
▁फ्रॉस्ट	7
िएरा	7
ल्ला	7
▁रिज़र्व	7
नसेट	7
▁थैचर	7
▁सिएरा	7
▁ओवल	7
▁वनवास	7
राधा	7
लेकिन	7
▁नेविल	7
▁पियोरिया	7
▁कॉकपिट	7
▁फंतासी	7
▁अंज	7
िंघम	7
कॉस्ट	7
▁पार्स	7
मोरी	7
▁गाम्ब	7
▁जेनर	7
▁टिंडिस	7
▁बबीता	7
बाह्य	7
पलट	7
▁पेशा	7
शोर	7
▁बिज	7
▁रशफोर्ड	7
तट	7
▁लॉटर	7
▁बग्गा	7
▁सीम	7
फुट	7
▁पत्न	7
▁स्कीम	7
कु	7
▁पेल	7
▁नाका	7
अक्सर	7
▁रुक्म	7
ाउंटेंट	7
▁मोइरा	7
िमेश	7
▁वोर्	7
▁गोपा	7
अन्य	7
अक्टूबर	7
िस्टर	7
▁मोड़कर	7
▁फ्रा	7
लियट	7
▁पार्	7
▁खर्चील	7
▁कोलाथ	7
▁सामी	7
ुथु	7
▁देनदार	7
ाधिकारी	7
हॉप	7
जराज	7
िंस	7
▁अपह्रास	7
▁गोखले	7
इरोस	7
▁एमिनो	7
▁संयोजक	7
▁सस्केचेव	7
▁बूथ	7
एयर	7
▁निद्रा	7
▁भेड़िया	7
▁स्टिकर	7
▁दिलवाया	7
▁अंतर्गर्भाशय	7
▁मड	7
▁लाउं	7
▁बूंदी	7
सेव	7
▁अनसुन	7
▁आश्रित	7
औसत	7
हाद	7
▁डाइविंग	7
वूर	7
▁पैरिस	7
शहर	7
▁जुल	7
वज	7
▁फिलीपीन	7
उन्होंने	7
▁युआन	7
▁संभावनाएं	7
▁त्रिलोच	7
हने	7
▁बैंको	7
पक	7
▁लेटन	7
▁विसंगति	7
पैल	7
दुर	7
नियाल	7
▁जुबली	7
▁नामदेव	7
▁वेबस्टर	7
▁आर्टिक	7
एमेरिट	7
▁सौहार्द	7
▁रज़ा	7
ोइक	7
▁खलीफ	7
▁इंडी	7
▁शंका	7
▁चिड़िया	7
▁कोहरा	7
विवाद	7
▁इंट	7
ंसू	7
▁ट्राउट	7
तनिक	7
काई	7
▁लैंकेस्टर	7
▁खानदेश	7
▁शील्ड	7
▁नियमावली	7
▁मीन	7
▁इल्ल	7
म्पर	7
दू	7
▁सैंडर्स	7
▁बादाम	7
▁सहभाज	7
नु	7
▁छड़ें	7
पतियों	7
▁भगवद्	7
▁ताकतों	7
्ग	7
डोरस	7
ावधान	7
जनी	7
▁ग्रेफाइट	7
▁कमेंट	7
▁हॉर्	7
▁डोप	7
▁कछुओं	7
▁रामचरितम	7
▁महाकाल	7
▁फर्नांडि	7
पालिका	7
▁स्टोरी	7
कान	7
▁हैमंड	7
▁धर्मेंद्र	7
नाडू	7
▁एक्सपो	7
▁बॉस्टन	7
▁मैजिक	7
हिडन	7
छुआ	7
▁क्रिप्टो	7
▁जियांग	7
मोदक	7
ट्रिक्स	7
दु	7
▁बैसाखी	7
▁पंचा	7
▁सामर्	7
▁गाँववाल	7
▁मंगवा	7
▁कुमुद	7
यानी	7
▁फिनल	7
▁टोरो	7
त्री	7
▁शिप्र	7
▁पित्रैक	7
काकुल	7
▁नर्क	7
▁देनदारिय	7
▁फोल्ड	7
▁पेटी	7
▁वस्तुतः	7
रात्रि	7
वॉटर	7
▁सिखाए	7
▁प्रभावती	7
▁क्विक	7
▁स्पाइक	7
▁मुंडवा	7
ांजलि	7
▁हेमि	7
▁जिम्नास्टिक्स	7
कंस्ट्रक्	7
टेप	7
ोव्स्क	7
ट्रा	7
▁ओहो	7
बदल	7
▁निकोटीन	7
▁पँच	7
▁टहनिय	7
▁नायलॉन	7
▁हार्लेम	7
▁प्लाज	7
▁परमा	7
▁व्हीलर	7
मैप्स	7
▁अवॉर्ड	7
▁चिनार	7
नारे	7
▁गोर्डी	7
▁इम्तियाज	7
खबर	7
▁डीलर	7
▁जरासंध	7
कासुर	7
भादो	7
▁जिम्बाब्वे	7
▁परवेज	7
हित	7
▁बुंडेस	7
▁तालवादक	7
खाकर	7
▁पटरिय	7
▁डेमन	7
▁मासूम	7
रॉटर	7
▁ब्राउज	7
मंच	7
▁पुंग	7
ेल्फ़	7
▁कैनेडा	7
्विक	7
▁मुथु	7
▁डेक	7
आयोडीन	7
कैसल	7
▁सेल्वा	7
▁हूण	7
▁मीम	7
▁भेड़िय	7
▁सूज़	7
▁परामर्शदाता	7
▁ग़ो	7
बढ़ी	7
▁विल्क	7
र्क्स	7
▁एंजल	7
▁गल्फ	7
कोर्स	7
▁अमानवीय	7
▁लगवा	7
▁सॉन	7
▁रखेगा	7
▁पंचायतों	7
▁भोर	7
पुराना	7
ाटा	7
▁ट्यूरिन	7
▁समन्वयक	7
▁बन्दूक	7
▁हूणों	7
▁रैखिक	7
मेज़	7
▁ग्रिल	7
▁बुखारा	7
▁कंज़र्वेट	7
▁प्लैट	7
ज़ेड	7
▁हैब्स	7
सेनापति	7
▁रक्षित	7
मास	7
▁ऑगस्ट	7
▁जाफ़र	7
▁कोष्ठक	7
▁द्वारम	7
▁चेतावनिय	7
▁नेवर	7
▁ओकलैंड	7
▁परितारिका	7
▁कथाकार	7
▁सिनेमेटोग्राफ	7
▁केकड़े	7
▁मिठाइयों	7
्लेयर	7
▁गुंबद	7
ाचे	7
▁एपि	7
▁बोलीविया	7
▁पेशीय	7
▁बेह	7
▁लक	7
ज्ञापत्र	7
▁लहज़	7
ाँप	7
▁श्रृंखलाएं	7
▁मछलिया	7
▁मुला	7
ब्बी	7
ज़ल	7
▁चुस्ती	7
▁भड़का	7
▁वां	7
▁बोर्	7
▁विग्रह	7
▁रक्	7
▁ट्वि	7
रेव	7
प्शन	7
अवंती	7
कोणीय	7
▁करोगे	7
▁चिल	7
▁ब्रै	7
▁नरवानर	7
▁परिकल्प	7
▁नाशपाती	7
▁तेरी	7
ब्स	7
लिंजर	7
ंतो	7
▁पायस	7
ीकट	7
▁कुंज	7
ुए	7
▁थियोडोर	7
▁तांडव	7
▁नाजुक	7
▁यूएस	7
▁नाली	7
▁हर्डल	7
▁दीपावली	7
▁कैको	7
▁अथर्व	7
▁नेत्रश्लेष्मला	7
▁थिरु	7
▁चोटिल	7
▁बीते	7
▁जनपद	7
र्नर	7
कोट्टा	7
▁हाइड्रॉक्साइड	7
न्त्य	7
▁फोर्	7
क्सी	7
स्पार्ट	7
धित	7
▁फ्लेमि	7
▁सेरोटोनिन	7
▁अनाया	7
क्रेटर	7
बास	7
शीलता	7
▁निकलन	7
▁मृग	7
▁रूबी	7
▁समाया	7
▁रिकार्डो	7
▁विले	7
▁निगीन	7
▁कोर्फ़बॉल	7
▁ग्रास	7
ेरिया	7
गुडी	7
बम	7
▁खाद	7
▁दुकानदारों	7
▁ज्यूर	7
टर्न	7
S	7
ोंडो	7
▁मुंड	7
ाईं	7
▁तित	7
▁व्यावसायीकरण	7
ंस्ट्रक्ट	7
टाना	7
ाम्बर	7
▁सुपरमैन	7
िभ्रम	7
संगति	7
गुट	7
▁भैया	7
▁पर्युष	7
▁ज़ैन	7
▁डॉक्यूमेंट	7
ेरॉन	7
▁अलेक्ज़ेंड	7
▁मेगस्थनीज	7
£	7
▁डोल	7
्हाइट	7
▁ख़ज़ान	7
▁बुआ	7
▁उत्तरदायित्व	7
▁टेलीमार्केटर	7
रीडर	7
ॉयड	7
▁सब्ज़ियाँ	7
शाद	7
▁म्यू	7
ब्यू	7
फितर	7
▁गोंडी	7
▁जयंत	7
दोस्त	7
▁ज़ि	7
गिन	7
▁तुग़लक	7
▁पेट्रा	7
जित	7
▁राउ	7
बीथ	7
लाभकार	7
▁गंजाम	7
▁इंद्रप्रस्थ	7
▁मुल्क	7
▁टंड	7
▁स्वत	7
▁वस्तुनिष्ठ	7
▁पुनर्स्थापन	7
▁अनावृत	7
▁विट्ठल	7
▁मोटाप	7
▁कैफ	7
▁बर्लिंगटन	7
ाद्य	7
▁फ़्लैश	7
▁पंड	7
▁ब्रैडी	7
▁षष्ठी	7
▁प्रचुरता	7
▁ग्रोव	7
▁ठप	7
▁फ़िर	7
्मी	7
▁एंट्री	7
▁कडप्पा	7
▁सैंडविच	7
▁श्रेणियाँ	7
▁जेनेसिस	7
▁हाइड	7
▁राजेन्द्र	7
▁लेखापरीक्ष	7
▁ब्राउज़	7
पाद	7
ेंसन	7
▁पॉर्न	7
ारो	7
म्प्टी	7
▁बेचारा	7
▁चॉइस	7
▁घड़ा	7
रेड	7
प्रदत्त	7
िरिस	7
ौली	7
▁बौ	7
▁पोंछ	7
▁खिंचाव	7
पाँव	7
▁मैथिली	7
▁अजरबैजान	7
ेरार्ड	7
्मा	7
मिल्टन	7
▁आतिथ्य	7
▁ध्वजवाह	7
▁मॉन	7
थ्य	7
▁चैथ	7
▁डैड	7
पोली	7
▁मोंट	7
ान्त	7
▁कैथी	7
ाँश	7
नियर	7
्बू	7
▁यात्राएँ	7
▁उमंग	7
▁अनै	7
▁घट्ट	7
▁असह	7
▁घुट	7
▁संग्रहकर्ता	7
शिरस्क	7
▁खलज	7
▁आड़ू	7
▁वंशानुक्रम	7
▁पोको	7
▁शनि	7
स्थिति	7
हमारे	7
थाई	7
वगेन	7
बैंडी	7
ेपन	7
गनी	7
ंचे	7
▁डिंभ	7
▁महिंद्रा	7
रति	7
▁भेड़ों	7
▁ज्वारनदमुख	7
▁अं	7
सूट	7
ाफी	7
▁भिखार	7
ेंद्रगढ़	7
▁जनादेश	7
सॉल्ट	7
डिशन	7
▁उर्वर	7
▁हेक्स	7
▁महिषासुरमर्दिनी	7
▁कोलमैन	7
▁पाद	7
ाथेर	7
▁पांचाली	7
▁हुइ	7
▁ग्रांट	7
आयाम	7
▁डोमिंगो	7
पीडिया	7
▁स्ट्रा	7
▁गोरु	7
▁एरोन	7
गोस	7
लिप्त	7
ितु	7
▁कुम्ब्रिया	7
ुट	7
▁मारुति	7
▁कोरो	7
▁दर्शाए	7
▁मेरू	7
परिवहन	7
▁कमेंट्	7
▁टिन	7
्ना	7
मॉन्ट	7
▁जाफरी	7
न्दर	7
▁सहनशक्ति	7
▁पैलिड	7
▁संतरा	7
▁ऊंचाइयों	7
रियैलि	7
▁कलरीपायट	7
▁तुल	7
त्त	7
फोबिया	7
▁संवर्ध	7
▁खोया	7
विकी	7
▁वेस	7
▁पोइ	7
▁नौवां	7
▁येलो	7
कराम	7
▁इंजील	7
सीना	7
्कॉट	7
शिरा	7
▁देलवाड़	7
▁अण्डा	7
पॉइंट	7
▁गिन	7
▁रोडोप	7
▁स्ट्रै	7
▁तानिका	7
▁अलक	7
▁रेंजर	7
▁अथा	7
ुसन	7
ियाट्टम	7
▁परिवर्धन	7
▁पॉट	7
▁लाइम	7
अस्वीकार्य	7
ानुक्रम	7
▁लेस	7
▁स्ट्रोना	7
▁कंजर्वेट	7
▁लिपोप्रोटीन	7
▁बाज	7
▁झटके	7
▁अचंभ	7
▁मण्डल	7
▁शैलीबद्ध	7
▁खेलकूद	7
▁बॉर्न	7
▁सजाए	7
ल्हो	7
▁पछताव	7
▁शोधन	7
▁सरली	7
▁अधीक्षक	7
ास्त्र	7
▁फेलो	7
▁निवेदन	7
▁सुधारक	7
देना	7
▁तिरुमाला	7
▁चार्ली	7
▁दृष्टिपटलविकृत	7
रिज	7
ढ़ी	7
तूर	7
सल	7
क्लेयर	7
▁पेस्टर	7
▁व्यवस्थापक	7
▁रबी	7
▁पेन्स	7
ाउंडेशन	7
▁तृप्त	7
▁देवर	7
▁स्त्रोत	7
▁शर	7
▁अगु	7
▁बैराज	7
सियर	7
▁टुंड	7
▁कैरे	7
▁नमाज	7
चना	7
डि	7
खिलाड़ी	7
गैंग	7
थे	7
▁बिसी	7
▁अकी	7
ुराई	7
▁स्टोल	7
▁काउंसल	7
▁पैकेजिंग	7
▁इप्स	7
▁वोंग	7
▁शार्प	7
ागार	7
रचना	7
सती	7
▁कोझीकोड	7
▁परिहार	7
लन	7
लकोना	7
ल्लोर	7
▁नाइन	7
▁बोने	7
▁मिच	7
▁सूजा	7
▁टोली	7
▁टाला	7
▁टखनों	7
र्केस्ट्रा	7
ीशन	7
▁चोटियाँ	7
▁बनेंगे	7
ाघरा	7
वितरण	7
▁ज्वाला	7
▁स्वाति	7
▁मैरिय	7
▁ऑलिव	7
ाक्षी	7
चीय	7
▁कैं	7
▁मार्थ	7
▁समानताए	7
▁अनुधृतम	7
▁बटाविया	7
▁कावड़ी	7
▁फर्न	7
▁सोफ	7
टोज़	7
लड़ाई	7
▁आउटलेट	7
▁सांत्	7
वना	7
▁अडिग	7
भवन	7
रेन	7
▁बुद्धिमत	7
▁मैके	7
▁कल्याणकारी	7
रखा	7
▁अम्	7
▁फ़्रेंच	7
▁सुल्तानों	7
▁उभयलिंगी	7
▁एबे	7
▁सीरिय	7
▁ओरिजिन	7
▁सफाविद	7
▁यौधेय	7
▁डिस	7
▁आईओ	7
अस	7
▁एपो	7
भट्ट	7
▁बत्ती	7
▁साई	7
▁ससेक्स	7
▁मांगे	7
बाध	7
▁बैटरिय	7
जि	7
▁आइज़	7
▁स्टी	7
▁पीटने	7
चुनाव	7
▁विदु	7
कोशिक	7
▁मैना	7
▁रोगनिरोध	7
▁नागवंश	7
▁निष्क्रियता	7
▁तीक्ष्ण	7
क्रॉस	7
ागोस	7
▁सप्त	7
▁तूतीक	7
ोरिन	7
रेक	7
कूद	7
▁लगेंग	7
मोनो	7
ग़	7
▁घूमा	7
▁पोर्	7
▁जिल	7
▁यूवी	7
कबड्डी	7
जिया	7
डोंग	7
▁सूरीनाम	7
▁शिवराम	7
सुके	7
ौन	7
▁अल्मा	7
▁बेलेव्यू	7
िलियन	7
्योर	7
▁दीपम	7
▁एनडी	7
▁अनुपयुक्त	7
▁भंज	7
▁विषमलैंगिक	7
वास्तव	7
▁डिटेक्ट	7
▁इटालियन	7
▁सकीं	7
्लोक्सासि	7
▁जेफरसन	7
▁थांग	7
▁कन्न	7
▁बैलगाड़	7
▁एडिडास	7
▁मेवात	7
▁दिखाएँ	7
▁ब्रैम	7
पुष्ट	7
▁दरिया	7
▁कोकीन	7
▁चिपचिप	7
▁पैरो	7
▁प्रहसन	7
▁बेन्सन	7
▁ज़ेड	7
▁प्रेष	7
▁परंपराएं	7
▁निन	7
▁दिनार	7
▁लहंगे	7
म्बिक	7
▁ग़ज़न	7
▁घुसपैठिय	7
्रै	7
रोंग	7
▁चिह्नक	7
▁लकड़बग्घ	7
गाड़ी	7
▁कांस्टेब	7
दाब	7
▁बोड	7
▁समीप	7
▁न्यायाधिकरण	7
मुरब्बा	7
घुंघरू	7
र्जुन	7
ट्रैक	7
#	7
▁शैन	7
भावनाएं	7
▁एक्टिवि	7
▁सिमसिटी	7
▁मोटापा	7
▁अत्या	7
▁बैसिल	7
▁लोच	7
▁मैकिन्	7
बुर्ग	7
▁तव	7
▁वोल्टे	7
सौ	7
ानिया	7
▁डिवीजनों	7
▁तेनक	7
▁आद्य	7
▁बोरा	7
▁ब्रॉट	7
सि	7
थिस	7
▁हिप्पोक्रेट	7
▁त्रिभाष	7
▁सुपी	7
▁पर्य	7
▁मैग्न	7
▁समाचारों	7
▁सुराग	7
▁मैक्क	7
▁डिहाइड्रोजनेज	7
क्विलो	7
▁लिमो	7
▁चित्तिर	7
▁मेहर	7
विभाजन	7
स्वस्थता	7
▁प्रि	7
गेई	7
सहज	7
▁रीडिंग	7
हैम	7
▁मिस्रवास	7
बिहार	7
▁फोलेट	7
▁प्रयाण	7
▁कॉर्प्स	7
▁संकेंद्र	7
▁चने	7
▁साइ	7
▁फ्लेव	7
▁धनुर्वेद	7
▁कोइल	7
ब्लास्ट	7
▁मामलुक	7
▁असहयोग	7
▁बोअर	7
▁फ्रीजर	7
▁फलियों	7
▁अष्टपदी	7
▁ग्ल	7
▁होयसलों	7
▁अवरक्त	7
▁एवला	7
ाजरा	7
▁मण्डली	7
▁लहरा	7
▁एबी	7
▁ख़ारिज	7
▁निन्टे	7
▁चिकम	7
▁संदक	7
▁वक्र	7
र्जी	7
ेमेंट	7
मेज	7
▁सरगुज	7
▁कॉमर्	7
▁तामार	7
इची	7
▁अधिवर्ष	7
▁स्कार्	7
▁राजहंस	7
▁शंक	7
▁टॉक्स	7
▁नजीब	7
▁आवाज़ों	7
▁फ्रां	7
▁बनाये	7
फ्रेम	7
▁जातकर्म	7
ाध्यक्ष	7
▁वतिलयन	7
▁क्राइस्ट	7
▁इंफाल	7
बुल	7
▁सेनानी	7
▁काष्ठ	7
यात्री	7
▁श्रीरंगम	7
▁किआ	7
▁बेडफोर्ड	7
केंड	7
▁वायाकॉम	7
इंजेक्ट	7
▁आह	7
▁जुरा	7
रीन	7
▁खामिय	7
▁कोलो	7
▁अर्लीन	7
▁कुर्त	7
▁प्रवाल	7
टमेंट	7
▁विर	7
मध्यम	7
▁दुर्गापुर	7
सिका	7
▁सुबर्णपुर	7
धारियों	7
सुरी	7
▁क्वान	7
▁रुद्रद	7
▁अभिसर	7
▁नाट	7
सेकंड	7
वली	7
▁ऊदबिलाव	7
▁मानवता	7
▁ट्रेस	7
▁छड़िय	7
▁बोल्डरिंग	7
▁जेनि	7
ोरा	7
▁गॉल	7
न्त्र	7
कर्नाटक	7
ावा	7
▁सिओक्स	7
▁ब्रुक	7
▁प्रेमा	7
▁चांड	7
नोई	7
कोला	7
▁बिप	7
ाशा	7
▁बासु	7
▁ब्रेनन	7
्ची	7
▁प्रेज़	7
गोलक	7
▁अग्रेष	7
त्तियाँ	7
बूब	7
▁तिरुचिराप	7
▁संचालकों	7
▁क्रूसि	7
▁धुत	7
▁फारूक	7
▁मैकक्ले	7
ोड	7
▁करकला	7
▁ताम्र	7
▁सहजता	7
शुद्ध	7
▁जालंधर	7
ंगसा	7
▁निग	7
▁कर्णक्ष्वेण	7
▁ग्रेस	7
▁एनिमेटर	7
वेटिव	7
▁वल्ल	7
▁हूप	7
▁हैलिफै	7
प्पुझा	7
व्यवहार	7
▁न्य	7
्वी	7
▁चौरा	7
▁गलतफहमी	7
▁मलिका	7
▁डेस्टिन	7
▁चेल्	7
विद्	7
▁कड़	7
चढ़ा	7
▁गोटी	7
इसे	7
चढ़ाई	7
▁तुर	7
▁ब्रिस्बेन	7
▁सोमनाथ	7
लोमता	7
▁घटनाक्रम	7
डंडा	7
▁सतना	7
▁गद	7
▁सहारे	7
आलेख	7
र्बुद	7
▁गंगाधर	7
▁जेरेमी	7
ज्जो	7
▁इटा	7
▁कायो	7
त्सर्ग	7
▁पुटिय	7
▁चौकसी	7
ंग्या	7
▁उठी	7
▁बंडल	7
▁प्रेस्बिट	7
▁क्लै	7
लिंगेन	7
ट्ज़	7
▁महाद	7
प्रदर्शन	7
ज्वर	7
▁हेलसिं	7
▁सेल्समैन	7
▁सना	7
▁ओल	7
▁शैववाद	7
▁पलास	7
▁महालय	7
▁साराभाई	7
▁टोटल	7
▁साध	7
▁स्टाफ़	7
▁मुंशी	7
्रीस्टाइल	7
▁मिलिंद	7
▁अमीष	7
ोमिक	7
स्पीडवे	7
▁चोलपुरम	7
▁सुकफा	7
पदाधिकारी	7
▁छंट	7
▁अधिसूच	7
▁अज़ी	7
▁उकसाव	7
व्रत	7
▁गोरिल्ला	7
्यूम	7
एकाग्रता	7
▁प्रभा	7
▁सर्वप्रथम	7
वर्दी	7
▁इड	7
▁ओलिविय	7
▁शिन्	7
▁कैफी	7
▁विषाणुज	7
प्रसार	7
▁साँप	7
▁सम्पादन	7
गुंड	7
▁स्वेन	7
▁डैम्पियर	7
▁बुद्धिजीवियों	7
▁अफ़सर	7
▁जतात	7
▁प्रोमो	7
▁खोजते	7
मानसिक	7
▁स्टर्न	7
▁स्टेफ	7
▁कार्यशाला	7
▁जगदेव	7
सिम्हा	7
▁उपद्रव	7
▁मन्ना	7
स्चेर	7
▁कैन्	7
▁माल्ट	7
▁हवाना	7
ेकिंग	7
▁छिंदवाड़ा	7
▁चिपचिपा	7
▁हैरिसन	7
▁हॉफ	7
▁आस्ट्रेलिया	7
▁बेलीज	7
▁रोहिलखंड	7
▁नवल	7
▁बोरी	7
ुका	7
▁पारस	7
तार	7
लोंग	7
▁विंडसर	7
▁रावण	7
▁पटानी	7
▁पुटी	7
▁मद्यपान	7
▁टूटा	7
▁उग्रता	7
▁मर्स	7
▁केम्पे	7
▁आर्सेन	7
▁प्रोफाइल	7
▁गरिमा	7
▁जॉ	7
▁अनुपलब्ध	7
▁अशुद्ध	7
▁बरस	7
▁भौ	7
कड़ी	7
▁बुलडॉग	7
▁गल	7
▁करवाना	7
▁याहू	7
▁मैसेंजर	7
▁पौरव	7
▁षड्यंत्र	7
▁प्रख्यात	7
▁पुनर्गठ	7
▁सेंटीग्रेड	7
▁चिल्लाने	7
▁अक्क	7
▁सब्जियां	7
थुरा	7
▁बौध	7
▁वर्चुअल	7
▁बयानों	7
▁दोस	7
ांझ	7
▁धनवापसी	7
▁तस्मान	7
▁मेरुदंड	7
पुटीपुच्छकता	7
▁शिखरजी	7
रेसा	7
▁पिंच	7
ोचन	7
रबर्ग	7
▁निभाएंगे	7
▁रोर	7
▁छिपाए	7
संस्था	7
▁नज़रान	7
▁ब्लैंक	7
▁लचीले	7
▁पूर्णतावाद	7
मेगा	7
▁स्विट	7
दृष्टि	7
ुवा	7
लवण	7
▁हेवन	7
▁समाह	7
होल	7
▁बढ़ई	7
▁ह्यो	7
मासिक	7
श्वसन	7
▁मिशनर	7
सुधार	7
▁स्कार	7
▁स्ट्रोम	7
क्ले	7
▁अपराजितो	7
विला	7
▁प्रीतम	7
▁आदिम	7
▁वयोवृद्ध	7
नई	7
दुर्जेय	7
दण्ड	7
▁बुक्स	7
▁रोहि	7
▁लाट	7
▁उपविभाग	7
▁लुइज़	7
फारसी	7
▁नामीबिया	7
ामन	7
जुए	7
▁फोस्ट	7
▁शरारत	7
▁हिलाल	7
वग्रह	7
▁आर्केड	7
भाग्यचंद्र	7
▁फ़ोक्सव	7
▁मर्द	7
▁फॉल्ट	7
ेथ	7
▁किड	7
पिया	7
▁फाहे	7
▁चड्	7
ढा	7
▁अस्कर	7
▁बिका	7
▁चुंबन	7
रक्	7
कनाडा	7
▁हाइड्रॉक्सी	7
▁वाघेला	7
▁अपवर्त	7
ाइज़र	7
▁खाबा	7
▁गैब्र	7
▁एफएम	7
▁थैलिडोमाइड	7
▁हेस	7
▁रील	7
झल	7
शूटिंग	7
▁क्वॉर्ट	7
·	7
▁मैरियन	6
▁हादस	6
▁स्पेल	6
सूचीबद्ध	6
चक्क	6
▁आएं	6
▁हेडिंग्ल	6
▁उकसात	6
▁पुनर	6
▁दन्त	6
▁फ़सल	6
▁स्का	6
▁शौचपत्र	6
▁अतीतावलोकन	6
शपुर	6
शैलियों	6
शेर	6
▁निस्	6
▁मिंटो	6
▁नॉरबोट	6
▁पाउंगा	6
चिन्ह	6
▁पृष्ट	6
▁केवेल	6
सदेव	6
▁धर्मान्तर	6
▁हवाईअड्डे	6
ंड्स	6
▁नेपरविले	6
पठार	6
प्रभु	6
▁क्षिति	6
▁क्रस्ट	6
▁आर्काइव	6
ग्रसित	6
▁जामुन	6
▁ताम	6
▁एल्वि	6
▁राशियों	6
▁मुखौटे	6
▁कोष्ठ	6
▁जीववाद	6
▁मेथ	6
चुक	6
▁पत्ती	6
मुगल	6
▁साइटोकाइन	6
शिक्षण	6
▁टोंग	6
▁दबाया	6
▁मिज	6
▁कोवेंट	6
▁कार्यान्व	6
इस्ता	6
▁सुधर	6
▁नोड	6
▁मंडरात	6
▁एथेलब	6
ाल्ड	6
▁टॉकीज	6
▁दिबा	6
रीमा	6
▁अजन्म	6
कल्लू	6
डेम	6
शु	6
▁थॉर्न	6
ींस	6
▁हलाल	6
▁स्लेड	6
संचार	6
लिपि	6
▁सनराइज	6
्कार	6
▁भारमल	6
▁जस्ट	6
▁लिम	6
ुलावे	6
▁महाजनपद	6
▁मंदसौर	6
▁लुभावन	6
शुआंग	6
त्स	6
ुड़ा	6
शेल	6
हांडी	6
न्क्वे	6
▁गाढ़	6
▁डिस्कवर	6
▁सम्मिश्रण	6
▁खामिया	6
क्कम	6
▁तलवारबाज़	6
▁जेरो	6
▁चेल	6
▁सेनेगल	6
हाई	6
्कॉन	6
इमो	6
▁हार्व	6
▁आयत	6
▁अन्यत्र	6
▁क्लिफ	6
▁डैरे	6
▁सिक्	6
ंकारा	6
▁वैश्य	6
▁सोलो	6
▁बानी	6
▁निशानेबाज	6
िशिया	6
▁सफ़र	6
ंटे	6
▁मुख्यत	6
▁तरफ़	6
▁स्थानीयकृत	6
▁आत्मसात	6
▁कॉर्नेलिय	6
मृत	6
▁महासागरों	6
▁बब्बर	6
▁माइट	6
ाइबेरिया	6
▁कौरव	6
▁पिण्ड	6
▁यि	6
▁झुंझ	6
▁पोटल	6
ऱ	6
▁हेंडरसन	6
सबरीमाला	6
▁फ़्ल	6
▁निकलो	6
ाबाई	6
▁अर्न्स्ट	6
▁ढाला	6
▁हस्की	6
▁डायनासोर	6
▁देवैया	6
प्रदेश	6
▁फ़्लू	6
▁नक़द	6
लूज़	6
▁असमी	6
फैक्स	6
्यो	6
▁मिक्स	6
▁एडमिरल	6
▁कोबरा	6
ैत	6
▁रितुपर्ण	6
▁लकीर	6
▁वीज़	6
▁घना	6
▁तै	6
▁मिल्स	6
▁पहनेंग	6
▁कष्टप्रद	6
▁डेव	6
▁वाउ	6
▁डिक्रूज	6
्टर्स	6
▁पवार	6
▁मल्टीटास्किंग	6
▁प्रभेद	6
ानस	6
सविक	6
ोगे	6
▁पीप	6
▁एबर्ट	6
कीय	6
▁नदीम	6
▁बाँह	6
गावा	6
▁आर्मिनिय	6
तानी	6
जिमा	6
▁धरम	6
▁माउथ	6
▁अल्ज	6
▁खल	6
िस्ले	6
विंग्स	6
▁टावर्स	6
चुंब	6
▁भगोड़	6
▁फाल्	6
▁पोन्न	6
बहिष्कृत	6
हाट	6
ट्रिक	6
▁क्रेम	6
▁तानाशाह	6
▁लुट	6
प्रकार	6
▁बॉट	6
▁फोस	6
जक	6
▁गनर्स	6
▁अकड़न	6
▁इस्त	6
▁नोय्यल	6
इज़	6
सदस्य	6
परी	6
▁सुशर्म	6
ँडे	6
चुर	6
डेड	6
ोसले	6
▁गैवल	6
थाम	6
▁टपल	6
▁उमय्यद	6
▁मूर्खता	6
डास	6
हिरा	6
▁अलेक्जेंड्रिया	6
▁कोट्टुक्कल	6
दराज	6
▁देवदूत	6
▁क्रेटर	6
▁स्माइली	6
जाई	6
्मार	6
▁सुसी	6
▁रागमालिका	6
ोक्स	6
ुताना	6
▁बैक्ट्रिय	6
गरीब	6
षा	6
्टि	6
▁नवे	6
बिना	6
▁तटरक्षक	6
▁रामपुर	6
▁ब्यौर	6
▁ऐड	6
▁जुड़वा	6
ोमो	6
▁साधना	6
त्विक	6
▁ऊसन्धि	6
▁खालि	6
▁फार्गो	6
ेबोर्ग	6
▁घिसा	6
चेक	6
▁निर्यातक	6
ौंडि	6
उत्तरी	6
▁योगदानकर्ता	6
तोष	6
▁डोनेगल	6
▁अनीस	6
▁जिहाद	6
▁क्ली	6
▁एकादश	6
▁डांटते	6
▁वाहिकाए	6
▁कूल्ह	6
▁अवे	6
▁हनो	6
▁निर्दय	6
▁बान	6
▁ऐरे	6
▁ढो	6
ल्लू	6
▁भो	6
▁यशोधर	6
पाउंड	6
▁वातापी	6
▁कीटाणु	6
▁आचार	6
▁बॉर्डर	6
लियों	6
ेस्टन	6
▁आवर्ध	6
▁चेसाप	6
घेरा	6
▁उल	6
▁सुरु	6
▁जूली	6
▁न्यून	6
कार्ता	6
▁विवर	6
▁एबट	6
▁टार	6
शम	6
▁ग्रिफ़िथ	6
▁तंब	6
ल्का	6
▁खुरदर	6
▁रिकॉर्डों	6
लें	6
▁पैशन	6
▁पनप	6
▁यीश	6
ंटेज	6
▁थिबॉ	6
▁केदाह	6
▁ताकाहा	6
पाली	6
महाराष्ट्र	6
▁तरु	6
डेन्स	6
▁फारुख	6
टोन	6
▁मोंटेनेग्रो	6
ीदार	6
▁नॉन	6
थो	6
▁परन्तु	6
खल	6
मालूम	6
▁नोलन	6
▁सौदागर	6
ज़ीद	6
संयोजन	6
▁डिलिवर	6
▁स्टूडियोज	6
तिक	6
▁पेप्स	6
शायद	6
रामा	6
ारामं	6
▁संरक्षि	6
▁भेजेग	6
सिरी	6
▁सीध	6
म्भ	6
▁डकार	6
▁नां	6
देड़	6
▁रेयेस	6
योग्य	6
▁झपक	6
बाब	6
चुंग	6
ोपनह	6
विट्ज़	6
▁मुअज़्ज़	6
्रु	6
▁शेवर	6
▁जलालाबाद	6
पोक	6
▁यौवन	6
▁दुर्वा	6
▁बैपटिस्ट	6
▁परिचारिका	6
▁उत्परिवर्त	6
▁गोसाईं	6
▁अर्थव्यवस्थाओं	6
आकृतियों	6
▁होरेस	6
▁रेह	6
▁खाड़िया	6
▁पालनाघर	6
▁क्रिम	6
▁कपूरथला	6
्सिस	6
फाइटर	6
▁स्लैलम	6
गाड़ियाँ	6
▁ब्रेंड	6
गाता	6
▁टेक्नो	6
ोमेट्र	6
▁दीपा	6
तूफान	6
▁संभल	6
▁वंगा	6
▁लुओ	6
▁विवध	6
▁इरोड	6
▁रुपया	6
▁स्ट्रॉस	6
▁सायरा	6
▁परित्याग	6
▁अनुष्	6
▁हाइकिंग	6
▁भाटी	6
▁पठारों	6
ूड	6
▁प्रवृत्तिय	6
पहचान	6
▁जीतें	6
पड़े	6
▁वज्रय	6
▁गिलिय	6
▁छत्तीसगढ़ी	6
▁मेलुक	6
ावु	6
ाट्टु	6
थोडुपुझा	6
वेस्ट	6
▁पुंज	6
▁अलेक्स	6
▁बुलबुले	6
मैया	6
▁अंगरक्षकों	6
त्रो	6
▁एशले	6
द्र	6
पंगहल	6
मोह	6
▁स्लाइडर	6
▁उत	6
▁रेडिय	6
रोकार	6
ुम्न	6
▁एक्सपर्ट	6
राघव	6
▁खेलेंग	6
▁घिसी	6
▁रुकें	6
ुण्डल	6
लेश्वरी	6
▁दंते	6
▁फिट्ज़	6
▁जियान	6
▁कशेरुक	6
▁उदल	6
द्वैतवाद	6
▁टेरिट	6
▁डायना	6
▁वल्लिमल	6
▁एंजेल्स	6
▁कांता	6
▁पार्टनर्स	6
ीसाइक्लि	6
▁पॉलि	6
▁पायनियर	6
▁स्टेट्समैन	6
बिश	6
▁एक्यूपंक्चर	6
जंतु	6
निदान	6
▁वॉशर	6
बियो	6
बेर	6
▁बर्द	6
▁सेनेट	6
▁कामरूप	6
संयुक्त	6
ंक्शन	6
▁वार्म	6
▁चर्चिल	6
▁गर्त	6
▁कंधा	6
विधि	6
त्ता	6
▁बनास	6
▁साइनाइड	6
▁झाग	6
▁अभिकरण	6
विस	6
लायम	6
कहानी	6
▁बहरे	6
राब	6
▁कन्नडिपु	6
▁समितियाँ	6
▁अर्जु	6
गरा	6
▁अरंग	6
▁अँधेर	6
▁टेराकोट	6
▁पाएगी	6
स्टाइन	6
▁प्रॉम	6
▁सफ़ोक	6
▁जीजा	6
कोडी	6
मन्नार	6
▁हिरोश	6
▁ग्लोर	6
▁ब्रदर	6
मर्स	6
▁अस्मा	6
रण्य	6
▁कर्ज़	6
▁कोलेज	6
ेशा	6
▁कोंड	6
सूर	6
▁तृष	6
बेंट	6
खी	6
निवासी	6
चलो	6
▁विषाणुजन	6
▁जेकब	6
▁दीवाना	6
ज़ू	6
▁जुन्नार	6
▁लुज़ोन	6
▁ज़ाय	6
▁हर्ज़	6
क्रांत	6
▁गैले	6
▁निर्धन	6
▁विरुत्तम	6
▁ग्लू	6
▁तिरुवन्नामल	6
▁अर्थशास्त्री	6
▁राइफ़ल	6
▁कालानुक्रम	6
▁पेरा	6
▁प्लेयर्स	6
▁दीपाल	6
रम्भ	6
वत्	6
मॉर्मन	6
▁इमाद	6
टाइप	6
▁आर्द्रभूमियों	6
स्कोप	6
▁व्लोर	6
▁ऐप्लिकेशन	6
▁अवशिष्ट	6
▁अकादम	6
▁हेज	6
टवुड	6
▁ब्रेंट	6
गुएर	6
▁तनावग्रस्त	6
गू	6
वंशी	6
▁मॉर्ट	6
▁एरिक्सन	6
बांट	6
बॉट	6
▁वु	6
क्रेन	6
▁चखन	6
▁फिना	6
▁गुस्	6
▁माइग्रे	6
चीत	6
▁एंटिओक	6
▁रूटीन	6
▁जगदीश	6
▁पुनरा	6
सोलारि	6
▁डुबा	6
नार्ड	6
गित	6
▁कार्ने	6
▁राजापुर	6
▁बन्द	6
▁संजीवनी	6
▁हद्द	6
▁बेसाल्ट	6
▁जुमाई	6
▁आंच	6
बंगाली	6
स्तानी	6
▁लोडर	6
!)	6
▁हैमलेट	6
▁अब्दु	6
▁फ़रहान	6
▁चहल	6
▁प्रक्रियाएँ	6
▁ओबी	6
▁निष्प्रभाव	6
▁गंधमर्	6
▁नज़रबंद	6
▁स्टै	6
▁बेगवान	6
लकोट	6
▁झड़न	6
बित	6
▁भौतिकवाद	6
▁रेसल	6
▁निर्भीक	6
▁सुखाय	6
▁पैच	6
िकिंस	6
न्शियल	6
▁जमाया	6
तोल	6
▁सुधी	6
▁बहरो	6
▁नाडू	6
क्लिफ	6
▁ज़िया	6
शिन	6
▁तीखे	6
▁कोलम्बिया	6
▁माट	6
बाय	6
▁घोंप	6
ैनिय	6
▁पराध्वनि	6
▁बुर	6
▁क्वार	6
▁अग्निशामकों	6
▁आसक्त	6
गारे	6
▁गह	6
िज	6
▁पुरा	6
▁मॉस	6
▁तल्लीन	6
▁चतुरंग	6
ष्	6
▁लिं	6
अस्तित्व	6
▁आप्रवास	6
डोली	6
▁पैठा	6
▁बेरेन	6
▁हुड्डा	6
ार्जन	6
▁निन्तेंदो	6
बोध	6
▁चतुर्वेदी	6
जाने	6
▁खामोशी	6
▁साइंस	6
▁रसक	6
▁गुटनिरपेक्ष	6
केंद्रीय	6
▁मिज़ाज	6
▁साकेत	6
▁रुपय	6
▁चुमौकेदिमा	6
▁मार्तंड	6
वर्मा	6
वालों	6
▁क्रिस्ट	6
▁छूए	6
▁लाहि	6
दास्तान	6
▁पेंशनभोग	6
▁चिन्हक	6
▁हंट	6
▁पहरेदार	6
नेज़	6
▁लिंक्स	6
▁राउडी	6
विड्थ	6
▁जलयोजन	6
मल्लाह	6
▁क्रिएटिव	6
▁अडानी	6
▁सुखाने	6
▁नेपल्स	6
मेरी	6
▁शेखाव	6
▁ऑस्	6
फ़िक	6
▁खरीदेंगे	6
▁शर्मिंदगी	6
तक	6
▁औजार	6
▁ओस्	6
चयन	6
वाहा	6
▁घटती	6
▁चंद्रप्रभा	6
▁जेन्स	6
▁भरता	6
▁पायथ	6
▁मला	6
किला	6
िष्ठ	6
▁मदरबोर्ड	6
▁हार्प	6
▁बुज़	6
▁कड़वा	6
▁टिंग	6
▁मौलवियों	6
▁ब्रह्मचारिणी	6
▁व्यसन	6
▁गीतात्मक	6
▁नाइकी	6
▁ग्रैन	6
▁खज़ान	6
▁रहम	6
▁स्प्लि	6
मंदता	6
▁बाँ	6
स्लाव	6
▁फ्रैंकोनिय	6
▁असंयम	6
नाडा	6
▁बल्लाल	6
▁बुंग	6
▁वर्णम्	6
▁राजस	6
ोविस	6
▁नाट्यशास्त्र	6
▁फ़र	6
▁ओप	6
आधे	6
सफेद	6
▁स्क्रैंटन	6
पेश	6
▁गर्जन	6
▁मलप्रवाह	6
▁अल्वार	6
▁चूहे	6
▁फिंगर	6
▁ध्वन्यात्मक	6
▁विभेदन	6
सोस	6
▁वेंटिलेटर	6
▁बवेरियन	6
▁अतुलनीय	6
धम्म	6
▁भराव	6
ढ	6
ुरू	6
▁अनचाह	6
▁चित्रवल्लर	6
▁संतराग	6
रक्तता	6
▁दरगाह	6
▁विक्टोरिय	6
मस्तिष्क	6
▁संचलनों	6
▁कड़ियाँ	6
तालीस	6
▁हाशि	6
▁चमकीला	6
▁संस्थाप	6
▁करूं	6
कचारी	6
फ्तार	6
▁माणिक	6
▁मध्यस्थों	6
▁अरकंस	6
▁रेसलिंग	6
बर्फ	6
प्रणाली	6
▁मंगन	6
▁वर्स्ट	6
▁स्म	6
▁जुटाया	6
▁एहतियात	6
▁घुसे	6
▁अग्नाशयशोथ	6
▁एग्ज़	6
शिक्षित	6
चिकित्सक	6
वु	6
▁शीन	6
▁अपघर्ष	6
▁गुरम	6
टोमा	6
▁ज़ै	6
▁बगुला	6
▁व्हिस्की	6
▁भाषाविद	6
▁महक	6
ुंग	6
▁संगीतम	6
ंतू	6
▁पाल्क	6
▁प्रतिक्रियाएं	6
कवास	6
बंटू	6
▁लुत्फ	6
▁अल्ट्रा	6
मक्कल	6
निर्भर	6
▁कसाई	6
स्टरबोट	6
▁पहुँचाना	6
यड	6
▁मुथ	6
▁कच्चा	6
▁विरल	6
डोनाल्ड	6
▁विध्वंसक	6
▁वस	6
▁क़ानून	6
▁मरिनर	6
करें	6
▁कर्	6
श्ती	6
▁छिड़कत	6
बीज	6
▁कम्युनि	6
▁पाट	6
▁पिताजी	6
▁सिखा	6
▁दोषमुक्त	6
▁बटे	6
▁कैटल	6
▁डॉकलैंड	6
▁स्पॉट	6
राजेन्द्र	6
▁सूत	6
▁जूड़	6
कुंचन	6
▁मचाई	6
▁लुढ़क	6
▁कोल्ड	6
▁डिंप	6
▁कुड	6
ईं	6
ोष	6
▁डाउ	6
▁एवन	6
थैलेसीमिया	6
▁क्लोज़	6
बुर्द	6
माइंड	6
▁स्टार्ट	6
▁एंटोन	6
क्सन	6
▁पाल्म	6
स्ट्र	6
▁नॉटिंघम	6
र्जेंट	6
▁अष्टम	6
▁चिट्ठिय	6
▁चलेंगी	6
▁पीटत	6
▁कीर्ति	6
▁स्लीप	6
▁संकरी	6
▁सद्गुण	6
िनाई	6
▁मुक	6
▁टेबलबेस	6
निर्णायक	6
▁हीमोफिल	6
▁चाइल्ड	6
▁सहनशीलता	6
▁उपांग	6
▁उण्डुक	6
▁टर्	6
शुआ	6
▁पुदु	6
▁सुझा	6
िसाई	6
▁स्ट्रेट	6
▁रेनॉ	6
▁लक्क	6
िफा	6
स्ट्रीम	6
विंदर	6
▁सांगली	6
▁जलग्रीव	6
▁यूसुफ	6
▁प्रकाशकों	6
जेर	6
जों	6
▁एडि	6
▁लाभप्रद	6
▁कॉर्नरबैक	6
▁बृहदांत्रशोथ	6
▁व्याख्याता	6
क्सस	6
▁अमृतराज	6
ियर्स	6
वेनिया	6
▁चरागाह	6
▁मेगा	6
▁टेंप	6
▁बेताब	6
▁मस्	6
स्वर्ण	6
▁लाली	6
▁पावा	6
▁माइ	6
संयमित	6
श्लेष्मा	6
हिंदी	6
ोनिया	6
चिक	6
टोने	6
शरीर	6
जलसंभर	6
▁मुह	6
▁अचक	6
▁ल्योन	6
फेयर	6
इरोक्व	6
▁बोर्ग	6
▁शालीन	6
ैमी	6
खंडों	6
▁बनाएगा	6
▁टापू	6
ेट्स	6
▁जूनियर्स	6
▁वेदर	6
▁मध्याह्	6
अपना	6
▁प्रवालद्वीप	6
▁कदल	6
ुंडी	6
▁ऐना	6
ाडो	6
राइड	6
▁नॉरम	6
▁जत्थ	6
▁गड़ा	6
ग्राइन्ड	6
▁ब्रोंक	6
अद्यतित	6
▁लुडवि	6
मोर्फ	6
▁बनवाए	6
अधस्त्व	6
▁रिवर्स	6
▁कम्यूनि	6
▁वंशागत	6
त्कर्ष	6
▁दलहन	6
▁कंसोर्ट	6
▁क्रैन	6
▁पाकेनह	6
▁बुना	6
▁धर्मदूत	6
▁कॉर्नवाल	6
▁बीट	6
▁गश्ती	6
नेत्र	6
▁बहर	6
▁ग्	6
रियट	6
▁टोमा	6
ाद	6
▁युक्ति	6
▁जहरील	6
▁रिटेल	6
▁नवम्	6
▁मनमो	6
▁वांडा	6
▁ट्रोजन	6
▁चंडे	6
▁नामो	6
निशान	6
▁प्यू	6
▁टास्क	6
▁पुली	6
पहाड़	6
धमनी	6
▁नयन	6
ैरियो	6
▁गिब	6
▁फ्लाक	6
तोड़	6
किर	6
▁ग्लूको	6
सुषिरता	6
▁सैय्यद	6
▁रजिस्ट्र	6
िट्ज़सिमन	6
▁गद्य	6
▁तोला	6
▁क्वे	6
▁ठाणे	6
▁ऑर्थोस	6
पका	6
सियो	6
▁इनमे	6
▁देखिए	6
▁ऑस्ट	6
▁कलह	6
्जा	6
▁उतारी	6
▁तंतुमय	6
▁टेस्	6
▁जेफरी	6
▁मूत्रमार्ग	6
▁कंसास	6
▁लॉन्गहॉर्न	6
ट्रेन	6
▁नेड	6
िद्दी	6
▁महापाषाण	6
▁अल्ला	6
ाँत	6
▁दलील	6
कानून	6
▁रईस	6
▁कीजिये	6
▁पाँव	6
मसूद	6
▁गर्भाधान	6
फिनिट	6
▁प्रवर	6
▁अफ़ग़ानिस्तान	6
हालांकि	6
▁तरोताज	6
▁कार्सन	6
▁बेडफोर्डशायर	6
अरुलडोस	6
▁बोन	6
नूतन	6
▁त्सुत्सु	6
म्पटन	6
▁पेटेंट	6
सोट	6
▁लाभार्थी	6
ोमैटो	6
ॉघ	6
▁मोनसे	6
डिन	6
ियाल	6
ंगेर	6
▁किट्स	6
वाय	6
▁उमस	6
▁राइटर	6
▁तिरु	6
हामा	6
▁टक	6
प्रोफ	6
▁अबुल	6
▁भैरब	6
पीस	6
देवास	6
▁बरूथी	6
▁इश	6
ष्टांग	6
सीवर	6
कॉन्टिन	6
▁पौर	6
▁ज़ंग	6
▁वेस्टमैनलैंड	6
▁चिया	6
फ्री	6
▁हक्का	6
▁अनुज्ञा	6
▁रेडियोधर्म	6
▁कलूग	6
▁लिबेर	6
सिराज	6
▁कोरबा	6
▁टेनिया	6
▁कराएगा	6
ादी	6
▁हंगेरिया	6
▁बेर्डे	6
▁वरकुदार	6
ास्प	6
्टिस्ट	6
क्वेट	6
▁अफ़सोस	6
▁उद्दीपन	6
▁ओस्व	6
लांग	6
▁जलपाईगुड़ी	6
लेंडर	6
रेडिवि	6
▁एअरोफ़्लो	6
▁चाला	6
जेंसी	6
▁पासपोर्ट	6
▁चोलो	6
▁स्वलीनता	6
कोस्टर	6
▁संतर	6
▁अपोलो	6
रेज़	6
घम	6
कच्छ	6
िएशन	6
कोविल	6
▁टूटना	6
▁जन्मभूमि	6
▁नियो	6
▁मिज़	6
निरीक्षक	6
▁लक्ष्मीकांत	6
▁गठ	6
▁कहाः	6
▁खारा	6
▁तत्	6
▁शिल	6
▁पितृसत्ता	6
▁विपास	6
ांश	6
जार	6
इंस्टाकार्ट	6
▁मकई	6
▁ग्रांड	6
हिंदू	6
रखाव	6
लास	6
चैट	6
▁पदयात्रा	6
▁लाला	6
▁ज़िज़क	6
▁उड़ाया	6
▁आरएस	6
नेत्रश्लेष्मला	6
▁आरक	6
▁एकांत	6
अभिन	6
▁पित्ताशय	6
रोपण	6
▁फेवर	6
▁हैंडसेट	6
▁भीष्म	6
ैम	6
▁बेटन	6
ाइटिंग	6
▁गढ़वाली	6
ल्हा	6
▁मज्ज	6
वापसी	6
तोश	6
▁बेटर	6
▁हल्द	6
▁पूज	6
▁मिलेंगी	6
▁बिठाया	6
▁सिद्दी	6
शू	6
▁रेगेन्सब	6
समझे	6
्रिंक	6
▁स्टूडेंट	6
▁बेसर	6
▁कुशान	6
बौद्ध	6
▁मर्सी	6
▁जंप	6
नाकार	6
रदाद	6
मायर	6
▁सनमाही	6
▁कसा	6
डिहाइड	6
▁बनेगा	6
कुनी	6
▁तोरण	6
ह्न	6
्प	6
▁उपहास	6
नोर	6
▁चेंज	6
▁ओवन	6
कार्सिनोमा	6
पश	6
▁छापेमार	6
▁लीज	6
▁मटक	6
▁वासुक	6
▁संथाल	6
▁वाइपर	6
ामना	6
▁लिविंग	6
▁जलविभाज	6
▁पट्टिका	6
तिल	6
बोनी	6
▁अनुपूर	6
चो	6
▁त्रयोदश	6
ग्रीको	6
बैक्ट्रिय	6
▁कार्स	6
राल	6
टिक्स	6
▁उत्क्रम	6
अग्निपथ	6
▁देवगिरि	6
▁सोल्जर	6
▁पेरो	6
▁भिखारियों	6
▁वजीर	6
▁सत्त्र	6
▁कजर	6
▁गागा	6
▁लैला	6
ड्डा	6
ोपैथ	6
▁क्राको	6
हार्ड	6
▁भगवत	6
▁श्रृँखला	6
▁एस्क	6
▁कावागु	6
▁गिप्	6
▁गुहेरी	6
▁दिवा	6
▁मोच	6
▁फन	6
विश्व	6
▁धमकियों	6
▁स्पीच	6
ंबर	6
यमुना	6
▁दालचीनी	6
न्द	6
▁डर्मेटो	6
▁श्लेष्मल	6
ात्स्य	6
▁पिका	6
▁कुंवर	6
▁पुरोच	6
अगर	6
▁नात्ज़	6
सरण	6
साहित्य	6
▁सादगी	6
कोइस	6
ाराम	6
जीव	6
ग्लिया	6
▁बार्टन	6
▁सेल्युल	6
भेद्य	6
▁समता	6
▁अता	6
▁फार्मूल	6
▁कैस्प	6
▁मलक्का	6
▁ऑप्स	6
ीयता	6
▁शिवगंग	6
▁मध्	6
▁भराई	6
ंडर	6
मांड	6
▁खिसका	6
▁स्टेपल	6
▁छेदन	6
▁कटवा	6
▁चिल्का	6
▁फ़ॉरेस्ट	6
▁वंशवाद	6
▁डिंडी	6
▁इलेक्ट्रोलाइट	6
बट	6
▁कादर	6
▁एशेज	6
्मोन	6
▁रंगद्रव्य	6
डली	6
▁बढ़ेगा	6
▁चेसबेस	6
एट	6
▁स्मि	6
प्रतिरोध	6
खेड़	6
▁आरोन	6
▁बिरज	6
▁जात	6
माकृतिक	6
▁द्रु	6
डर्स	6
▁कुंडा	6
▁डाई	6
वर्स	6
संबंध	6
▁आर्डर	6
्रॉन	6
जाला	6
▁ट्रेनर	6
▁बोर्न	6
▁रिपोर्ट्स	6
▁षष्ठम	6
▁आइडल	6
▁खोखले	6
▁फ़ाहियान	6
▁स्टेटन	6
जैसी	6
तावाद	6
▁झाँक	6
▁इंस	6
▁चै	6
गॉग	6
ाज़ोल	6
वाने	6
▁नोंगम	6
▁शोष	6
बेस	6
रमन	6
सली	6
स्टेरॉइड	6
▁नौसिखि	6
पटन	6
रोम	6
्पा	6
▁तंदुरुस्त	6
▁अहान	6
स्म	6
▁समुहें	6
▁लिंच	6
▁रंगनाथ	6
▁वेदिका	6
ंगड़ी	6
▁ब्रेम	6
ंट्री	6
▁गर	6
▁यूट्रेक्ट	6
ूडल	6
▁रॉजर्स	6
तों	6
रायलसीमा	6
दाय	6
▁डंठल	6
▁पुरावशेष	6
▁मितव्यय	6
▁पांडा	6
▁बाहु	6
सत्य	6
▁अंबाला	6
▁एम्मास्	6
नर्तक	6
सांस्कृतिक	6
▁विशाखापट्ट	6
▁स्पार्क	6
फ्रांसीसी	6
▁हरियाणवी	6
ाइसिन	6
ेटर	6
▁पिगमेंट	6
▁अंगरेज़ी	6
▁हॉक्स	6
र्स्ट	6
▁कोबे	6
ोवो	6
▁उलेमा	6
▁मैसेडोनिय	6
रमैन	6
थेन	6
▁हां	6
▁लाह	6
▁ताओल	6
▁तिम्म	6
केट	6
▁खण्ड	6
संतृप्त	6
▁गुमती	6
▁अरमान	6
▁साला	6
▁शमी	6
▁टोमोग्राफ	6
▁सिद्धांतकार	6
▁चुंग	6
▁वाल्	6
तीसरी	6
▁बासुदेव	6
कोना	6
▁पलानी	6
▁नाइट्र	6
मुतल	6
▁उलझन	6
a	6
▁उगाद	6
▁अंतःक्षेप	6
▁वैद्युत	6
यामत	6
▁टहल	6
▁हिग	6
▁मिस्ट्र	6
▁वेरा	6
▁किन्	6
▁बुरु	6
▁थूथन	6
बाइट्स	6
लिकॉन	6
▁लिज़	6
तुंग	6
▁गोफन	6
▁अप्र	6
▁लौंग	6
▁विप	6
▁नकारा	6
▁ड्यूट	6
▁सल्फासालाज़िन	6
▁गुलाल	6
▁खंगा	6
▁हदी	6
▁मुस्करा	6
वर्न	6
▁सुलिवन	6
▁संद	6
▁सनेड़ो	6
▁मर्यादा	6
गेराल्ड	6
जाज़	6
्काइडो	6
िष्णु	6
▁अल्कोहल	6
▁बोया	6
▁झड़ी	6
▁बसादी	6
विभाग	6
ाजनिया	6
▁भिगो	6
▁आइलैंड्स	6
रावाक	6
▁पॉ	6
सुंदर	6
▁गिने	6
्यूर	6
▁राठौड़	6
ौल	6
▁गोड	6
ीजा	6
▁सीन	6
▁बाकू	6
▁पाथ	6
ोणम	6
इकोप	6
▁चोला	6
▁ज़बर	6
ौक्स	6
▁आल्प	6
ज़ार	6
रैम	6
िग	6
कोडोन	6
▁रितु	6
पूर्णा	6
▁बढ़ोत	6
गोंड	6
▁ह्युं	6
रेटर	6
▁ग्रु	6
हेतुक	6
▁पुकुट्टी	6
▁क्रमादेश	6
▁जैब	6
ुशासन	6
▁बाइ	6
▁अर्लिंग्टन	6
यंट	6
ंकी	6
▁खातू	6
▁पुलुम	6
रूर	6
▁अम्बा	6
▁परीक्षक	6
▁बेलेर	6
▁अनुपल्लवी	6
▁पायसम	6
▁फ्राई	6
▁मोनाल	6
▁बैरक	6
मणिपुर	6
िशन	6
सही	6
ाज़ी	6
▁ज़ार	6
▁हरीश	6
्यूस	6
▁बीदर	6
▁पॉज़	6
ासीन	6
प्ट	6
▁वार्डन	6
▁कुराकाओ	6
सिंधु	6
साध्य	6
ॉर	6
ब्लां	6
ूडो	6
▁पढ़े	6
▁उदासीनता	6
▁मनस्कता	6
▁फ़्री	6
▁सुकुमार	6
▁द्रोग	6
्बा	6
▁डेविडसन	6
िर्के	6
▁तानम	6
बॉ	6
अंदाज़	6
गीत	6
▁फ़्रि	6
▁लखन	6
▁फड	6
▁नैस	6
▁चुसन	6
खर	6
धनुष	6
▁मठरी	6
गरी	6
र्प	6
▁बैतूल	6
▁हर्	6
▁तहस	6
▁डोबरियाल	6
▁ग्लाइको	6
गान	6
▁बॉक्साइट	6
नोव	6
▁विश्वरूप	6
भा	6
च्छल	6
पान	6
▁कोट्टा	6
▁रवीन्द्र	6
▁लोव	6
▁कृष्णागिरि	6
नक	6
▁जनजातियां	6
▁परिश्रम	6
शर्त	6
▁लाइक	6
▁मेहम	6
ारण	6
क्षेत्रों	6
▁मुक़ाबला	6
लेटर	6
▁फ्रो	6
▁मुखबिर	6
▁एप	6
▁युग्मन	6
▁डांट	6
▁शिक	6
▁पिग	6
▁कालाहांडी	6
▁पर्दाफ	6
▁बीजगणित	6
▁मालपु	6
यारियाँ	6
▁बांधकर	6
श्लेष्मला	6
▁सीई	6
▁जेरेमिया	6
मालिक	6
▁मॉर	6
पूर्वाग्रह	6
▁खंग	6
ीमा	6
▁धमका	6
▁जैत	6
▁जीवाणुरोधक	6
सैट	6
गेश्वर	6
▁कूदना	6
▁वीआई	6
▁झींगे	6
▁इरा	6
▁बाग़	6
रलैंड	6
ुड़ी	6
▁नैन	6
▁पिलात	6
−	6
▁कल्ल	6
ज़रलैंड	6
▁रोड्रिग	6
केसरी	6
▁बैलरैट	6
▁आकांक्षा	6
थपथ	6
▁हंग्राइ	6
▁टेडी	6
ताया	6
अनु	6
▁चॉक	6
▁कस्तूरी	6
▁बराकर	6
▁नाटिका	6
▁बालाघाट	6
▁रेचे	6
▁ज़ियाओ	6
▁विचित्र	6
प्राचीन	6
्च	6
▁ब्रैंडन	6
बर्टा	6
▁नलसाज़	6
▁पत्नियां	6
ियान	6
▁घूर्ण	6
ंगु	6
पेरिकार्डिय	6
▁भिन्नताए	6
▁सतकर्णी	6
▁दौड़ा	6
▁सावन	6
▁उखड़	6
▁इंटरक्रॉस	6
▁चिंगार	6
▁पादपों	6
▁ग्रीनविल	6
रकुदरा	6
हेब	6
▁चित्तस्वर	6
▁रिसेप्	6
्रिक्क	6
▁ब्रू	6
नंद	6
▁प्रविष्टियाँ	6
फायर	6
छुए	6
मदनी	6
▁भेजेंगे	6
▁टाउट	6
▁उर	6
▁हृद	6
▁तँत्रिका	6
▁धोए	6
ोटाइप	6
प्रेज़ेंटे	6
▁नोम	6
▁लेनन	6
▁सर्टिफ	6
▁थाः	6
▁चलें	6
ुफ़िय	6
डुल	6
▁अर्ज	6
▁एम्पोरिय	6
▁अवजालतानिक	6
प्टोसिस	6
▁मोडे	6
त्रु	6
▁मैसी	6
▁पूछिए	6
ग्र	6
रगा	6
ोंटेन	6
▁एलेक्जेंड	6
▁चाहत	6
दूध	6
▁बोत्	6
ोरिया	6
▁प्रदर्शनात्मक	6
तंत्रिका	6
▁समागम	6
▁वॉइस	6
सहायता	6
र्गी	6
▁आपात्काल	6
▁फरीदाबाद	6
▁फ़िल्टर	6
यात	6
▁एलएल	6
▁राल	6
▁तरंगें	6
▁थायरॉ	6
▁गैंगटौक	6
▁सिल्व	6
▁तेग	6
▁व्हील	6
▁मजीद	6
एट्स	6
शैल	6
▁चतुश्र	6
गरान	6
र्फ़बॉल	6
▁ठ	6
▁वैद्यनाथन	6
▁हालात	6
▁नवीकरण	6
मल्ल	6
डॉकिंस	6
▁अलाप	6
▁डेमो	6
▁चूमत	6
▁चचेर	6
▁विल्हेल्म	6
वाहिकार्बुद	6
▁पादरियों	6
▁श्रीवास्तव	6
▁दीना	6
▁चंद्रकांत	6
▁संप्रति	6
▁तातार	6
ाढ़	6
▁वाडी	6
▁नवाजो	6
खराब	6
▁बिय	6
▁मैटल	6
▁फ़ा	6
तालमेल	6
▁हर्ज	6
पहले	6
▁बेल्व	6
▁मैत्रक	6
▁रामेश्वरम	6
▁डोलोमाइट	6
व्यू	6
▁अलाबा	6
▁थोप	6
▁बिगड़े	6
हिमालय	6
▁ऑफर	6
सदन	6
▁स्पैनियल	6
▁चव्हाण	6
दों	6
▁खोख	6
हें	6
▁जुट	6
नोइड	6
पृष्ठीय	6
ड्डियाँ	6
▁दांव	6
कॉट	6
▁बशीर	6
▁आर्केडिया	6
▁तोपें	6
▁अनक	6
▁कसाब	6
▁अवदृढ़तानिक	6
▁पलाश	6
ेम्बा	6
▁युवती	6
थुक	6
▁ह्यूज़	6
▁लश्कर	6
▁रिबाविरिन	6
▁सप्लाई	6
▁एन्कोड	6
▁जिप्स	6
भक्षण	6
▁लेई	6
▁गरज	6
्स्ड	6
▁धुँधल	6
▁मताधिकार	6
▁होसा	5
▁सकूंगा	5
▁सर्द	5
▁उजाल	5
▁डिफ़	5
▁बॉन	5
▁श्र	5
▁श्वेता	5
▁कुमाऊँ	5
▁हेस्	5
खनी	5
▁सेनानायक	5
▁सट	5
▁वर्षगाँठ	5
▁बताऊँ	5
संदेह	5
कोसा	5
▁साइम	5
▁सुंदरगढ़	5
▁डिस्	5
रुप	5
▁थक्क	5
▁आत्मदाह	5
▁लोहित	5
▁कादरी	5
▁ओन	5
▁मेवों	5
▁क्विज	5
कृषि	5
▁आइच	5
▁ह्य	5
लिपिड	5
▁इवेंजेलि	5
▁ससानिय	5
कैप	5
▁गुंद	5
▁कैनडा	5
▁कॉप	5
▁बेचेंगे	5
ँसा	5
▁गिल्टी	5
भक्ष	5
▁लुसि	5
ाज़	5
▁ताजिक	5
फोर्ट	5
्टिट्यूट	5
▁खटखट	5
▁डुप्लेक्स	5
मौला	5
▁सहभाग	5
▁वॉरिय	5
▁मेहंदी	5
▁मित्त	5
▁थ्रि	5
▁रेगुलेटर	5
▁डर्मो	5
▁कोरि	5
▁मुख्तार	5
▁मेमन	5
▁सलाख	5
ंत्रिक	5
▁अरामी	5
नाय	5
▁पंचकू	5
ब्रोक	5
▁प्रयोज्य	5
ीक्षण	5
▁सफ़ा	5
▁गेब्	5
कन्नन	5
▁हेराक्लि	5
▁पोली	5
ॉफ़	5
▁शिरोवस्त्र	5
▁यूथ	5
▁ओरोज़	5
▁तनिष्	5
▁व्यायामशाला	5
▁तमोतिया	5
फस	5
लावत	5
▁वैंड	5
▁बांझ	5
▁अद्भुद	5
धारणाओं	5
▁गिरोहबाज़	5
▁शक्कर	5
▁नीतिया	5
▁इज	5
▁उत्साहपूर्ण	5
रियो	5
▁युए	5
▁धुंधल	5
▁जैकोब	5
▁कोरकाई	5
वेंदर	5
▁कोंगु	5
कलाकारों	5
▁बेहज़ाद	5
▁अर्थशास्त्रियों	5
▁बांद्रा	5
▁अविभाज	5
▁संसथान	5
ाल्ट	5
▁लट्ठे	5
▁निराकर	5
▁अवतरण	5
▁ब्लेज़र	5
▁रेक्ट	5
▁मुंगेर	5
▁सोमपुरा	5
सोर्स	5
ज्ञप्ति	5
अंजलि	5
▁सीरो	5
▁पेंटेकोस्ट	5
▁सोलोइंग	5
▁ताइ	5
ट्रोक	5
पूर	5
ाणु	5
▁अयना	5
▁गैट	5
▁हेच	5
▁तरकीब	5
▁मार्टीनिक	5
▁मजबूरी	5
प्रचारक	5
▁नाइज	5
▁अभिकलन	5
▁टोब	5
निष्ठा	5
मॉन	5
▁चेतावन	5
▁धर्मस्थल	5
विकंपन	5
ँख्य	5
▁कल्ला	5
▁डेक्स	5
ुनू	5
लस्थ	5
▁बास्टर्ड	5
▁सुपरलीग	5
▁ओके	5
रूपी	5
▁गुंजन	5
मार्क्सवादी	5
फ्राम	5
माँ	5
▁बर्नी	5
▁चमत्कारों	5
नुक्का	5
▁स्लॉट	5
▁सिटकॉम	5
▁कीटाणुनाशक	5
स्वतंत्रता	5
▁निम्नतर	5
▁वर्त्मपात	5
घोड़े	5
▁बांद	5
क्षमा	5
बीजाणु	5
▁थर्ड	5
कपुर	5
▁बिच्छू	5
▁पूछकर	5
सिर्फ	5
▁हेमिंग्	5
सुपरमॉडल	5
▁लिम्ब	5
▁नेवार	5
▁लकी	5
▁खूं	5
▁सेवानिवृत	5
सुरक्षा	5
▁रेशेदार	5
▁सेंडा	5
▁ब्रूक	5
▁फ़ेर	5
गोवा	5
▁भुवन	5
▁उपदेशक	5
सावधानी	5
▁मिहिर	5
दर्शी	5
प्रवेश	5
▁कोडशेयर	5
ब्राह्मणवाद	5
▁कालभ्र	5
वॉश	5
▁मीत	5
कैवेल	5
रूखा	5
ेंज़	5
▁स्वावलंब	5
▁पिथौरा	5
▁मुए	5
▁स्वानस	5
▁पत्ता	5
्ल	5
ोना	5
जिला	5
▁डॉर्	5
▁रजोनिवृत्ति	5
▁शिंगो	5
शियन	5
▁युज	5
वाही	5
खेलों	5
▁ब्रिग	5
▁उरी	5
▁बस्त	5
▁ग्रिप	5
ंजनी	5
▁ब्ला	5
बक	5
▁ब्लेन	5
नापोट	5
▁न्यूर	5
▁एलिफेंट	5
हि	5
▁अंतःकोशिक	5
कोलेस्टेरोलेमिया	5
▁सूचीपत्र	5
▁बेग़म	5
नॉट	5
▁मैगजीन	5
▁लेपचा	5
▁फिटिंग	5
मिनार	5
▁कलाम	5
▁सुनाता	5
▁बाँटे	5
जैन	5
▁वेरकुद	5
▁बेगाव	5
▁एलिया	5
▁पच्ची	5
▁इटालिया	5
▁छत्तीस	5
▁हड़	5
▁राजप	5
▁रें	5
▁चंग	5
▁नोवो	5
▁रूज	5
ग़ज़	5
▁सूक्ष्मदर्श	5
ुचा	5
▁मद्य	5
▁कूड	5
▁सोपानी	5
▁भट्टार	5
▁ग़ुलाम	5
्क	5
▁बोरब	5
फुक	5
▁सोरा	5
▁मटिया	5
▁प्रतिवेद	5
▁शल्क	5
▁अमोन	5
▁आर्टिस्ट	5
▁तापन	5
▁दासी	5
▁खी	5
मुदी	5
र्थी	5
फेलो	5
▁रहस्योद्घाटन	5
▁मुस्तफ	5
अंत	5
▁चट्ट	5
▁चाहा	5
▁माजिद	5
▁बाजवा	5
▁एकत्रीकरण	5
▁कन्	5
▁स्नैपर	5
▁शिमो	5
▁सत्यदेव	5
फ़्लूएंज	5
▁नॉक्स	5
ज़र्ड	5
लोम	5
शालाएँ	5
▁फज़ल	5
र्गन	5
▁लांस	5
मुस्ती	5
▁पागलपन	5
▁फेक	5
▁उल्व	5
▁अशिष्ट	5
▁पेलियो	5
लिथ	5
▁रिट्री	5
ण्डा	5
▁शिर	5
क्रिटिक	5
▁आर्टिफि	5
▁नैव	5
▁चढ़ाना	5
▁लैंकशायर	5
▁बिटटोरेंट	5
त्सो	5
▁मार्कअप	5
▁कैम्पबेल	5
▁नृत्यकला	5
▁दमकल	5
ुक़	5
अथ	5
िक्क	5
▁एंड्रोट	5
▁मिल्क	5
▁शेक	5
पोड	5
रेस	5
ुआन	5
▁बाजा	5
▁लेस्टर	5
ासा	5
▁कैम्पिंग	5
▁कड़व	5
▁आभ	5
िलाभ	5
सड़क	5
▁कोषागार	5
स्ट्रोक्स	5
▁मही	5
▁मुख्यमंत्र	5
मंत	5
▁लेगी	5
▁अछि	5
▁भड़कील	5
▁बेरे	5
▁तैल	5
ोसोम	5
▁फो	5
▁पुलित्ज	5
▁क्रैक	5
▁क्व	5
्पति	5
ऊपरी	5
छह	5
▁अधः	5
ध्यक्ष	5
▁लद	5
▁फ्रेस	5
▁चूमा	5
▁ओज	5
▁पाँ	5
सांप्रदायिक	5
▁कुफ़ा	5
▁मांडू	5
राजपुर	5
कूड़ा	5
▁नोय	5
▁बिष्णु	5
▁जैक्सनविले	5
मलेट	5
खाद्य	5
नॉर	5
भु	5
इयाँ	5
▁कृंतक	5
ट्रैक्ट	5
▁पासाड	5
▁बोधिधर्म	5
▁ओव	5
▁श्वसनी	5
नवाज	5
▁कहर	5
तुओं	5
▁सुंग	5
▁जुड़ना	5
▁जंपिंग	5
ठियों	5
▁जुलत	5
▁श्वसनीशो	5
▁ससुर	5
▁लकवा	5
प्राथमिक	5
डल	5
चयित	5
▁निं	5
▁सुशील	5
म्बुल	5
मिश्रण	5
▁संस	5
ड्यूल	5
▁कॉर्ड	5
▁क्रॉफर्ड	5
जोरी	5
▁नहाने	5
▁धबलेश्वर	5
▁जाइए	5
न्ड	5
▁शरत	5
▁आमोद	5
▁ग्रूट	5
▁मोना	5
▁गोमा	5
▁मानिक	5
तला	5
▁अल्ट	5
क्ता	5
लक्षणहीन	5
▁कैमडेन	5
▁फ्लिंट	5
▁जोंग	5
▁ओले	5
बोम	5
ूमा	5
▁अश्रु	5
▁एप्स	5
▁धौला	5
▁भरण	5
▁प्रतिपादन	5
▁टचस्क्रीन	5
▁बोरो	5
▁दीर्घकाल	5
ग्	5
आर्म	5
ास्ट	5
र्सिया	5
▁खुर	5
ज्ज	5
▁नेविगे	5
▁धुआ	5
▁मिरान	5
कट्स	5
▁छड़	5
▁लाएं	5
▁खारावेल	5
▁छड़ों	5
▁सुपरबाज़ार	5
▁साहित्यम	5
टोस्कोपी	5
▁श्वा	5
हराते	5
▁उन्न	5
▁कैली	5
कारखाने	5
▁बुलेवार	5
लेटिको	5
अगस्त	5
प्रशिक्षण	5
▁एमने	5
स्पेल	5
भौगोलिक	5
▁अपरंपरागत	5
▁बश्क	5
▁एल्स	5
शोभ	5
नेशिया	5
साम्	5
खांसी	5
▁थोंग	5
ुप्रिया	5
▁चड्डा	5
▁हम्प	5
▁शीर	5
▁रूमाल	5
जनन	5
प्लेन	5
▁दासगुप्ता	5
▁लिंगों	5
▁रैड	5
IX	5
▁पिए	5
▁मोटरव	5
जोज़	5
▁सिसिली	5
कूर	5
क्र	5
डैक	5
▁बोंग	5
▁टेक्नोलॉजीज	5
▁धर्माध्यक्ष	5
र्बी	5
वॉली	5
▁किर्गिस्तान	5
▁हिगुआ	5
▁उलझा	5
▁कनिष्ठों	5
▁सलाम	5
स्डा	5
▁हैंडेल	5
▁गद्दे	5
थैला	5
▁भाटिया	5
िहा	5
▁सार्वज	5
ात्रा	5
▁आस्ट्रेलियाई	5
▁वर्निक	5
▁पौंड	5
▁प्वाइंट	5
▁डीपिन	5
▁सिलि	5
▁डिवाइ	5
▁तानाशाही	5
▁मित्सु	5
▁ग्रेगोर	5
तिब्बती	5
ोलो	5
ाइयों	5
िरौन	5
लीपाक	5
▁यूरेन	5
बर्मी	5
▁उत्कल	5
स्नॉर्कलिंग	5
▁धाबी	5
▁थकाऊ	5
तली	5
▁झाँसी	5
▁स्क्रै	5
▁गिब्स	5
ड्यूक	5
▁रॉयटर्स	5
▁अनुत्तर	5
▁कांग्रेसी	5
▁रेनो	5
▁फ़ाइ	5
▁त्सु	5
▁तांबा	5
▁नैग	5
▁मुज	5
▁रडार	5
▁आर्टेमि	5
▁जातक	5
▁शैम्प	5
अरक्तता	5
▁कोल्ट	5
अमौर	5
▁मॉन्स्टर	5
▁तितलियाँ	5
▁ड्रेगन	5
▁पार्लियामेंट	5
▁कटवान	5
▁सिंडिकेट	5
शिकाओं	5
▁मेढ़	5
▁धमक	5
▁क्रिसिल	5
▁फिच	5
अली	5
▁यूटीसी	5
▁रेलगाड़	5
▁ऐक्सेस	5
मवर्क	5
▁फ्रि	5
▁अमरोहा	5
▁द्वीपवासी	5
▁सदनों	5
▁पग	5
प्रतिरक्षी	5
▁ऑटोमेट	5
ल्यूशन	5
▁वीगन	5
ोनेन	5
▁इनु	5
▁जागत	5
▁मार्ख	5
▁समरसेट	5
▁डुओ	5
▁हेस्टिंग्स	5
▁दूँगा	5
मिनी	5
▁विचलन	5
▁टाइटेनियम	5
▁स्क्वे	5
साफ	5
सीह	5
▁आदर	5
▁डेटोना	5
केरे	5
धरणी	5
▁वाइल्डकैट	5
▁घोंघे	5
चेचक	5
▁हेरोल्ड	5
▁अमरी	5
ंडियन	5
▁सूपर	5
निर्देशन	5
▁ग्लैम	5
संयोजकों	5
▁कॉन्स	5
रेश	5
▁मक्खियाँ	5
नगेट	5
ब्लॉक	5
▁अष्टमु	5
▁पापनाश	5
▁बोंगो	5
िलीज़	5
▁बीएसएनएल	5
जयगढ़	5
▁झगड़	5
▁नन्ही	5
गुणवत्ता	5
फ़ाई	5
▁संभाव्य	5
▁बिजय	5
▁फ़िनिश	5
राय	5
▁चुटकुल	5
▁अक्षत	5
▁पशुपति	5
▁आनुवांशिक	5
▁मोटोरोला	5
▁बर्से	5
िउआन	5
पचार	5
▁डाइ	5
वित्त	5
दाद्री	5
पत्थर	5
एमएस	5
▁यूजर	5
वेदन	5
▁मधुरक	5
बनाम	5
र्गो	5
▁नीलगाय	5
▁चाड	5
▁फ्राँसीसी	5
▁नज़ार	5
▁पुनर्निर्धारण	5
मोगा	5
▁वर्ज	5
संद	5
▁बंजार	5
▁द्रुपद	5
रेट	5
▁व्यूअर	5
▁पीटरसन	5
▁सुझाया	5
▁चप्पल	5
लिकन	5
▁होल्स्टीन	5
▁खोखली	5
र्की	5
▁शहज़ाद	5
▁झुग्ग	5
▁परमेश्वरी	5
▁अंधविश्वास	5
▁फर्नांडी	5
▁पोर्न	5
ोट्रोपि	5
मिंग	5
उद्दी	5
▁वेंकटेश	5
ोमाइसिन	5
▁कार्कोट	5
▁वेंट	5
▁जोसेफिन	5
मैनुएल	5
▁स्टेनोज	5
ोलोल	5
▁श्वेतपटल	5
सीम	5
▁बेचीं	5
▁इंडिका	5
▁स्पेक्ट	5
▁पाटली	5
▁शिल्ट	5
ाटो	5
काव	5
▁ट्रांजि	5
▁निर्वात	5
ुआना	5
▁लौटी	5
▁अकर	5
▁आश्रितों	5
ईश्वरवाद	5
मेई	5
पेड	5
▁तलछटी	5
▁केनरा	5
▁शौचा	5
लाइफ	5
ोच	5
प्रभाव	5
स्ट्रॉ	5
कुंडा	5
संक्रम	5
ंडू	5
▁शुक्रिया	5
▁डूंगरपुर	5
टें	5
योस	5
आय	5
लाक	5
ेमिन	5
▁महेन्द्र	5
▁सूचि	5
िकेशन	5
थिक	5
▁बैरोक	5
▁मर्सिडीज	5
▁रखेग	5
▁ढील	5
▁खंदक	5
▁प्रेस्टन	5
▁ग्लोरी	5
▁माथुर	5
▁पहुंचेंगे	5
▁खिलना	5
▁सिफिलिस	5
▁मुर्त	5
अर्स	5
▁प्रणेता	5
ोह	5
▁लेंगी	5
▁दुम	5
▁छत्त	5
▁बैंकनोट	5
ोर्न	5
राँ	5
▁गाली	5
ॉकिंग	5
▁अफशर	5
▁संस्मरणों	5
▁तानसेन	5
गुणसूत्र	5
वृद्धि	5
▁विखंड	5
ल्डेन	5
▁जाऊंगा	5
▁अलमारिय	5
▁बरदा	5
▁क्रेटन	5
थीम	5
▁नानु	5
रामी	5
बंधु	5
▁स्टॉकिंग	5
▁साख	5
कुश्ती	5
ग्डेन	5
डान	5
▁परिक्षेत्रों	5
▁यानम	5
नूक	5
▁डिज़ाइनर	5
▁इटैलि	5
▁मैक्रो	5
खला	5
विन्यास	5
असर	5
▁डब्ब	5
▁अनार	5
▁चलीं	5
▁पनपत	5
▁सद्	5
▁गेल्डर	5
▁एडीज	5
माइट	5
▁कैरा	5
▁अल्टीमेट	5
▁हॉस्पिटल	5
▁टोन	5
ँख	5
ोलमेन	5
लक	5
▁लंगूर	5
▁लूँ	5
▁लाइफ़	5
▁मोहल्लों	5
▁ग्रोस	5
▁पुनर्निर्धार	5
▁क्रे	5
▁देवनागरी	5
▁ट्रेवल	5
▁दृष्	5
▁फेरार	5
िकासो	5
▁कतरन	5
▁मालेगाँव	5
▁ड्राई	5
▁स्टैम्प	5
▁डिक्स	5
▁माघे	5
▁अमाल	5
▁विपिन	5
ेलिया	5
▁स्नायुबंधन	5
श्रेणियों	5
▁ओइ	5
▁फ्र	5
▁सीढ़ियाँ	5
थू	5
▁कट्टा	5
▁कंगल	5
▁जुनिपर	5
देसी	5
▁काज़	5
कुड़ी	5
▁व्युत्क्रम	5
▁फातिम	5
▁न्यायधीश	5
क्लाउड	5
▁खाएगा	5
▁एड्रिया	5
▁कैथलिक	5
▁मंदिरजा	5
▁बंजारनेगारा	5
▁एड्रिय	5
▁उम	5
स्पष्ट	5
्नो	5
▁रिफ़ाइनर	5
▁उत्क्रमणीय	5
▁बकरियों	5
कद	5
▁आर्लिंगटन	5
▁ऐल	5
स्टॉम	5
▁जालसाज	5
सिव	5
जंग	5
ोफोन	5
▁हिर्श	5
▁नू	5
▁स्कोव	5
▁कार्यदिवस	5
▁हाफबैक	5
▁अग्न्याशय	5
▁गतिविधिया	5
दिवाली	5
्यूरोन	5
▁स्क्रीम	5
शामक	5
्गा	5
हथियार	5
ब्रे	5
वृक्ष	5
▁तोपच	5
ंद्र	5
पूयम	5
▁मापना	5
▁अल्बा	5
▁कोल्ल	5
▁बारब	5
▁विल्ट	5
बैंगनी	5
ाज्य	5
▁बॉस्क	5
▁गिरिजा	5
ुबर्ट	5
बाजी	5
▁एर्ग	5
िगिन्स	5
▁लह	5
दीपिका	5
▁कुकुनूर	5
▁रविशंकर	5
▁रिफा	5
वाहो	5
▁खेलो	5
▁प्यादा	5
्लिंग	5
▁पहुँचीं	5
▁उमिया	5
▁गहना	5
न्जिल	5
▁लेटर	5
▁चांसल	5
▁अजू	5
टिनेंट	5
▁जिसमे	5
▁वला	5
▁हेप्टाथलॉन	5
▁गागर	5
▁बर्गा	5
▁आये	5
▁मिठाइयां	5
▁उभरीं	5
▁अंध	5
महामहिम	5
▁कॉर्प	5
▁पत्तियाँ	5
मलाशयी	5
ेंको	5
ैलेंट	5
दैव	5
▁जुन्नर	5
नेरी	5
▁चिरं	5
गद	5
▁गुजारा	5
▁क्वेकर	5
▁स्लोवेनिया	5
▁सुरुल	5
×	5
सम्मान	5
▁क्रूजर	5
छे	5
▁हेयर	5
▁यूज़र	5
लाख	5
▁घनास्र	5
णु	5
फिंगटन	5
▁ऑग	5
जावेद	5
ापुरम	5
ण्व	5
▁मर्सीसाइड	5
▁हज	5
▁वार्मलैंड	5
▁आंतराय	5
▁जीवाणुज	5
▁बिस्वास	5
▁ट्रॉ	5
▁गुलमर्ग	5
▁प्रैक्टि	5
▁डायने	5
▁फ़िलिप	5
▁प्रोवो	5
▁नागिन	5
▁सरोज	5
▁कोहनियों	5
्यूट	5
ोबेक	5
▁बलिया	5
▁बेवकूफ़	5
मई	5
ज़ेन	5
▁पुरु	5
लियो	5
▁सुरैया	5
▁क्षुधा	5
▁मुं	5
▁एंड्रोस	5
▁इन्स	5
▁कैनर	5
▁एस्केप	5
▁पेना	5
ूं	5
▁खोलती	5
▁बार्डे	5
▁हनीमून	5
▁मसूरी	5
▁सनसनीखेज	5
▁इलेक्ट्र	5
सके	5
▁उस्तर	5
दरा	5
वेधन	5
▁दुविधा	5
▁डिस्पेंसरी	5
ंदी	5
▁कम्	5
▁एनिमल	5
गोज़	5
▁चैट्सवर्थ	5
▁टिमो	5
▁असंबद्ध	5
िट्टा	5
परिचित	5
रिक्स	5
▁वाचाघात	5
▁फोनर	5
▁सफे	5
टीस	5
▁मझ	5
▁धब्बा	5
क्षि	5
लेज	5
▁हुबली	5
▁चरवाह	5
ब्रांड	5
▁धुआँ	5
थि	5
बगल	5
गुनी	5
▁चंद्रा	5
▁वुडलैंड	5
▁ग्लैड	5
▁मल्लयुद्ध	5
▁सुब्बा	5
▁परफॉर्म	5
यर्स	5
ोएब	5
▁सुखा	5
▁ओब	5
लेसर	5
▁कॉर्बू	5
▁कुरी	5
▁कैरिओक	5
▁अक्स	5
▁रिह	5
गाज़ी	5
▁सलवार	5
▁लहंगा	5
▁तिरुवल्ल	5
थॉन	5
ट्रॉय	5
▁बस्तिया	5
सज्जित	5
▁गैल्	5
वेस्टन	5
▁धृत	5
विषय	5
▁उलझने	5
रौली	5
▁नीलकंठ	5
मिर	5
▁नकारत	5
▁सुव	5
इट	5
ंछ	5
ओगे	5
▁पय्य	5
▁गोताखोर	5
▁बिमल	5
मोनिया	5
ञ	5
▁रक्तदान	5
▁पाठ्यपुस्तक	5
पड़ता	5
ात्विक	5
मेंटेक	5
▁प्रिंसे	5
▁इंटरल्यूकिन	5
▁निर्वाह	5
▁मोग	5
अंतिम	5
▁स्कै	5
▁बोम	5
फान	5
▁देवदास	5
▁पुस्न	5
्ला	5
▁शिल्ल	5
▁फादर	5
▁क्रमांक	5
▁फ़ोर्ड	5
मारत	5
▁थ्रे	5
योगिता	5
▁नेत्रश्लेष्मा	5
▁केशिका	5
यत	5
▁रसोइय	5
▁लैट	5
▁निहितार्थ	5
ॉटेन	5
ोली	5
▁बार्ब	5
सागु	5
पेनिसिलिन	5
गरिमा	5
▁नाह	5
▁लांछन	5
र्विन	5
▁खंभात	5
▁शिवा	5
▁चील	5
प्पू	5
▁अंबर	5
▁खींचें	5
▁टिश	5
▁कैलेडोनिया	5
पत्रों	5
▁महज	5
▁सरिता	5
▁कलर	5
क्रेड	5
▁नाउ	5
सिक्सटीन	5
▁क्विंटान	5
▁बहुभाष	5
नद	5
कुमा	5
▁कोरैयार	5
▁ट्रॉम	5
▁स्ट्रेस	5
▁तेरे	5
▁श्रावण	5
▁ज़ेम	5
निजी	5
▁पिस्सू	5
▁अख़बार	5
▁ओस्टरग	5
▁चना	5
ोक्ति	5
▁निज	5
▁कबूल	5
▁परिसंघों	5
पछतावे	5
प्रिंट	5
टेस्ट	5
ोश	5
▁दुआ	5
एक्शन	5
▁ज़ारा	5
▁अल्लू	5
दानी	5
▁मलमल	5
अगला	5
▁हीरोज	5
▁कराये	5
▁मांडोवी	5
वोल	5
▁स्ट्रैट	5
▁इष्ट	5
कर्ण	5
▁ड्रु	5
▁टैंग	5
▁प्रौद्योगिकियां	5
मामूली	5
▁अल्कास	5
▁बर्धमान	5
▁अंतःक्रिया	5
▁विच	5
▁चित्तर	5
▁क्वाड	5
्वेग	5
पर्पटी	5
▁प्रेयरी	5
▁ल्यूटन	5
दृष्टिता	5
▁छुट्टिया	5
▁एंडीज	5
▁दुकाने	5
▁धनुर्	5
ुशी	5
▁ऊर्मि	5
कार्बोनेट	5
ंगे	5
बहुल	5
▁बनवा	5
▁करवाए	5
▁डिब्रूगढ़	5
द्रविड़	5
▁चंदेरी	5
▁पास्को	5
▁जयकार	5
मर्द	5
▁खगोलविद	5
थगढ़	5
▁बिश	5
रवा	5
▁कॉनवे	5
ाग	5
▁ओनेसिक्रिट	5
▁सेफ्ट्रियाक्सोन	5
▁तख्ता	5
▁सां	5
▁फजल	5
▁चिट्टा	5
▁ऑटोपिक्स	5
▁नतालिय	5
▁मुरी	5
▁निमित्तो	5
▁शमन	5
जागृति	5
▁पूक्कलम	5
▁बुसान	5
▁जुवेंटस	5
▁कोटे	5
▁कोलीनधर्म	5
▁एक्सल	5
र्म	5
▁बाध्यता	5
▁अराजक	5
फ़िश	5
▁घुलन	5
▁मिन्ह	5
खाये	5
ूषण	5
▁बैप	5
▁किम्बर्ली	5
उआ	5
▁रोबोटिक	5
▁व्यू	5
्पल	5
▁प्याला	5
संक्रमण	5
▁तत्पर	5
▁सीखे	5
▁शिल्पों	5
▁जागो	5
▁डंप	5
▁मुरा	5
▁चिकत	5
वृत्ताकार	5
पोजिशन	5
▁शत	5
▁तेन	5
▁बाहुल	5
▁आफ़त	5
▁सब्बाथ	5
▁क्वो	5
▁मुल्लाय	5
▁प्रोविडेंस	5
बॉम	5
▁सींच	5
एंडोस्कोप	5
▁मानवाभ	5
▁महालक्ष्मी	5
▁एडो	5
▁डरावना	5
ऑस्ट्रेलिया	5
▁निरूप	5
एल्लू	5
ोलिक	5
शाइन	5
विदु	5
▁कोठार	5
▁प्राच्य	5
डॉल्फ	5
डेथ	5
▁बुसी	5
▁कौव	5
▁अधिमानतः	5
▁वैप्प	5
▁स्काइ	5
▁ओज़	5
ार्क	5
▁एरिय	5
सभी	5
▁चर्	5
▁प्रशीतन	5
▁कशेरुका	5
▁तेंत	5
ओन	5
▁कोलनुपाक	5
▁असम्	5
▁लिखेंगे	5
▁धूमकेतु	5
▁सविता	5
एनबी	5
रायर	5
▁सुरील	5
▁दुभाषिय	5
नोवा	5
▁ढोक	5
व्यास	5
योजन	5
▁पालीता	5
शोक	5
▁ज़मींदार	5
जनता	5
▁कोशी	5
▁अमाया	5
▁अश	5
भराव	5
▁लिथु	5
▁सुम	5
टेश्वर	5
▁पियानोवादक	5
▁फूटी	5
ासी	5
▁जॉग	5
ेले	5
▁अच	5
अंतर्राष्ट्रीय	5
्सुम	5
▁मूल्यांक	5
▁कोयोट	5
▁वृषध्वज	5
▁प्रॉस्पेक्ट	5
सिफिक	5
▁कांगला	5
लियाँ	5
▁तुर्को	5
ुश्रुत	5
मैमन	5
▁हॉज	5
▁दै	5
महीने	5
नदीवी	5
▁स्किन	5
▁रुन	5
ार्थी	5
इश्क	5
▁इवा	5
नोक	5
▁अपरा	5
अल्पक्रियता	5
▁उपायुक्त	5
▁होल्ट	5
▁मुकर	5
▁बेद	5
▁भद्र	5
▁वायल	5
ओंट	5
▁हेक्सा	5
जोर	5
्चर	5
▁सांव	5
▁इन्फोस	5
टक	5
▁दिसा	5
▁विलम्ब	5
▁मुंडन	5
▁हेंड्र	5
डेटा	5
▁वेसत्रा	5
लोह	5
▁एस्ट्रो	5
्रॉप	5
र्तो	5
▁गांज	5
▁इज़रायल	5
▁होल्डिंग्स	5
पेंटर	5
▁बिगड़त	5
▁विद्युत्	5
▁वेरोन	5
▁जांचा	5
र्टिग	5
▁मेलेनो	5
▁बुलडोज	5
▁चेकिंग	5
▁डालेगा	5
द्वितीय	5
▁एक्सॉ	5
▁बावरा	5
एशिया	5
प्रीत	5
▁जताया	5
▁अथरामुरा	5
▁लोंगथराई	5
प्सी	5
▁बीड	5
▁चिल्लाया	5
निल	5
Rediff	5
▁ग्लूटामेट	5
▁अगाथ	5
▁लंक	5
▁चेयर	5
मुक्ति	5
दाहो	5
▁चेत	5
▁बाह	5
्ज़ा	5
भारती	5
थिन	5
यंत्र	5
▁फ़ौ	5
▁रेंगत	5
लाइनर	5
▁फिसलत	5
▁चर्म	5
▁कैटामार	5
▁मम्म	5
▁बॉक्सर	5
तगिरी	5
▁सेंक	5
▁सहयाद्रि	5
▁कारो	5
ऊँ	5
ुपल्ल	5
▁तुरा	5
▁कैलि	5
▁कटोरा	5
कीपर	5
▁ज़ेरोफ़्थैलमिया	5
▁पोन	5
▁स्टीरियो	5
ब्लो	5
ास्पद	5
▁रिफ़	5
▁गुआ	5
चर्वण	5
दंत	5
▁भाज	5
▁पठ	5
निवेश	5
▁वेश	5
ोलॉजी	5
▁कोचों	5
▁इरविन	5
वत्स	5
▁भूसंपत्ति	5
यवनी	5
▁सीरा	5
आजम	5
▁फंद	5
▁खातिर	5
ेगिच	5
▁तहर	5
▁झुनझुन	5
रुद्दीन	5
▁पश्चाताप	5
पढ़	5
▁न्यूट्र	5
▁कुरा	5
▁मुवात्तुपुड	5
▁अलेक्जेंड्रिय	5
▁शिस्ट	5
▁क्वार्ट	5
पोत	5
▁आउटफील्ड	5
ीद	5
दलित	5
ज़िंग	5
पता	5
मुझ	5
▁रामटेक	5
माधव	5
▁वंग	5
क्सिस	5
चित्रण	5
▁फाइलें	5
▁क्रिस्टो	5
ैट्रिक	5
▁मुलाक़ात	5
▁गोधरा	5
ग्रंथ	5
डॉग	5
▁घूमना	5
▁कुट्ट	5
▁विलाय	5
▁रिम	5
▁रोटर	5
▁एकरूपता	5
▁समेट	5
▁बैंक्स	5
ड्रन	5
▁बुकर	5
▁खाँ	5
नैल	5
▁श्लेष्म	5
▁शक्ल	5
▁इंटरमीडि	5
▁दालें	5
सैक	5
ंघ	5
▁सापुतारा	5
▁मंडोव	5
निवार्य	5
काक	5
▁पिशाचों	5
जपुर	5
रज्जु	5
तीव्र	5
▁वज़	5
▁कमज़ोरी	5
▁तंजा	5
रावत	5
▁होमो	5
रेक्ट	5
न्हा	5
दुल्ला	5
▁पेंटा	5
▁आइसोट्रेटिन	5
▁त्रिकूट	5
▁मैकेंज	5
लेज़	5
▁ईज़	5
टाबेस	5
▁शिल्पकारों	5
पेल	5
▁पसलिय	5
▁करुण	5
▁ऑपेरा	5
▁तिरुप	5
राजाओं	5
▁कछ	5
ठम	5
▁प्रतिस्कंद	5
▁घिसे	5
चालुक्य	5
▁इंट्रा	5
▁साजिब	5
ड्रिल	5
▁विमेन	5
▁फोंग	5
बाना	5
▁छका	5
▁फॉरएवर	5
▁चित	5
▁तं	5
योगी	5
▁प्रीत	5
दिल्ली	5
▁सम्मोहक	5
▁खोलना	5
▁फेरा	5
वसंत	5
ग्रुप	5
▁मिखाइल	5
ंचा	5
ोइड	5
▁गोंजाल	5
▁दासता	5
▁दाय	5
▁केनेडी	5
▁भटकन	5
▁लड़खड़ा	5
▁अंगुली	5
▁तिलमिला	5
▁राजवीर	5
▁चिट	5
▁सलीब	5
▁सनक	5
▁ईसोपदेश	5
▁डेजर्ट	5
▁मर्म	5
▁लीची	5
▁बागी	5
▁क्वा	5
सच	5
▁बीता	5
▁बोआ	5
▁रेतीली	5
साई	5
▁नजी	5
िरूपण	5
▁हर्बर्ट	5
▁श्योपुर	5
▁वाइ	5
▁वॉल्ड	5
गेटिव	5
▁शूम	5
▁महेंद्रगढ़	5
ज़ोव	5
▁महिमामंड	5
▁डूम	5
ैस	5
▁रीजेंट	5
▁किंडरगार्टन	5
▁बोग	5
▁पेले	5
सीन	5
▁रामनवमी	5
▁लॉड	5
▁बठिंड	5
▁अवतारों	5
▁पीक	5
▁तत्त्व	5
▁उन्नति	5
सोने	5
प्रतियोगिता	5
▁द्वादश	5
▁इंडिक	5
▁वर्धा	5
त्ती	5
▁क्रोह	5
▁माल्य	5
बढ़ा	5
िय	5
▁विक्रमशिला	5
▁ईमैक्स	5
▁सोयाबीन	5
▁साइबिको	5
▁सार्डिनिया	5
नामलाई	5
एसिटामिनोफेन	5
▁बुलाए	5
गवर्न	5
क्षारक	5
भागों	5
▁अस्टुरिय	5
कोशिका	5
मित	5
शॉट	5
नवंबर	5
टिप	5
परीक्षा	5
▁चोंच	5
गुहा	5
मच्छर	5
▁एटली	5
्सटन	5
▁रेज़र	5
ान्तर	5
क्सिंग	5
▁घोटाला	5
▁सुशीला	5
▁कॉर्नियल	5
▁एनवायरनमेंट	5
ताशा	5
▁फ्लॉ	5
▁टर्म	5
▁शं	5
हर्षवर्धन	5
▁जेली	5
▁डेप्युटीज	5
▁फाइब्रो	5
हिंसा	5
हेल्प	5
वर्गीकृत	5
▁मीनाचिल	5
ज़थ	5
यथा	5
चौ	5
▁प्रधानाचार्य	5
थायोन	5
▁क्रिसेंट	5
▁नेरावल	5
▁वाडि	5
ेव	5
▁हीट	5
वेव	5
▁बियाम	5
▁कॉक	5
कोशी	5
▁रज	5
▁स्वच्छंद	5
▁गैंड	5
▁एम्बर	5
▁अदायगी	5
हाय	5
▁जिंज	5
▁सोनगढ़	5
▁मुस्कुराह	5
▁वेल्ला	5
ाइवे	5
▁घु	5
▁स्पों	5
▁रणनीतियाँ	5
न्ध	5
प्रसंग	5
▁आँस	5
रोटी	5
▁कन्फ्यू	5
्डा	5
लसा	5
▁रूमा	5
नात्मक	5
▁सृज	5
▁डोड	5
▁चूड़ा	5
ंडे	5
▁आसवन	5
▁अभिनव	5
चुरा	5
▁ख्वाब	5
मेडु	5
लिका	5
▁पसली	5
▁सोर	5
▁बोम्मल	5
▁चॉ	5
▁रैपिड्स	5
▁पशुजन्य	5
▁ख़रीदे	5
्दस्त	5
मिज़ो	5
▁पिलाजी	5
▁आंकड़ासंचय	5
▁रिवाज	5
▁तिरुवल्ला	5
नजिंग	5
▁संभालेंगे	5
▁हिंड	5
▁मोटल	5
ियापा	5
▁कुट्टनीम	5
▁फ्लॉप	5
▁पट्टाडकल	5
▁कुंडार	5
नियाँ	5
▁राजेश्वर	5
प्रतिपदा	5
▁वृद्धाश्रम	5
▁कल्ट	5
रोवन	5
ट्रो	5
▁पकाना	5
कम्मा	5
▁विज़ाम	5
▁अश्मित	5
ंद्रो	5
टली	5
ेरॉक्स	5
▁तंत	5
माइक्रोसेफली	5
दड़ो	5
नाट्य	5
ग्लास	5
▁श्रीदेवी	5
▁ब्रोंक्स	5
▁बुझ	5
दीपावली	5
्मों	5
नसें	5
▁मूवीज	5
गेम्स	5
▁स्पैन	5
▁जबड़ा	5
▁वानर	5
सांग	5
▁पेड्र	5
कश	5
▁उमिय	5
▁फुर्ती	5
शेरन	5
ोता	5
▁वालो	5
हांत	5
▁आहू	5
▁राजप्रतिनिधि	5
▁सादृश्य	5
मेद	5
▁कॉपर	5
▁फ़ीड	5
ोग्राफी	5
▁एडेन	5
▁तकरा	5
▁प्राचीर	5
र्लिंग	5
▁मतदाता	5
▁पांडिय	5
▁लोगान	5
®	5
▁ओनास	5
टेनी	5
▁कुकपैड	5
▁प्ली	5
रानो	5
▁यक्ष्मा	5
▁माधुर	5
▁बनेगी	5
▁बकर	5
▁गाथागीत	5
▁ओक्स	5
पाठ	5
▁मायर्स	5
▁बुलान	5
▁स्टीफ़न	5
▁नर्म	5
ऐसा	5
▁ओरेकल	5
्दा	5
पात्र	5
▁फ्रांज	5
▁औंस	5
फोटो	5
▁बीकन्सफ़ील्ड	5
▁घोषणाएँ	5
गुफा	5
▁रोपर	5
काशी	5
▁खुदा	5
▁जाँघिया	5
नमक	5
▁कैरोट	5
▁ब्लाउज	5
▁वोज	5
नियाक	5
▁उद्ध	5
▁अपोलोडो	5
▁पूर्वाभ्य	5
▁इडग	5
▁एडल	5
▁गैं	5
▁बूँद	5
▁मैल्क	5
पास्ता	5
▁कोर्बुज़िए	5
▁चूड़	5
लावा	5
▁ऑल्टर	5
▁समन	5
▁मैक्रोलाइड	5
▁ब्राह्मणी	5
▁अमान	5
▁पंगु	5
हाइम	5
िये	5
▁मैकुल	5
▁जलोत्स	5
गि	5
▁दुपट्ट	5
▁साल्ट	5
▁आविर्भाव	5
▁शावर	5
▁रेयर	5
ोच्चार	5
व्यापक	5
▁लेफ़्ट	5
▁अहलूवालिया	5
▁हिरण्यकश	5
िपु	5
▁अप्रतिबंधित	5
▁राइबो	5
▁कुशीनगर	5
▁नुंग	5
▁लेइमा	5
तुर्की	5
▁सैक्सो	5
तुलसी	5
▁ज्येष्ठाधिकार	5
छाम	5
▁एंटीक	5
▁मोर्	5
▁पाओल	5
▁ओश	5
▁वसीयत	5
▁अंगुल	5
▁फिट्ज	5
स्थापना	5
▁हांग	5
▁ऑरो	5
▁एंड्रोजेन	5
वेलन	5
वई	5
▁टांग	5
ाबा	5
▁लचीलेपन	5
▁देशीय	5
्ले	5
▁चपलता	5
▁स्फूर्ति	5
धन्यवाद	5
र्नेल	5
▁रंगत	5
▁उभयचरों	5
र्कोट	5
▁रोजा	5
▁कल्याणम	5
▁अत	5
▁फियो	5
स्किं	5
▁हटना	5
▁एमएस	5
▁विजन	5
▁झु	5
स्वचालित	5
द्दत	5
लोवी	5
▁रट	5
▁मियां	5
▁रुधिर	5
▁ज़ॉ	5
▁नंदनकानन	5
▁अनुप्र	5
बाइन	5
▁बहाए	5
ब्राइ	5
बोक	5
लुगू	5
▁दृष्टिहीन	5
▁बहुरूप	5
▁गोल्डी	5
▁सुसंगतता	5
▁ग्ले	5
बिर	5
▁सिलेस	5
▁ऐमज	5
▁रंध्र	5
▁लोथ	5
▁असेंबलर	5
▁वेग	5
डेंस	5
▁मेरीलैंड	5
▁सज्जन	5
▁बरार	5
ग्लियो	5
शबनम	5
▁किंवदंतिया	5
▁भगाने	5
▁बदायूं	5
▁रेक्स	5
▁होलोला	5
▁कलहंस	5
ीला	5
▁पम्ब	5
▁यूबीसॉफ्ट	5
▁लिंडेन	5
▁हीथ्रो	5
डॉट	5
प्रद	5
▁दीवाली	5
▁फ्ला	5
▁लुसिय	5
▁एडमि	5
िसिलिन	5
▁कोरोन	5
▁इमोज	5
▁ट्रे	5
▁फंसाना	5
▁उला	5
▁पेस्ट्री	5
▁धुर	5
▁दारुमा	5
▁ऑब्र	5
▁लट्ठ	5
▁अष्टा	5
▁खोलता	5
सीरीज़	5
▁बहि	5
▁जैवमंडल	5
▁रोंग	5
शिका	5
▁श्रीरंगपटन	5
िडा	5
▁लिविंगस्टन	5
▁रखवाले	5
▁मीडियाविक	5
▁शकील	5
▁आज़मी	5
▁स्ट्रासबर्ग	5
▁पेरेंट	5
हस	5
▁मोंग	5
एशियाई	5
▁निखं	5
ुलिया	5
▁गुर्दा	5
▁बपतिस्मा	5
ल्डा	5
▁हेरेर	5
ेलर	5
▁फले	5
▁चेन्न	5
फ्रिज	5
▁बाड़मेर	5
▁पुत	5
सुल्तान	5
▁यशवंत	5
प्रतिस्पर्ध	5
▁डिस्कॉग्स	5
▁नफ़	5
▁गैलील	5
▁विवेकाध	5
▁हॉफमैन	5
▁रान	5
▁मोन्	5
▁महाभक्षकाणु	5
यहाँ	5
▁कव	5
▁स्कोप	5
क्टिविटी	5
परमाण्विक	5
▁हीरक	5
▁अगवा	5
▁अनो	5
हीथ	5
▁बख्शी	5
▁मोडेम	5
नाशक	5
▁लगन	5
टिस	5
कठ	5
्ठा	5
▁निर्मला	5
▁पुनर्भ	5
▁स्टेला	5
▁लाइकेन	5
▁उबंटू	5
▁प्रतिभूतिय	5
▁पायजामा	5
लॉ	5
▁छर्र	5
▁प्लैटिनम	5
स्टिलर	5
▁विज़्	5
ुत्तर	5
▁कंजर	5
▁आतपदाह	5
▁रॉक्स	5
▁बेयर्	5
▁ठाकर	5
▁बतख	5
▁पालिता	5
▁असंवेदनशील	5
▁ट्रैव	5
हदी	5
▁एलीमेंट	5
▁चरमपंथ	5
ोल्ला	5
सुलेमान	5
वता	5
▁पठन	5
संभवतः	5
▁इंटीग्र	5
▁मर्ज	5
▁न्यूफाउंडलैं	5
िमेला	5
काऊ	5
▁ग्वेन	5
पुटी	5
▁हाथरस	5
▁भला	5
रूण	5
ेडेम	5
▁मनोरंजनकर्ता	5
▁रत्नम	5
वरिन	5
ाइयाँ	5
▁मिलेनियम	5
▁कृष्णराज	5
▁जलसाघ	5
▁शैलेंद्र	5
▁छिलका	5
<	5
▁व्यावसाय	5
▁अभिघात	5
्सिन	5
ुमन	5
▁ड्रीम्स	5
▁सुनार	5
मार्ज	5
▁मंग	5
▁वेलक	5
टिला	5
▁सिंदूर	5
▁कहला	5
▁एबेल	5
मीन	5
▁हथगोल	5
▁रखवाल	5
▁लुब	5
▁यूरिया	5
टैग	5
ग्रामम	5
▁क्य	5
▁मिशा	5
▁हवेलिय	5
▁बिजो	5
बहादुर	5
▁क्लेन	5
पिना	5
म्मत	5
नमुंग	5
▁जमना	5
▁श्मशान	5
देवता	5
टेरा	5
▁म्यु	5
▁दक्ष	5
वेली	5
ेलोप	5
▁मर्ट	5
मेघना	5
▁गोम्पा	5
टेंशन	5
नारेस	5
▁घृण	5
▁आष	5
▁परमेथ्रिन	5
▁इन्फ्लुएंज	5
▁स्पिट	5
▁पाल्मा	5
रेटिनाल	5
▁सांगानेर	5
वेदी	5
ौज	5
▁एटम	5
पे	5
▁वेस्टन	5
नाहन	5
▁शील्ड्स	5
▁जुग	5
▁टेंडर	5
रॉन	5
▁चोक	5
ांचल	5
▁विधु	5
▁मुथि	5
▁फ्यूज	5
ल्वर	5
▁फौ	5
ोगो	5
▁ओट्ट	5
▁चं	5
▁स्टाई	5
▁दूंगा	5
ौटी	5
▁ब्लैटर	5
ागिरी	5
▁गेस्ट	5
वावस्था	5
▁कार्रवा	5
▁स्पाई	5
वलिंग	5
▁कर्णवेध	5
्ट्रेक्	5
▁जोएल	5
▁कोविल	5
▁एप्लीकेशन	5
▁काउंसलर	5
इस्लाम	5
ब्रिटिश	5
ुरिय	5
▁निकोबारी	5
▁वर्म	5
न्फ़्लुए	5
▁पोखरण	5
▁चालान	5
फुल्की	5
▁ग्लि	5
▁महाविहार	5
▁पूंजीपति	5
▁शृंगार	5
▁ट्रॉफ़ी	5
▁दत्तिलम	5
▁पुड	5
▁बेवफ़ाई	5
सितारा	5
माइक्रोस्कोप	5
▁दुष्कर	5
गुर	5
गैल	5
टाइट	5
ंगलुरु	5
झा	5
▁फैरे	5
ल्लाह	5
संख्या	5
रण्यक	5
▁उरिया	5
क्षति	5
▁डग	5
लाफ	5
अतिथि	5
▁त्रिक्क	5
ैगन	5
▁प्रभात	5
▁जर्स	5
▁थोडुपुड़	5
▁गोपीनाथ	5
▁एलियनवेयर	5
▁टम्बल	5
़रीब	5
▁रियोजा	5
प्राय	5
▁पैरी	5
▁ब्यूफोर्ट	5
▁कैनिंग	5
▁हंगेरिय	5
रस्त	5
गोरी	5
रोमांस	5
▁एजेंसियाँ	5
र्चों	5
द्दा	5
धर्मत्याग	5
▁पॉलीग	5
▁साव	5
▁ज्योतिर्लिंग	5
▁हैप्पीनेस	5
▁गेन	5
ाल्मो	5
▁हेंड	5
▁रीजें	5
क्विस्ट	5
▁('	5
▁आर्मस्ट्रांग	4
▁रुयि	4
▁चेहर	4
▁पॉलिएस्टर	4
▁निम्	4
▁तुलस	4
▁एथेन	4
प्लेयर	4
▁स्वे	4
▁प्रक्रमण	4
लाइंस	4
गायत्री	4
▁उपश्रेण	4
▁इशारे	4
देल	4
युवा	4
▁कुचे	4
शिनो	4
भंडार	4
▁राजगीर	4
▁हिल्सबोरो	4
▁ब्रेशिया	4
ंडह	4
ेल्ड	4
▁प्रतिज्ञाए	4
जानी	4
फ्रा	4
▁सीपी	4
▁बिलिंग	4
ागो	4
▁संवत	4
फ्ता	4
▁आवर	4
पेशी	4
▁चिक्क	4
वाज़	4
▁मीनाकारी	4
▁तोसा	4
▁प्रेस्ली	4
▁नोह	4
म्मेद	4
बेहद	4
▁लैक्टे	4
▁एंटीक्विटी	4
साज	4
ेचा	4
▁भवाल	4
मुन	4
▁अध्यापक	4
▁लीटन	4
▁चुन्नट	4
▁ख़िलज	4
मेश	4
▁तिरस्कार	4
सै	4
▁फ़िशिंग	4
ोंटन	4
पक्षीय	4
▁पचि	4
पेंटा	4
▁सूज़ाक	4
▁द्वारपाल	4
ॉर्ड	4
खुशी	4
▁खिंचवा	4
▁क्रोशिय	4
▁आयुर्व	4
िज्ञान	4
▁कल्याणमं	4
▁छंदबद्ध	4
स्टोमा	4
ुगु	4
लिटस	4
लियर	4
▁थेवर	4
▁फ़खरी	4
ेक्टर	4
▁पिस्टन	4
▁पाइ	4
▁क्लॉ	4
स्ट्रिड	4
रियल	4
▁पिक्सल	4
▁माथव	4
▁जमशेद	4
▁जालिका	4
▁माइटोकॉन्ड्रिय	4
ंद्रम	4
त्स्क	4
▁लालू	4
लचंद्रन	4
▁वैशाख	4
आत्मनिर्भरता	4
▁ओडे	4
▁रतलाम	4
▁बैराग	4
▁पोह	4
बोली	4
▁बेयो	4
रिएक्ट	4
▁शून्यवाद	4
ांत	4
▁बैरोने	4
▁झट	4
ीओसी	4
▁कार्प	4
▁तप	4
▁कैरि	4
▁नुंगमब	4
विनोद	4
ुष	4
काडु	4
▁मिलिंगटन	4
▁विक्रमपुर	4
▁सैंड्रा	4
सार्वजनिक	4
▁व्हा	4
हुआंग	4
ूद	4
▁पन्निय	4
कने	4
▁मुर्दाघर	4
रेज	4
▁''	4
▁एमुलेटर	4
ेट्टी	4
▁फ्रांसे	4
डाले	4
▁दत्तात्रेय	4
▁यूनी	4
▁पहेलिय	4
▁चेम्बर	4
▁पाइपर	4
▁फ्रेश	4
▁प्रज्ज्वल	4
दावर	4
ल्मा	4
▁रौ	4
▁मरता	4
▁गुडेल	4
▁यूपीए	4
बाइट	4
ाज़ू	4
▁डेवॉ	4
▁ट्रूड	4
बैक्टीरिया	4
▁धैवतम	4
▁टाइक	4
▁हितधारक	4
▁फ़ॉर्म	4
▁अर्ली	4
ब्बन	4
क्षमताएँ	4
फलक	4
▁परदादा	4
▁सीक्व	4
हृदय	4
ँजा	4
▁जिन्न	4
दुकान	4
▁संदर्शिका	4
▁नन्द	4
ाब्रिया	4
▁क्रेओ	4
▁पिक्स	4
कीर्तन	4
▁मोरिन	4
▁थेरेपिस्ट	4
▁फ्लेमिंग	4
▁भत्ते	4
▁मडिकेरी	4
ँच	4
ुरगढ़	4
▁ड्रैगन्स	4
▁सोडा	4
▁करदाता	4
▁एपिनेफ्र	4
▁कहानीकार	4
▁छाल	4
त्ति	4
रीय	4
▁शेंग	4
▁मृणाल	4
▁कॉमन	4
वर्ण	4
▁गूढ़	4
ोका	4
श्वास	4
▁ब्रं	4
▁वर्णक्रम	4
▁रूढ़िवादियों	4
▁कोड़े	4
▁काव्यात्मक	4
मुक्क	4
पश्चात	4
▁वेल्	4
क्कुडी	4
▁इन्फर्	4
संवेदी	4
पेटाइट	4
▁फेंग	4
टमैन	4
▁चंद्रिका	4
▁सिंगार	4
मुंग	4
▁गोहेन	4
▁स्टिंगर	4
▁ग्रिम्स	4
मेजबान	4
▁त्रुटियां	4
▁रिपर	4
▁कोल्डवाटर	4
▁सलोनी	4
▁पछता	4
▁हैंडगन	4
▁कार्बूजिए	4
ल्टी	4
नानी	4
▁वारंट	4
▁डेग	4
डेवलपमेंट	4
▁मोनोएम	4
▁तनुजा	4
टक्कारू	4
▁असा	4
ंथी	4
▁कैंटोनीज	4
▁जयचंद	4
▁इटावा	4
▁गंडा	4
माना	4
लूप	4
▁अल्बर्	4
▁संबंधियों	4
▁लुम्	4
सडेन	4
भाल	4
▁पर्च	4
▁चाबिय	4
ीरा	4
लूसी	4
▁अवायवी	4
▁लैक्ट	4
▁भारिया	4
▁अनुद	4
▁सियार	4
गामा	4
▁संजो	4
तापीय	4
▁बेलग	4
▁ग्रेवाल	4
▁डाइट	4
▁बोह	4
▁रेज़ा	4
▁जुहू	4
▁कर्सिय	4
▁परवै	4
▁पहरे	4
ओडिशा	4
▁टुक	4
▁हिजर	4
पूरी	4
▁गुज	4
▁मुका	4
▁वफ़ा	4
▁फ़री	4
▁मराठे	4
स्तम्भ	4
▁फ़्लैट	4
▁मेटाडेटा	4
▁चारु	4
▁झोंके	4
इसके	4
नर्वा	4
थोप	4
▁तड़प	4
▁पोल्स्क	4
▁पोटो	4
▁सम्म	4
▁रिश	4
मायामाल	4
ुत्त	4
▁गैलिसिया	4
▁सुदा	4
▁निकर	4
पिल	4
▁फ्लोटर	4
र्पेन	4
▁मेडली	4
▁विज्ञाप	4
हड़	4
▁ब्लैंको	4
▁मेघाहा	4
गुनिया	4
पेरेस	4
▁व्यथि	4
▁लड़ीं	4
ुमार	4
▁गैफ	4
ड्सवर्थ	4
▁बकल	4
▁आर्किटेक्ट	4
डयार	4
▁बट्ट	4
▁सृजनवाद	4
▁हिम्मेला	4
k	4
▁बेसिल	4
र्दू	4
▁चंचल	4
छंद	4
▁जनेऊ	4
डेर	4
▁नाइक	4
देवराय	4
▁असिस्टेंट	4
▁अम्ब	4
▁पदावनत	4
▁गैलिशिय	4
लोस	4
निरपेक्ष	4
▁मिंटू	4
▁मध्यपाषाण	4
▁मूर्त	4
▁कँध	4
कुदामुरुट्टी	4
▁कॉर्नव	4
▁मटन	4
▁बौना	4
▁कंवर	4
▁तस्कर	4
▁सीनेटर्स	4
▁वाइट	4
▁चैम्बर	4
▁शौरी	4
▁सुखांत	4
रॉक	4
एकल	4
▁भौंह	4
▁पुदुक्कोट्टई	4
▁अंगारे	4
▁पेंस	4
▁फिफ्	4
▁जिप	4
▁पायेट	4
▁कसाव	4
आरोहण	4
कॉल	4
ौसेन	4
▁अतिशयोक्ति	4
▁वाल्ले	4
गुणित	4
▁मेगाडेथ	4
▁भगव	4
शीय	4
▁मैकगिन	4
▁मॉरिट	4
▁भांडा	4
▁तीस्ता	4
ोस्टेर	4
▁तंत्रिकासंचारक	4
▁गजक	4
भू	4
▁कुंभा	4
सियोन	4
▁मोरे	4
लंबी	4
▁धक्क	4
वाक्य	4
▁हरिजन	4
▁हंसमुख	4
▁कुद्रेमुख	4
गाटा	4
▁हिरोक	4
▁हजारी	4
▁खोदत	4
▁जिरीबाम	4
▁टेम्प	4
▁शिवपुरी	4
िएना	4
वीणा	4
▁मंजीरा	4
क्लूज	4
▁आयलेसबरी	4
_	4
▁लॉटेनब	4
ैकर	4
▁बेचें	4
▁भरतपुड़ा	4
कृमि	4
▁एरेगॉन	4
सुवर्णा	4
ंदन	4
▁छोड़ें	4
▁कुँवार	4
▁टैर	4
मृत्यु	4
ाहट	4
च्यू	4
▁बाराम	4
▁पेप्सिको	4
रिंज	4
ियोटो	4
द्वन्द्व	4
▁कोलंबो	4
▁नासर	4
कैरिज	4
बेल्ट	4
▁बकरा	4
▁एटो	4
बिक	4
▁शीतलन	4
▁सरफराज	4
▁फांस	4
म्बु	4
▁बोलिव	4
भूषण	4
ाड़ी	4
▁आलप्पु	4
▁बोड़फ	4
▁गार्डिय	4
▁प्रक्षेपवक्र	4
ँद	4
▁मरी	4
▁कुष्मांडा	4
प्रे	4
ोफोबिया	4
मल्लेश्वरम	4
गपट्ट	4
फ़ोट	4
िस्ता	4
▁टिया	4
▁डेम्प	4
▁बेरहामपुर	4
▁सिल्वेस्ट	4
▁बद्र	4
▁स्क्लेरोस	4
्यूल	4
ष	4
▁लैंस	4
िरा	4
▁नाइजे	4
▁हेमावती	4
▁फूटे	4
ज्जर	4
▁इरु	4
सामय	4
ष्टि	4
थैले	4
सव	4
▁सैल्	4
▁मार्जिन	4
▁सॉरी	4
टकारा	4
▁फेल्ट	4
▁सहेज	4
▁कुने	4
▁पंचक	4
▁परम्बिकुलम	4
▁प्लेटफार्म	4
▁मैस्टो	4
▁नागराज	4
▁अपर्	4
चूड़	4
▁संलयन	4
▁इरवि	4
▁बहुलता	4
▁बिंबाणु	4
▁एल्गोरिद	4
▁बौन	4
▁झूलों	4
▁रेडिट	4
कॉलेज	4
ेंदु	4
शीला	4
▁विलियम्सबर्ग	4
चरित	4
तेश्वर	4
जुगनू	4
▁निभाएँगी	4
कुट्टन	4
▁कैल्क	4
र्मी	4
▁अघा	4
अग्नि	4
▁बॉटल	4
▁लुढ़का	4
▁अतिरक्तदाब	4
▁कयाल	4
▁विच्छेद	4
▁हँसते	4
न्ग	4
ेप्पे	4
▁पब्लिश	4
▁इफ	4
ड्रे	4
▁बिलास	4
रप्राइज़	4
वर्	4
ज़ाका	4
▁श्राव	4
कैंसर	4
▁सिक	4
वेंचर	4
▁जीवनया	4
▁लैच	4
▁हाओ	4
▁रोडेशिय	4
दर्दी	4
▁क्विन	4
▁एविन	4
ल्टो	4
▁शेप	4
पंजीकृत	4
खोज	4
▁बेशर्म	4
टफील्ड	4
ुमा	4
ालाप	4
▁कृतज्ञता	4
▁झगड़त	4
▁विस्ता	4
▁सैप	4
▁सेविल	4
▁भव	4
▁थप	4
▁पोवा	4
िचा	4
▁निश्चिंत	4
▁त्सो	4
गोष्ठ	4
▁कंपा	4
हंस	4
▁ट्रोक्लिय	4
▁न्यूक्लिय	4
▁उपार्ज	4
▁मिडफ़ील्ड	4
▁सॉफ्टव	4
▁कृष्णमाचार	4
परंपराओं	4
भिनय	4
▁रंक	4
▁धोलावीरा	4
▁ऐट	4
स्ले	4
▁कुम	4
▁देशपांडे	4
▁जिरो	4
▁पेड	4
कॉफ	4
▁ओडि	4
▁वेल्ड	4
▁वॉल्	4
ब्जा	4
घरेलू	4
अरी	4
ोरो	4
▁कटहल	4
वियर	4
▁महत्	4
लिंगो	4
▁लीसा	4
्सेट	4
▁स्टेबलाइज़र	4
▁टॉय	4
▁क्राब	4
बोंग	4
वॉक	4
▁अख़्त	4
▁शाइनी	4
▁बदलें	4
▁तिहर	4
नए	4
▁वेबकि	4
▁विरा	4
▁लाये	4
पांच	4
टिकल	4
▁विटोरिय	4
▁फ़ोटोग्राफ़	4
▁एनालिसिस	4
▁एलेसेंड्र	4
वैकुंठ	4
ंडिंग	4
्मिन	4
▁शॉपीफा	4
▁डेब	4
ॉड	4
क्रियाशील	4
▁गजानन	4
▁मैटिन	4
▁अधिभोग	4
▁वैस्टर	4
वाहिनी	4
धीश	4
संगठन	4
पदी	4
जवाह	4
अनि	4
ैथी	4
▁एमपी	4
सोक	4
इए	4
▁व्हिप	4
ंदर	4
बोटिंग	4
वैगन	4
▁बैकगैम	4
XVIII	4
▁एंडो	4
▁कोडुंगल	4
▁षट्	4
मपुर	4
▁रेवा	4
ैलोन	4
▁फ्रोज	4
लिनी	4
▁इमा	4
▁औड	4
▁साहू	4
▁सुइरपालम	4
ोर्ब्स	4
▁ओडिस	4
द्दार	4
्यक	4
▁घरघराहट	4
यना	4
वलन	4
ग्रामीण	4
▁शख्सियतों	4
▁इस्लामीकरण	4
▁गोवित्रिकर	4
चलना	4
रोकना	4
भाला	4
▁रजनीश	4
▁हाउट	4
गेटर	4
ोगी	4
▁फुहार	4
▁एमट्रैक	4
निके	4
ृन्त	4
▁बिलियर्ड	4
िमो	4
पत्रिका	4
▁हास्केल	4
▁स्ट्रॉ	4
▁पथरी	4
▁फ्लै	4
डागा	4
प्लेसमेंट	4
किकबॉक्सिंग	4
▁सनकी	4
▁फ्रैंचाइज़ी	4
▁आले	4
त्से	4
▁चन्ना	4
▁फ्रेंचाइज़	4
जम	4
▁दौड़ना	4
▁रक्ताघात	4
▁तकरार	4
▁पद्धतियाँ	4
रीड	4
िस्लाव	4
च्यवन	4
▁थोर्प	4
फेरेसिस	4
▁आभा	4
▁अमुक्तमाल्य	4
कोण	4
▁पारि	4
▁मंज़ूर	4
▁फ्लिप	4
गिरीश	4
▁जॉइंट	4
विश्लेषण	4
▁अबाउट	4
▁लेनदार	4
सफ़	4
कैडिल	4
अभिनेत्री	4
▁बोर्डो	4
ोदर	4
▁कठफोड़वा	4
रोआ	4
छत्र	4
▁रीग	4
य्यम	4
▁नामतः	4
त्रासद	4
▁मराक	4
▁कोलानुप	4
▁रैन	4
▁हैमर	4
▁माइल	4
बिलिट	4
▁रेगम	4
पहल	4
ल्लु	4
खौरा	4
संगतता	4
▁टेक्सटाइल्स	4
▁कार्वा	4
▁ओवे	4
▁अंको	4
केशरी	4
▁मरक	4
▁बर्मन	4
फोकल	4
▁ड्राइंग	4
लाव	4
प्रतीक	4
▁जीतेगा	4
न्जिय	4
मानक	4
जेनिस	4
▁अवि	4
त्था	4
डियो	4
▁लिंडसे	4
गदा	4
▁इंद्रधनुष	4
सहाय	4
ट्रेड	4
राणाविक्रम	4
ंज़बर्ग	4
▁अंगरक्षक	4
वनुआ	4
▁ग्वांग	4
▁गुरुपरब	4
▁बोइसे	4
र्ता	4
▁मेलेनोसाइट	4
▁आबकारी	4
खोन	4
▁पाठ्य	4
रियों	4
▁रेने	4
ाएँ	4
▁रीज	4
सियान	4
ेगी	4
भोग	4
▁उत्क	4
चिरो	4
▁आरोग्य	4
▁सैं	4
▁आलापन	4
रांग	4
▁फ़ोर्स	4
▁कुंजिय	4
मेह	4
▁खदानें	4
व्यक्तिगत	4
▁सिना	4
ोआ	4
मैच	4
▁फ्लैग	4
▁सूफियों	4
िफ़िक	4
▁पीरियड	4
फो	4
ियाबाद	4
▁विद्य	4
▁मटमैल	4
▁कोट्टम	4
ग्रास	4
▁खैरा	4
तब	4
▁मंगलाचरण	4
▁परावर्त	4
ाशियों	4
तरीकों	4
राचार	4
▁केलॉग	4
▁पिघलत	4
ेर्स	4
पंडालों	4
ागाह	4
▁महरौली	4
▁उषा	4
▁मोकोक	4
▁वोखा	4
▁घटाएँ	4
ेंग	4
▁पाटेकर	4
हिंदुओं	4
रकट	4
ियानो	4
▁दवाई	4
स्पोर्ट्स	4
▁गड़बड़ा	4
▁चित्राल	4
▁तिरंग	4
▁सुन्न	4
एंग्	4
▁अश्	4
यहूदी	4
▁अफ्रीकियों	4
▁मुआवज़	4
वेला	4
महाविद्यालयी	4
ुंगक	4
▁कैसर	4
▁गोर्ग	4
ायु	4
शेयर	4
ध्वज	4
चारे	4
▁विस्मरण	4
▁हाजी	4
▁धूपगढ़	4
▁एक्शनस्क्रिप्ट	4
टिन	4
▁राजधानियाँ	4
ंबो	4
कोजी	4
▁पिंजौर	4
▁श्रीरंगपट्टन	4
ानु	4
▁मिनिस्टर	4
▁पैरालिंपियन	4
▁धड़क	4
▁हेल्म	4
▁बोब्ब	4
▁कॉफ़	4
▁कोसम	4
▁वर्नोन	4
▁भैर	4
▁सुहा	4
▁सीडरविले	4
▁पार्लर	4
▁मैसेजिंग	4
▁सोहन	4
▁व्याकुल	4
▁ग्लैडविन	4
▁नन्न	4
आनंद	4
▁उपवर्ग	4
विधर्म	4
ल्फ	4
बर्गा	4
▁सिस्को	4
▁आंवल	4
▁स्थापन	4
थानेदार	4
▁देखेगा	4
▁सीवे	4
▁आचर	4
आगरा	4
पतंग	4
▁ट्रैकोमैटिस	4
प्ररूप	4
न्नान	4
लाजा	4
र्वी	4
▁गट्टा	4
▁लोपेज	4
▁इमान	4
▁वडक्क	4
▁सोराले	4
▁परिदन्त	4
▁चेरो	4
▁तीर्थयात्राओं	4
▁जलक्षेत्र	4
▁जैस्म	4
▁मुफ्ती	4
▁बरिस्ता	4
ुशल	4
▁क्रॉल	4
▁गिब्बन	4
▁मध्यमम	4
रने	4
▁तन्त्रिका	4
▁मुक्के	4
▁नयना	4
▁अस्प	4
ृश्य	4
▁किश्त	4
किशोर	4
C	4
▁ट्राम	4
फित	4
▁सुसेवा	4
▁फ्रीज़	4
▁क्वीन्स	4
▁हेलो	4
तांत	4
▁सैलून	4
अवे	4
▁परिचाल	4
जादा	4
▁मुश्ताक	4
▁निरक्षर	4
ब्रेक	4
▁श्वार्ज	4
र्नो	4
ाइट्स	4
▁पेशियाँ	4
▁गैब	4
▁अवार	4
▁चिड़चिड़ा	4
▁पेरिया	4
थिल	4
▁ओरूवन	4
▁नागेश	4
▁रोडोडेंड्रोन	4
▁रूपान्तर	4
▁वॉर्ड	4
▁बिस्	4
▁कैंची	4
▁कैन्सस	4
सूत्री	4
▁चबात	4
▁सिंगर	4
▁गाजर	4
▁नोविक	4
शराब	4
▁विन्स	4
माइसिन	4
▁वृहद	4
▁बीचो	4
पद्धति	4
▁हिस्टेम	4
▁ठहरत	4
निरंतर	4
▁साल्वाडोर	4
▁भेंग	4
▁चश्मों	4
▁मखमल	4
▁क्रीट	4
ंधी	4
कीट	4
हंग	4
▁खि	4
फेल्स	4
णता	4
उत्तेजक	4
भावपूर्ण	4
▁परंपरावाद	4
▁सिरा	4
▁गुणक	4
▁हिज	4
FanFiction	4
Net	4
र्वो	4
▁पैठ	4
▁जोलो	4
ँत	4
▁मीनू	4
▁लदा	4
▁क्लिम	4
▁क्ला	4
नॉक	4
▁मोहल्ला	4
पर्व	4
▁बिठान	4
▁त्रिविक्रम	4
▁ओबर	4
▁पॉलिनेशिया	4
▁पिशाच	4
▁लॉज़	4
▁छिलक	4
सगढ़	4
▁रेडी	4
ैंडल	4
▁जेट्स	4
▁वरण	4
▁गुप्तांग	4
▁सलादीन	4
िट्ज़	4
कार्तिक	4
बंटवारा	4
▁लचीला	4
▁रेजर	4
▁कुचलने	4
▁कलसी	4
िन्नी	4
पैरों	4
▁रैंड	4
मोरिन	4
▁बीजान्टि	4
▁बोनि	4
▁तृतीया	4
तीसरा	4
▁एक्सो	4
गुण	4
▁पैंतरे	4
िगर	4
म्पिसि	4
▁जुआनज़	4
इन्स	4
ुंगा	4
▁ऐरावत	4
ारों	4
बहु	4
▁डेकाथलॉन	4
स्टिया	4
▁पोस्त	4
मौख	4
नबरो	4
वीवर	4
गांवकर	4
▁टाईब्रेक	4
▁नक्काश	4
▁स्था	4
▁बुक्का	4
त्क्रमणीय	4
गंभीर	4
पनाह	4
भौतिकी	4
▁पपीता	4
भेद	4
▁नख	4
▁दीदा	4
्डर्न	4
▁प्रशंस	4
▁कपड	4
▁लेक्सैंड	4
▁चित्रकूट	4
▁बीजे	4
बेसिक	4
ँध	4
बहल	4
मीरपुर	4
वॉय	4
▁कारपेंटर	4
द्रु	4
▁इंटरफ़ेस	4
▁धाव	4
▁क्रा	4
वाक	4
चेरा	4
▁मेमना	4
ात्सुमोतो	4
▁स्टाइलि	4
▁फ्रेज़र	4
▁गॉस्पेल	4
▁डाइस	4
वानो	4
िनॉ	4
▁लख	4
▁पोम	4
~	4
बिस्म	4
व्हार	4
देशों	4
▁प्यास	4
▁खंडेलवाल	4
▁कुंतल	4
▁खड्ड	4
गोर	4
▁देबल	4
ूजी	4
▁शब्दकोष	4
एगा	4
▁इगे	4
िल्ली	4
मेथ्रिन	4
स्बा	4
जर्मन	4
प्राग	4
फरो	4
क्वॉड	4
▁लोरे	4
▁जलेश्वर	4
▁जेक	4
▁मैकफै	4
नुस	4
ेनबो	4
▁विशुद्धिमग्ग	4
▁सरोद	4
▁पर्पट	4
▁मैटर	4
▁फ़्रे	4
▁विनिर्देश	4
▁कल्लार	4
▁मेट्टुप	4
▁यूनिस	4
डेक	4
न्हे	4
▁मंद्र	4
▁असामान्यता	4
▁ट्	4
▁विष्णुधर्मोत्त	4
रोल्ड	4
▁राइडिंग	4
▁विजिट	4
कारण	4
िताब	4
▁बिलिक	4
ंदे	4
्यसाची	4
▁चुतिया	4
▁सदिया	4
▁मिर्ज	4
▁स्नोर	4
▁युग्मविकल्प	4
संबद्ध	4
र्त	4
गाला	4
▁ढीली	4
्रोम	4
▁इन्टरने	4
▁मुहर्र	4
▁औद्यानिक	4
▁गिग	4
किक	4
ल्ड्स	4
र्गेन	4
जानकारी	4
काम	4
शॉ	4
▁फेंट	4
शीलन	4
▁पांडवले	4
▁वाहनम	4
▁बैकफ़ील्ड	4
▁गगरी	4
रक्तिम	4
▁ल्यूपस	4
ाभ	4
▁भल्ला	4
रासर	4
▁रोहत	4
प्रभागों	4
ंकर	4
▁संतृप्त	4
▁मेधा	4
▁एंट्रेंस	4
▁असीस	4
▁मडगांव	4
▁हिचक	4
▁बुलवा	4
हटा	4
▁ग्रिफिथ	4
▁इंदर	4
▁कटर	4
निग	4
▁टपकन	4
तिथि	4
▁अट्टा	4
बाह	4
मिनट	4
बिज	4
छाए	4
काला	4
▁ब्रायोफाइट	4
दुकानदार	4
ंगल	4
िनि	4
▁थायो	4
▁चलनशील	4
▁कैसेट	4
हवाई	4
▁एनोरेक्सिया	4
▁एस्टोनियाई	4
खौ	4
▁पेज़	4
मरा	4
पोलिट	4
योक	4
बदख्शां	4
सांप्रदायिकता	4
कोइल	4
्शियल	4
अंदर	4
▁पॉव	4
▁मैनु	4
▁आर्थराइटिस	4
घवा	4
▁भांप	4
▁धुँआ	4
▁निर्देशी	4
▁स्ट्रे	4
प्लास्टिक	4
▁फरमा	4
▁नक्काशिय	4
▁खानवलकर	4
▁कौस	4
▁वानु	4
अतु	4
रायु	4
▁राडो	4
▁स्नै	4
मैक्स	4
ाह्य	4
▁मेर	4
▁स्ट्री	4
[...]
